{
  "version": "1.0",
  "truncation": null,
  "padding": null,
  "added_tokens": [
    {
      "id": 0,
      "content": "[SEP]",
      "single_word": false,
      "lstrip": false,
      "rstrip": false,
      "normalized": false,
      "special": false
    }
  ],
  "normalizer": null,
  "pre_tokenizer": {
    "type": "ByteLevel",
    "add_prefix_space": true,
    "trim_offsets": true,
    "use_regex": true
  },
  "post_processor": null,
  "decoder": {
    "type": "ByteLevel",
    "add_prefix_space": true,
    "trim_offsets": true,
    "use_regex": true
  },
  "model": {
    "type": "BPE",
    "dropout": null,
    "unk_token": null,
    "continuing_subword_prefix": null,
    "end_of_word_suffix": null,
    "fuse_unk": false,
    "byte_fallback": false,
    "vocab": {
      "[SEP]": 0,
      "!": 1,
      "\"": 2,
      "#": 3,
      "$": 4,
      "%": 5,
      "&": 6,
      "'": 7,
      "(": 8,
      ")": 9,
      "*": 10,
      "+": 11,
      ",": 12,
      "-": 13,
      ".": 14,
      "/": 15,
      "0": 16,
      "1": 17,
      "2": 18,
      "3": 19,
      "4": 20,
      "5": 21,
      "6": 22,
      "7": 23,
      "8": 24,
      "9": 25,
      ":": 26,
      ";": 27,
      "=": 28,
      "?": 29,
      "@": 30,
      "A": 31,
      "B": 32,
      "C": 33,
      "D": 34,
      "E": 35,
      "F": 36,
      "G": 37,
      "H": 38,
      "I": 39,
      "J": 40,
      "K": 41,
      "L": 42,
      "M": 43,
      "N": 44,
      "O": 45,
      "P": 46,
      "Q": 47,
      "R": 48,
      "S": 49,
      "T": 50,
      "U": 51,
      "V": 52,
      "W": 53,
      "X": 54,
      "Y": 55,
      "Z": 56,
      "[": 57,
      "\\": 58,
      "]": 59,
      "^": 60,
      "_": 61,
      "`": 62,
      "a": 63,
      "b": 64,
      "c": 65,
      "d": 66,
      "e": 67,
      "f": 68,
      "g": 69,
      "h": 70,
      "i": 71,
      "j": 72,
      "k": 73,
      "l": 74,
      "m": 75,
      "n": 76,
      "o": 77,
      "p": 78,
      "q": 79,
      "r": 80,
      "s": 81,
      "t": 82,
      "u": 83,
      "v": 84,
      "w": 85,
      "x": 86,
      "y": 87,
      "z": 88,
      "{": 89,
      "|": 90,
      "}": 91,
      "~": 92,
      "¡": 93,
      "¢": 94,
      "£": 95,
      "¤": 96,
      "¥": 97,
      "¦": 98,
      "§": 99,
      "¨": 100,
      "©": 101,
      "ª": 102,
      "«": 103,
      "¬": 104,
      "®": 105,
      "¯": 106,
      "°": 107,
      "±": 108,
      "²": 109,
      "³": 110,
      "´": 111,
      "µ": 112,
      "¶": 113,
      "·": 114,
      "¸": 115,
      "¹": 116,
      "º": 117,
      "»": 118,
      "¼": 119,
      "½": 120,
      "¾": 121,
      "¿": 122,
      "Â": 123,
      "Ã": 124,
      "Ä": 125,
      "Å": 126,
      "Æ": 127,
      "Ç": 128,
      "È": 129,
      "É": 130,
      "Ê": 131,
      "Ë": 132,
      "Ì": 133,
      "Í": 134,
      "Î": 135,
      "Ï": 136,
      "Ð": 137,
      "Ñ": 138,
      "Ò": 139,
      "Ó": 140,
      "Ô": 141,
      "Õ": 142,
      "Ö": 143,
      "×": 144,
      "Ø": 145,
      "Ù": 146,
      "Ú": 147,
      "Û": 148,
      "Ü": 149,
      "à": 150,
      "á": 151,
      "â": 152,
      "ã": 153,
      "ä": 154,
      "å": 155,
      "æ": 156,
      "ç": 157,
      "è": 158,
      "é": 159,
      "ê": 160,
      "ë": 161,
      "ì": 162,
      "í": 163,
      "î": 164,
      "ï": 165,
      "ð": 166,
      "Ċ": 167,
      "č": 168,
      "Ġ": 169,
      "Ģ": 170,
      "ģ": 171,
      "Ĥ": 172,
      "ĥ": 173,
      "Ħ": 174,
      "ħ": 175,
      "Ĩ": 176,
      "ĩ": 177,
      "Ī": 178,
      "ī": 179,
      "Ĭ": 180,
      "ĭ": 181,
      "Į": 182,
      "į": 183,
      "İ": 184,
      "ı": 185,
      "Ĳ": 186,
      "ĳ": 187,
      "Ĵ": 188,
      "ĵ": 189,
      "Ķ": 190,
      "ķ": 191,
      "ĸ": 192,
      "Ĺ": 193,
      "ĺ": 194,
      "Ļ": 195,
      "ļ": 196,
      "Ľ": 197,
      "ľ": 198,
      "Ŀ": 199,
      "ŀ": 200,
      "Ł": 201,
      "ł": 202,
      "Ń": 203,
      "Ġt": 204,
      "Ġa": 205,
      "in": 206,
      "he": 207,
      "Ġs": 208,
      "re": 209,
      "Ġw": 210,
      "SE": 211,
      "ou": 212,
      "SEP": 213,
      "on": 214,
      "Ġthe": 215,
      "er": 216,
      "Ġb": 217,
      "it": 218,
      "ha": 219,
      "ing": 220,
      "Ġm": 221,
      "čĊ": 222,
      "is": 223,
      "Ġf": 224,
      "Ġc": 225,
      "or": 226,
      "nd": 227,
      "Ġd": 228,
      "es": 229,
      "Ġp": 230,
      "ll": 231,
      "en": 232,
      "Ġto": 233,
      "an": 234,
      "Ġl": 235,
      "Ġg": 236,
      "Ġo": 237,
      "ed": 238,
      "st": 239,
      "Ġy": 240,
      "Ġn": 241,
      "ĠI": 242,
      "at": 243,
      "om": 244,
      "Ġand": 245,
      "ar": 246,
      "Ġyou": 247,
      "hat": 248,
      "Ġin": 249,
      "Ġof": 250,
      "le": 251,
      "Ġe": 252,
      "ot": 253,
      ".[": 254,
      "Ġbe": 255,
      "ic": 256,
      "Ġis": 257,
      "Ġit": 258,
      "ve": 259,
      "as": 260,
      "Ġth": 261,
      "al": 262,
      "Ġh": 263,
      "Ġha": 264,
      "ow": 265,
      "et": 266,
      "Ġre": 267,
      "Ġon": 268,
      "ly": 269,
      "ut": 270,
      "se": 271,
      "ke": 272,
      "Ġthat": 273,
      "ay": 274,
      "am": 275,
      "Ġu": 276,
      "'s": 277,
      "ac": 278,
      "im": 279,
      "id": 280,
      "ver": 281,
      "Ġhe": 282,
      "ld": 283,
      "ad": 284,
      "Ġfor": 285,
      "Ġst": 286,
      "ig": 287,
      "ro": 288,
      "ion": 289,
      "Ġan": 290,
      "all": 291,
      "'t": 292,
      "out": 293,
      "ĠčĊ": 294,
      "oo": 295,
      "ith": 296,
      "ent": 297,
      "uc": 298,
      "ĠT": 299,
      "ir": 300,
      "Ġli": 301,
      "Ġwith": 302,
      "Ġj": 303,
      "ill": 304,
      "ust": 305,
      "Ġdo": 306,
      "ĠA": 307,
      "ter": 308,
      "ĠS": 309,
      "Ġare": 310,
      "ally": 311,
      "Ġi": 312,
      "Ġr": 313,
      "ag": 314,
      "Ġsh": 315,
      "op": 316,
      "ec": 317,
      "Ġas": 318,
      "Ġmo": 319,
      "Ġk": 320,
      "Ġwh": 321,
      "Ġwe": 322,
      "Ġbut": 323,
      "Ġnot": 324,
      "ould": 325,
      "ht": 326,
      "Ġlike": 327,
      "Ġme": 328,
      "Ġhave": 329,
      "Ġthis": 330,
      "ur": 331,
      "Ġso": 332,
      "?[": 333,
      "ce": 334,
      "Ġthey": 335,
      "Ġwas": 336,
      "un": 337,
      "Ġne": 338,
      "Ġjust": 339,
      "il": 340,
      "ant": 341,
      "king": 342,
      "ch": 343,
      "her": 344,
      "Ġse": 345,
      "ome": 346,
      "Ġor": 347,
      "Ġcan": 348,
      "ĠM": 349,
      "us": 350,
      "Ġab": 351,
      "ame": 352,
      "Ġat": 353,
      "um": 354,
      "Ġtr": 355,
      "Ġget": 356,
      "..": 357,
      "ps": 358,
      "ol": 359,
      "th": 360,
      "Ġal": 361,
      "Ġfr": 362,
      "Ġmy": 363,
      "Ġma": 364,
      "ĠB": 365,
      "Ġyour": 366,
      "ab": 367,
      "han": 368,
      "est": 369,
      "ĠW": 370,
      "em": 371,
      "ight": 372,
      "ers": 373,
      "pp": 374,
      "el": 375,
      "ĠC": 376,
      "one": 377,
      "Ġall": 378,
      "ess": 379,
      "ist": 380,
      "ul": 381,
      "ie": 382,
      "Ġv": 383,
      "nt": 384,
      "ain": 385,
      "Ġgo": 386,
      "ks": 387,
      "os": 388,
      "ĠH": 389,
      "Ġex": 390,
      "ast": 391,
      "Ġcon": 392,
      "au": 393,
      "Ġpl": 394,
      "Ġwor": 395,
      "ven": 396,
      "Ġcom": 397,
      "ĠN": 398,
      "Ġif": 399,
      "ard": 400,
      "Ġher": 401,
      "Ġdon": 402,
      "ĠD": 403,
      "Ġde": 404,
      "very": 405,
      "Ġany": 406,
      "ct": 407,
      "Ġwhe": 408,
      "oug": 409,
      "Ġabout": 410,
      "Ġup": 411,
      "ood": 412,
      "ĠP": 413,
      "ive": 414,
      "ost": 415,
      "Ġpro": 416,
      "if": 417,
      "ĠThe": 418,
      "Ġsome": 419,
      "qu": 420,
      "ĠG": 421,
      "Ġout": 422,
      "Ġfuc": 423,
      "and": 424,
      "tt": 425,
      "Ġle": 426,
      "ate": 427,
      "ation": 428,
      "ap": 429,
      "Ġwhat": 430,
      "Ġfrom": 431,
      "Ġone": 432,
      "art": 433,
      "Ġwould": 434,
      "ind": 435,
      "ore": 436,
      "ure": 437,
      "ause": 438,
      "ies": 439,
      "Ġ1": 440,
      "Ġbec": 441,
      "âĢ": 442,
      "ĠF": 443,
      "ĠR": 444,
      "Ġthem": 445,
      "ack": 446,
      "Ġno": 447,
      "Ġsp": 448,
      "Ġmore": 449,
      "ĠL": 450,
      "//": 451,
      "Ġwill": 452,
      "://": 453,
      "ime": 454,
      "Ġ(": 455,
      "ink": 456,
      "Ġshe": 457,
      "Ġpe": 458,
      "ĠY": 459,
      "ĠE": 460,
      "Ġkn": 461,
      "Ġshit": 462,
      "Ġ\"": 463,
      "ub": 464,
      "Ġar": 465,
      "hing": 466,
      "ide": 467,
      "'m": 468,
      "ople": 469,
      "od": 470,
      "'re": 471,
      "Ġint": 472,
      "ĠO": 473,
      "ine": 474,
      "are": 475,
      "Ġwant": 476,
      "Ġeven": 477,
      "Ġ2": 478,
      "ough": 479,
      "ong": 480,
      "Ġby": 481,
      "Ġbecause": 482,
      "Ġwho": 483,
      "Ġhas": 484,
      "Ġthere": 485,
      "ect": 486,
      "our": 487,
      "oc": 488,
      "Ġpeople": 489,
      "ak": 490,
      "Ġknow": 491,
      "Ġthan": 492,
      "ity": 493,
      "Ġfe": 494,
      "Ġwhen": 495,
      "read": 496,
      "Ġen": 497,
      "ther": 498,
      "Ġonly": 499,
      "âĢĻ": 500,
      "Ġpre": 501,
      "so": 502,
      "ge": 503,
      "Ġtheir": 504,
      "ra": 505,
      "ans": 506,
      "Ġgood": 507,
      "Ġhow": 508,
      "ite": 509,
      "fe": 510,
      "Ġus": 511,
      "com": 512,
      "ound": 513,
      "Ġevery": 514,
      "Ġun": 515,
      "ort": 516,
      "Ġdid": 517,
      "Ġact": 518,
      "Ġdoes": 519,
      "Ġim": 520,
      "uch": 521,
      "ry": 522,
      "Ġhtt": 523,
      "ww": 524,
      "ous": 525,
      "Ġgame": 526,
      "ĠIt": 527,
      "age": 528,
      "Ġhttps": 529,
      "pl": 530,
      "ff": 531,
      "ri": 532,
      "ting": 533,
      "Ġplay": 534,
      "iz": 535,
      "ear": 536,
      "Ġthink": 537,
      "Ġtime": 538,
      "lf": 539,
      "Ġloo": 540,
      "ud": 541,
      "Ġother": 542,
      "Ġman": 543,
      "ice": 544,
      "pt": 545,
      "00": 546,
      "ire": 547,
      "act": 548,
      "Ġtoo": 549,
      "ĠK": 550,
      "Ġhis": 551,
      "ays": 552,
      "ell": 553,
      "ue": 554,
      "Ġag": 555,
      "ep": 556,
      "Ġthing": 557,
      "Ġgu": 558,
      "ose": 559,
      "Ġnow": 560,
      "Ġreally": 561,
      "Ġcha": 562,
      "AA": 563,
      "ĠJ": 564,
      "Ġmake": 565,
      "ually": 566,
      "Ġbeing": 567,
      "Ġbet": 568,
      "Ġcl": 569,
      "ick": 570,
      "iv": 571,
      "The": 572,
      "per": 573,
      "Ġfuck": 574,
      "Ġover": 575,
      "Ġch": 576,
      "Ġbu": 577,
      "ble": 578,
      "Ġsu": 579,
      "ich": 580,
      "Ġqu": 581,
      "Ġneed": 582,
      "Ġsa": 583,
      "ile": 584,
      "Ġcomp": 585,
      "Ġstill": 586,
      "Ġthen": 587,
      "Ġbl": 588,
      "Ġlo": 589,
      "ia": 590,
      "atch": 591,
      "hy": 592,
      "int": 593,
      "ip": 594,
      "Ġinto": 595,
      "Ġmuch": 596,
      "ass": 597,
      "Ġfucking": 598,
      "Ġsc": 599,
      "omet": 600,
      "Ġhad": 601,
      "Ġ3": 602,
      "Ġhim": 603,
      "ace": 604,
      "Ġwere": 605,
      "be": 606,
      "Ġsee": 607,
      "ake": 608,
      "able": 609,
      "Ġam": 610,
      "ss": 611,
      "own": 612,
      "Ġoff": 613,
      "Ġgot": 614,
      "thing": 615,
      "sh": 616,
      "ade": 617,
      "Ġlit": 618,
      "ish": 619,
      "ĠYou": 620,
      "Ġpost": 621,
      "Ġad": 622,
      "Ġpo": 623,
      "OO": 624,
      "oy": 625,
      "Ġbr": 626,
      "Ġcould": 627,
      "ah": 628,
      "Ġsomet": 629,
      "Ġback": 630,
      "ated": 631,
      "Ġret": 632,
      "ment": 633,
      "Ġbeen": 634,
      "Ġpr": 635,
      "te": 636,
      "Ġnever": 637,
      "Ġyear": 638,
      "ĠU": 639,
      "Ġgr": 640,
      "Ġmost": 641,
      "ving": 642,
      "Ġshould": 643,
      "Ġgoing": 644,
      "Ġway": 645,
      "uck": 646,
      "Ġalso": 647,
      "red": 648,
      "ial": 649,
      "Ġuse": 650,
      "ob": 651,
      "ny": 652,
      "Ġaf": 653,
      "ious": 654,
      "...": 655,
      "ase": 656,
      "og": 657,
      "'ve": 658,
      "Ġdis": 659,
      "ond": 660,
      "Ġhere": 661,
      "Ġwhy": 662,
      "self": 663,
      "ions": 664,
      "ult": 665,
      "Ġdes": 666,
      "Ġsomething": 667,
      "Ġke": 668,
      "his": 669,
      "ons": 670,
      "nder": 671,
      "pe": 672,
      "irl": 673,
      "Ġchar": 674,
      "'ll": 675,
      "Ġro": 676,
      "Ġgen": 677,
      "Ġbetter": 678,
      "Ġactually": 679,
      "Ġnew": 680,
      "Ġsay": 681,
      "Ġright": 682,
      "ull": 683,
      "Ġ/": 684,
      "orm": 685,
      "![": 686,
      "Ġco": 687,
      "ount": 688,
      "Ġreal": 689,
      "ian": 690,
      "ute": 691,
      "Ġtry": 692,
      "reat": 693,
      "Ġsame": 694,
      "ãģ": 695,
      "Ġcont": 696,
      "ically": 697,
      "Ġfeel": 698,
      "Ġafter": 699,
      "Ġ4": 700,
      "It": 701,
      "ber": 702,
      "Ġdoesn": 703,
      "Ġits": 704,
      "Ġthread": 705,
      "ree": 706,
      "irst": 707,
      "Ġagain": 708,
      "ik": 709,
      "Ġwork": 710,
      "rent": 711,
      "av": 712,
      "other": 713,
      "ably": 714,
      "Ġwhich": 715,
      "Ġretard": 716,
      "iss": 717,
      "Ġwr": 718,
      "Ġac": 719,
      "wn": 720,
      "ual": 721,
      "ens": 722,
      "Ġte": 723,
      "ory": 724,
      "yout": 725,
      "rd": 726,
      "acter": 727,
      "me": 728,
      "na": 729,
      "Ġsl": 730,
      "ames": 731,
      "Ġhapp": 732,
      "You": 733,
      "ĠV": 734,
      "Ġtw": 735,
      "ince": 736,
      "ign": 737,
      "ren": 738,
      "www": 739,
      "fore": 740,
      "igg": 741,
      "vel": 742,
      "ild": 743,
      "ord": 744,
      "Ġstart": 745,
      "Ġpart": 746,
      "ach": 747,
      "Ġwhere": 748,
      "'d": 749,
      "Ġguy": 750,
      "ft": 751,
      "Ġwom": 752,
      "Ġper": 753,
      "Ġgirl": 754,
      "Ġlook": 755,
      "Ġmod": 756,
      "Ġbas": 757,
      "Ġfun": 758,
      "Ġcharacter": 759,
      "the": 760,
      "we": 761,
      "urn": 762,
      "Ġ5": 763,
      "Ġfl": 764,
      "ways": 765,
      "Ġfirst": 766,
      "EE": 767,
      "ence": 768,
      "Ġrem": 769,
      "ail": 770,
      "Ġass": 771,
      "xt": 772,
      "Ġend": 773,
      "Ġinst": 774,
      "Ġvery": 775,
      "erally": 776,
      "ube": 777,
      "Ġstu": 778,
      "tle": 779,
      "Ġsm": 780,
      "its": 781,
      "Ġbefore": 782,
      "Ġbad": 783,
      "Ġser": 784,
      "Ġdown": 785,
      "Ġmade": 786,
      "bably": 787,
      "Ġres": 788,
      "tty": 789,
      "Ġunder": 790,
      "Ġpoint": 791,
      "amp": 792,
      "ock": 793,
      "less": 794,
      "Ġthese": 795,
      "Ġcr": 796,
      "ne": 797,
      "Ġanon": 798,
      "Ġthose": 799,
      "ool": 800,
      "Ġdr": 801,
      "Ġthough": 802,
      "kes": 803,
      "Ġdif": 804,
      "Ġdidn": 805,
      "Ġsince": 806,
      "Ġche": 807,
      "Ġlove": 808,
      "Ġbot": 809,
      "...[": 810,
      "Ġyears": 811,
      "Ġ-": 812,
      "Ġtal": 813,
      "Ġwhile": 814,
      "eah": 815,
      "ang": 816,
      "ves": 817,
      "ought": 818,
      "ress": 819,
      "oss": 820,
      "Ġlot": 821,
      "ope": 822,
      "Ġanything": 823,
      "Ġlong": 824,
      "Ġdec": 825,
      "Ġchan": 826,
      "Ġhard": 827,
      "Ġwell": 828,
      "ied": 829,
      "ma": 830,
      "ise": 831,
      "ical": 832,
      "Ġatt": 833,
      "ody": 834,
      "hed": 835,
      "ĠIf": 836,
      "Ġthr": 837,
      "Ġapp": 838,
      "Ġgetting": 839,
      "uss": 840,
      "ĠÐ": 841,
      "Ġmon": 842,
      "way": 843,
      "!!": 844,
      "Ġpretty": 845,
      "vers": 846,
      "Ġalways": 847,
      "Ġimp": 848,
      "ating": 849,
      "Ġgames": 850,
      "ead": 851,
      "ower": 852,
      "Ġday": 853,
      "ug": 854,
      "ready": 855,
      "Ġtake": 856,
      "ason": 857,
      "ier": 858,
      "Ġown": 859,
      "Ġread": 860,
      "ere": 861,
      "ance": 862,
      "AAAA": 863,
      "Ġmean": 864,
      "iend": 865,
      "erson": 866,
      "Ġprobably": 867,
      "igh": 868,
      "ĠThey": 869,
      "Ġisn": 870,
      "ary": 871,
      "got": 872,
      "Ġkind": 873,
      "Ġsk": 874,
      "Ġalready": 875,
      "ever": 876,
      "Ġaround": 877,
      "ics": 878,
      "Ġthings": 879,
      "Ġel": 880,
      "Ġz": 881,
      "Ġrel": 882,
      "Ġold": 883,
      "ave": 884,
      "Ġbit": 885,
      "IN": 886,
      "ream": 887,
      "aybe": 888,
      "ning": 889,
      "ict": 890,
      "Ġhat": 891,
      "Ġkill": 892,
      "youtube": 893,
      "Ġbest": 894,
      "Ġshow": 895,
      "Ġbo": 896,
      "What": 897,
      "Ġob": 898,
      "ater": 899,
      "ER": 900,
      "ib": 901,
      "mer": 902,
      "ty": 903,
      "Ġever": 904,
      "ait": 905,
      "Ġdoing": 906,
      "Ġdiffe": 907,
      "get": 908,
      "les": 909,
      "ck": 910,
      "vent": 911,
      "ark": 912,
      "ng": 913,
      "htt": 914,
      "Ġenough": 915,
      "Ġliterally": 916,
      "ĠAnd": 917,
      "ew": 918,
      "https": 919,
      "HA": 920,
      "Ġsure": 921,
      "ĠAl": 922,
      "ath": 923,
      "ved": 924,
      "Ġent": 925,
      "Ġcons": 926,
      "Ġlife": 927,
      "ily": 928,
      "watch": 929,
      "Ġsha": 930,
      "Ġcare": 931,
      "Ġfind": 932,
      "Ã¤": 933,
      "Ġsim": 934,
      "Ġworld": 935,
      "bo": 936,
      "Ġsex": 937,
      "ix": 938,
      "ĠSt": 939,
      "imes": 940,
      "Ġinc": 941,
      "Ġ20": 942,
      "Ġperson": 943,
      "Ġstr": 944,
      "az": 945,
      "Ġsupp": 946,
      "Ġexp": 947,
      "ors": 948,
      "ful": 949,
      "ĠThat": 950,
      "ĠBut": 951,
      "Ġfag": 952,
      "Ġrun": 953,
      "Ġsaid": 954,
      "io": 955,
      "ook": 956,
      "Ġem": 957,
      "ek": 958,
      "ash": 959,
      "Ġart": 960,
      "ĠHe": 961,
      "Ġkeep": 962,
      "Ġcall": 963,
      "hes": 964,
      "Ġput": 965,
      "Ġsomeone": 966,
      "Ġrec": 967,
      "Ġhand": 968,
      "Ġbel": 969,
      "Ġleast": 970,
      "ho": 971,
      "ible": 972,
      "Ġnothing": 973,
      "here": 974,
      "Ġmakes": 975,
      "Ġseem": 976,
      "tern": 977,
      "Ġmin": 978,
      "Ġbro": 979,
      "Ġwomen": 980,
      "Ġlast": 981,
      "gr": 982,
      "Ġmany": 983,
      "man": 984,
      "Ġfin": 985,
      "Ġstop": 986,
      "Ġwithout": 987,
      "ards": 988,
      "Ġstuff": 989,
      "Ġbig": 990,
      "Ġgive": 991,
      "Ġtwo": 992,
      "ism": 993,
      "end": 994,
      "Ġused": 995,
      "cept": 996,
      "ĠWhat": 997,
      "Ġlet": 998,
      "Ġtell": 999,
      "no": 1000,
      "Ġhappen": 1001,
      "ĠCh": 1002,
      "Ġhaving": 1003,
      "wit": 1004,
      "ition": 1005,
      "aw": 1006,
      "Ġcount": 1007,
      "Ġeas": 1008,
      "ither": 1009,
      "ĠThis": 1010,
      "Ġaut": 1011,
      "ike": 1012,
      "umb": 1013,
      "Ġadd": 1014,
      "Ġreason": 1015,
      "Ġide": 1016,
      "Ġgener": 1017,
      "ular": 1018,
      "ok": 1019,
      "ations": 1020,
      "Ġthrough": 1021,
      "Ġhel": 1022,
      "Ġop": 1023,
      "orn": 1024,
      "Ġacc": 1025,
      "Ġins": 1026,
      "lo": 1027,
      "Ġfriend": 1028,
      "Ġ10": 1029,
      "old": 1030,
      "Ġlittle": 1031,
      "Ġwon": 1032,
      "ts": 1033,
      "Ġfew": 1034,
      "Ġsec": 1035,
      "lease": 1036,
      "Ġturn": 1037,
      "Ġcomm": 1038,
      "Ġset": 1039,
      "This": 1040,
      "Ġinstead": 1041,
      "ird": 1042,
      "Ġfar": 1043,
      "Ġ6": 1044,
      "fag": 1045,
      "Ġgreat": 1046,
      "Ġtrying": 1047,
      "Ġlooks": 1048,
      "Ġdifferent": 1049,
      "Ġmight": 1050,
      "Ġwar": 1051,
      "Ġbuy": 1052,
      "ann": 1053,
      "ump": 1054,
      "Ġunt": 1055,
      "Ġinf": 1056,
      "Ġdef": 1057,
      "ert": 1058,
      "ense": 1059,
      "Ġelse": 1060,
      "Ġthought": 1061,
      "OOOO": 1062,
      "Ġmaking": 1063,
      "Ġcomple": 1064,
      "oney": 1065,
      "Ġanother": 1066,
      "ese": 1067,
      "ĠIn": 1068,
      "Ġhum": 1069,
      "ple": 1070,
      "ize": 1071,
      "blem": 1072,
      "ai": 1073,
      "duc": 1074,
      "Why": 1075,
      "Ġeveryone": 1076,
      "ased": 1077,
      "ins": 1078,
      "ject": 1079,
      "Ġboth": 1080,
      "day": 1081,
      "Ġeverything": 1082,
      "ĠNo": 1083,
      "Ġmen": 1084,
      "ci": 1085,
      "Ġmat": 1086,
      "hen": 1087,
      "That": 1088,
      "Ġusing": 1089,
      "ank": 1090,
      "ĠTH": 1091,
      "oll": 1092,
      "you": 1093,
      "ces": 1094,
      "Ġsub": 1095,
      "ee": 1096,
      "gg": 1097,
      "Ġsch": 1098,
      "Ġfull": 1099,
      "ale": 1100,
      "Ġsur": 1101,
      "Ġsy": 1102,
      "Ġuntil": 1103,
      "No": 1104,
      "up": 1105,
      "Ġcle": 1106,
      "erest": 1107,
      "Ġsing": 1108,
      "stand": 1109,
      "Ġless": 1110,
      "Ġcome": 1111,
      "aking": 1112,
      "Ġear": 1113,
      "ten": 1114,
      "Ġrep": 1115,
      "Ġhate": 1116,
      "Ġretarded": 1117,
      "Ġspec": 1118,
      "Ġproblem": 1119,
      "Ġreg": 1120,
      "onna": 1121,
      "Ġind": 1122,
      "Ġgets": 1123,
      "ates": 1124,
      "ists": 1125,
      "Ġwatch": 1126,
      "Ġfact": 1127,
      "Ġcur": 1128,
      "Ġnext": 1129,
      "ÑĤ": 1130,
      "Ġmoney": 1131,
      "Ġbre": 1132,
      "Ġhigh": 1133,
      "Ġlol": 1134,
      "20": 1135,
      "Ġment": 1136,
      "als": 1137,
      "ats": 1138,
      "vious": 1139,
      ")[": 1140,
      "Ġmiss": 1141,
      "ĠShe": 1142,
      "ãĤ": 1143,
      "Ġnorm": 1144,
      "Ġsuch": 1145,
      "OU": 1146,
      "igger": 1147,
      "Ġter": 1148,
      "Ġdisc": 1149,
      "Ġbelie": 1150,
      "ows": 1151,
      "ather": 1152,
      "Ġfaggot": 1153,
      "pr": 1154,
      "??": 1155,
      "ĠThere": 1156,
      "Ġext": 1157,
      "Ġeither": 1158,
      "Ġanyone": 1159,
      "Ġyourself": 1160,
      "Ġcar": 1161,
      "Ġnice": 1162,
      "Ġgl": 1163,
      "Ð¸": 1164,
      "AN": 1165,
      "ĠSo": 1166,
      "Ġgonna": 1167,
      "Ġpower": 1168,
      "ont": 1169,
      "Ġ9": 1170,
      "Ġplaying": 1171,
      "HH": 1172,
      "Ġty": 1173,
      "Ġunderstand": 1174,
      "ember": 1175,
      "Ġthin": 1176,
      "ech": 1177,
      "Ġhelp": 1178,
      "LL": 1179,
      "oot": 1180,
      "Ġwrong": 1181,
      "ters": 1182,
      "Ġmet": 1183,
      "Ġcute": 1184,
      "ude": 1185,
      "10": 1186,
      "Ġmaybe": 1187,
      "Ġdam": 1188,
      "Ġinterest": 1189,
      "ets": 1190,
      "air": 1191,
      "Ġstory": 1192,
      "Ġguess": 1193,
      "ially": 1194,
      "bs": 1195,
      "Ġsound": 1196,
      "Ġlevel": 1197,
      "Ġpop": 1198,
      "my": 1199,
      "Ġour": 1200,
      "Ġbased": 1201,
      "CK": 1202,
      "Ġes": 1203,
      "Ġfight": 1204,
      "what": 1205,
      "Ġjob": 1206,
      "Ġdont": 1207,
      "Ġhour": 1208,
      "Ġentire": 1209,
      "Ġinv": 1210,
      "Ġmus": 1211,
      "Ġmonth": 1212,
      "Ġhead": 1213,
      "Ġ7": 1214,
      "He": 1215,
      "lt": 1216,
      "ced": 1217,
      "Ġgirls": 1218,
      "ex": 1219,
      "ING": 1220,
      "Ġfree": 1221,
      "Ġonce": 1222,
      "Ġcomplete": 1223,
      "most": 1224,
      "Ġguys": 1225,
      "Ġhope": 1226,
      "Ġmom": 1227,
      "ians": 1228,
      "Ġtrans": 1229,
      "ĠZ": 1230,
      "org": 1231,
      "eg": 1232,
      "Ġexpl": 1233,
      "Ġid": 1234,
      "joy": 1235,
      "Ã©": 1236,
      "not": 1237,
      "Ġmed": 1238,
      "ider": 1239,
      "ĠNot": 1240,
      "ked": 1241,
      "ids": 1242,
      "Ġcharacters": 1243,
      "Ġmind": 1244,
      "Ġvide": 1245,
      "vie": 1246,
      "Ġsingle": 1247,
      "Ġwhite": 1248,
      "Is": 1249,
      "raw": 1250,
      "Ġaway": 1251,
      "ings": 1252,
      "ON": 1253,
      "Ġtimes": 1254,
      "ina": 1255,
      "Ġaren": 1256,
      "ern": 1257,
      "Ġlive": 1258,
      "ĠSh": 1259,
      "How": 1260,
      "ĠWe": 1261,
      "dd": 1262,
      "play": 1263,
      "apan": 1264,
      "Ġplace": 1265,
      "Ġidea": 1266,
      "cl": 1267,
      "med": 1268,
      "ative": 1269,
      "Ġtalking": 1270,
      "RE": 1271,
      "ĠIs": 1272,
      "Ġ8": 1273,
      "ife": 1274,
      "ĠAlso": 1275,
      "Ġfem": 1276,
      "Ġyet": 1277,
      "oes": 1278,
      "Ġperf": 1279,
      "If": 1280,
      "osed": 1281,
      "Ġtop": 1282,
      "Ġeff": 1283,
      "ode": 1284,
      "ster": 1285,
      "Ġdone": 1286,
      "Ġcor": 1287,
      "app": 1288,
      "Ġlooking": 1289,
      "Ġcool": 1290,
      "ars": 1291,
      "Ġwhole": 1292,
      "Ġcoll": 1293,
      "chan": 1294,
      "Ġquest": 1295,
      "ents": 1296,
      "uk": 1297,
      "co": 1298,
      "Ġjo": 1299,
      "ific": 1300,
      "aste": 1301,
      "peri": 1302,
      "Ġabs": 1303,
      "Ġleft": 1304,
      "Ġ'": 1305,
      "They": 1306,
      "ys": 1307,
      "aug": 1308,
      "ms": 1309,
      "Ġfat": 1310,
      "Ġspe": 1311,
      "Ġsw": 1312,
      "ween": 1313,
      "ives": 1314,
      "unch": 1315,
      "ately": 1316,
      "ality": 1317,
      "arn": 1318,
      "und": 1319,
      "Ġwouldn": 1320,
      "Ġposs": 1321,
      "Ġconf": 1322,
      "uro": 1323,
      "Ġenjoy": 1324,
      "ĠHow": 1325,
      "Ġsecond": 1326,
      "led": 1327,
      "agine": 1328,
      "Ġevent": 1329,
      "de": 1330,
      "ds": 1331,
      "ane": 1332,
      "ST": 1333,
      "Ġbuild": 1334,
      "ots": 1335,
      "Ġrest": 1336,
      "Ġpay": 1337,
      "cess": 1338,
      "Ġbull": 1339,
      "ove": 1340,
      "shit": 1341,
      "Ġwait": 1342,
      "mao": 1343,
      "Ġblack": 1344,
      "Ġsuc": 1345,
      "Ġeach": 1346,
      "Ġ100": 1347,
      "Ġexist": 1348,
      "Ġstream": 1349,
      "ized": 1350,
      "ĠAn": 1351,
      "Ġagainst": 1352,
      "arch": 1353,
      "ĠX": 1354,
      "how": 1355,
      "Ġlist": 1356,
      "onest": 1357,
      "Ġwrit": 1358,
      "Ġet": 1359,
      "Ã¥": 1360,
      "hh": 1361,
      "ying": 1362,
      "Ġbetween": 1363,
      "ages": 1364,
      "ĠAs": 1365,
      "post": 1366,
      "more": 1367,
      "ipp": 1368,
      "Ġiss": 1369,
      "Ġworth": 1370,
      "uring": 1371,
      "HAHA": 1372,
      "ĠAr": 1373,
      "iron": 1374,
      "olute": 1375,
      "Ġtrue": 1376,
      "Ġseen": 1377,
      "Ġgay": 1378,
      "Ġable": 1379,
      "ecause": 1380,
      "She": 1381,
      "Ġseems": 1382,
      "der": 1383,
      "ted": 1384,
      "oun": 1385,
      "mm": 1386,
      "Ġones": 1387,
      "Ġed": 1388,
      "Ġago": 1389,
      "inal": 1390,
      "Ġremember": 1391,
      "body": 1392,
      "ness": 1393,
      "Ġcap": 1394,
      "Ġbody": 1395,
      "Ġsmall": 1396,
      "Ġph": 1397,
      "Ġface": 1398,
      "Ġbelieve": 1399,
      "Ġdead": 1400,
      "16": 1401,
      "mo": 1402,
      "aa": 1403,
      "els": 1404,
      "Ġhuman": 1405,
      "ips": 1406,
      "ene": 1407,
      "Ġdesign": 1408,
      "Ġdays": 1409,
      "AAAAAAAA": 1410,
      "Ġev": 1411,
      "Ġleg": 1412,
      "ĠTHE": 1413,
      "Ġcre": 1414,
      "ility": 1415,
      "olog": 1416,
      "Ġfine": 1417,
      "Ġstand": 1418,
      "bl": 1419,
      "meric": 1420,
      "reen": 1421,
      "Ġsaying": 1422,
      "Ġdem": 1423,
      "Ġwasn": 1424,
      "Ġref": 1425,
      "Ġdro": 1426,
      "Ġ$": 1427,
      "....": 1428,
      "Ġresp": 1429,
      "IT": 1430,
      "Ġwoman": 1431,
      "ures": 1432,
      "ĠJust": 1433,
      "stem": 1434,
      "Ġvers": 1435,
      "pec": 1436,
      "Ġactual": 1437,
      "br": 1438,
      "Ġinter": 1439,
      "Ġhalf": 1440,
      "Ġdie": 1441,
      "akes": 1442,
      "Ġyes": 1443,
      "OT": 1444,
      "uh": 1445,
      "Ġfil": 1446,
      "ĠWhy": 1447,
      "Ġsit": 1448,
      "Ġchild": 1449,
      "ĠĠ": 1450,
      "AT": 1451,
      "cha": 1452,
      "where": 1453,
      "ĠâĢ": 1454,
      "ired": 1455,
      "ouse": 1456,
      "Ġav": 1457,
      "Ġmem": 1458,
      "Ġhot": 1459,
      "Ġer": 1460,
      "Ġalmost": 1461,
      "any": 1462,
      "Ġnon": 1463,
      "Ġpol": 1464,
      "Ġname": 1465,
      "Ġmain": 1466,
      "Ġboy": 1467,
      "Ð½": 1468,
      "Ġmeans": 1469,
      "ities": 1470,
      "Ġopen": 1471,
      "youtu": 1472,
      "ared": 1473,
      "pid": 1474,
      "line": 1475,
      "Ġlow": 1476,
      "So": 1477,
      "Yeah": 1478,
      "Ġste": 1479,
      "tr": 1480,
      "Ġmar": 1481,
      "gy": 1482,
      "yes": 1483,
      "Ġla": 1484,
      "Ġwent": 1485,
      "ush": 1486,
      "Ġpic": 1487,
      "sel": 1488,
      "istic": 1489,
      "Ġgun": 1490,
      "Ġaw": 1491,
      "Ġteam": 1492,
      "Ġwhatever": 1493,
      "AR": 1494,
      "Ġcut": 1495,
      "Ġanime": 1496,
      "Ġdet": 1497,
      "Ġhit": 1498,
      "EEEE": 1499,
      "cy": 1500,
      "Ġhours": 1501,
      "Ġpass": 1502,
      "ger": 1503,
      "ĨĴ": 1504,
      "âĨĴ": 1505,
      "ES": 1506,
      "Ġwanted": 1507,
      "onder": 1508,
      "Ġnormal": 1509,
      ").": 1510,
      "Ġstupid": 1511,
      "Ġweird": 1512,
      "ĠTh": 1513,
      "idd": 1514,
      "Ġweek": 1515,
      "50": 1516,
      "Ġwish": 1517,
      "ines": 1518,
      "res": 1519,
      "EN": 1520,
      "Ġpar": 1521,
      "Ġbasically": 1522,
      "Ġclass": 1523,
      "wor": 1524,
      "of": 1525,
      "Ġabsolute": 1526,
      "ues": 1527,
      "iet": 1528,
      "Ġcontro": 1529,
      "ret": 1530,
      "Ġtalk": 1531,
      "Ġorig": 1532,
      "Ġsense": 1533,
      "Ġ:": 1534,
      "ga": 1535,
      "inite": 1536,
      "ĠUS": 1537,
      "Ġclear": 1538,
      "Ġdev": 1539,
      "Ġdel": 1540,
      "Ġgeneral": 1541,
      "Ġcour": 1542,
      "ĠAmeric": 1543,
      "Ġworks": 1544,
      "witter": 1545,
      "Ġmatter": 1546,
      "ract": 1547,
      "II": 1548,
      "Ġdumb": 1549,
      "Ġok": 1550,
      "Ġfucked": 1551,
      "Ġmyself": 1552,
      "Ġstarted": 1553,
      "ging": 1554,
      "),": 1555,
      "Ġsystem": 1556,
      "Ø§": 1557,
      "ino": 1558,
      "Ġwin": 1559,
      "Ġhor": 1560,
      "Ġfam": 1561,
      "ax": 1562,
      "Ġexact": 1563,
      "Ã¶": 1564,
      "ction": 1565,
      "Ġcompletely": 1566,
      "side": 1567,
      "Ġchange": 1568,
      "ole": 1569,
      "Ġsuper": 1570,
      "Ġanim": 1571,
      "Ġ30": 1572,
      "ls": 1573,
      "Ġmil": 1574,
      "ĠRe": 1575,
      "ĠAI": 1576,
      "Ġetc": 1577,
      "by": 1578,
      "fr": 1579,
      "orry": 1580,
      "to": 1581,
      "Ġbrain": 1582,
      "Ġep": 1583,
      "Ġworse": 1584,
      "Ġcountry": 1585,
      "Ġopt": 1586,
      "Ġcop": 1587,
      "ides": 1588,
      "ote": 1589,
      "Ġfan": 1590,
      "oÐ": 1591,
      "ited": 1592,
      "land": 1593,
      "Ġrequ": 1594,
      "oom": 1595,
      "Ġexperi": 1596,
      "Ġfast": 1597,
      "Ġhome": 1598,
      "ãĥ": 1599,
      "Ġthreads": 1600,
      "Ġmor": 1601,
      "box": 1602,
      "OR": 1603,
      "Ġfav": 1604,
      "selves": 1605,
      "Ġarg": 1606,
      "Ġboo": 1607,
      "Ġfriends": 1608,
      "ming": 1609,
      "Not": 1610,
      "rist": 1611,
      "ner": 1612,
      "Ġmay": 1613,
      "Ġval": 1614,
      "ently": 1615,
      "Ġmag": 1616,
      "Ġmove": 1617,
      "ertain": 1618,
      "Ġlar": 1619,
      "ĠMy": 1620,
      "Ġsupport": 1621,
      "ĠOr": 1622,
      "ros": 1623,
      "Ġpast": 1624,
      "acks": 1625,
      "mon": 1626,
      "23": 1627,
      "Ġrap": 1628,
      "Ġthinking": 1629,
      "Ġexpect": 1630,
      "Ġeasy": 1631,
      "gin": 1632,
      "ume": 1633,
      "this": 1634,
      "Ġtoday": 1635,
      "Ġmust": 1636,
      "Ġside": 1637,
      "andom": 1638,
      "Ġ&": 1639,
      "Ġlearn": 1640,
      "Ġeng": 1641,
      "Ġproduc": 1642,
      "ped": 1643,
      "owing": 1644,
      "Ġ+": 1645,
      "Ġbecome": 1646,
      "Ġvideo": 1647,
      "Ġeat": 1648,
      "ched": 1649,
      "Ġyeah": 1650,
      "ments": 1651,
      "Ġtech": 1652,
      "mp": 1653,
      "use": 1654,
      "but": 1655,
      "Ġstrong": 1656,
      "Ġdou": 1657,
      "arent": 1658,
      "gle": 1659,
      "oice": 1660,
      "rence": 1661,
      "Ġann": 1662,
      "Ġbat": 1663,
      "Ġdraw": 1664,
      "Ġcame": 1665,
      "ĠBl": 1666,
      "Ġself": 1667,
      "Ġfound": 1668,
      "ling": 1669,
      "ross": 1670,
      "Ġseries": 1671,
      "ta": 1672,
      "Ġfore": 1673,
      "Ġx": 1674,
      "Ġwonder": 1675,
      "wh": 1676,
      "Ġnight": 1677,
      "lic": 1678,
      "go": 1679,
      "Ġcol": 1680,
      "UCK": 1681,
      "oid": 1682,
      "pecially": 1683,
      "Ġform": 1684,
      "sc": 1685,
      "oh": 1686,
      "ilar": 1687,
      "oring": 1688,
      "ĠGod": 1689,
      "Ġplayed": 1690,
      "ants": 1691,
      "Yes": 1692,
      "ged": 1693,
      "alth": 1694,
      "ĠDo": 1695,
      "Ġanymore": 1696,
      "ĠYOU": 1697,
      "tf": 1698,
      "leep": 1699,
      "Ġcase": 1700,
      "ĠJapan": 1701,
      "Ġill": 1702,
      "udd": 1703,
      "Ġduring": 1704,
      "Ġcomes": 1705,
      "Ġhappened": 1706,
      "Ġpur": 1707,
      "Ġrather": 1708,
      "Ġlater": 1709,
      "Ġlmao": 1710,
      "Ġmass": 1711,
      "that": 1712,
      "Ġtried": 1713,
      "Ġpat": 1714,
      "Ġque": 1715,
      "anny": 1716,
      "unk": 1717,
      "Ġwants": 1718,
      "Ġplan": 1719,
      "Ġfunny": 1720,
      "Ġobvious": 1721,
      "Ġmult": 1722,
      "hanks": 1723,
      "Ġneeds": 1724,
      "ĠMar": 1725,
      "ĠOP": 1726,
      "why": 1727,
      "ero": 1728,
      "ches": 1729,
      "que": 1730,
      "ship": 1731,
      "Ġgoes": 1732,
      "Ġweap": 1733,
      "ĠOn": 1734,
      "Ġhaven": 1735,
      "ional": 1736,
      "Ġperfect": 1737,
      "Ġgod": 1738,
      "aining": 1739,
      "aid": 1740,
      "Ġopp": 1741,
      "Ġcurrent": 1742,
      "Ġworking": 1743,
      "Ġgi": 1744,
      "Ġcontent": 1745,
      "Ġdeal": 1746,
      "There": 1747,
      "Ġrepl": 1748,
      "ron": 1749,
      "Ġ0": 1750,
      "ĠSp": 1751,
      "rit": 1752,
      "Ġsn": 1753,
      "zy": 1754,
      "Ġdick": 1755,
      "Ġcalled": 1756,
      "Ġfre": 1757,
      "000": 1758,
      "Ġfail": 1759,
      "Ġfood": 1760,
      "Ġfoll": 1761,
      "Ġanyway": 1762,
      "Ġhonest": 1763,
      "Ġmusic": 1764,
      "Ġversion": 1765,
      "Ġhy": 1766,
      "ĠAN": 1767,
      "Ġcult": 1768,
      "fer": 1769,
      "velop": 1770,
      "Ġele": 1771,
      "atus": 1772,
      "Ġdire": 1773,
      "Ġfix": 1774,
      "ward": 1775,
      "Ġshort": 1776,
      "Ġsupposed": 1777,
      "ined": 1778,
      "Ġthemselves": 1779,
      "Ġdamage": 1780,
      "Ġsol": 1781,
      "âĢĿ": 1782,
      "ru": 1783,
      "Ġhell": 1784,
      "ature": 1785,
      "ĠAll": 1786,
      "cial": 1787,
      "Ġhold": 1788,
      "ĠRuss": 1789,
      "Ġmark": 1790,
      "yle": 1791,
      "Ġsoon": 1792,
      "Ġve": 1793,
      "ĠQ": 1794,
      "Ġpossible": 1795,
      "antly": 1796,
      "initely": 1797,
      "Ġcourse": 1798,
      "Ġsell": 1799,
      "iles": 1800,
      "ised": 1801,
      "Ġmonths": 1802,
      "Ġwife": 1803,
      "Ġadv": 1804,
      "tend": 1805,
      "St": 1806,
      "ama": 1807,
      "ively": 1808,
      "ken": 1809,
      "Ġsays": 1810,
      "Ġwee": 1811,
      "Ġlos": 1812,
      "Ġred": 1813,
      "Ġbar": 1814,
      "\"[": 1815,
      "Ġfut": 1816,
      "Ġconst": 1817,
      "Ġprom": 1818,
      "Ġrele": 1819,
      "Ġplease": 1820,
      "Ġdeath": 1821,
      "Ġlost": 1822,
      "Ġskill": 1823,
      "ield": 1824,
      "Ġlight": 1825,
      "ient": 1826,
      "ED": 1827,
      "Ġuni": 1828,
      "ph": 1829,
      "Ġpull": 1830,
      "like": 1831,
      "Ġfall": 1832,
      "Ġdog": 1833,
      "mor": 1834,
      "load": 1835,
      "Ġcou": 1836,
      "Ġkinda": 1837,
      "sw": 1838,
      "iving": 1839,
      "aÐ": 1840,
      "Ġpick": 1841,
      "Ġhair": 1842,
      "Ġru": 1843,
      "aim": 1844,
      "het": 1845,
      "witch": 1846,
      "Ġtro": 1847,
      "oly": 1848,
      "ones": 1849,
      "Ġdi": 1850,
      "ata": 1851,
      "Ġimage": 1852,
      "ĠUn": 1853,
      "iec": 1854,
      "ĠBe": 1855,
      "ories": 1856,
      "My": 1857,
      "Ġintern": 1858,
      "Ġ*": 1859,
      "We": 1860,
      "Ġschool": 1861,
      "Ġprot": 1862,
      "Ġrandom": 1863,
      "ĠFor": 1864,
      "ka": 1865,
      "twitter": 1866,
      "VE": 1867,
      "ange": 1868,
      "ished": 1869,
      "IS": 1870,
      "Ġboard": 1871,
      "ery": 1872,
      "gen": 1873,
      "Ġdist": 1874,
      "Ġclose": 1875,
      "Ġothers": 1876,
      "agon": 1877,
      "Ġenem": 1878,
      "11": 1879,
      "Ġask": 1880,
      "Ġtoget": 1881,
      "Ġlim": 1882,
      "Ġtogether": 1883,
      "Ġtot": 1884,
      "UU": 1885,
      "Ġdevelop": 1886,
      "Ġbreak": 1887,
      "aring": 1888,
      "reme": 1889,
      "Ġconsider": 1890,
      "uct": 1891,
      "Ġap": 1892,
      "uz": 1893,
      "Ġquestion": 1894,
      "rain": 1895,
      "Ġvar": 1896,
      "Ġspend": 1897,
      "ement": 1898,
      "Ġant": 1899,
      "fags": 1900,
      "ij": 1901,
      "Ġshitty": 1902,
      "Ġda": 1903,
      "aces": 1904,
      "wards": 1905,
      "rap": 1906,
      "ĠFUCK": 1907,
      "Ġfig": 1908,
      "Ġimport": 1909,
      "Ġcheck": 1910,
      "Ġpos": 1911,
      "Ġdest": 1912,
      "AM": 1913,
      "Ġposting": 1914,
      "Ġproper": 1915,
      "ator": 1916,
      "oke": 1917,
      "Ġporn": 1918,
      "ya": 1919,
      "Ġmeme": 1920,
      "Ġbitch": 1921,
      "ĠFr": 1922,
      "Ġoutside": 1923,
      "used": 1924,
      "Ġgrou": 1925,
      "urope": 1926,
      "unt": 1927,
      "Ġstud": 1928,
      "Ġschiz": 1929,
      "eral": 1930,
      "Ġfeels": 1931,
      "for": 1932,
      "Ġeffect": 1933,
      "IG": 1934,
      "Ġwater": 1935,
      "Ġsou": 1936,
      "Ġsign": 1937,
      "Oh": 1938,
      "uff": 1939,
      "rect": 1940,
      "Ġpub": 1941,
      "con": 1942,
      "Ġoriginal": 1943,
      "Ġfavor": 1944,
      "Ġpain": 1945,
      "Just": 1946,
      "!!!!": 1947,
      "Ġincl": 1948,
      "Ġmention": 1949,
      "Ġloc": 1950,
      "ĠWh": 1951,
      "cc": 1952,
      "outh": 1953,
      "Ġcat": 1954,
      "Ġtaking": 1955,
      "Ġlikely": 1956,
      "Ġexperience": 1957,
      "uge": 1958,
      "fit": 1959,
      "Ġcry": 1960,
      "Ġtook": 1961,
      "Ġcoming": 1962,
      "po": 1963,
      "hys": 1964,
      "lish": 1965,
      "Ġcomb": 1966,
      "arr": 1967,
      "Ġmill": 1968,
      "angu": 1969,
      "Ġcompl": 1970,
      "Ġwal": 1971,
      "pro": 1972,
      "Ġnigg": 1973,
      "Ġvis": 1974,
      "Ġissue": 1975,
      "Ġtest": 1976,
      "OM": 1977,
      "bt": 1978,
      "pect": 1979,
      "Ġsort": 1980,
      "Ġpot": 1981,
      "Ġserious": 1982,
      "acy": 1983,
      "Ġcra": 1984,
      "ĠâĢľ": 1985,
      "Ġhappy": 1986,
      "ution": 1987,
      "Ġcock": 1988,
      "Ġpri": 1989,
      "Ġlead": 1990,
      "Ġroll": 1991,
      "Ġshoot": 1992,
      "ering": 1993,
      "ices": 1994,
      "Ġequ": 1995,
      "ply": 1996,
      "Ġnear": 1997,
      "cle": 1998,
      "ux": 1999,
      "Ġhist": 2000,
      "Ġsleep": 2001,
      "Ġexcept": 2002,
      "Ġespecially": 2003,
      "Ġexactly": 2004,
      "ention": 2005,
      "che": 2006,
      "right": 2007,
      "Ġcost": 2008,
      "ains": 2009,
      "Ġcontin": 2010,
      "ĠDon": 2011,
      "Ġtype": 2012,
      "Ġpopular": 2013,
      "ĠDe": 2014,
      "Ġcertain": 2015,
      "Ġamount": 2016,
      "Ġunless": 2017,
      "utes": 2018,
      "aj": 2019,
      "Ġdep": 2020,
      "full": 2021,
      "ored": 2022,
      "Ġusually": 2023,
      "Ġfire": 2024,
      "sy": 2025,
      "Ġsounds": 2026,
      "let": 2027,
      "ĠCha": 2028,
      "arb": 2029,
      "she": 2030,
      "ler": 2031,
      "Ġstay": 2032,
      "verage": 2033,
      "ries": 2034,
      "Ġ[": 2035,
      "Ġ19": 2036,
      "ĠâĨĴ": 2037,
      "Ġfur": 2038,
      "Re": 2039,
      "ĠEven": 2040,
      "mit": 2041,
      "Ġepis": 2042,
      "Ġmodel": 2043,
      "OOOOOOOO": 2044,
      "Ġca": 2045,
      "30": 2046,
      "Ġkids": 2047,
      "__": 2048,
      "Do": 2049,
      "ana": 2050,
      "80": 2051,
      "Ġquite": 2052,
      "ample": 2053,
      "Ġsaw": 2054,
      "Ġinteresting": 2055,
      "Ġearly": 2056,
      "An": 2057,
      "Ġroom": 2058,
      "anna": 2059,
      "just": 2060,
      "Ġpict": 2061,
      "ring": 2062,
      "Ġshot": 2063,
      "ping": 2064,
      "rel": 2065,
      "Ġline": 2066,
      "ÙĦ": 2067,
      "Ġstra": 2068,
      "Ġallow": 2069,
      "Ġsal": 2070,
      "iki": 2071,
      "Ġmovie": 2072,
      "ye": 2073,
      "Ġpres": 2074,
      "Ġsad": 2075,
      "Ã¡": 2076,
      "ric": 2077,
      "Ġcard": 2078,
      "Ġdefinitely": 2079,
      "aut": 2080,
      "Ġcreat": 2081,
      "vern": 2082,
      "SS": 2083,
      "form": 2084,
      "oon": 2085,
      "Ġsave": 2086,
      "verse": 2087,
      "Ġbus": 2088,
      "ĠAny": 2089,
      "OW": 2090,
      "Ġmess": 2091,
      "ges": 2092,
      "Ġcheap": 2093,
      "ironically": 2094,
      "row": 2095,
      "fl": 2096,
      "ware": 2097,
      "atur": 2098,
      "ET": 2099,
      "AL": 2100,
      "Ġhar": 2101,
      "ĠCan": 2102,
      "Ġmale": 2103,
      "augh": 2104,
      "iple": 2105,
      "elt": 2106,
      "view": 2107,
      "Ġposts": 2108,
      "Ġleave": 2109,
      "cat": 2110,
      "ĠNow": 2111,
      "Ġhouse": 2112,
      "Ġign": 2113,
      "Ġbook": 2114,
      "Ġdesp": 2115,
      "ault": 2116,
      "Ġpoor": 2117,
      "ument": 2118,
      "Ġcommun": 2119,
      "Ġsimilar": 2120,
      "Ġsong": 2121,
      "rew": 2122,
      "Ġ50": 2123,
      "Ġlangu": 2124,
      "fort": 2125,
      "Ġdue": 2126,
      "ium": 2127,
      "Ġbann": 2128,
      "Ġreading": 2129,
      "Ġfamily": 2130,
      "Ġfemale": 2131,
      "ection": 2132,
      "Ġvir": 2133,
      "Ġdude": 2134,
      "they": 2135,
      "Ġchance": 2136,
      "In": 2137,
      "Ġfair": 2138,
      "ĠMaybe": 2139,
      "Ġthanks": 2140,
      "Ġsuck": 2141,
      "ried": 2142,
      "Ġsocial": 2143,
      "Ġmaj": 2144,
      "Ġabsolutely": 2145,
      "Ġstate": 2146,
      "Ġbunch": 2147,
      "Ġcouple": 2148,
      "Ġnigger": 2149,
      "Ġimagine": 2150,
      "ze": 2151,
      "fully": 2152,
      "Ġbros": 2153,
      "Ġbullshit": 2154,
      "Ġfuture": 2155,
      "Ġboss": 2156,
      "ky": 2157,
      "Ġknows": 2158,
      "hind": 2159,
      "Ġtakes": 2160,
      "Ġskin": 2161,
      "Ġbare": 2162,
      "15": 2163,
      "Ġupd": 2164,
      "Ġhig": 2165,
      "ora": 2166,
      "Ġmostly": 2167,
      "Ġcent": 2168,
      "ident": 2169,
      "\"\"": 2170,
      "Ġrelated": 2171,
      "And": 2172,
      "gs": 2173,
      "Ġbab": 2174,
      "Ġaff": 2175,
      "ĠIS": 2176,
      "ien": 2177,
      "haha": 2178,
      "Ġsurpr": 2179,
      "bit": 2180,
      "Ġfinally": 2181,
      "ox": 2182,
      "amn": 2183,
      "OL": 2184,
      "wise": 2185,
      "19": 2186,
      "Ġsqu": 2187,
      "Ġbeat": 2188,
      "oooo": 2189,
      "ounds": 2190,
      "ym": 2191,
      "Ġug": 2192,
      "Ġproject": 2193,
      "ered": 2194,
      "Ġsum": 2195,
      "Ġrunning": 2196,
      "Ġluck": 2197,
      "Ġstraight": 2198,
      "umber": 2199,
      "lit": 2200,
      "Ġmodern": 2201,
      "pend": 2202,
      "12": 2203,
      "Ġcause": 2204,
      "ases": 2205,
      "Ġworst": 2206,
      "AD": 2207,
      "ĠAt": 2208,
      "Ġslow": 2209,
      "Ġalone": 2210,
      "Ġvi": 2211,
      "ussy": 2212,
      "head": 2213,
      "Ġscreen": 2214,
      "Ġwatching": 2215,
      "Ġextreme": 2216,
      "omb": 2217,
      "Ġtold": 2218,
      "ĠEvery": 2219,
      "Ġnobody": 2220,
      "ii": 2221,
      "Ġaccount": 2222,
      "iness": 2223,
      "Ġage": 2224,
      "Ġphys": 2225,
      "Ġhimself": 2226,
      "iew": 2227,
      "Ġlisten": 2228,
      "ison": 2229,
      "Ġbring": 2230,
      "Ġbehind": 2231,
      "/[": 2232,
      "Ġmoment": 2233,
      "gram": 2234,
      "Ġitself": 2235,
      "Ġdirect": 2236,
      "Ġmarket": 2237,
      "Ġmeant": 2238,
      "Ġ=": 2239,
      "Ġansw": 2240,
      "erman": 2241,
      "Ġclaim": 2242,
      "ĠPro": 2243,
      "Ġplayers": 2244,
      "Ġcouldn": 2245,
      "HHHH": 2246,
      "Ġspace": 2247,
      "Ġheard": 2248,
      "ĠPe": 2249,
      "ource": 2250,
      "Ġcontrol": 2251,
      "Ġkid": 2252,
      "Al": 2253,
      "Ġ40": 2254,
      "uu": 2255,
      "ĠLike": 2256,
      "Ġeyes": 2257,
      "Ġhands": 2258,
      "Ġexample": 2259,
      "Ġspam": 2260,
      "Ġlose": 2261,
      "ĠIT": 2262,
      "Ġposted": 2263,
      "Ġcant": 2264,
      "Ġhappens": 2265,
      "Sh": 2266,
      "eric": 2267,
      "Ġoften": 2268,
      "ĠTr": 2269,
      "Ġyoung": 2270,
      "ĠTO": 2271,
      "ands": 2272,
      "Ġgives": 2273,
      "Ġhuge": 2274,
      "UT": 2275,
      "40": 2276,
      "fic": 2277,
      "Ġfit": 2278,
      "Ġseeing": 2279,
      "Ġswe": 2280,
      "unny": 2281,
      "ority": 2282,
      "ÙĬ": 2283,
      "tw": 2284,
      "Ġminutes": 2285,
      "Ġpiec": 2286,
      "aged": 2287,
      "Ġmer": 2288,
      "Ð»": 2289,
      "Ġpen": 2290,
      "Ġsoci": 2291,
      "Ġnec": 2292,
      "do": 2293,
      "Ġseet": 2294,
      "oth": 2295,
      "Ġ12": 2296,
      "ĠLe": 2297,
      "ĠPl": 2298,
      "Ġalong": 2299,
      "Ġair": 2300,
      "ital": 2301,
      "Ġwanna": 2302,
      "ided": 2303,
      "aken": 2304,
      "Ġorder": 2305,
      "ems": 2306,
      "Ġquick": 2307,
      "sp": 2308,
      "Ġdu": 2309,
      "Ġfoc": 2310,
      "gress": 2311,
      "Ġtra": 2312,
      "Ġquality": 2313,
      "une": 2314,
      "Ġsimply": 2315,
      "Ġtechn": 2316,
      "Ġaverage": 2317,
      "Ġbur": 2318,
      "Ġmis": 2319,
      "Ġest": 2320,
      "can": 2321,
      "cri": 2322,
      "Ġcum": 2323,
      "Ġbecom": 2324,
      "ror": 2325,
      "cer": 2326,
      "ĠSe": 2327,
      "Don": 2328,
      "Ġword": 2329,
      "ĠIm": 2330,
      "Ġview": 2331,
      "Ġcuck": 2332,
      "ral": 2333,
      "Ġeasily": 2334,
      "Ġretards": 2335,
      "\".": 2336,
      "fy": 2337,
      "ites": 2338,
      "Ġdeep": 2339,
      "60": 2340,
      "Ġcal": 2341,
      "esting": 2342,
      "Ġfill": 2343,
      "Ġkilled": 2344,
      "min": 2345,
      "ĠWhen": 2346,
      "Ġcope": 2347,
      "Ġtou": 2348,
      "status": 2349,
      "ura": 2350,
      "Ġsometimes": 2351,
      "Ġgiving": 2352,
      "Ġ15": 2353,
      "Ġwa": 2354,
      "Ġplayer": 2355,
      "inks": 2356,
      "vi": 2357,
      "Ġlonger": 2358,
      "ĠWH": 2359,
      "Ġliving": 2360,
      "vant": 2361,
      "Ġweight": 2362,
      "Ġwind": 2363,
      "onic": 2364,
      "ĠRE": 2365,
      "Ġfigure": 2366,
      "Ġimportant": 2367,
      "ensive": 2368,
      "Ġkek": 2369,
      "moe": 2370,
      "ience": 2371,
      "Ġmad": 2372,
      "Ġgave": 2373,
      "Ġsimple": 2374,
      "Ġaccept": 2375,
      "icks": 2376,
      "Ġtier": 2377,
      "ulation": 2378,
      "Ġthree": 2379,
      "bed": 2380,
      "Ġrelation": 2381,
      "Ġdiscuss": 2382,
      "Ġpartic": 2383,
      "uts": 2384,
      "Ġfavorite": 2385,
      "Ġbutt": 2386,
      "Ġball": 2387,
      "Ġtext": 2388,
      "ĠEng": 2389,
      "oud": 2390,
      "ooks": 2391,
      "ilt": 2392,
      "Ġagree": 2393,
      "ĠSu": 2394,
      "Ġhom": 2395,
      "Ðº": 2396,
      "Ġpretend": 2397,
      "Ġdark": 2398,
      "Ġsis": 2399,
      "Ġattack": 2400,
      "Because": 2401,
      "Ġtem": 2402,
      "Ġspecial": 2403,
      "Ġugly": 2404,
      "ara": 2405,
      "Ġtranny": 2406,
      "Ġsorry": 2407,
      "Ġden": 2408,
      "pped": 2409,
      "Ġdefe": 2410,
      "ĠCl": 2411,
      "Ġshill": 2412,
      "ĠThen": 2413,
      "ology": 2414,
      "Ġinternet": 2415,
      "Ġexc": 2416,
      "But": 2417,
      "Ġprop": 2418,
      "Well": 2419,
      "ained": 2420,
      "ĠChrist": 2421,
      "Ġrelease": 2422,
      "Ġhur": 2423,
      "iddle": 2424,
      "Ġdestro": 2425,
      "Ġgiven": 2426,
      "yn": 2427,
      "Ġsent": 2428,
      "ibly": 2429,
      "Ġstyle": 2430,
      "Can": 2431,
      "AI": 2432,
      "aks": 2433,
      "Ġbed": 2434,
      "Ġlink": 2435,
      "Ġanons": 2436,
      "Ġcompany": 2437,
      "ung": 2438,
      "Ġhealth": 2439,
      "Ġforgot": 2440,
      "Ġprefer": 2441,
      "eed": 2442,
      "Ġport": 2443,
      "Ġdespite": 2444,
      "arbage": 2445,
      "Ġwriting": 2446,
      "22": 2447,
      "ising": 2448,
      "Ġhonestly": 2449,
      "rible": 2450,
      "af": 2451,
      "ĠSE": 2452,
      "Ġdifference": 2453,
      "annies": 2454,
      "inese": 2455,
      "ety": 2456,
      "ades": 2457,
      "gu": 2458,
      "ĠIN": 2459,
      "Ġonline": 2460,
      "Ġgroup": 2461,
      "ational": 2462,
      "ĠAre": 2463,
      "ĠST": 2464,
      "AS": 2465,
      "Ġland": 2466,
      "Ġfollow": 2467,
      "Ġwrite": 2468,
      "Ġdecent": 2469,
      "Ġshows": 2470,
      "Ġinside": 2471,
      "ĠGen": 2472,
      "Ġchap": 2473,
      "Ġresult": 2474,
      "Ã³": 2475,
      "Ġje": 2476,
      "Ġgam": 2477,
      "70": 2478,
      "Ġlanguage": 2479,
      "Ġweak": 2480,
      "Ġvs": 2481,
      "Ġmec": 2482,
      "Ġgf": 2483,
      "cel": 2484,
      "AY": 2485,
      "Ġdeser": 2486,
      "acha": 2487,
      "Ġban": 2488,
      "Ġattract": 2489,
      "Ġattention": 2490,
      "mb": 2491,
      "14": 2492,
      "ization": 2493,
      "Ġheart": 2494,
      "Ġmother": 2495,
      "catbox": 2496,
      "Ġdri": 2497,
      "Ġokay": 2498,
      "iny": 2499,
      "Ġsoft": 2500,
      "Ġboring": 2501,
      "ĠAND": 2502,
      "cing": 2503,
      "Ġopin": 2504,
      "ĠGo": 2505,
      "Ġheav": 2506,
      "ucking": 2507,
      "Ġhear": 2508,
      "Ġjew": 2509,
      "\",": 2510,
      "Ġwall": 2511,
      "Ġchildren": 2512,
      "men": 2513,
      "13": 2514,
      "Ġgarbage": 2515,
      "gan": 2516,
      "Ġang": 2517,
      "Ġtrash": 2518,
      "Ġtre": 2519,
      "Ġlate": 2520,
      "Ġweeks": 2521,
      "hank": 2522,
      "Ġregular": 2523,
      "asy": 2524,
      "OP": 2525,
      "oph": 2526,
      "Any": 2527,
      "itive": 2528,
      "based": 2529,
      "uine": 2530,
      "Ġprogram": 2531,
      "Based": 2532,
      "Ġimpro": 2533,
      "Ġthats": 2534,
      "Ġcompet": 2535,
      "aster": 2536,
      "ires": 2537,
      "Ġcommon": 2538,
      "atic": 2539,
      "Ġnumber": 2540,
      "Ġforget": 2541,
      "hetic": 2542,
      "Ġsold": 2543,
      "Ġcorrect": 2544,
      "Are": 2545,
      "Ġfans": 2546,
      "Ġra": 2547,
      "over": 2548,
      "yeah": 2549,
      "fuck": 2550,
      "room": 2551,
      "net": 2552,
      "Ġwat": 2553,
      "Ġmultiple": 2554,
      "Ġmid": 2555,
      "estern": 2556,
      "lying": 2557,
      "Ġobs": 2558,
      "Ġlat": 2559,
      "Ġdoll": 2560,
      "Ġhistory": 2561,
      "Ġvoice": 2562,
      "Ġknew": 2563,
      "Ġdamn": 2564,
      "Ġir": 2565,
      "Ġrob": 2566,
      "Ġ.": 2567,
      "LE": 2568,
      "Ġmach": 2569,
      "Ñı": 2570,
      "IC": 2571,
      "ads": 2572,
      "Ġpress": 2573,
      "ĠÃ": 2574,
      "Ġwords": 2575,
      "tom": 2576,
      "Ġpure": 2577,
      "medi": 2578,
      "Ġfant": 2579,
      "aling": 2580,
      "Ġdream": 2581,
      "itch": 2582,
      "Ġclearly": 2583,
      "Ġextra": 2584,
      "ari": 2585,
      "Ġseason": 2586,
      "Ġlarge": 2587,
      "Ġ200": 2588,
      "Ġge": 2589,
      "files": 2590,
      "Ġmanga": 2591,
      "90": 2592,
      "oles": 2593,
      "Ġfeeling": 2594,
      "Ġprov": 2595,
      "Ġinclud": 2596,
      "ĠSome": 2597,
      "Ġanswer": 2598,
      "Ġcannot": 2599,
      "ucks": 2600,
      "Ġchat": 2601,
      "Ġbought": 2602,
      "Ġgold": 2603,
      "As": 2604,
      "ĠEurope": 2605,
      "HAT": 2606,
      "inder": 2607,
      "Ġ90": 2608,
      "Ġpussy": 2609,
      "Ġzoom": 2610,
      "Ġpolit": 2611,
      "ko": 2612,
      "Ġfighting": 2613,
      "Ġ×": 2614,
      "oogle": 2615,
      "ified": 2616,
      "Ġfront": 2617,
      "ĠSH": 2618,
      "Ġpract": 2619,
      "Ġdom": 2620,
      "ify": 2621,
      "ki": 2622,
      "]/": 2623,
      "Ġblood": 2624,
      "18": 2625,
      "roll": 2626,
      "Ġschizo": 2627,
      "Ġdrop": 2628,
      "Ġmas": 2629,
      "Ġbegin": 2630,
      "Ġped": 2631,
      "Ġtaste": 2632,
      "Ġepisode": 2633,
      "Ġstar": 2634,
      "work": 2635,
      "ILL": 2636,
      "AAAAAAAAAAAAAAAA": 2637,
      "mi": 2638,
      "Ġtit": 2639,
      "Good": 2640,
      "Ġbal": 2641,
      "Ġgone": 2642,
      "Ġdepend": 2643,
      "Ġmal": 2644,
      "ĠYes": 2645,
      "Ġhigher": 2646,
      "Ġforce": 2647,
      "Ġner": 2648,
      "apt": 2649,
      "Ġrealize": 2650,
      "Ġextremely": 2651,
      "Ġlog": 2652,
      "Ġhero": 2653,
      "ival": 2654,
      "krain": 2655,
      "Ġtyp": 2656,
      "ji": 2657,
      "Ġissues": 2658,
      "Ġlaw": 2659,
      "Im": 2660,
      "Ġgovern": 2661,
      "ĠJapanese": 2662,
      "mend": 2663,
      "Ġincre": 2664,
      "Ġblue": 2665,
      "Ġsucks": 2666,
      "Ġund": 2667,
      "izz": 2668,
      "ining": 2669,
      "Ġsend": 2670,
      "ĠCom": 2671,
      "ĠYour": 2672,
      "Ġsitu": 2673,
      "Ġfet": 2674,
      "âĢ¦": 2675,
      "Who": 2676,
      "Ġsomehow": 2677,
      "Ġcompared": 2678,
      "Ġproduct": 2679,
      "ĠØ": 2680,
      "rem": 2681,
      "Ġrac": 2682,
      "esus": 2683,
      "Ġculture": 2684,
      "Ġton": 2685,
      "nel": 2686,
      "Ġtho": 2687,
      "Ġconn": 2688,
      "Ġappro": 2689,
      "Ġtar": 2690,
      "raft": 2691,
      "Ġevil": 2692,
      "Ġperform": 2693,
      "ĠGr": 2694,
      "usion": 2695,
      "Ġsuccess": 2696,
      "Ġobviously": 2697,
      "Ġrid": 2698,
      "ĠGu": 2699,
      "ores": 2700,
      "Ġreturn": 2701,
      "Ġspeed": 2702,
      "ĠAmerican": 2703,
      "Ġinfl": 2704,
      "Ġsuff": 2705,
      "25": 2706,
      "Ġaud": 2707,
      "VER": 2708,
      "iff": 2709,
      "Ġbarely": 2710,
      "Ġclean": 2711,
      "For": 2712,
      "Ġconc": 2713,
      "ÑĮ": 2714,
      "Ġannoy": 2715,
      "ruct": 2716,
      "Ġver": 2717,
      "Ġliked": 2718,
      "HAHAHAHA": 2719,
      "Ġgenuine": 2720,
      "ker": 2721,
      "Ġimm": 2722,
      "ĠYeah": 2723,
      "ori": 2724,
      "using": 2725,
      "ĠEx": 2726,
      "Ġspeak": 2727,
      "Ġamaz": 2728,
      "ID": 2729,
      "Ġmax": 2730,
      "gn": 2731,
      "Ġneeded": 2732,
      "uly": 2733,
      "Ġtransl": 2734,
      "ĠPC": 2735,
      "Ġut": 2736,
      "ĠTo": 2737,
      "17": 2738,
      "Ġameric": 2739,
      "ÅĤ": 2740,
      "Ġfelt": 2741,
      "Did": 2742,
      "ĠPre": 2743,
      "itter": 2744,
      "ĠPr": 2745,
      "Ġasking": 2746,
      "Ġsurv": 2747,
      "Ġpicture": 2748,
      "li": 2749,
      "uth": 2750,
      "Ġpiss": 2751,
      "Ġmedia": 2752,
      "Ġpublic": 2753,
      "Ġmassive": 2754,
      "Ġprice": 2755,
      "Ġvol": 2756,
      "Ġstick": 2757,
      "Ġpsy": 2758,
      "ony": 2759,
      "Ġinstall": 2760,
      "Ġturned": 2761,
      "Ġunironically": 2762,
      "aving": 2763,
      "ãĢ": 2764,
      "imate": 2765,
      "Ġmiddle": 2766,
      "Ġrock": 2767,
      "Ġappear": 2768,
      "]*": 2769,
      "ential": 2770,
      "Ġimmedi": 2771,
      "Th": 2772,
      "Ġburn": 2773,
      "Ġsil": 2774,
      "par": 2775,
      "CH": 2776,
      "Ġsetting": 2777,
      "uses": 2778,
      "Ġweapon": 2779,
      "iced": 2780,
      "On": 2781,
      "Ġcir": 2782,
      "Ġhop": 2783,
      "Ġtur": 2784,
      "Ġfell": 2785,
      "Ġmode": 2786,
      "Ġscen": 2787,
      "Ġparent": 2788,
      "Ġautistic": 2789,
      "Ġmeet": 2790,
      "ails": 2791,
      "Ġdun": 2792,
      "anon": 2793,
      "aked": 2794,
      "una": 2795,
      "]\"": 2796,
      "ressed": 2797,
      "yond": 2798,
      "Ġeating": 2799,
      "Ġeffort": 2800,
      "ĠDr": 2801,
      "Ġmix": 2802,
      "ags": 2803,
      "Ġsize": 2804,
      "Ñĭ": 2805,
      "Ġvill": 2806,
      "aper": 2807,
      "Ġcast": 2808,
      "ament": 2809,
      "lect": 2810,
      "Ġtrad": 2811,
      "Ġabove": 2812,
      "99": 2813,
      "Ġmist": 2814,
      "ĠNew": 2815,
      "ĠÐ½": 2816,
      "ĠFuck": 2817,
      "idence": 2818,
      "Ġult": 2819,
      "ĠOh": 2820,
      "Ġotherwise": 2821,
      "KK": 2822,
      "dom": 2823,
      "Ġcares": 2824,
      "Ġrecom": 2825,
      "Ġdied": 2826,
      "Ġshitpost": 2827,
      "Ġarc": 2828,
      "empt": 2829,
      "ocked": 2830,
      "Ġprof": 2831,
      "put": 2832,
      "ocks": 2833,
      ".\"": 2834,
      "Ġrev": 2835,
      "Ġstarting": 2836,
      "ddit": 2837,
      "ĠInd": 2838,
      "Ġstat": 2839,
      "key": 2840,
      "Ġ18": 2841,
      "Ġrace": 2842,
      "Ġrape": 2843,
      "Ġavoid": 2844,
      "Ġrom": 2845,
      "Ġpiece": 2846,
      "Ġbait": 2847,
      "new": 2848,
      "Ġweapons": 2849,
      "ĠÙ": 2850,
      "ficult": 2851,
      "Ġbattle": 2852,
      "Ġspecific": 2853,
      "su": 2854,
      "ĠIts": 2855,
      "kn": 2856,
      "Ġallowed": 2857,
      "Ġjoke": 2858,
      "Ġdestroy": 2859,
      "Ġbase": 2860,
      "Ġmechan": 2861,
      "att": 2862,
      "light": 2863,
      "por": 2864,
      "osh": 2865,
      "Ġconcept": 2866,
      "Ġfaggots": 2867,
      "Ġbrother": 2868,
      "Ġanti": 2869,
      "ape": 2870,
      "Ġeasier": 2871,
      "Ġreality": 2872,
      "Ġaccess": 2873,
      "Ġpurp": 2874,
      "ĠOne": 2875,
      "Ġclos": 2876,
      "har": 2877,
      "ĠÐ¿": 2878,
      "Ġphone": 2879,
      "abs": 2880,
      "anger": 2881,
      "Ġcode": 2882,
      "rench": 2883,
      "inge": 2884,
      "Ġcrit": 2885,
      "Ġrecommend": 2886,
      "Ġdad": 2887,
      "Ġwithin": 2888,
      "ĠNOT": 2889,
      "da": 2890,
      "*[": 2891,
      "omer": 2892,
      "Ġbi": 2893,
      "ada": 2894,
      "Ġbox": 2895,
      "Ġtits": 2896,
      "action": 2897,
      "Ġobject": 2898,
      "Ġgameplay": 2899,
      "Ġserv": 2900,
      "ols": 2901,
      "Ġthinks": 2902,
      "Ġdifficult": 2903,
      "Ġbuying": 2904,
      "sex": 2905,
      "text": 2906,
      "Ġocc": 2907,
      "ounter": 2908,
      "aterial": 2909,
      "Ġcomput": 2910,
      "Ġvalue": 2911,
      "ris": 2912,
      "Ġkey": 2913,
      "ĠMe": 2914,
      "aves": 2915,
      "PU": 2916,
      "All": 2917,
      "Ġenemy": 2918,
      "Ġcrazy": 2919,
      "ift": 2920,
      "Ġthird": 2921,
      "Ġnor": 2922,
      "Ġuses": 2923,
      "Ġweb": 2924,
      "Does": 2925,
      "Ã¼": 2926,
      "Ġenc": 2927,
      "asons": 2928,
      "izing": 2929,
      "Ġparts": 2930,
      "Ġbigger": 2931,
      "Ġwaif": 2932,
      "ato": 2933,
      "Ġlooked": 2934,
      "Ġnatur": 2935,
      "ĠMost": 2936,
      "Ġasked": 2937,
      "Ġmot": 2938,
      "Ġreddit": 2939,
      "ĠNe": 2940,
      "ĠAnon": 2941,
      "Ġlower": 2942,
      "irt": 2943,
      "Ġscene": 2944,
      "Ġolder": 2945,
      "Ġcity": 2946,
      "MA": 2947,
      "iction": 2948,
      "Ġbeaut": 2949,
      "boy": 2950,
      "usting": 2951,
      "Ġrespect": 2952,
      "Ġproblems": 2953,
      "))": 2954,
      "Ġforever": 2955,
      "anch": 2956,
      "ney": 2957,
      "Ġshouldn": 2958,
      "Ġ#": 2959,
      "Ġchoo": 2960,
      "Ġeventually": 2961,
      "Ġdata": 2962,
      "gth": 2963,
      "list": 2964,
      "time": 2965,
      "Ġcy": 2966,
      "Ġgovernment": 2967,
      "Ã¤r": 2968,
      "dit": 2969,
      "ili": 2970,
      "Ġcart": 2971,
      "acking": 2972,
      "ĠON": 2973,
      "inc": 2974,
      "Wh": 2975,
      "ĠGood": 2976,
      "bin": 2977,
      "Ġargument": 2978,
      "Ġparty": 2979,
      "ources": 2980,
      "uel": 2981,
      "Ġfake": 2982,
      "bing": 2983,
      "Ġlikes": 2984,
      "itary": 2985,
      "uj": 2986,
      "aced": 2987,
      "ĠSc": 2988,
      "ĠDid": 2989,
      "oe": 2990,
      "irth": 2991,
      "EEEEEEEE": 2992,
      "Ġcards": 2993,
      "ami": 2994,
      "Ġworked": 2995,
      "Ġmatch": 2996,
      "Ġmeaning": 2997,
      "omen": 2998,
      "era": 2999
    },
    "merges": [
      "Ġ t",
      "Ġ a",
      "i n",
      "h e",
      "Ġ s",
      "r e",
      "Ġ w",
      "S E",
      "o u",
      "SE P",
      "o n",
      "Ġt he",
      "e r",
      "Ġ b",
      "i t",
      "h a",
      "in g",
      "Ġ m",
      "č Ċ",
      "i s",
      "Ġ f",
      "Ġ c",
      "o r",
      "n d",
      "Ġ d",
      "e s",
      "Ġ p",
      "l l",
      "e n",
      "Ġt o",
      "a n",
      "Ġ l",
      "Ġ g",
      "Ġ o",
      "e d",
      "s t",
      "Ġ y",
      "Ġ n",
      "Ġ I",
      "a t",
      "o m",
      "Ġa nd",
      "a r",
      "Ġy ou",
      "ha t",
      "Ġ in",
      "Ġo f",
      "l e",
      "Ġ e",
      "o t",
      ". [",
      "Ġb e",
      "i c",
      "Ġ is",
      "Ġ it",
      "v e",
      "a s",
      "Ġt h",
      "a l",
      "Ġ h",
      "Ġ ha",
      "o w",
      "e t",
      "Ġ re",
      "Ġ on",
      "l y",
      "u t",
      "s e",
      "k e",
      "Ġt hat",
      "a y",
      "a m",
      "Ġ u",
      "' s",
      "a c",
      "i m",
      "i d",
      "v er",
      "Ġ he",
      "l d",
      "a d",
      "Ġf or",
      "Ġs t",
      "i g",
      "r o",
      "i on",
      "Ġa n",
      "a ll",
      "' t",
      "ou t",
      "Ġ čĊ",
      "o o",
      "it h",
      "en t",
      "u c",
      "Ġ T",
      "i r",
      "Ġl i",
      "Ġw ith",
      "Ġ j",
      "i ll",
      "u st",
      "Ġd o",
      "Ġ A",
      "t er",
      "Ġ S",
      "Ġa re",
      "all y",
      "Ġ i",
      "Ġ r",
      "a g",
      "Ġs h",
      "o p",
      "e c",
      "Ġa s",
      "Ġm o",
      "Ġ k",
      "Ġw h",
      "Ġw e",
      "Ġb ut",
      "Ġn ot",
      "ou ld",
      "h t",
      "Ġli ke",
      "Ġm e",
      "Ġha ve",
      "Ġth is",
      "u r",
      "Ġs o",
      "? [",
      "c e",
      "Ġthe y",
      "Ġw as",
      "u n",
      "Ġn e",
      "Ġj ust",
      "i l",
      "an t",
      "k ing",
      "c h",
      "he r",
      "Ġs e",
      "om e",
      "Ġ or",
      "Ġc an",
      "Ġ M",
      "u s",
      "Ġa b",
      "am e",
      "Ġa t",
      "u m",
      "Ġt r",
      "Ġg et",
      ". .",
      "p s",
      "o l",
      "t h",
      "Ġa l",
      "Ġf r",
      "Ġm y",
      "Ġm a",
      "Ġ B",
      "Ġyou r",
      "a b",
      "ha n",
      "es t",
      "Ġ W",
      "e m",
      "ig ht",
      "er s",
      "p p",
      "e l",
      "Ġ C",
      "on e",
      "Ġa ll",
      "es s",
      "is t",
      "u l",
      "i e",
      "Ġ v",
      "n t",
      "a in",
      "Ġg o",
      "k s",
      "o s",
      "Ġ H",
      "Ġe x",
      "a st",
      "Ġc on",
      "a u",
      "Ġp l",
      "Ġw or",
      "v en",
      "Ġc om",
      "Ġ N",
      "Ġi f",
      "ar d",
      "Ġhe r",
      "Ġd on",
      "Ġ D",
      "Ġd e",
      "ver y",
      "Ġan y",
      "c t",
      "Ġw he",
      "ou g",
      "Ġab out",
      "Ġu p",
      "oo d",
      "Ġ P",
      "i ve",
      "o st",
      "Ġp ro",
      "i f",
      "ĠT he",
      "Ġs ome",
      "q u",
      "Ġ G",
      "Ġ out",
      "Ġf uc",
      "a nd",
      "t t",
      "Ġl e",
      "at e",
      "at ion",
      "a p",
      "Ġw hat",
      "Ġfr om",
      "Ġon e",
      "ar t",
      "Ġw ould",
      "in d",
      "o re",
      "u re",
      "au se",
      "i es",
      "Ġ 1",
      "Ġbe c",
      "â Ģ",
      "Ġ F",
      "Ġ R",
      "Ġthe m",
      "ac k",
      "Ġn o",
      "Ġs p",
      "Ġmo re",
      "Ġ L",
      "/ /",
      "Ġw ill",
      ": //",
      "im e",
      "Ġ (",
      "in k",
      "Ġs he",
      "Ġp e",
      "Ġ Y",
      "Ġ E",
      "Ġk n",
      "Ġsh it",
      "Ġ \"",
      "u b",
      "Ġa r",
      "h ing",
      "id e",
      "' m",
      "op le",
      "o d",
      "' re",
      "Ġin t",
      "Ġ O",
      "in e",
      "a re",
      "Ġw ant",
      "Ġe ven",
      "Ġ 2",
      "oug h",
      "on g",
      "Ġb y",
      "Ġbec ause",
      "Ġwh o",
      "Ġha s",
      "Ġthe re",
      "ec t",
      "ou r",
      "o c",
      "Ġpe ople",
      "a k",
      "Ġkn ow",
      "Ġt han",
      "it y",
      "Ġf e",
      "Ġwhe n",
      "re ad",
      "Ġ en",
      "t her",
      "Ġon ly",
      "âĢ Ļ",
      "Ġp re",
      "s o",
      "g e",
      "Ġthe ir",
      "r a",
      "an s",
      "Ġg ood",
      "Ġh ow",
      "it e",
      "f e",
      "Ġu s",
      "c om",
      "ou nd",
      "Ġe very",
      "Ġu n",
      "or t",
      "Ġd id",
      "Ġa ct",
      "Ġdo es",
      "Ġ im",
      "uc h",
      "r y",
      "Ġh tt",
      "w w",
      "ou s",
      "Ġg ame",
      "ĠI t",
      "ag e",
      "Ġhtt ps",
      "p l",
      "f f",
      "r i",
      "t ing",
      "Ġpl ay",
      "i z",
      "e ar",
      "Ġth ink",
      "Ġt ime",
      "l f",
      "Ġl oo",
      "u d",
      "Ġo ther",
      "Ġm an",
      "ic e",
      "p t",
      "0 0",
      "i re",
      "ac t",
      "Ġto o",
      "Ġ K",
      "Ġh is",
      "ay s",
      "e ll",
      "u e",
      "Ġa g",
      "e p",
      "Ġth ing",
      "Ġg u",
      "o se",
      "Ġn ow",
      "Ġre ally",
      "Ġc ha",
      "A A",
      "Ġ J",
      "Ġma ke",
      "u ally",
      "Ġbe ing",
      "Ġbe t",
      "Ġc l",
      "ic k",
      "i v",
      "T he",
      "p er",
      "Ġfuc k",
      "Ġo ver",
      "Ġc h",
      "Ġb u",
      "b le",
      "Ġs u",
      "ic h",
      "Ġ qu",
      "Ġne ed",
      "Ġs a",
      "i le",
      "Ġcom p",
      "Ġst ill",
      "Ġthe n",
      "Ġb l",
      "Ġl o",
      "i a",
      "at ch",
      "h y",
      "in t",
      "i p",
      "Ġint o",
      "Ġm uch",
      "as s",
      "Ġfuc king",
      "Ġs c",
      "om et",
      "Ġha d",
      "Ġ 3",
      "Ġh im",
      "ac e",
      "Ġwe re",
      "b e",
      "Ġse e",
      "a ke",
      "ab le",
      "Ġa m",
      "s s",
      "ow n",
      "Ġof f",
      "Ġg ot",
      "th ing",
      "s h",
      "ad e",
      "Ġl it",
      "is h",
      "ĠY ou",
      "Ġp ost",
      "Ġa d",
      "Ġp o",
      "O O",
      "o y",
      "Ġb r",
      "Ġc ould",
      "a h",
      "Ġs omet",
      "Ġb ack",
      "at ed",
      "Ġre t",
      "m ent",
      "Ġbe en",
      "Ġp r",
      "t e",
      "Ġne ver",
      "Ġy ear",
      "Ġ U",
      "Ġg r",
      "Ġmo st",
      "v ing",
      "Ġsh ould",
      "Ġgo ing",
      "Ġw ay",
      "uc k",
      "Ġal so",
      "re d",
      "i al",
      "Ġu se",
      "o b",
      "n y",
      "Ġa f",
      "i ous",
      ".. .",
      "as e",
      "o g",
      "' ve",
      "Ġd is",
      "on d",
      "Ġhe re",
      "Ġwh y",
      "se lf",
      "ion s",
      "ul t",
      "Ġd es",
      "Ġsomet hing",
      "Ġ ke",
      "h is",
      "on s",
      "nd er",
      "p e",
      "ir l",
      "Ġcha r",
      "' ll",
      "Ġ ro",
      "Ġg en",
      "Ġbet ter",
      "Ġact ually",
      "Ġne w",
      "Ġs ay",
      "Ġr ight",
      "u ll",
      "Ġ /",
      "or m",
      "! [",
      "Ġc o",
      "ou nt",
      "Ġre al",
      "i an",
      "ut e",
      "Ġtr y",
      "re at",
      "Ġs ame",
      "ã ģ",
      "Ġcon t",
      "ic ally",
      "Ġfe el",
      "Ġaf ter",
      "Ġ 4",
      "I t",
      "b er",
      "Ġdoes n",
      "Ġit s",
      "Ġth read",
      "re e",
      "ir st",
      "Ġag ain",
      "i k",
      "Ġwor k",
      "re nt",
      "a v",
      "ot her",
      "ab ly",
      "Ġwh ich",
      "Ġret ard",
      "is s",
      "Ġw r",
      "Ġa c",
      "w n",
      "u al",
      "en s",
      "Ġt e",
      "or y",
      "y out",
      "r d",
      "ac ter",
      "m e",
      "n a",
      "Ġs l",
      "am es",
      "Ġha pp",
      "Y ou",
      "Ġ V",
      "Ġt w",
      "in ce",
      "ig n",
      "re n",
      "ww w",
      "f ore",
      "ig g",
      "ve l",
      "i ld",
      "or d",
      "Ġst art",
      "Ġp art",
      "ac h",
      "Ġwhe re",
      "' d",
      "Ġgu y",
      "f t",
      "Ġw om",
      "Ġp er",
      "Ġg irl",
      "Ġloo k",
      "Ġmo d",
      "Ġb as",
      "Ġf un",
      "Ġchar acter",
      "t he",
      "w e",
      "ur n",
      "Ġ 5",
      "Ġf l",
      "w ays",
      "Ġf irst",
      "E E",
      "en ce",
      "Ġre m",
      "a il",
      "Ġas s",
      "x t",
      "Ġe nd",
      "Ġin st",
      "Ġ very",
      "er ally",
      "ub e",
      "Ġst u",
      "t le",
      "Ġs m",
      "it s",
      "Ġbe fore",
      "Ġb ad",
      "Ġs er",
      "Ġd own",
      "Ġm ade",
      "b ably",
      "Ġre s",
      "tt y",
      "Ġu nder",
      "Ġpo int",
      "am p",
      "oc k",
      "l ess",
      "Ġthe se",
      "Ġc r",
      "n e",
      "Ġan on",
      "Ġth ose",
      "oo l",
      "Ġd r",
      "Ġth ough",
      "k es",
      "Ġd if",
      "Ġdid n",
      "Ġs ince",
      "Ġc he",
      "Ġlo ve",
      "Ġb ot",
      ".. .[",
      "Ġyear s",
      "Ġ -",
      "Ġt al",
      "Ġwh ile",
      "e ah",
      "an g",
      "v es",
      "oug ht",
      "re ss",
      "os s",
      "Ġl ot",
      "op e",
      "Ġany thing",
      "Ġl ong",
      "Ġd ec",
      "Ġc han",
      "Ġha rd",
      "Ġwe ll",
      "i ed",
      "m a",
      "is e",
      "ic al",
      "Ġat t",
      "od y",
      "he d",
      "ĠI f",
      "Ġth r",
      "Ġa pp",
      "Ġget ting",
      "us s",
      "Ġ Ð",
      "Ġm on",
      "w ay",
      "! !",
      "Ġpre tty",
      "ver s",
      "Ġal ways",
      "Ġim p",
      "at ing",
      "Ġg ames",
      "e ad",
      "ow er",
      "Ġd ay",
      "u g",
      "read y",
      "Ġt ake",
      "as on",
      "i er",
      "Ġo wn",
      "Ġre ad",
      "e re",
      "an ce",
      "AA AA",
      "Ġme an",
      "ie nd",
      "ers on",
      "Ġpro bably",
      "ig h",
      "ĠThe y",
      "Ġis n",
      "ar y",
      "g ot",
      "Ġk ind",
      "Ġs k",
      "Ġal ready",
      "e ver",
      "Ġar ound",
      "ic s",
      "Ġthing s",
      "Ġe l",
      "Ġ z",
      "Ġre l",
      "Ġo ld",
      "a ve",
      "Ġb it",
      "I N",
      "re am",
      "ay be",
      "n ing",
      "ic t",
      "Ġ hat",
      "Ġk ill",
      "yout ube",
      "Ġb est",
      "Ġsh ow",
      "Ġb o",
      "W hat",
      "Ġo b",
      "at er",
      "E R",
      "i b",
      "m er",
      "t y",
      "Ġe ver",
      "a it",
      "Ġdo ing",
      "Ġdif fe",
      "g et",
      "l es",
      "c k",
      "v ent",
      "ar k",
      "n g",
      "ht t",
      "Ġen ough",
      "Ġlit erally",
      "ĠA nd",
      "e w",
      "htt ps",
      "H A",
      "Ġs ure",
      "ĠA l",
      "at h",
      "v ed",
      "Ġ ent",
      "Ġcon s",
      "Ġli fe",
      "i ly",
      "w atch",
      "Ġs ha",
      "Ġc are",
      "Ġf ind",
      "Ã ¤",
      "Ġs im",
      "Ġwor ld",
      "b o",
      "Ġse x",
      "i x",
      "ĠS t",
      "im es",
      "Ġin c",
      "Ġ2 0",
      "Ġp erson",
      "Ġst r",
      "a z",
      "Ġsu pp",
      "Ġex p",
      "or s",
      "f ul",
      "ĠT hat",
      "ĠB ut",
      "Ġf ag",
      "Ġr un",
      "Ġsa id",
      "i o",
      "oo k",
      "Ġe m",
      "e k",
      "as h",
      "Ġar t",
      "ĠH e",
      "Ġke ep",
      "Ġc all",
      "he s",
      "Ġp ut",
      "Ġsome one",
      "Ġre c",
      "Ġha nd",
      "Ġbe l",
      "Ġle ast",
      "h o",
      "i ble",
      "Ġnot hing",
      "he re",
      "Ġma kes",
      "Ġse em",
      "ter n",
      "Ġm in",
      "Ġb ro",
      "Ġwom en",
      "Ġl ast",
      "g r",
      "Ġman y",
      "m an",
      "Ġf in",
      "Ġst op",
      "Ġwith out",
      "ard s",
      "Ġstu ff",
      "Ġb ig",
      "Ġg ive",
      "Ġtw o",
      "is m",
      "e nd",
      "Ġus ed",
      "ce pt",
      "ĠW hat",
      "Ġl et",
      "Ġt ell",
      "n o",
      "Ġhapp en",
      "ĠC h",
      "Ġha ving",
      "w it",
      "it ion",
      "a w",
      "Ġc ount",
      "Ġe as",
      "it her",
      "ĠT his",
      "Ġa ut",
      "i ke",
      "um b",
      "Ġad d",
      "Ġre ason",
      "Ġ ide",
      "Ġgen er",
      "ul ar",
      "o k",
      "ation s",
      "Ġthr ough",
      "Ġhe l",
      "Ġo p",
      "or n",
      "Ġac c",
      "Ġin s",
      "l o",
      "Ġfr iend",
      "Ġ1 0",
      "o ld",
      "Ġlit tle",
      "Ġw on",
      "t s",
      "Ġfe w",
      "Ġs ec",
      "le ase",
      "Ġt urn",
      "Ġcom m",
      "Ġs et",
      "T his",
      "Ġinst ead",
      "ir d",
      "Ġf ar",
      "Ġ 6",
      "f ag",
      "Ġg reat",
      "Ġtry ing",
      "Ġloo ks",
      "Ġdiffe rent",
      "Ġm ight",
      "Ġw ar",
      "Ġbu y",
      "an n",
      "um p",
      "Ġu nt",
      "Ġin f",
      "Ġde f",
      "er t",
      "en se",
      "Ġel se",
      "Ġth ought",
      "OO OO",
      "Ġma king",
      "Ġcomp le",
      "one y",
      "Ġan other",
      "es e",
      "ĠI n",
      "Ġh um",
      "p le",
      "iz e",
      "ble m",
      "a i",
      "d uc",
      "W hy",
      "Ġevery one",
      "as ed",
      "in s",
      "j ect",
      "Ġbot h",
      "d ay",
      "Ġevery thing",
      "ĠN o",
      "Ġm en",
      "c i",
      "Ġm at",
      "he n",
      "T hat",
      "Ġus ing",
      "an k",
      "ĠT H",
      "o ll",
      "y ou",
      "c es",
      "Ġs ub",
      "e e",
      "g g",
      "Ġs ch",
      "Ġf ull",
      "a le",
      "Ġs ur",
      "Ġs y",
      "Ġunt il",
      "N o",
      "u p",
      "Ġc le",
      "ere st",
      "Ġs ing",
      "st and",
      "Ġl ess",
      "Ġc ome",
      "a king",
      "Ġe ar",
      "t en",
      "Ġre p",
      "Ġhat e",
      "Ġretard ed",
      "Ġsp ec",
      "Ġpro blem",
      "Ġre g",
      "on na",
      "Ġin d",
      "Ġget s",
      "at es",
      "ist s",
      "Ġw atch",
      "Ġf act",
      "Ġc ur",
      "Ġne xt",
      "Ñ Ĥ",
      "Ġm oney",
      "Ġb re",
      "Ġh igh",
      "Ġl ol",
      "2 0",
      "Ġm ent",
      "al s",
      "at s",
      "v ious",
      ") [",
      "Ġm iss",
      "ĠS he",
      "ã Ĥ",
      "Ġn orm",
      "Ġs uch",
      "O U",
      "igg er",
      "Ġt er",
      "Ġdis c",
      "Ġbel ie",
      "ow s",
      "at her",
      "Ġfag got",
      "p r",
      "? ?",
      "ĠThe re",
      "Ġex t",
      "Ġe ither",
      "Ġany one",
      "Ġyour self",
      "Ġc ar",
      "Ġn ice",
      "Ġg l",
      "Ð ¸",
      "A N",
      "ĠS o",
      "Ġg onna",
      "Ġp ower",
      "on t",
      "Ġ 9",
      "Ġplay ing",
      "H H",
      "Ġt y",
      "Ġunder stand",
      "em ber",
      "Ġth in",
      "ec h",
      "Ġhel p",
      "L L",
      "o ot",
      "Ġwr ong",
      "ter s",
      "Ġm et",
      "Ġc ute",
      "ud e",
      "1 0",
      "Ġm aybe",
      "Ġd am",
      "Ġint erest",
      "et s",
      "a ir",
      "Ġst ory",
      "Ġgu ess",
      "i ally",
      "b s",
      "Ġs ound",
      "Ġle vel",
      "Ġp op",
      "m y",
      "Ġ our",
      "Ġbas ed",
      "C K",
      "Ġ es",
      "Ġf ight",
      "w hat",
      "Ġj ob",
      "Ġdon t",
      "Ġh our",
      "Ġent ire",
      "Ġin v",
      "Ġm us",
      "Ġmon th",
      "Ġhe ad",
      "Ġ 7",
      "H e",
      "l t",
      "c ed",
      "Ġgirl s",
      "e x",
      "IN G",
      "Ġf ree",
      "Ġon ce",
      "Ġcomple te",
      "m ost",
      "Ġguy s",
      "Ġh ope",
      "Ġm om",
      "i ans",
      "Ġtr ans",
      "Ġ Z",
      "or g",
      "e g",
      "Ġex pl",
      "Ġ id",
      "j oy",
      "Ã ©",
      "n ot",
      "Ġm ed",
      "id er",
      "ĠN ot",
      "k ed",
      "id s",
      "Ġcharacter s",
      "Ġm ind",
      "Ġv ide",
      "v ie",
      "Ġsing le",
      "Ġwh ite",
      "I s",
      "ra w",
      "Ġa way",
      "ing s",
      "O N",
      "Ġt imes",
      "in a",
      "Ġare n",
      "er n",
      "Ġli ve",
      "ĠS h",
      "H ow",
      "ĠW e",
      "d d",
      "pl ay",
      "ap an",
      "Ġpl ace",
      "Ġide a",
      "c l",
      "m ed",
      "at ive",
      "Ġtal king",
      "R E",
      "ĠI s",
      "Ġ 8",
      "if e",
      "ĠAl so",
      "Ġf em",
      "Ġy et",
      "o es",
      "Ġper f",
      "I f",
      "os ed",
      "Ġto p",
      "Ġe ff",
      "od e",
      "st er",
      "Ġd one",
      "Ġc or",
      "a pp",
      "Ġloo king",
      "Ġc ool",
      "ar s",
      "Ġwho le",
      "Ġco ll",
      "c han",
      "Ġqu est",
      "ent s",
      "u k",
      "c o",
      "Ġj o",
      "if ic",
      "ast e",
      "per i",
      "Ġab s",
      "Ġle ft",
      "Ġ '",
      "The y",
      "y s",
      "au g",
      "m s",
      "Ġf at",
      "Ġsp e",
      "Ġs w",
      "we en",
      "iv es",
      "un ch",
      "ate ly",
      "al ity",
      "ar n",
      "u nd",
      "Ġwould n",
      "Ġp oss",
      "Ġcon f",
      "u ro",
      "Ġen joy",
      "ĠH ow",
      "Ġsec ond",
      "l ed",
      "ag ine",
      "Ġe vent",
      "d e",
      "d s",
      "an e",
      "S T",
      "Ġbu ild",
      "ot s",
      "Ġre st",
      "Ġp ay",
      "c ess",
      "Ġbu ll",
      "o ve",
      "sh it",
      "Ġw ait",
      "ma o",
      "Ġbl ack",
      "Ġs uc",
      "Ġe ach",
      "Ġ1 00",
      "Ġex ist",
      "Ġst ream",
      "iz ed",
      "ĠA n",
      "Ġagain st",
      "ar ch",
      "Ġ X",
      "h ow",
      "Ġl ist",
      "on est",
      "Ġwr it",
      "Ġe t",
      "Ã ¥",
      "h h",
      "y ing",
      "Ġbet ween",
      "ag es",
      "ĠA s",
      "p ost",
      "m ore",
      "i pp",
      "Ġis s",
      "Ġwor th",
      "ur ing",
      "HA HA",
      "ĠA r",
      "ir on",
      "ol ute",
      "Ġtr ue",
      "Ġse en",
      "Ġg ay",
      "Ġab le",
      "ec ause",
      "S he",
      "Ġseem s",
      "d er",
      "t ed",
      "ou n",
      "m m",
      "Ġon es",
      "Ġ ed",
      "Ġag o",
      "in al",
      "Ġrem ember",
      "b ody",
      "n ess",
      "Ġc ap",
      "Ġb ody",
      "Ġsm all",
      "Ġp h",
      "Ġf ace",
      "Ġbelie ve",
      "Ġde ad",
      "1 6",
      "m o",
      "a a",
      "el s",
      "Ġhum an",
      "i ps",
      "en e",
      "Ġdes ign",
      "Ġd ays",
      "AAAA AAAA",
      "Ġe v",
      "Ġle g",
      "ĠTH E",
      "Ġc re",
      "il ity",
      "ol og",
      "Ġf ine",
      "Ġst and",
      "b l",
      "mer ic",
      "re en",
      "Ġsay ing",
      "Ġd em",
      "Ġwas n",
      "Ġre f",
      "Ġd ro",
      "Ġ $",
      ".. ..",
      "Ġres p",
      "I T",
      "Ġwom an",
      "ure s",
      "ĠJ ust",
      "st em",
      "Ġ vers",
      "p ec",
      "Ġact ual",
      "b r",
      "Ġin ter",
      "Ġha lf",
      "Ġd ie",
      "ak es",
      "Ġy es",
      "O T",
      "u h",
      "Ġf il",
      "ĠW hy",
      "Ġs it",
      "Ġch ild",
      "Ġ Ġ",
      "A T",
      "c ha",
      "w here",
      "Ġ âĢ",
      "ire d",
      "ou se",
      "Ġa v",
      "Ġme m",
      "Ġh ot",
      "Ġ er",
      "Ġal most",
      "an y",
      "Ġn on",
      "Ġp ol",
      "Ġn ame",
      "Ġma in",
      "Ġb oy",
      "Ð ½",
      "Ġme ans",
      "it ies",
      "Ġop en",
      "yout u",
      "are d",
      "p id",
      "l ine",
      "Ġl ow",
      "S o",
      "Y eah",
      "Ġst e",
      "t r",
      "Ġm ar",
      "g y",
      "y es",
      "Ġl a",
      "Ġw ent",
      "us h",
      "Ġp ic",
      "se l",
      "ist ic",
      "Ġg un",
      "Ġa w",
      "Ġte am",
      "Ġwhat ever",
      "A R",
      "Ġc ut",
      "Ġan ime",
      "Ġd et",
      "Ġh it",
      "EE EE",
      "c y",
      "Ġhour s",
      "Ġp ass",
      "g er",
      "Ĩ Ĵ",
      "â ĨĴ",
      "E S",
      "Ġwant ed",
      "ond er",
      "Ġnorm al",
      ") .",
      "Ġstu pid",
      "Ġwe ird",
      "ĠT h",
      "id d",
      "Ġwe ek",
      "5 0",
      "Ġw ish",
      "in es",
      "re s",
      "E N",
      "Ġp ar",
      "Ġbas ically",
      "Ġcl ass",
      "w or",
      "o f",
      "Ġabs olute",
      "u es",
      "i et",
      "Ġcont ro",
      "re t",
      "Ġtal k",
      "Ġor ig",
      "Ġs ense",
      "Ġ :",
      "g a",
      "in ite",
      "ĠU S",
      "Ġcle ar",
      "Ġde v",
      "Ġd el",
      "Ġgener al",
      "Ġc our",
      "ĠA meric",
      "Ġwor ks",
      "wit ter",
      "Ġmat ter",
      "r act",
      "I I",
      "Ġd umb",
      "Ġo k",
      "Ġfuck ed",
      "Ġmy self",
      "Ġstart ed",
      "g ing",
      ") ,",
      "Ġsy stem",
      "Ø §",
      "in o",
      "Ġw in",
      "Ġh or",
      "Ġf am",
      "a x",
      "Ġex act",
      "Ã ¶",
      "ct ion",
      "Ġcomplete ly",
      "s ide",
      "Ġchan ge",
      "o le",
      "Ġsu per",
      "Ġan im",
      "Ġ3 0",
      "l s",
      "Ġm il",
      "ĠR e",
      "ĠA I",
      "Ġet c",
      "b y",
      "f r",
      "or ry",
      "t o",
      "Ġbr ain",
      "Ġe p",
      "Ġwor se",
      "Ġcount ry",
      "Ġo pt",
      "Ġc op",
      "id es",
      "ot e",
      "Ġf an",
      "o Ð",
      "it ed",
      "l and",
      "Ġre qu",
      "o om",
      "Ġex peri",
      "Ġf ast",
      "Ġh ome",
      "ã ĥ",
      "Ġthread s",
      "Ġm or",
      "bo x",
      "O R",
      "Ġf av",
      "sel ves",
      "Ġar g",
      "Ġb oo",
      "Ġfriend s",
      "m ing",
      "N ot",
      "r ist",
      "n er",
      "Ġm ay",
      "Ġv al",
      "ent ly",
      "Ġm ag",
      "Ġmo ve",
      "ert ain",
      "Ġl ar",
      "ĠM y",
      "Ġsupp ort",
      "ĠO r",
      "ro s",
      "Ġp ast",
      "ac ks",
      "m on",
      "2 3",
      "Ġr ap",
      "Ġthin king",
      "Ġexp ect",
      "Ġeas y",
      "g in",
      "um e",
      "th is",
      "Ġto day",
      "Ġm ust",
      "Ġs ide",
      "and om",
      "Ġ &",
      "Ġle arn",
      "Ġen g",
      "Ġpro duc",
      "p ed",
      "ow ing",
      "Ġ +",
      "Ġbec ome",
      "Ġvide o",
      "Ġe at",
      "c hed",
      "Ġy eah",
      "ment s",
      "Ġt ech",
      "m p",
      "u se",
      "b ut",
      "Ġstr ong",
      "Ġd ou",
      "are nt",
      "g le",
      "o ice",
      "ren ce",
      "Ġan n",
      "Ġb at",
      "Ġd raw",
      "Ġc ame",
      "ĠB l",
      "Ġse lf",
      "Ġf ound",
      "l ing",
      "ro ss",
      "Ġser ies",
      "t a",
      "Ġf ore",
      "Ġ x",
      "Ġw onder",
      "w h",
      "Ġn ight",
      "l ic",
      "g o",
      "Ġc ol",
      "U CK",
      "o id",
      "pec ially",
      "Ġfor m",
      "s c",
      "o h",
      "il ar",
      "or ing",
      "ĠG od",
      "Ġplay ed",
      "ant s",
      "Y es",
      "g ed",
      "al th",
      "ĠD o",
      "Ġany more",
      "ĠY OU",
      "t f",
      "le ep",
      "Ġc ase",
      "ĠJ apan",
      "Ġ ill",
      "ud d",
      "Ġd uring",
      "Ġcom es",
      "Ġhappen ed",
      "Ġp ur",
      "Ġr ather",
      "Ġl ater",
      "Ġl mao",
      "Ġm ass",
      "t hat",
      "Ġtr ied",
      "Ġp at",
      "Ġqu e",
      "an ny",
      "un k",
      "Ġwant s",
      "Ġpl an",
      "Ġfun ny",
      "Ġob vious",
      "Ġm ult",
      "han ks",
      "Ġneed s",
      "ĠM ar",
      "ĠO P",
      "w hy",
      "er o",
      "c hes",
      "qu e",
      "sh ip",
      "Ġgo es",
      "Ġwe ap",
      "ĠO n",
      "Ġha ven",
      "ion al",
      "Ġperf ect",
      "Ġgo d",
      "ain ing",
      "a id",
      "Ġo pp",
      "Ġcur rent",
      "Ġwor king",
      "Ġg i",
      "Ġcont ent",
      "Ġde al",
      "The re",
      "Ġre pl",
      "r on",
      "Ġ 0",
      "ĠS p",
      "r it",
      "Ġs n",
      "z y",
      "Ġd ick",
      "Ġcall ed",
      "Ġf re",
      "00 0",
      "Ġf ail",
      "Ġf ood",
      "Ġf oll",
      "Ġany way",
      "Ġh onest",
      "Ġmus ic",
      "Ġvers ion",
      "Ġh y",
      "ĠA N",
      "Ġc ult",
      "f er",
      "vel op",
      "Ġe le",
      "at us",
      "Ġd ire",
      "Ġf ix",
      "w ard",
      "Ġsh ort",
      "Ġsupp osed",
      "in ed",
      "Ġthem selves",
      "Ġdam age",
      "Ġso l",
      "âĢ Ŀ",
      "r u",
      "Ġhe ll",
      "at ure",
      "ĠA ll",
      "c ial",
      "Ġh old",
      "ĠR uss",
      "Ġm ark",
      "y le",
      "Ġso on",
      "Ġ ve",
      "Ġ Q",
      "Ġposs ible",
      "ant ly",
      "inite ly",
      "Ġcour se",
      "Ġse ll",
      "il es",
      "is ed",
      "Ġmonth s",
      "Ġw ife",
      "Ġad v",
      "te nd",
      "S t",
      "am a",
      "ive ly",
      "k en",
      "Ġs ays",
      "Ġwe e",
      "Ġl os",
      "Ġre d",
      "Ġb ar",
      "\" [",
      "Ġf ut",
      "Ġcon st",
      "Ġpr om",
      "Ġre le",
      "Ġp lease",
      "Ġde ath",
      "Ġl ost",
      "Ġsk ill",
      "ie ld",
      "Ġl ight",
      "i ent",
      "E D",
      "Ġun i",
      "p h",
      "Ġp ull",
      "l ike",
      "Ġf all",
      "Ġdo g",
      "m or",
      "lo ad",
      "Ġc ou",
      "Ġkind a",
      "s w",
      "iv ing",
      "a Ð",
      "Ġp ick",
      "Ġha ir",
      "Ġr u",
      "a im",
      "he t",
      "wit ch",
      "Ġt ro",
      "o ly",
      "on es",
      "Ġd i",
      "at a",
      "Ġim age",
      "ĠU n",
      "i ec",
      "ĠB e",
      "or ies",
      "M y",
      "Ġin tern",
      "Ġ *",
      "W e",
      "Ġsch ool",
      "Ġpr ot",
      "Ġr andom",
      "ĠF or",
      "k a",
      "t witter",
      "V E",
      "an ge",
      "is hed",
      "I S",
      "Ġbo ard",
      "er y",
      "g en",
      "Ġd ist",
      "Ġcl ose",
      "Ġother s",
      "ag on",
      "Ġen em",
      "1 1",
      "Ġas k",
      "Ġto get",
      "Ġl im",
      "Ġtoget her",
      "Ġto t",
      "U U",
      "Ġde velop",
      "Ġbre ak",
      "ar ing",
      "re me",
      "Ġcons ider",
      "uc t",
      "Ġa p",
      "u z",
      "Ġquest ion",
      "r ain",
      "Ġv ar",
      "Ġsp end",
      "em ent",
      "Ġan t",
      "fag s",
      "i j",
      "Ġshit ty",
      "Ġd a",
      "ac es",
      "w ards",
      "r ap",
      "ĠF UCK",
      "Ġf ig",
      "Ġimp ort",
      "Ġche ck",
      "Ġp os",
      "Ġd est",
      "A M",
      "Ġpost ing",
      "Ġpro per",
      "at or",
      "o ke",
      "Ġp orn",
      "y a",
      "Ġme me",
      "Ġbit ch",
      "ĠF r",
      "Ġout side",
      "us ed",
      "Ġgr ou",
      "uro pe",
      "un t",
      "Ġst ud",
      "Ġsch iz",
      "er al",
      "Ġfeel s",
      "f or",
      "Ġeff ect",
      "I G",
      "Ġw ater",
      "Ġs ou",
      "Ġs ign",
      "O h",
      "u ff",
      "re ct",
      "Ġp ub",
      "c on",
      "Ġorig inal",
      "Ġfav or",
      "Ġp ain",
      "J ust",
      "!! !!",
      "Ġinc l",
      "Ġment ion",
      "Ġl oc",
      "ĠW h",
      "c c",
      "out h",
      "Ġc at",
      "Ġt aking",
      "Ġlike ly",
      "Ġexperi ence",
      "u ge",
      "f it",
      "Ġc ry",
      "Ġtoo k",
      "Ġcom ing",
      "p o",
      "hy s",
      "l ish",
      "Ġcom b",
      "ar r",
      "Ġm ill",
      "ang u",
      "Ġcom pl",
      "Ġw al",
      "p ro",
      "Ġn igg",
      "Ġv is",
      "Ġiss ue",
      "Ġt est",
      "O M",
      "b t",
      "p ect",
      "Ġs ort",
      "Ġp ot",
      "Ġser ious",
      "ac y",
      "Ġc ra",
      "ĠâĢ ľ",
      "Ġhapp y",
      "ut ion",
      "Ġc ock",
      "Ġp ri",
      "Ġle ad",
      "Ġro ll",
      "Ġsh oot",
      "er ing",
      "ic es",
      "Ġe qu",
      "p ly",
      "Ġne ar",
      "c le",
      "u x",
      "Ġh ist",
      "Ġs leep",
      "Ġex cept",
      "Ġes pecially",
      "Ġexact ly",
      "ent ion",
      "c he",
      "r ight",
      "Ġc ost",
      "ain s",
      "Ġcont in",
      "ĠD on",
      "Ġty pe",
      "Ġpop ular",
      "ĠD e",
      "Ġc ertain",
      "Ġam ount",
      "Ġun less",
      "ut es",
      "a j",
      "Ġde p",
      "f ull",
      "ore d",
      "Ġus ually",
      "Ġf ire",
      "s y",
      "Ġsound s",
      "le t",
      "ĠC ha",
      "ar b",
      "s he",
      "l er",
      "Ġst ay",
      "ver age",
      "r ies",
      "Ġ [",
      "Ġ1 9",
      "Ġ âĨĴ",
      "Ġf ur",
      "R e",
      "ĠE ven",
      "m it",
      "Ġep is",
      "Ġmod el",
      "OOOO OOOO",
      "Ġc a",
      "3 0",
      "Ġk ids",
      "_ _",
      "D o",
      "an a",
      "8 0",
      "Ġqu ite",
      "amp le",
      "Ġsa w",
      "Ġinterest ing",
      "Ġear ly",
      "A n",
      "Ġro om",
      "an na",
      "j ust",
      "Ġp ict",
      "r ing",
      "Ġsh ot",
      "p ing",
      "re l",
      "Ġl ine",
      "Ù Ħ",
      "Ġst ra",
      "Ġall ow",
      "Ġs al",
      "ik i",
      "Ġmo vie",
      "y e",
      "Ġpre s",
      "Ġs ad",
      "Ã ¡",
      "r ic",
      "Ġc ard",
      "Ġdef initely",
      "a ut",
      "Ġc reat",
      "ver n",
      "S S",
      "f orm",
      "o on",
      "Ġsa ve",
      "ver se",
      "Ġb us",
      "ĠA ny",
      "O W",
      "Ġm ess",
      "g es",
      "Ġche ap",
      "iron ically",
      "r ow",
      "f l",
      "w are",
      "at ur",
      "E T",
      "A L",
      "Ġha r",
      "ĠC an",
      "Ġma le",
      "aug h",
      "ip le",
      "el t",
      "vie w",
      "Ġpost s",
      "Ġle ave",
      "c at",
      "ĠN ow",
      "Ġh ouse",
      "Ġ ign",
      "Ġb ook",
      "Ġdes p",
      "a ult",
      "Ġpo or",
      "um ent",
      "Ġcomm un",
      "Ġsim ilar",
      "Ġs ong",
      "re w",
      "Ġ5 0",
      "Ġl angu",
      "f ort",
      "Ġd ue",
      "i um",
      "Ġb ann",
      "Ġread ing",
      "Ġfam ily",
      "Ġfem ale",
      "ect ion",
      "Ġv ir",
      "Ġd ude",
      "the y",
      "Ġchan ce",
      "I n",
      "Ġf air",
      "ĠM aybe",
      "Ġthan ks",
      "Ġs uck",
      "ri ed",
      "Ġso cial",
      "Ġma j",
      "Ġabsolute ly",
      "Ġst ate",
      "Ġb unch",
      "Ġcou ple",
      "Ġn igger",
      "Ġim agine",
      "z e",
      "full y",
      "Ġbro s",
      "Ġbull shit",
      "Ġfut ure",
      "Ġb oss",
      "k y",
      "Ġknow s",
      "h ind",
      "Ġt akes",
      "Ġsk in",
      "Ġb are",
      "1 5",
      "Ġup d",
      "Ġh ig",
      "or a",
      "Ġmost ly",
      "Ġc ent",
      "id ent",
      "\" \"",
      "Ġrel ated",
      "A nd",
      "g s",
      "Ġb ab",
      "Ġa ff",
      "ĠI S",
      "i en",
      "ha ha",
      "Ġsur pr",
      "b it",
      "Ġfin ally",
      "o x",
      "am n",
      "O L",
      "w ise",
      "1 9",
      "Ġs qu",
      "Ġbe at",
      "oo oo",
      "ound s",
      "y m",
      "Ġu g",
      "Ġpro ject",
      "e red",
      "Ġs um",
      "Ġrun ning",
      "Ġl uck",
      "Ġstra ight",
      "um ber",
      "l it",
      "Ġmod ern",
      "pe nd",
      "1 2",
      "Ġc ause",
      "as es",
      "Ġwor st",
      "A D",
      "ĠA t",
      "Ġsl ow",
      "Ġal one",
      "Ġv i",
      "uss y",
      "he ad",
      "Ġsc reen",
      "Ġwatch ing",
      "Ġext reme",
      "om b",
      "Ġto ld",
      "ĠE very",
      "Ġno body",
      "i i",
      "Ġacc ount",
      "in ess",
      "Ġa ge",
      "Ġp hys",
      "Ġhim self",
      "ie w",
      "Ġlist en",
      "is on",
      "Ġbr ing",
      "Ġbe hind",
      "/ [",
      "Ġmom ent",
      "gr am",
      "Ġit self",
      "Ġdire ct",
      "Ġmark et",
      "Ġme ant",
      "Ġ =",
      "Ġan sw",
      "er man",
      "Ġcl aim",
      "ĠP ro",
      "Ġplay ers",
      "Ġcould n",
      "HH HH",
      "Ġsp ace",
      "Ġhe ard",
      "ĠP e",
      "our ce",
      "Ġcontro l",
      "Ġk id",
      "A l",
      "Ġ4 0",
      "u u",
      "ĠL ike",
      "Ġe yes",
      "Ġhand s",
      "Ġex ample",
      "Ġsp am",
      "Ġl ose",
      "ĠI T",
      "Ġpost ed",
      "Ġc ant",
      "Ġhapp ens",
      "S h",
      "er ic",
      "Ġof ten",
      "ĠT r",
      "Ġyou ng",
      "ĠT O",
      "and s",
      "Ġg ives",
      "Ġh uge",
      "U T",
      "4 0",
      "f ic",
      "Ġf it",
      "Ġsee ing",
      "Ġs we",
      "un ny",
      "or ity",
      "Ù Ĭ",
      "t w",
      "Ġmin utes",
      "Ġp iec",
      "ag ed",
      "Ġm er",
      "Ð »",
      "Ġp en",
      "Ġso ci",
      "Ġn ec",
      "d o",
      "Ġse et",
      "ot h",
      "Ġ1 2",
      "ĠL e",
      "ĠP l",
      "Ġal ong",
      "Ġa ir",
      "it al",
      "Ġw anna",
      "id ed",
      "ak en",
      "Ġor der",
      "em s",
      "Ġqu ick",
      "s p",
      "Ġd u",
      "Ġf oc",
      "g ress",
      "Ġtr a",
      "Ġqu ality",
      "un e",
      "Ġsim ply",
      "Ġtech n",
      "Ġa verage",
      "Ġb ur",
      "Ġm is",
      "Ġ est",
      "c an",
      "c ri",
      "Ġc um",
      "Ġbec om",
      "r or",
      "c er",
      "ĠS e",
      "D on",
      "Ġwor d",
      "ĠI m",
      "Ġv iew",
      "Ġc uck",
      "r al",
      "Ġeas ily",
      "Ġretard s",
      "\" .",
      "f y",
      "it es",
      "Ġde ep",
      "6 0",
      "Ġc al",
      "est ing",
      "Ġf ill",
      "Ġkill ed",
      "m in",
      "ĠW hen",
      "Ġc ope",
      "Ġt ou",
      "st atus",
      "ur a",
      "Ġsomet imes",
      "Ġg iving",
      "Ġ1 5",
      "Ġw a",
      "Ġplay er",
      "in ks",
      "v i",
      "Ġlong er",
      "ĠW H",
      "Ġli ving",
      "v ant",
      "Ġwe ight",
      "Ġw ind",
      "on ic",
      "ĠR E",
      "Ġfig ure",
      "Ġimport ant",
      "ens ive",
      "Ġke k",
      "mo e",
      "i ence",
      "Ġm ad",
      "Ġg ave",
      "Ġsim ple",
      "Ġac cept",
      "ic ks",
      "Ġt ier",
      "ul ation",
      "Ġth ree",
      "b ed",
      "Ġrel ation",
      "Ġdisc uss",
      "Ġpart ic",
      "ut s",
      "Ġfavor ite",
      "Ġbut t",
      "Ġb all",
      "Ġte xt",
      "ĠE ng",
      "ou d",
      "oo ks",
      "il t",
      "Ġag ree",
      "ĠS u",
      "Ġh om",
      "Ð º",
      "Ġpre tend",
      "Ġd ark",
      "Ġs is",
      "Ġatt ack",
      "B ecause",
      "Ġt em",
      "Ġspec ial",
      "Ġug ly",
      "ar a",
      "Ġtr anny",
      "Ġs orry",
      "Ġd en",
      "pp ed",
      "Ġde fe",
      "ĠC l",
      "Ġsh ill",
      "ĠThe n",
      "olog y",
      "Ġintern et",
      "Ġex c",
      "B ut",
      "Ġpro p",
      "W ell",
      "ain ed",
      "ĠCh rist",
      "Ġre lease",
      "Ġh ur",
      "idd le",
      "Ġdest ro",
      "Ġgi ven",
      "y n",
      "Ġs ent",
      "ib ly",
      "Ġst yle",
      "C an",
      "A I",
      "a ks",
      "Ġb ed",
      "Ġl ink",
      "Ġan ons",
      "Ġcomp any",
      "un g",
      "Ġhe alth",
      "Ġfor got",
      "Ġpre fer",
      "e ed",
      "Ġp ort",
      "Ġdesp ite",
      "arb age",
      "Ġwrit ing",
      "2 2",
      "is ing",
      "Ġhonest ly",
      "ri ble",
      "a f",
      "Ġ SE",
      "Ġdiffe rence",
      "ann ies",
      "in ese",
      "et y",
      "ad es",
      "g u",
      "ĠI N",
      "Ġon line",
      "Ġgrou p",
      "ation al",
      "ĠA re",
      "ĠS T",
      "A S",
      "Ġl and",
      "Ġfoll ow",
      "Ġwr ite",
      "Ġdec ent",
      "Ġshow s",
      "Ġins ide",
      "ĠG en",
      "Ġcha p",
      "Ġres ult",
      "Ã ³",
      "Ġj e",
      "Ġg am",
      "7 0",
      "Ġlangu age",
      "Ġwe ak",
      "Ġv s",
      "Ġm ec",
      "Ġg f",
      "ce l",
      "A Y",
      "Ġdes er",
      "ac ha",
      "Ġb an",
      "Ġatt ract",
      "Ġatt ention",
      "m b",
      "1 4",
      "iz ation",
      "Ġhe art",
      "Ġm other",
      "cat box",
      "Ġd ri",
      "Ġok ay",
      "in y",
      "Ġso ft",
      "Ġb oring",
      "ĠAN D",
      "c ing",
      "Ġop in",
      "ĠG o",
      "Ġhe av",
      "uc king",
      "Ġhe ar",
      "Ġj ew",
      "\" ,",
      "Ġw all",
      "Ġchild ren",
      "m en",
      "1 3",
      "Ġg arbage",
      "g an",
      "Ġan g",
      "Ġtr ash",
      "Ġt re",
      "Ġl ate",
      "Ġwee ks",
      "han k",
      "Ġreg ular",
      "as y",
      "O P",
      "op h",
      "A ny",
      "it ive",
      "b ased",
      "u ine",
      "Ġpro gram",
      "B ased",
      "Ġimp ro",
      "Ġthat s",
      "Ġcomp et",
      "ast er",
      "ire s",
      "Ġcomm on",
      "at ic",
      "Ġn umber",
      "Ġfor get",
      "het ic",
      "Ġso ld",
      "Ġcor rect",
      "A re",
      "Ġf ans",
      "Ġr a",
      "o ver",
      "y eah",
      "f uck",
      "ro om",
      "n et",
      "Ġw at",
      "Ġmult iple",
      "Ġm id",
      "es tern",
      "ly ing",
      "Ġob s",
      "Ġl at",
      "Ġdo ll",
      "Ġhist ory",
      "Ġv oice",
      "Ġkn ew",
      "Ġdam n",
      "Ġ ir",
      "Ġro b",
      "Ġ .",
      "L E",
      "Ġm ach",
      "Ñ ı",
      "I C",
      "ad s",
      "Ġpre ss",
      "Ġ Ã",
      "Ġwor ds",
      "t om",
      "Ġp ure",
      "med i",
      "Ġf ant",
      "al ing",
      "Ġd ream",
      "it ch",
      "Ġclear ly",
      "Ġext ra",
      "ar i",
      "Ġse ason",
      "Ġlar ge",
      "Ġ2 00",
      "Ġg e",
      "f iles",
      "Ġman ga",
      "9 0",
      "ol es",
      "Ġfeel ing",
      "Ġpro v",
      "Ġincl ud",
      "ĠS ome",
      "Ġansw er",
      "Ġcan not",
      "uc ks",
      "Ġc hat",
      "Ġb ought",
      "Ġgo ld",
      "A s",
      "ĠE urope",
      "HA T",
      "ind er",
      "Ġ9 0",
      "Ġp ussy",
      "Ġz oom",
      "Ġpol it",
      "k o",
      "Ġfight ing",
      "Ġ ×",
      "oo gle",
      "if ied",
      "Ġfr ont",
      "ĠS H",
      "Ġpr act",
      "Ġd om",
      "if y",
      "k i",
      "] /",
      "Ġbl ood",
      "1 8",
      "ro ll",
      "Ġschiz o",
      "Ġdro p",
      "Ġm as",
      "Ġbe gin",
      "Ġp ed",
      "Ġt aste",
      "Ġepis ode",
      "Ġst ar",
      "wor k",
      "I LL",
      "AAAAAAAA AAAAAAAA",
      "m i",
      "Ġt it",
      "G ood",
      "Ġb al",
      "Ġg one",
      "Ġde pend",
      "Ġm al",
      "ĠY es",
      "Ġhig her",
      "Ġfor ce",
      "Ġn er",
      "ap t",
      "Ġreal ize",
      "Ġextreme ly",
      "Ġlo g",
      "Ġhe ro",
      "iv al",
      "k rain",
      "Ġty p",
      "j i",
      "Ġiss ues",
      "Ġl aw",
      "I m",
      "Ġgo vern",
      "ĠJapan ese",
      "me nd",
      "Ġinc re",
      "Ġbl ue",
      "Ġsuc ks",
      "Ġu nd",
      "iz z",
      "in ing",
      "Ġse nd",
      "ĠC om",
      "ĠY our",
      "Ġsit u",
      "Ġf et",
      "âĢ ¦",
      "W ho",
      "Ġsome how",
      "Ġcomp ared",
      "Ġproduc t",
      "Ġ Ø",
      "re m",
      "Ġr ac",
      "es us",
      "Ġcult ure",
      "Ġt on",
      "n el",
      "Ġth o",
      "Ġcon n",
      "Ġapp ro",
      "Ġt ar",
      "ra ft",
      "Ġev il",
      "Ġperf orm",
      "ĠG r",
      "us ion",
      "Ġsuc cess",
      "Ġobvious ly",
      "Ġr id",
      "ĠG u",
      "ore s",
      "Ġret urn",
      "Ġspe ed",
      "ĠAmeric an",
      "Ġinf l",
      "Ġsu ff",
      "2 5",
      "Ġa ud",
      "V ER",
      "if f",
      "Ġbare ly",
      "Ġcle an",
      "F or",
      "Ġcon c",
      "Ñ Į",
      "Ġann oy",
      "r uct",
      "Ġ ver",
      "Ġli ked",
      "HAHA HAHA",
      "Ġgen uine",
      "k er",
      "Ġim m",
      "ĠY eah",
      "or i",
      "us ing",
      "ĠE x",
      "Ġspe ak",
      "Ġam az",
      "I D",
      "Ġma x",
      "g n",
      "Ġneed ed",
      "u ly",
      "Ġtrans l",
      "ĠP C",
      "Ġ ut",
      "ĠT o",
      "1 7",
      "Ġam eric",
      "Å Ĥ",
      "Ġf elt",
      "D id",
      "ĠP re",
      "it ter",
      "ĠP r",
      "Ġas king",
      "Ġsur v",
      "Ġpict ure",
      "l i",
      "ut h",
      "Ġp iss",
      "Ġmed ia",
      "Ġpub lic",
      "Ġmass ive",
      "Ġpr ice",
      "Ġv ol",
      "Ġst ick",
      "Ġp sy",
      "on y",
      "Ġinst all",
      "Ġturn ed",
      "Ġun ironically",
      "a ving",
      "ã Ģ",
      "im ate",
      "Ġm iddle",
      "Ġro ck",
      "Ġapp ear",
      "] *",
      "ent ial",
      "Ġim medi",
      "T h",
      "Ġb urn",
      "Ġs il",
      "p ar",
      "C H",
      "Ġset ting",
      "us es",
      "Ġweap on",
      "ic ed",
      "O n",
      "Ġc ir",
      "Ġh op",
      "Ġt ur",
      "Ġfe ll",
      "Ġmod e",
      "Ġsc en",
      "Ġp arent",
      "Ġaut istic",
      "Ġme et",
      "ail s",
      "Ġd un",
      "an on",
      "ak ed",
      "un a",
      "] \"",
      "ress ed",
      "y ond",
      "Ġe ating",
      "Ġeff ort",
      "ĠD r",
      "Ġm ix",
      "ag s",
      "Ġs ize",
      "Ñ ĭ",
      "Ġv ill",
      "ap er",
      "Ġc ast",
      "am ent",
      "le ct",
      "Ġtr ad",
      "Ġab ove",
      "9 9",
      "Ġm ist",
      "ĠN ew",
      "ĠÐ ½",
      "ĠF uck",
      "id ence",
      "Ġu lt",
      "ĠO h",
      "Ġother wise",
      "K K",
      "d om",
      "Ġcare s",
      "Ġre com",
      "Ġd ied",
      "Ġshit post",
      "Ġar c",
      "em pt",
      "ock ed",
      "Ġpro f",
      "p ut",
      "oc ks",
      ". \"",
      "Ġre v",
      "Ġstart ing",
      "dd it",
      "ĠI nd",
      "Ġst at",
      "ke y",
      "Ġ1 8",
      "Ġr ace",
      "Ġrap e",
      "Ġav oid",
      "Ġr om",
      "Ġpiec e",
      "Ġb ait",
      "ne w",
      "Ġweap ons",
      "Ġ Ù",
      "fic ult",
      "Ġbat tle",
      "Ġspec ific",
      "s u",
      "ĠIt s",
      "k n",
      "Ġallow ed",
      "Ġjo ke",
      "Ġdestro y",
      "Ġb ase",
      "Ġmec han",
      "at t",
      "l ight",
      "p or",
      "os h",
      "Ġcon cept",
      "Ġfaggot s",
      "Ġbr other",
      "Ġant i",
      "ap e",
      "Ġeas ier",
      "Ġreal ity",
      "Ġacc ess",
      "Ġpur p",
      "ĠO ne",
      "Ġcl os",
      "ha r",
      "ĠÐ ¿",
      "Ġph one",
      "ab s",
      "ang er",
      "Ġc ode",
      "ren ch",
      "ing e",
      "Ġcr it",
      "Ġrecom mend",
      "Ġd ad",
      "Ġwith in",
      "ĠN OT",
      "d a",
      "* [",
      "om er",
      "Ġb i",
      "ad a",
      "Ġbo x",
      "Ġt its",
      "act ion",
      "Ġob ject",
      "Ġgame play",
      "Ġser v",
      "ol s",
      "Ġthin ks",
      "Ġdif ficult",
      "Ġbuy ing",
      "se x",
      "te xt",
      "Ġo cc",
      "oun ter",
      "ater ial",
      "Ġcomp ut",
      "Ġval ue",
      "r is",
      "Ġke y",
      "ĠM e",
      "av es",
      "P U",
      "A ll",
      "Ġenem y",
      "Ġcra zy",
      "if t",
      "Ġth ird",
      "Ġn or",
      "Ġus es",
      "Ġwe b",
      "D oes",
      "Ã ¼",
      "Ġen c",
      "as ons",
      "iz ing",
      "Ġpart s",
      "Ġb igger",
      "Ġwa if",
      "at o",
      "Ġlook ed",
      "Ġn atur",
      "ĠM ost",
      "Ġas ked",
      "Ġm ot",
      "Ġre ddit",
      "ĠN e",
      "ĠAn on",
      "Ġl ower",
      "ir t",
      "Ġsc ene",
      "Ġold er",
      "Ġc ity",
      "M A",
      "ict ion",
      "Ġbe aut",
      "b oy",
      "ust ing",
      "Ġresp ect",
      "Ġproblem s",
      ") )",
      "Ġfore ver",
      "an ch",
      "ne y",
      "Ġshould n",
      "Ġ #",
      "Ġch oo",
      "Ġevent ually",
      "Ġd ata",
      "g th",
      "l ist",
      "t ime",
      "Ġc y",
      "Ġgovern ment",
      "Ã¤ r",
      "d it",
      "il i",
      "Ġc art",
      "ac king",
      "ĠO N",
      "in c",
      "W h",
      "ĠG ood",
      "b in",
      "Ġarg ument",
      "Ġpart y",
      "our ces",
      "u el",
      "Ġf ake",
      "b ing",
      "Ġli kes",
      "it ary",
      "u j",
      "ac ed",
      "ĠS c",
      "ĠD id",
      "o e",
      "ir th",
      "EEEE EEEE",
      "Ġc ards",
      "am i",
      "Ġwork ed",
      "Ġm atch",
      "Ġmean ing",
      "om en",
      "er a"
    ]
  }
}