{
  "version": "1.0",
  "truncation": null,
  "padding": null,
  "added_tokens": [
    {
      "id": 0,
      "content": "[SOM]",
      "single_word": false,
      "lstrip": false,
      "rstrip": false,
      "normalized": false,
      "special": false
    },
    {
      "id": 1,
      "content": "[EOM]",
      "single_word": false,
      "lstrip": false,
      "rstrip": false,
      "normalized": false,
      "special": false
    },
    {
      "id": 2,
      "content": "[PAD]",
      "single_word": false,
      "lstrip": false,
      "rstrip": false,
      "normalized": false,
      "special": false
    },
    {
      "id": 3,
      "content": "[NEWLINE]",
      "single_word": false,
      "lstrip": false,
      "rstrip": false,
      "normalized": false,
      "special": false
    }
  ],
  "normalizer": null,
  "pre_tokenizer": {
    "type": "ByteLevel",
    "add_prefix_space": true,
    "trim_offsets": true,
    "use_regex": true
  },
  "post_processor": null,
  "decoder": {
    "type": "ByteLevel",
    "add_prefix_space": true,
    "trim_offsets": true,
    "use_regex": true
  },
  "model": {
    "type": "BPE",
    "dropout": null,
    "unk_token": null,
    "continuing_subword_prefix": null,
    "end_of_word_suffix": null,
    "fuse_unk": false,
    "byte_fallback": false,
    "vocab": {
      "[SOM]": 0,
      "[EOM]": 1,
      "[PAD]": 2,
      "[NEWLINE]": 3,
      "!": 4,
      "\"": 5,
      "#": 6,
      "$": 7,
      "%": 8,
      "&": 9,
      "'": 10,
      "(": 11,
      ")": 12,
      "*": 13,
      "+": 14,
      ",": 15,
      "-": 16,
      ".": 17,
      "/": 18,
      "0": 19,
      "1": 20,
      "2": 21,
      "3": 22,
      "4": 23,
      "5": 24,
      "6": 25,
      "7": 26,
      "8": 27,
      "9": 28,
      ":": 29,
      ";": 30,
      "<": 31,
      "=": 32,
      ">": 33,
      "?": 34,
      "@": 35,
      "A": 36,
      "B": 37,
      "C": 38,
      "D": 39,
      "E": 40,
      "F": 41,
      "G": 42,
      "H": 43,
      "I": 44,
      "J": 45,
      "K": 46,
      "L": 47,
      "M": 48,
      "N": 49,
      "O": 50,
      "P": 51,
      "Q": 52,
      "R": 53,
      "S": 54,
      "T": 55,
      "U": 56,
      "V": 57,
      "W": 58,
      "X": 59,
      "Y": 60,
      "Z": 61,
      "[": 62,
      "\\": 63,
      "]": 64,
      "^": 65,
      "_": 66,
      "`": 67,
      "a": 68,
      "b": 69,
      "c": 70,
      "d": 71,
      "e": 72,
      "f": 73,
      "g": 74,
      "h": 75,
      "i": 76,
      "j": 77,
      "k": 78,
      "l": 79,
      "m": 80,
      "n": 81,
      "o": 82,
      "p": 83,
      "q": 84,
      "r": 85,
      "s": 86,
      "t": 87,
      "u": 88,
      "v": 89,
      "w": 90,
      "x": 91,
      "y": 92,
      "z": 93,
      "{": 94,
      "|": 95,
      "}": 96,
      "~": 97,
      "¡": 98,
      "¢": 99,
      "£": 100,
      "¤": 101,
      "¥": 102,
      "¦": 103,
      "§": 104,
      "¨": 105,
      "©": 106,
      "ª": 107,
      "«": 108,
      "¬": 109,
      "®": 110,
      "¯": 111,
      "°": 112,
      "±": 113,
      "²": 114,
      "³": 115,
      "´": 116,
      "µ": 117,
      "¶": 118,
      "·": 119,
      "¸": 120,
      "¹": 121,
      "º": 122,
      "»": 123,
      "¼": 124,
      "½": 125,
      "¾": 126,
      "¿": 127,
      "Â": 128,
      "Ã": 129,
      "Ä": 130,
      "Å": 131,
      "Æ": 132,
      "É": 133,
      "Ê": 134,
      "Ë": 135,
      "Ì": 136,
      "Í": 137,
      "Î": 138,
      "Ï": 139,
      "Ð": 140,
      "Ñ": 141,
      "Ø": 142,
      "Ù": 143,
      "à": 144,
      "á": 145,
      "â": 146,
      "ã": 147,
      "ä": 148,
      "å": 149,
      "æ": 150,
      "ç": 151,
      "è": 152,
      "é": 153,
      "ê": 154,
      "ë": 155,
      "ì": 156,
      "ï": 157,
      "ð": 158,
      "Ċ": 159,
      "č": 160,
      "Ġ": 161,
      "Ģ": 162,
      "ģ": 163,
      "Ĥ": 164,
      "ĥ": 165,
      "Ħ": 166,
      "ħ": 167,
      "Ĩ": 168,
      "ĩ": 169,
      "Ī": 170,
      "ī": 171,
      "Ĭ": 172,
      "ĭ": 173,
      "Į": 174,
      "į": 175,
      "İ": 176,
      "ı": 177,
      "Ĳ": 178,
      "ĳ": 179,
      "Ĵ": 180,
      "ĵ": 181,
      "Ķ": 182,
      "ķ": 183,
      "ĸ": 184,
      "Ĺ": 185,
      "ĺ": 186,
      "Ļ": 187,
      "ļ": 188,
      "Ľ": 189,
      "ľ": 190,
      "Ŀ": 191,
      "ŀ": 192,
      "Ł": 193,
      "ł": 194,
      "Ń": 195,
      "OM": 196,
      "ĺŃ": 197,
      "âĺŃ": 198,
      "âĺŃâĺŃ": 199,
      ":[": 200,
      "SOM": 201,
      "EOM": 202,
      "čĊ": 203,
      "âĺŃâĺŃâĺŃâĺŃ": 204,
      "ch": 205,
      "âĸ": 206,
      "au": 207,
      "Ġb": 208,
      "ir": 209,
      "er": 210,
      "âĸĳ": 211,
      "nb": 212,
      "aum": 213,
      "irnb": 214,
      "irnbaum": 215,
      "Ġbirnbaum": 216,
      "âĸĳâĸĳ": 217,
      "ĠK": 218,
      ".:[": 219,
      "âĺŃâĺŃâĺŃâĺŃâĺŃâĺŃâĺŃâĺŃ": 220,
      "en": 221,
      "Ġd": 222,
      "¶ŀ": 223,
      "à¶ŀ": 224,
      "à¶ŀà¶ŀ": 225,
      "in": 226,
      "ich": 227,
      "st": 228,
      "ie": 229,
      "Ġs": 230,
      "NE": 231,
      "âĸĳâĸĳâĸĳâĸĳ": 232,
      "âĺŃâĺŃâĺŃâĺŃâĺŃâĺŃâĺŃâĺŃâĺŃâĺŃâĺŃâĺŃâĺŃâĺŃâĺŃâĺŃ": 233,
      "Ġ\\": 234,
      "Ġg": 235,
      "ii": 236,
      "as": 237,
      "Ġm": 238,
      "Ġn": 239,
      "an": 240,
      "oo": 241,
      "aa": 242,
      "Ġw": 243,
      "ff": 244,
      "à¶ŀà¶ŀà¶ŀà¶ŀ": 245,
      "Ġt": 246,
      "âĸĪ": 247,
      "ein": 248,
      "ere": 249,
      "ei": 250,
      "Ġh": 251,
      "?[": 252,
      "..": 253,
      "mm": 254,
      "un": 255,
      "ber": 256,
      "tt": 257,
      "erex": 258,
      "erexii": 259,
      "Ġterexii": 260,
      "LI": 261,
      "NEW": 262,
      "LINE": 263,
      "NEWLINE": 264,
      "âĺŃâĺŃâĺŃâĺŃâĺŃâĺŃâĺŃâĺŃâĺŃâĺŃâĺŃâĺŃâĺŃâĺŃâĺŃâĺŃâĺŃâĺŃâĺŃâĺŃâĺŃâĺŃâĺŃâĺŃâĺŃâĺŃâĺŃâĺŃâĺŃâĺŃâĺŃâĺŃ": 265,
      "es": 266,
      "al": 267,
      "Ġi": 268,
      "âĸĪâĸĪ": 269,
      "ĠĠ": 270,
      "se": 271,
      "UU": 272,
      "Ġdu": 273,
      "icht": 274,
      "Ġdas": 275,
      "ut": 276,
      "Ġk": 277,
      "at": 278,
      "âĸĳâĸĳâĸĳâĸĳâĸĳâĸĳâĸĳâĸĳ": 279,
      "on": 280,
      "ðŁ": 281,
      "Ġau": 282,
      "??": 283,
      "aaaa": 284,
      "xD": 285,
      "ar": 286,
      "ach": 287,
      "à¶ŀà¶ŀà¶ŀà¶ŀà¶ŀà¶ŀà¶ŀà¶ŀ": 288,
      "ab": 289,
      "oooo": 290,
      "Ã¼": 291,
      "ll": 292,
      "ja": 293,
      "Ġich": 294,
      "77": 295,
      "or": 296,
      "ffff": 297,
      "Ġist": 298,
      "Ġnicht": 299,
      "Ġf": 300,
      "Ġsch": 301,
      "eh": 302,
      "ru": 303,
      "und": 304,
      "Ġv": 305,
      "ann": 306,
      "Ã¤": 307,
      "ps": 308,
      "och": 309,
      "ee": 310,
      "sch": 311,
      ":/": 312,
      "iese": 313,
      "://": 314,
      "ttps": 315,
      "Ġgru": 316,
      "Ġl": 317,
      "Ã¶": 318,
      "beriese": 319,
      "Ġgruberiese": 320,
      "https": 321,
      "de": 322,
      "der": 323,
      "âĺŃâĺŃâĺŃâĺŃâĺŃâĺŃâĺŃâĺŃâĺŃâĺŃâĺŃâĺŃâĺŃâĺŃâĺŃâĺŃâĺŃâĺŃâĺŃâĺŃâĺŃâĺŃâĺŃâĺŃâĺŃâĺŃâĺŃâĺŃâĺŃâĺŃâĺŃâĺŃâĺŃâĺŃâĺŃâĺŃâĺŃâĺŃâĺŃâĺŃâĺŃâĺŃâĺŃâĺŃâĺŃâĺŃâĺŃâĺŃâĺŃâĺŃâĺŃâĺŃâĺŃâĺŃâĺŃâĺŃâĺŃâĺŃâĺŃâĺŃâĺŃâĺŃâĺŃâĺŃ": 324,
      "om": 325,
      "ww": 326,
      "be": 327,
      "Ġdie": 328,
      "Ġz": 329,
      "uu": 330,
      "ur": 331,
      "le": 332,
      "Ġein": 333,
      "gen": 334,
      "it": 335,
      "et": 336,
      "Ġso": 337,
      "UUUU": 338,
      "re": 339,
      "yo": 340,
      "ck": 341,
      "ge": 342,
      "!!": 343,
      "com": 344,
      "iiii": 345,
      "ĠxD": 346,
      "aber": 347,
      "Ġp": 348,
      "ss": 349,
      "em": 350,
      "utu": 351,
      "youtu": 352,
      "à¶ŀà¶ŀà¶ŀà¶ŀà¶ŀà¶ŀà¶ŀà¶ŀà¶ŀà¶ŀà¶ŀà¶ŀà¶ŀà¶ŀà¶ŀà¶ŀ": 353,
      "Ġauch": 354,
      "te": 355,
      "ĠĠĠĠ": 356,
      "ah": 357,
      "Ġo": 358,
      "so": 359,
      "????": 360,
      "Ġhab": 361,
      "![": 362,
      "aaaaaaaa": 363,
      "ffffffff": 364,
      "Ġj": 365,
      "ig": 366,
      "oooooooo": 367,
      "el": 368,
      "7777": 369,
      "ol": 370,
      "Ġin": 371,
      "ÃŁ": 372,
      "Ġan": 373,
      "âĪ": 374,
      "hh": 375,
      "âĪŀ": 376,
      "âĪŀâĪŀ": 377,
      ".[": 378,
      "--": 379,
      "XD": 380,
      "Ġder": 381,
      "lich": 382,
      "ra": 383,
      "Ġund": 384,
      "Ġnoch": 385,
      "um": 386,
      "das": 387,
      "âĸĪâĸĪâĸĪâĸĪ": 388,
      "ĠA": 389,
      "Ġer": 390,
      "enn": 391,
      "Ġbin": 392,
      "ier": 393,
      "....": 394,
      "âĸĳâĸĳâĸĳâĸĳâĸĳâĸĳâĸĳâĸĳâĸĳâĸĳâĸĳâĸĳâĸĳâĸĳâĸĳâĸĳ": 395,
      "Ġ.": 396,
      "Ġbi": 397,
      "ro": 398,
      "âĺŃâĺŃâĺŃâĺŃâĺŃâĺŃâĺŃâĺŃâĺŃâĺŃâĺŃâĺŃâĺŃâĺŃâĺŃâĺŃâĺŃâĺŃâĺŃâĺŃâĺŃâĺŃâĺŃâĺŃâĺŃâĺŃâĺŃâĺŃâĺŃâĺŃâĺŃâĺŃâĺŃâĺŃâĺŃâĺŃâĺŃâĺŃâĺŃâĺŃâĺŃâĺŃâĺŃâĺŃâĺŃâĺŃâĺŃâĺŃâĺŃâĺŃâĺŃâĺŃâĺŃâĺŃâĺŃâĺŃâĺŃâĺŃâĺŃâĺŃâĺŃâĺŃâĺŃâĺŃâĺŃâĺŃâĺŃâĺŃâĺŃâĺŃâĺŃâĺŃâĺŃâĺŃâĺŃâĺŃâĺŃâĺŃâĺŃâĺŃâĺŃâĺŃâĺŃâĺŃâĺŃâĺŃâĺŃâĺŃâĺŃâĺŃâĺŃâĺŃâĺŃâĺŃâĺŃâĺŃâĺŃâĺŃâĺŃâĺŃâĺŃâĺŃâĺŃâĺŃâĺŃâĺŃâĺŃâĺŃâĺŃâĺŃâĺŃâĺŃâĺŃâĺŃâĺŃâĺŃâĺŃâĺŃâĺŃâĺŃâĺŃâĺŃâĺŃâĺŃâĺŃâĺŃâĺŃâĺŃ": 399,
      "am": 400,
      "ĠðŁ": 401,
      "Ġauf": 402,
      "ne": 403,
      "XDXD": 404,
      "ten": 405,
      "www": 406,
      "Ġja": 407,
      "ast": 408,
      "Ġes": 409,
      "Ġzu": 410,
      "Ġge": 411,
      "ok": 412,
      "Ġwir": 413,
      "Ã¼r": 414,
      "MO": 415,
      "US": 416,
      "Ġal": 417,
      "Ġwie": 418,
      "im": 419,
      "tte": 420,
      "MOG": 421,
      "MOGUS": 422,
      "DD": 423,
      "uuuu": 424,
      "__": 425,
      "Ġschon": 426,
      "ag": 427,
      "youtube": 428,
      "Ġdumm": 429,
      "Ġdann": 430,
      "UUUUUUUU": 431,
      "]ðŁ": 432,
      "zt": 433,
      "eine": 434,
      "atch": 435,
      "Ġda": 436,
      "Ġst": 437,
      "den": 438,
      "watch": 439,
      "ter": 440,
      "Ġaber": 441,
      "Ġ-": 442,
      "Ġden": 443,
      "Ġmit": 444,
      "yy": 445,
      "ĠS": 446,
      "eeee": 447,
      "Â°": 448,
      "Ġne": 449,
      "Ġr": 450,
      ")[": 451,
      "ben": 452,
      "bi": 453,
      "omm": 454,
      "pp": 455,
      "du": 456,
      "Ġhat": 457,
      "Ġman": 458,
      "Ġ:": 459,
      "Ġges": 460,
      "us": 461,
      "Ġver": 462,
      "Ġkann": 463,
      "Ġmir": 464,
      "mmmm": 465,
      "eil": 466,
      "is": 467,
      "ill": 468,
      "acht": 469,
      "ehr": 470,
      "Ġwas": 471,
      "iel": 472,
      "ĠAMOGUS": 473,
      "Ġe": 474,
      "Ġwar": 475,
      "ute": 476,
      "âĢ": 477,
      "ung": 478,
      "eit": 479,
      "iiiiiiii": 480,
      "Ġnur": 481,
      "cht": 482,
      "Ġsp": 483,
      "la": 484,
      "77777777": 485,
      "kt": 486,
      "????????": 487,
      "was": 488,
      "etzt": 489,
      "ffffffffffffffff": 490,
      "Ġ..": 491,
      "ke": 492,
      "AA": 493,
      "Ġgeh": 494,
      "Ġaus": 495,
      "âĪŀâĪŀâĪŀâĪŀ": 496,
      "ing": 497,
      "Ġmal": 498,
      "oh": 499,
      "ind": 500,
      "Ġ1": 501,
      "Ġbe": 502,
      "Ġdoch": 503,
      "wie": 504,
      "Ġc": 505,
      "oooooooooooooooo": 506,
      "ĠM": 507,
      "Ġdass": 508,
      "he": 509,
      "gi": 510,
      "aaaaaaaaaaaaaaaa": 511,
      "ent": 512,
      "ĠðŁ¦": 513,
      "ste": 514,
      "il": 515,
      "ass": 516,
      "eiÃŁ": 517,
      "Ġmein": 518,
      "«ĥ": 519,
      "hr": 520,
      "à¶ŀà¶ŀà¶ŀà¶ŀà¶ŀà¶ŀà¶ŀà¶ŀà¶ŀà¶ŀà¶ŀà¶ŀà¶ŀà¶ŀà¶ŀà¶ŀà¶ŀà¶ŀà¶ŀà¶ŀà¶ŀà¶ŀà¶ŀà¶ŀà¶ŀà¶ŀà¶ŀà¶ŀà¶ŀà¶ŀà¶ŀà¶ŀ": 521,
      "ðŁ«ĥ": 522,
      "ðŁ«ĥðŁ«ĥ": 523,
      "Ġun": 524,
      "Ġmach": 525,
      "ĠĠĠĠĠĠĠĠ": 526,
      "imm": 527,
      "Ġre": 528,
      "ion": 529,
      "rei": 530,
      "bitte": 531,
      "âĸĴ": 532,
      "ft": 533,
      "bt": 534,
      "hhhh": 535,
      "**": 536,
      "Ich": 537,
      "]:": 538,
      "...[": 539,
      "XDXDXDXD": 540,
      "ick": 541,
      "Ġ.-": 542,
      "lol": 543,
      "Ġoder": 544,
      "âĸĳâĸĳâĸĳ": 545,
      "ic": 546,
      "ĠfÃ¼r": 547,
      "cc": 548,
      "âĶ": 549,
      "Ġdir": 550,
      "nd": 551,
      "nn": 552,
      "âĺŃâĺŃâĺŃâĺŃâĺŃâĺŃâĺŃâĺŃâĺŃâĺŃâĺŃâĺŃâĺŃâĺŃâĺŃâĺŃâĺŃâĺŃâĺŃâĺŃâĺŃâĺŃâĺŃâĺŃâĺŃâĺŃâĺŃâĺŃâĺŃâĺŃâĺŃâĺŃâĺŃâĺŃâĺŃâĺŃâĺŃâĺŃâĺŃâĺŃâĺŃâĺŃâĺŃâĺŃâĺŃâĺŃâĺŃâĺŃâĺŃâĺŃâĺŃâĺŃâĺŃâĺŃâĺŃâĺŃâĺŃâĺŃâĺŃâĺŃâĺŃâĺŃâĺŃâĺŃâĺŃâĺŃâĺŃâĺŃâĺŃâĺŃâĺŃâĺŃâĺŃâĺŃâĺŃâĺŃâĺŃâĺŃâĺŃâĺŃâĺŃâĺŃâĺŃâĺŃâĺŃâĺŃâĺŃâĺŃâĺŃâĺŃâĺŃâĺŃâĺŃâĺŃâĺŃâĺŃâĺŃâĺŃâĺŃâĺŃâĺŃâĺŃâĺŃâĺŃâĺŃâĺŃâĺŃâĺŃâĺŃâĺŃâĺŃâĺŃâĺŃâĺŃâĺŃâĺŃâĺŃâĺŃâĺŃâĺŃâĺŃâĺŃâĺŃâĺŃâĺŃâĺŃâĺŃâĺŃâĺŃâĺŃâĺŃâĺŃâĺŃâĺŃâĺŃâĺŃâĺŃâĺŃâĺŃâĺŃâĺŃâĺŃâĺŃâĺŃâĺŃâĺŃâĺŃâĺŃâĺŃâĺŃâĺŃâĺŃâĺŃâĺŃâĺŃâĺŃâĺŃâĺŃâĺŃâĺŃâĺŃâĺŃâĺŃâĺŃâĺŃâĺŃâĺŃâĺŃâĺŃâĺŃâĺŃâĺŃâĺŃâĺŃâĺŃâĺŃâĺŃâĺŃâĺŃâĺŃâĺŃâĺŃâĺŃâĺŃâĺŃâĺŃâĺŃâĺŃâĺŃâĺŃâĺŃâĺŃâĺŃâĺŃâĺŃâĺŃâĺŃâĺŃâĺŃâĺŃâĺŃâĺŃâĺŃâĺŃâĺŃâĺŃâĺŃâĺŃâĺŃâĺŃâĺŃâĺŃâĺŃâĺŃâĺŃâĺŃâĺŃâĺŃâĺŃâĺŃâĺŃâĺŃâĺŃâĺŃâĺŃâĺŃâĺŃâĺŃâĺŃâĺŃâĺŃâĺŃâĺŃâĺŃâĺŃâĺŃâĺŃâĺŃâĺŃâĺŃâĺŃâĺŃâĺŃâĺŃâĺŃâĺŃâĺŃâĺŃâĺŃâĺŃâĺŃâĺŃâĺŃâĺŃâĺŃâĺŃ": 553,
      "Ġger": 554,
      "Ã¶Ã¶": 555,
      "ade": 556,
      "lau": 557,
      "Ġjetzt": 558,
      "Ġhast": 559,
      "ern": 560,
      "bittebitte": 561,
      "all": 562,
      "uss": 563,
      "and": 564,
      "Ġab": 565,
      "op": 566,
      "oll": 567,
      "Ġei": 568,
      "ĠÍ": 569,
      "isch": 570,
      "Ġwenn": 571,
      "00": 572,
      "Das": 573,
      "Ġbei": 574,
      "da": 575,
      "Ja": 576,
      "kk": 577,
      "ĠG": 578,
      "Ġvon": 579,
      "hi": 580,
      "mal": 581,
      "Ġsind": 582,
      "Ġmich": 583,
      "ess": 584,
      "anz": 585,
      "war": 586,
      "........": 587,
      "ist": 588,
      "DDDD": 589,
      "UUUUUUUUUUUUUUUU": 590,
      "Ġsie": 591,
      "ot": 592,
      "iert": 593,
      "zZ": 594,
      "fach": 595,
      "Ġwieder": 596,
      "Ġmehr": 597,
      "Ã¼ber": 598,
      "Ġsich": 599,
      "ðŁ¤": 600,
      "uuuuuuuu": 601,
      "zZzZ": 602,
      "hab": 603,
      "ahah": 604,
      "ĠT": 605,
      "sp": 606,
      "ĠB": 607,
      "ik": 608,
      "rau": 609,
      "gif": 610,
      "].": 611,
      "âĸĴâĸĴ": 612,
      "ver": 613,
      "Ġvor": 614,
      "Ġgut": 615,
      "!!!!": 616,
      "Ã¼Ã¼": 617,
      "llt": 618,
      "Ġdem": 619,
      "yyyy": 620,
      "Und": 621,
      "anke": 622,
      "]#": 623,
      "Ġgerade": 624,
      "Ġeinfach": 625,
      "Ġjz": 626,
      "ose": 627,
      "Ġbist": 628,
      "20": 629,
      "mmer": 630,
      "die": 631,
      "os": 632,
      "ĠðŁ¦¦": 633,
      "eute": 634,
      "we": 635,
      "Ġ-.": 636,
      "____": 637,
      "ert": 638,
      "ĠD": 639,
      "Ġgesch": 640,
      "âĸĪâĸĪâĸĪâĸĪâĸĪâĸĪâĸĪâĸĪ": 641,
      "]-": 642,
      "Ġhabe": 643,
      "Ġganz": 644,
      "Ġim": 645,
      "Ġ--": 646,
      "fen": 647,
      "Ġdich": 648,
      "ow": 649,
      "7777777777777777": 650,
      "vie": 651,
      "tenor": 652,
      "ze": 653,
      "ad": 654,
      "orgen": 655,
      "Ġkomm": 656,
      "âĢį": 657,
      "Ġnach": 658,
      "ĠÃ¼ber": 659,
      "ht": 660,
      "Ġwe": 661,
      "ĠN": 662,
      "Ġch": 663,
      "end": 664,
      "Ġwird": 665,
      "âĪŀâĪŀâĪŀâĪŀâĪŀâĪŀâĪŀâĪŀ": 666,
      "komm": 667,
      "pla": 668,
      "ahr": 669,
      "_.[": 670,
      "Ġall": 671,
      "ĠP": 672,
      "ĻĤ": 673,
      "????????????????": 674,
      "Ġu": 675,
      "Ġmuss": 676,
      "ffffffffffffffffffffffffffffffff": 677,
      "ĠÍ¡": 678,
      "view": 679,
      "11": 680,
      "âĸĪâĸĪâĸĪ": 681,
      "ool": 682,
      "gt": 683,
      "ehen": 684,
      "di": 685,
      "Ġsoll": 686,
      "âĶĢ": 687,
      "ĠF": 688,
      "also": 689,
      "eeeeeeee": 690,
      "Ġgeht": 691,
      "df": 692,
      "ice": 693,
      "Ġmachen": 694,
      "ix": 695,
      "Ġhaben": 696,
      "ï¸": 697,
      "Ġpro": 698,
      "Ġam": 699,
      "Ã¶r": 700,
      "CH": 701,
      "ust": 702,
      "Ġviel": 703,
      "ieren": 704,
      "ĠH": 705,
      "alt": 706,
      "Ġgi": 707,
      "mmmmmmmm": 708,
      "lo": 709,
      "Ġimmer": 710,
      "hihi": 711,
      "Aber": 712,
      "danke": 713,
      "nein": 714,
      "EE": 715,
      "osef": 716,
      "iiiiiiiiiiiiiiii": 717,
      "fe": 718,
      "ine": 719,
      "play": 720,
      "Ġgem": 721,
      "th": 722,
      "âķ": 723,
      "Ġals": 724,
      "ĠL": 725,
      "15": 726,
      "ĠW": 727,
      "Ġwill": 728,
      "ðŁ«ĥðŁ«ĥðŁ«ĥðŁ«ĥ": 729,
      "âĢįâ": 730,
      "ort": 731,
      "-[": 732,
      "net": 733,
      "][": 734,
      "aus": 735,
      "Ġheute": 736,
      "tw": 737,
      "ul": 738,
      "me": 739,
      "Ġa": 740,
      "Ġsein": 741,
      "Ġglau": 742,
      "dd": 743,
      "Ġum": 744,
      "leich": 745,
      "Ã¶nn": 746,
      "hn": 747,
      "Ġwer": 748,
      "itt": 749,
      "âĸĳâĸĳâĸĳâĸĳâĸĳâĸĳâĸĳâĸĳâĸĳâĸĳâĸĳâĸĳ": 750,
      "([": 751,
      "Ġ2": 752,
      "XDXDXDXDXDXDXDXD": 753,
      "immt": 754,
      "zu": 755,
      "oooooooooooooooooooooooooooooooo": 756,
      "oder": 757,
      "Ġkl": 758,
      "âĶĢâĶĢ": 759,
      "Ġgibt": 760,
      "]?[": 761,
      "kl": 762,
      "rie": 763,
      "Ġkeine": 764,
      "Ã¤Ã¤": 765,
      "agt": 766,
      "âĢįâĻĤ": 767,
      "37": 768,
      "?![": 769,
      "che": 770,
      "OO": 771,
      "dann": 772,
      "AAAA": 773,
      "ĠweiÃŁ": 774,
      "!!![": 775,
      "AMOGUS": 776,
      "Ġschrei": 777,
      "weil": 778,
      "Ġgef": 779,
      "Ã¤n": 780,
      "Ġ:)[": 781,
      "Ġmorgen": 782,
      "Ġ[": 783,
      "14": 784,
      "rÃ¼": 785,
      "imo": 786,
      "ĠAMOGUSAMOGUS": 787,
      "ĠÍ¡Â°": 788,
      "id": 789,
      "ue": 790,
      "Ġkein": 791,
      "bittebittebittebitte": 792,
      "ges": 793,
      "Ġ\"": 794,
      "ï¸ı": 795,
      "wei": 796,
      "Ġnen": 797,
      "ip": 798,
      "Â°[": 799,
      "33": 800,
      "ĠkÃ¶nn": 801,
      "aaaaaaaaaaaaaaaaaaaaaaaaaaaaaaaa": 802,
      "bin": 803,
      "sten": 804,
      "Ġar": 805,
      "¦âĢįâĻĤ": 806,
      "unkt": 807,
      "iv": 808,
      "?!": 809,
      "inde": 810,
      "unden": 811,
      "schen": 812,
      "hast": 813,
      "cor": 814,
      "eht": 815,
      "99": 816,
      "]Â°": 817,
      "10": 818,
      "chen": 819,
      "Ġeig": 820,
      "16": 821,
      "lt": 822,
      "ĠE": 823,
      "warum": 824,
      "==": 825,
      "Ġdein": 826,
      "ĠðŁĺ": 827,
      "Ġuns": 828,
      "Â¶": 829,
      "hmm": 830,
      "hur": 831,
      "âĺŃâĺŃâĺŃâĺŃâĺŃâĺŃâĺŃâĺŃâĺŃâĺŃâĺŃâĺŃâĺŃâĺŃâĺŃâĺŃâĺŃâĺŃâĺŃâĺŃâĺŃâĺŃâĺŃâĺŃâĺŃâĺŃâĺŃâĺŃâĺŃâĺŃâĺŃâĺŃâĺŃâĺŃâĺŃâĺŃâĺŃâĺŃâĺŃâĺŃâĺŃâĺŃâĺŃâĺŃâĺŃâĺŃâĺŃâĺŃâĺŃâĺŃâĺŃâĺŃâĺŃâĺŃâĺŃâĺŃâĺŃâĺŃâĺŃâĺŃâĺŃâĺŃâĺŃâĺŃâĺŃâĺŃâĺŃâĺŃâĺŃâĺŃâĺŃâĺŃâĺŃâĺŃâĺŃâĺŃâĺŃâĺŃâĺŃâĺŃâĺŃâĺŃâĺŃâĺŃâĺŃâĺŃâĺŃâĺŃâĺŃâĺŃâĺŃâĺŃâĺŃâĺŃâĺŃâĺŃâĺŃâĺŃâĺŃâĺŃâĺŃâĺŃâĺŃâĺŃâĺŃâĺŃâĺŃâĺŃâĺŃâĺŃâĺŃâĺŃâĺŃâĺŃâĺŃâĺŃâĺŃâĺŃâĺŃâĺŃâĺŃâĺŃâĺŃâĺŃâĺŃâĺŃâĺŃâĺŃâĺŃâĺŃâĺŃâĺŃâĺŃâĺŃâĺŃâĺŃâĺŃâĺŃâĺŃâĺŃâĺŃâĺŃâĺŃâĺŃâĺŃâĺŃâĺŃâĺŃâĺŃâĺŃâĺŃâĺŃâĺŃâĺŃâĺŃâĺŃâĺŃâĺŃâĺŃâĺŃâĺŃâĺŃâĺŃâĺŃâĺŃâĺŃâĺŃâĺŃâĺŃâĺŃâĺŃâĺŃâĺŃâĺŃâĺŃâĺŃâĺŃâĺŃâĺŃâĺŃâĺŃâĺŃâĺŃâĺŃâĺŃâĺŃâĺŃâĺŃâĺŃâĺŃâĺŃâĺŃâĺŃâĺŃâĺŃâĺŃâĺŃâĺŃâĺŃâĺŃâĺŃâĺŃâĺŃâĺŃâĺŃâĺŃâĺŃâĺŃâĺŃâĺŃâĺŃâĺŃâĺŃâĺŃâĺŃâĺŃâĺŃâĺŃâĺŃâĺŃâĺŃâĺŃâĺŃâĺŃâĺŃâĺŃâĺŃâĺŃâĺŃâĺŃâĺŃâĺŃâĺŃâĺŃâĺŃâĺŃâĺŃâĺŃâĺŃâĺŃâĺŃâĺŃâĺŃâĺŃâĺŃâĺŃâĺŃâĺŃâĺŃâĺŃâĺŃâĺŃâĺŃâĺŃâĺŃâĺŃâĺŃâĺŃâĺŃâĺŃâĺŃâĺŃâĺŃâĺŃâĺŃâĺŃâĺŃâĺŃâĺŃâĺŃâĺŃâĺŃâĺŃâĺŃâĺŃâĺŃâĺŃâĺŃâĺŃâĺŃâĺŃâĺŃâĺŃâĺŃâĺŃâĺŃâĺŃâĺŃâĺŃâĺŃâĺŃâĺŃâĺŃâĺŃâĺŃâĺŃâĺŃâĺŃâĺŃâĺŃâĺŃâĺŃâĺŃâĺŃâĺŃâĺŃâĺŃâĺŃâĺŃâĺŃâĺŃâĺŃâĺŃâĺŃâĺŃâĺŃâĺŃâĺŃâĺŃâĺŃâĺŃâĺŃâĺŃâĺŃâĺŃâĺŃâĺŃâĺŃâĺŃâĺŃâĺŃâĺŃâĺŃâĺŃâĺŃâĺŃâĺŃâĺŃâĺŃâĺŃâĺŃâĺŃâĺŃâĺŃâĺŃâĺŃâĺŃâĺŃâĺŃâĺŃâĺŃâĺŃâĺŃâĺŃâĺŃâĺŃâĺŃâĺŃâĺŃâĺŃâĺŃâĺŃâĺŃâĺŃâĺŃâĺŃâĺŃâĺŃâĺŃâĺŃâĺŃâĺŃâĺŃâĺŃâĺŃâĺŃâĺŃâĺŃâĺŃâĺŃâĺŃâĺŃâĺŃâĺŃâĺŃâĺŃâĺŃâĺŃâĺŃâĺŃâĺŃâĺŃâĺŃâĺŃâĺŃâĺŃâĺŃâĺŃâĺŃâĺŃâĺŃâĺŃâĺŃâĺŃâĺŃâĺŃâĺŃâĺŃâĺŃâĺŃâĺŃâĺŃâĺŃâĺŃâĺŃâĺŃâĺŃâĺŃâĺŃâĺŃâĺŃâĺŃâĺŃâĺŃâĺŃâĺŃâĺŃâĺŃâĺŃâĺŃâĺŃâĺŃâĺŃâĺŃâĺŃâĺŃâĺŃâĺŃâĺŃâĺŃâĺŃâĺŃâĺŃâĺŃâĺŃâĺŃâĺŃâĺŃâĺŃâĺŃâĺŃâĺŃâĺŃâĺŃâĺŃâĺŃâĺŃâĺŃâĺŃâĺŃâĺŃâĺŃâĺŃâĺŃâĺŃâĺŃâĺŃâĺŃâĺŃâĺŃâĺŃâĺŃâĺŃâĺŃâĺŃâĺŃâĺŃâĺŃâĺŃâĺŃâĺŃâĺŃâĺŃâĺŃâĺŃâĺŃâĺŃâĺŃâĺŃâĺŃâĺŃâĺŃâĺŃâĺŃâĺŃâĺŃâĺŃâĺŃâĺŃâĺŃâĺŃâĺŃâĺŃâĺŃâĺŃâĺŃâĺŃâĺŃâĺŃâĺŃâĺŃâĺŃ": 832,
      "cccc": 833,
      "ide": 834,
      "Ġ...": 835,
      "ap": 836,
      "ssen": 837,
      "iscor": 838,
      "hhhhhhhh": 839,
      "ĠðŁ¦Ĩ": 840,
      "att": 841,
      "ichtig": 842,
      "Ġgleich": 843,
      "Ġeine": 844,
      "]*": 845,
      "]._.[": 846,
      "30": 847,
      "ry": 848,
      "âĸĳâĸĳâĸĳâĸĳâĸĳâĸĳâĸĳâĸĳâĸĳâĸĳâĸĳâĸĳâĸĳâĸĳâĸĳâĸĳâĸĳâĸĳâĸĳâĸĳâĸĳâĸĳâĸĳâĸĳâĸĳâĸĳâĸĳâĸĳâĸĳâĸĳâĸĳâĸĳ": 849,
      "Ġgen": 850,
      "Ġok": 851,
      "Wie": 852,
      "tlich": 853,
      "Ġgar": 854,
      "gend": 855,
      "Ġalles": 856,
      "19": 857,
      "UUUUUUUUUUUUUUUUUUUUUUUUUUUUUUUU": 858,
      "Ġhalt": 859,
      "Ġmus": 860,
      "rr": 861,
      "ĠwÃ¤": 862,
      "Ġeigen": 863,
      "Ã¶Ã¶Ã¶Ã¶": 864,
      "Ġglaube": 865,
      "ĠĠĠĠĠĠĠĠĠĠĠĠĠĠĠĠ": 866,
      "her": 867,
      "ang": 868,
      "----": 869,
      "ack": 870,
      "25": 871,
      "nen": 872,
      "Ġth": 873,
      "zZzZzZzZ": 874,
      "^Â°[": 875,
      "ðŁ¤¦âĢįâĻĤ": 876,
      "dankedanke": 877,
      "]Â°^Â°[": 878,
      "Ġspiel": 879,
      "kkkk": 880,
      "tf": 881,
      "Ġbis": 882,
      "................": 883,
      "sh": 884,
      "Ġmin": 885,
      "Ġgemacht": 886,
      "achso": 887,
      "Was": 888,
      "PA": 889,
      "Ġerst": 890,
      "ĠR": 891,
      "TT": 892,
      "Ġmeine": 893,
      "bei": 894,
      "Ġ(": 895,
      "uten": 896,
      "zen": 897,
      "Ġweil": 898,
      "esser": 899,
      "ug": 900,
      "Ġlie": 901,
      "Ġcool": 902,
      "Ġalle": 903,
      "II": 904,
      "à¶ŀà¶ŀà¶ŀà¶ŀà¶ŀà¶ŀà¶ŀà¶ŀà¶ŀ": 905,
      "à¶ŀà¶ŀà¶ŀà¶ŀà¶ŀà¶ŀà¶ŀà¶ŀà¶ŀà¶ŀà¶ŀà¶ŀà¶ŀà¶ŀà¶ŀà¶ŀà¶ŀà¶ŀà¶ŀà¶ŀà¶ŀà¶ŀà¶ŀà¶ŀà¶ŀà¶ŀà¶ŀà¶ŀà¶ŀà¶ŀà¶ŀà¶ŀà¶ŀà¶ŀà¶ŀà¶ŀà¶ŀà¶ŀà¶ŀà¶ŀà¶ŀà¶ŀà¶ŀà¶ŀà¶ŀà¶ŀà¶ŀà¶ŀà¶ŀà¶ŀà¶ŀà¶ŀà¶ŀà¶ŀà¶ŀà¶ŀà¶ŀà¶ŀà¶ŀà¶ŀà¶ŀà¶ŀà¶ŀà¶ŀ": 906,
      "à¶ŀà¶ŀà¶ŀà¶ŀà¶ŀà¶ŀà¶ŀà¶ŀà¶ŀà¶ŀà¶ŀà¶ŀà¶ŀà¶ŀà¶ŀà¶ŀà¶ŀà¶ŀà¶ŀà¶ŀà¶ŀà¶ŀà¶ŀà¶ŀà¶ŀà¶ŀà¶ŀà¶ŀà¶ŀà¶ŀà¶ŀà¶ŀà¶ŀà¶ŀà¶ŀà¶ŀà¶ŀà¶ŀà¶ŀà¶ŀà¶ŀà¶ŀà¶ŀà¶ŀà¶ŀà¶ŀà¶ŀà¶ŀà¶ŀà¶ŀà¶ŀà¶ŀà¶ŀà¶ŀà¶ŀà¶ŀà¶ŀà¶ŀà¶ŀà¶ŀà¶ŀà¶ŀà¶ŀà¶ŀà¶ŀà¶ŀà¶ŀà¶ŀà¶ŀà¶ŀà¶ŀà¶ŀà¶ŀ": 907,
      "ph": 908,
      "Ġdar": 909,
      "Ġsa": 910,
      "âĸĪâĸĪâĸĳâĸĳâĸĳâĸĳâĸĳâĸĳâĸĳâĸĳâĸĳâĸĳâĸĳâĸĳâĸĳâĸĳâĸĳâĸĳ": 911,
      "ld": 912,
      "âĸĳâĸĳâĸĳâĸĳâĸĳ": 913,
      "DDDDDDDD": 914,
      "Ġchill": 915,
      "wir": 916,
      "uch": 917,
      "ĠI": 918,
      "gv": 919,
      "Ġkr": 920,
      "Ġecht": 921,
      "wer": 922,
      "ha": 923,
      "hm": 924,
      "Ġdenn": 925,
      "]ðŁĺ": 926,
      "bst": 927,
      "Ġsel": 928,
      "gra": 929,
      "mk": 930,
      "ation": 931,
      "Du": 932,
      "Ġlust": 933,
      "Ġeigentlich": 934,
      "Ġsehr": 935,
      "]:)[": 936,
      "doch": 937,
      "ĠV": 938,
      "ffle": 939,
      "Ġschau": 940,
      "abl": 941,
      "wo": 942,
      "Ġzeit": 943,
      "-.": 944,
      "66": 945,
      "ĠZ": 946,
      "âĸĳâĸĳâĸĳâĸĳâĸĳâĸĳ": 947,
      "90": 948,
      "Ġon": 949,
      "xDxD": 950,
      "Ġfra": 951,
      "Ã¶n": 952,
      "dem": 953,
      "]ðŁ¥": 954,
      "sen": 955,
      "ank": 956,
      "Ġbiffle": 957,
      "_-[": 958,
      "mc": 959,
      "Ġir": 960,
      "12": 961,
      "80": 962,
      "UPA": 963,
      "dfmk": 964,
      "gvUPA": 965,
      "gvUPAs": 966,
      "nicht": 967,
      "ER": 968,
      "discor": 969,
      "Ġeinen": 970,
      "HA": 971,
      "13": 972,
      "ce": 973,
      "ler": 974,
      "???[": 975,
      "ls": 976,
      "Â¶Â¶": 977,
      "ablabl": 978,
      "eg": 979,
      "yyyyyyyy": 980,
      "nÃ¶": 981,
      "ser": 982,
      "iele": 983,
      "Ġzum": 984,
      "77777777777777777777777777777777": 985,
      "Ok": 986,
      "¦[": 987,
      "ehe": 988,
      "xt": 989,
      "ĠĠĠ": 990,
      "Ã¼Ã¼Ã¼Ã¼": 991,
      "Ġob": 992,
      "rieben": 993,
      "na": 994,
      "ĠhÃ¤": 995,
      "ÃŁÃŁ": 996,
      "Ġbesser": 997,
      "âĪŀâĪŀâĪŀâĪŀâĪŀâĪŀâĪŀâĪŀâĪŀâĪŀâĪŀâĪŀâĪŀâĪŀâĪŀâĪŀ": 998,
      "rin": 999,
      "up": 1000,
      "aut": 1001,
      "Ġma": 1002,
      "ssss": 1003,
      "uuuuuuuuuuuuuuuu": 1004,
      "40": 1005,
      "gg": 1006,
      "Ġte": 1007,
      "]**": 1008,
      "ster": 1009,
      "Ġmacht": 1010,
      "Ġunter": 1011,
      "ðŁ¤®": 1012,
      "unktion": 1013,
      "wieso": 1014,
      "Ġje": 1015,
      "](": 1016,
      "cQ": 1017,
      "mlich": 1018,
      "Ġnix": 1019,
      "Hab": 1020,
      "kann": 1021,
      "Ġand": 1022,
      "ahahahah": 1023,
      "22": 1024,
      "Ġgel": 1025,
      "Ġkom": 1026,
      "art": 1027,
      "gel": 1028,
      "Qw": 1029,
      "gX": 1030,
      "ĠmÃ¼": 1031,
      "Ġnh": 1032,
      "Ġgehen": 1033,
      "????????????????????????????????": 1034,
      "Êĸ": 1035,
      "unde": 1036,
      "ĠSt": 1037,
      "ĠwÃ¤re": 1038,
      "li": 1039,
      "ĠwÃ¼r": 1040,
      "tter": 1041,
      "ĠÍľ": 1042,
      "gramm": 1043,
      "uck": 1044,
      "Ġrichtig": 1045,
      "ents": 1046,
      "mach": 1047,
      "ri": 1048,
      "schick": 1049,
      "test": 1050,
      "auf": 1051,
      "Ġdur": 1052,
      "lle": 1053,
      "huren": 1054,
      "WgX": 1055,
      "ka": 1056,
      "ange": 1057,
      "Ġthe": 1058,
      "Ã¼ck": 1059,
      "Ġle": 1060,
      "WgXcQ": 1061,
      "45": 1062,
      "cra": 1063,
      "Ãľ": 1064,
      "Ġ....": 1065,
      "âĸĪâĸĳâĸĳâĸĳâĸĳâĸĳâĸĳâĸĳâĸĳâĸĳâĸĳâĸĳâĸĳâĸĳâĸĳâĸĳâĸĳ": 1066,
      "Ġlol": 1067,
      "dQw": 1068,
      "wenn": 1069,
      "wtf": 1070,
      "Ġvllt": 1071,
      "annel": 1072,
      "ffffffffffffffffffffffffffffffffffffffffffffffffffffffffffffffff": 1073,
      "nt": 1074,
      "uff": 1075,
      "gvUPAshttps": 1076,
      "Die": 1077,
      "hÃ¤": 1078,
      "Ġ=": 1079,
      "ĠNacht": 1080,
      "??[": 1081,
      "ĠU": 1082,
      "Ġkannst": 1083,
      "eiÃŁt": 1084,
      "Ġ3": 1085,
      "channel": 1086,
      "ĠnÃ¤": 1087,
      "Ġhin": 1088,
      "je": 1089,
      "ys": 1090,
      "Ġen": 1091,
      "Ġeh": 1092,
      "aaa": 1093,
      "ungen": 1094,
      "achm": 1095,
      "schein": 1096,
      "Ġjosef": 1097,
      "Ġ-..": 1098,
      "llen": 1099,
      "Ã¤t": 1100,
      "Ġgesagt": 1101,
      "\"[": 1102,
      "ate": 1103,
      "ĠSch": 1104,
      "Ã¤r": 1105,
      "96": 1106,
      "________": 1107,
      "FF": 1108,
      "Sch": 1109,
      "Ġson": 1110,
      "Ġihn": 1111,
      "athe": 1112,
      "dapp": 1113,
      "discordapp": 1114,
      "tttt": 1115,
      "Ġander": 1116,
      "ðŁ«ĥðŁ«ĥðŁ«ĥðŁ«ĥðŁ«ĥðŁ«ĥðŁ«ĥðŁ«ĥ": 1117,
      "17": 1118,
      "ger": 1119,
      "ve": 1120,
      "ideo": 1121,
      "Ġdurch": 1122,
      "Ġha": 1123,
      "gesch": 1124,
      "ĠkÃ¶nnen": 1125,
      "Ġirgend": 1126,
      "dn": 1127,
      "stimmt": 1128,
      "Ġ.-..": 1129,
      "aufen": 1130,
      "dern": 1131,
      "âĸĴâĸĴâĸĴâĸĴ": 1132,
      "Ġwerden": 1133,
      "jaja": 1134,
      "aÃŁ": 1135,
      "Ã³": 1136,
      "]ðŁ¦": 1137,
      "Ġet": 1138,
      "Ġschne": 1139,
      "olol": 1140,
      "ĠwÃ¼rde": 1141,
      "ble": 1142,
      "pr": 1143,
      "schau": 1144,
      "attachm": 1145,
      "attachments": 1146,
      "sk": 1147,
      "llll": 1148,
      "nice": 1149,
      "XDXDXDXDXDXDXDXDXDXDXDXDXDXDXDXD": 1150,
      "Ġbl": 1151,
      "Ġnice": 1152,
      "hihihihi": 1153,
      "aden": 1154,
      "gar": 1155,
      "hat": 1156,
      "tz": 1157,
      "ðŁĺ": 1158,
      "Ġfinde": 1159,
      "Ġ.-.": 1160,
      "Ġgeschrieben": 1161,
      "craft": 1162,
      "65": 1163,
      "men": 1164,
      "Ġkommt": 1165,
      "18": 1166,
      "Ne": 1167,
      "Ġschl": 1168,
      "ðŁ¤®ðŁ¤®": 1169,
      "ige": 1170,
      "Ġq": 1171,
      "len": 1172,
      "ule": 1173,
      "Ġbekomm": 1174,
      "ien": 1175,
      "]-_-[": 1176,
      "sa": 1177,
      "ink": 1178,
      "asst": 1179,
      "Ġihr": 1180,
      "you": 1181,
      "Ġraus": 1182,
      "Ġbrau": 1183,
      "Ġfunktion": 1184,
      "jj": 1185,
      "richt": 1186,
      "Ġsieht": 1187,
      "inecraft": 1188,
      "klich": 1189,
      "Ġwoll": 1190,
      "Ġandere": 1191,
      "60": 1192,
      "HH": 1193,
      "Oh": 1194,
      "ipp": 1195,
      "off": 1196,
      "Ġent": 1197,
      "Ġnie": 1198,
      "ooo": 1199,
      "Ġlei": 1200,
      "aha": 1201,
      "ope": 1202,
      "]âĸĳâĸĳâĸĳ": 1203,
      "eee": 1204,
      "cke": 1205,
      "Ġrecht": 1206,
      "mmmmmmmmmmmmmmmm": 1207,
      "42": 1208,
      "fl": 1209,
      "nur": 1210,
      "pt": 1211,
      "Ġ5": 1212,
      "Ġverst": 1213,
      "bittebittebittebittebittebittebittebitte": 1214,
      "vc": 1215,
      "wann": 1216,
      "Ġdeine": 1217,
      "Ġhier": 1218,
      "Ġlern": 1219,
      "ĠGute": 1220,
      "Ġschnell": 1221,
      "/[": 1222,
      "rÃ¤": 1223,
      "von": 1224,
      "sel": 1225,
      "Ġde": 1226,
      "gef": 1227,
      "Ġ10": 1228,
      "Ġkrass": 1229,
      "man": 1230,
      "Ġschle": 1231,
      "Ġ-.-.": 1232,
      "Ġmusst": 1233,
      "75": 1234,
      "EN": 1235,
      "age": 1236,
      "Ġnem": 1237,
      "âĸĪâĸĪâĸĪâĸĪâĸĪâĸĪâĸĪâĸĪâĸĪâĸĪâĸĪâĸĪâĸĪâĸĪâĸĪâĸĪ": 1238,
      "oooooooooooooooooooooooooooooooooooooooooooooooooooooooooooooooo": 1239,
      "fÃ¼r": 1240,
      "Ġser": 1241,
      "ant": 1242,
      "Ġwur": 1243,
      "Ġzwei": 1244,
      "iiiiiiiiiiiiiiiiiiiiiiiiiiiiiiii": 1245,
      "ĠÍ¡Â°)": 1246,
      "ds": 1247,
      "Ġkur": 1248,
      "Ġviele": 1249,
      "Ġspielen": 1250,
      "Der": 1251,
      "gl": 1252,
      "Ġwahr": 1253,
      "mp": 1254,
      "son": 1255,
      "Ġ..-": 1256,
      "gut": 1257,
      "Ã²": 1258,
      "ĠJ": 1259,
      "Ġschreiben": 1260,
      "scheinlich": 1261,
      "Ġwo": 1262,
      "Ġbild": 1263,
      "Ġneu": 1264,
      "!!!!!!!!": 1265,
      ",,": 1266,
      "do": 1267,
      "ui": 1268,
      "Ġher": 1269,
      "etz": 1270,
      "Ġalso": 1271,
      "Ġuhr": 1272,
      "Ġsagen": 1273,
      "28": 1274,
      "Ġbes": 1275,
      "Ġsei": 1276,
      "Ġmc": 1277,
      "Ġwel": 1278,
      "Ġph": 1279,
      "dia": 1280,
      "eeeeeeeeeeeeeeee": 1281,
      "49": 1282,
      "Ġdrau": 1283,
      "Ġ---": 1284,
      "beit": 1285,
      "issen": 1286,
      "vor": 1287,
      "Ġwei": 1288,
      "]â": 1289,
      "io": 1290,
      "jk": 1291,
      "âĸĳâĸĳâĸĳâĸĳâĸĳâĸĳâĸĳ": 1292,
      "Ġwen": 1293,
      "Ġhttps": 1294,
      "rain": 1295,
      "].[": 1296,
      "mein": 1297,
      "ost": 1298,
      "ĠC": 1299,
      "Ġnochmal": 1300,
      "amit": 1301,
      "ken": 1302,
      "ĠâĢ": 1303,
      "Ġsag": 1304,
      "achte": 1305,
      "ĠschÃ¶n": 1306,
      "assen": 1307,
      "48": 1308,
      "ay": 1309,
      "Ġdiese": 1310,
      "Ġner": 1311,
      "Al": 1312,
      "sd": 1313,
      "ðŁ¤¦âĢįâĻĤï¸ı": 1314,
      "43": 1315,
      "EEEE": 1316,
      "UUUUUUUUUUUUUUUUUUUUUUUUUUUUUUUUUUUUUUUUUUUUUUUUUUUUUUUUUUUUUUUU": 1317,
      "^[": 1318,
      "hau": 1319,
      "Ġru": 1320,
      "inn": 1321,
      "]ðŁ¤": 1322,
      "cccccccc": 1323,
      "bo": 1324,
      "himo": 1325,
      "ffen": 1326,
      "schl": 1327,
      "Ġgew": 1328,
      "Ġgest": 1329,
      "ertig": 1330,
      "Ġprogramm": 1331,
      "âĶĢâĶĢâĶĢâĶĢ": 1332,
      "zw": 1333,
      "Ġfre": 1334,
      "Ġlange": 1335,
      "dankedankedankedanke": 1336,
      "µ[": 1337,
      "ĠheiÃŁt": 1338,
      "Ġihm": 1339,
      "Ġgesehen": 1340,
      "zZzZzZzZzZzZzZzZ": 1341,
      "ðŁ¤¦âĢįâĻĤï¸ıðŁ¤¦âĢįâĻĤï¸ı": 1342,
      "nope": 1343,
      "ĠmÃ¶": 1344,
      "ont": 1345,
      "Ã¶rt": 1346,
      "ðŁ¤¦âĢįâĻĤðŁ¤¦âĢįâĻĤ": 1347,
      "roÃŁ": 1348,
      "Ġ:([": 1349,
      "allo": 1350,
      "Ġweg": 1351,
      "ĠhÃ¤tte": 1352,
      "46": 1353,
      "jz": 1354,
      "uf": 1355,
      "esen": 1356,
      "aaaaaaaaaaaaaaaaaaaaaaaaaaaaaaaaaaaaaaaaaaaaaaaaaaaaaaaaaaaaaaaa": 1357,
      "Ġgenau": 1358,
      "ST": 1359,
      "]...[": 1360,
      "bl": 1361,
      "tja": 1362,
      "Ġ20": 1363,
      "aar": 1364,
      "*[": 1365,
      "70": 1366,
      "AU": 1367,
      "Ġschw": 1368,
      "Ġzur": 1369,
      "Ġwirklich": 1370,
      "Da": 1371,
      "ct": 1372,
      "oin": 1373,
      "andy": 1374,
      "HAHA": 1375,
      "ed": 1376,
      "ott": 1377,
      "su": 1378,
      "atÃ¼r": 1379,
      "Ġlang": 1380,
      "ohl": 1381,
      "kkkkkkkk": 1382,
      "Ġlernen": 1383,
      "mit": 1384,
      "ĠO": 1385,
      "Ã¤Ã¤Ã¤Ã¤": 1386,
      "War": 1387,
      "jetzt": 1388,
      "Ġyou": 1389,
      "ĠðŁĺ¡": 1390,
      "chte": 1391,
      "Ã¤u": 1392,
      "Ġdenke": 1393,
      "Ġhatte": 1394,
      "atÃ¼rlich": 1395,
      "88": 1396,
      "Ist": 1397,
      "SS": 1398,
      "yp": 1399,
      "orm": 1400,
      "hhhhhhhhhhhhhhhh": 1401,
      "................................": 1402,
      "36": 1403,
      "]..": 1404,
      "gst": 1405,
      "aten": 1406,
      "Ã¤h": 1407,
      "95": 1408,
      "So": 1409,
      "achen": 1410,
      "Ġvoll": 1411,
      "ĠSp": 1412,
      "essen": 1413,
      "wegen": 1414,
      "Ġschauen": 1415,
      "====": 1416,
      "++": 1417,
      "<:": 1418,
      "CK": 1419,
      "gab": 1420,
      "áµ": 1421,
      "Ġsogar": 1422,
      "Ġ._.[": 1423,
      "imim": 1424,
      "**[": 1425,
      "âķĲ": 1426,
      "AAAAAAAA": 1427,
      "Ġkurz": 1428,
      "Also": 1429,
      "SCH": 1430,
      "iss": 1431,
      "mer": 1432,
      "Ġto": 1433,
      "unk": 1434,
      "ahren": 1435,
      "âĸĪâĸĪâĸĳâĸĳâĸĳâĸĳâĸĳ": 1436,
      "ickt": 1437,
      "hen": 1438,
      "muss": 1439,
      "sc": 1440,
      "vllt": 1441,
      "ater": 1442,
      "Ġfertig": 1443,
      "Ġins": 1444,
      "ame": 1445,
      "Ġganze": 1446,
      "Ġschlecht": 1447,
      "Ġwenig": 1448,
      "Ġzie": 1449,
      "Ġex": 1450,
      "Ġsicher": 1451,
      "--------": 1452,
      "Ġis": 1453,
      "Ġ.--": 1454,
      "xDxDxDxD": 1455,
      "Ġserver": 1456,
      "iz": 1457,
      "angen": 1458,
      "Ġpass": 1459,
      "endlich": 1460,
      "Ġsollte": 1461,
      "47": 1462,
      "fer": 1463,
      "Ġsehen": 1464,
      "Ġsteht": 1465,
      "Ġrein": 1466,
      "ischen": 1467,
      "itter": 1468,
      "]ðŁ¥µ[": 1469,
      "áµĶ": 1470,
      "]@": 1471,
      "ho": 1472,
      "Ġy": 1473,
      "âĸĵ": 1474,
      "Ġdes": 1475,
      "Ã¤ter": 1476,
      "Ġstimmt": 1477,
      "ÃľÃľ": 1478,
      "Ġwurde": 1479,
      "38": 1480,
      "Es": 1481,
      "IN": 1482,
      "bs": 1483,
      "Ġtim": 1484,
      "âķı": 1485,
      "'s": 1486,
      "Hast": 1487,
      "pro": 1488,
      "cher": 1489,
      "Ġpaar": 1490,
      "ingt": 1491,
      "Ã¶Ã¶Ã¶Ã¶Ã¶Ã¶Ã¶Ã¶": 1492,
      "In": 1493,
      "||": 1494,
      "Ġnacht": 1495,
      "?!?![": 1496,
      "ablablablabl": 1497,
      "blem": 1498,
      "hv": 1499,
      "Ġhoch": 1500,
      "Ġfl": 1501,
      "!!!": 1502,
      "Ġoh": 1503,
      "Ġkomp": 1504,
      "26": 1505,
      "ÃŁer": 1506,
      "35": 1507,
      "LO": 1508,
      "eig": 1509,
      "Ġvideo": 1510,
      "geben": 1511,
      "dddd": 1512,
      "Ġminuten": 1513,
      "7777777777777777777777777777777777777777777777777777777777777777": 1514,
      "alten": 1515,
      "Ġschick": 1516,
      "Ġeiner": 1517,
      "Ġgerne": 1518,
      "âĪŀâĪŀâĪŀâĪŀâĪŀâĪŀâĪŀâĪŀâĪŀâĪŀâĪŀâĪŀâĪŀâĪŀâĪŀâĪŀâĪŀâĪŀâĪŀâĪŀâĪŀâĪŀâĪŀâĪŀâĪŀâĪŀâĪŀâĪŀâĪŀâĪŀâĪŀâĪŀ": 1519,
      "Ġfunktioniert": 1520,
      "]\"": 1521,
      "fÃ¼": 1522,
      "âĸĳâĸĳâĸĪ": 1523,
      "ĠgroÃŁ": 1524,
      "Ġmathe": 1525,
      "det": 1526,
      "rrrr": 1527,
      "Ġfrage": 1528,
      "Wenn": 1529,
      "des": 1530,
      "gr": 1531,
      "hit": 1532,
      "line": 1533,
      "no": 1534,
      "Ġsagt": 1535,
      "unter": 1536,
      "als": 1537,
      "schrei": 1538,
      "Ġwahrscheinlich": 1539,
      "ia": 1540,
      "Ġro": 1541,
      "iii": 1542,
      "Ġfil": 1543,
      "ochen": 1544,
      "cken": 1545,
      "rag": 1546,
      "spiel": 1547,
      "Ġbisschen": 1548,
      "Ġanderen": 1549,
      "Nein": 1550,
      "aff": 1551,
      "bb": 1552,
      "cdn": 1553,
      "eich": 1554,
      "Ġlaufen": 1555,
      "Ġgefunden": 1556,
      "ek": 1557,
      "kr": 1558,
      "ÃĦ": 1559,
      "erst": 1560,
      "oog": 1561,
      "ĠscheiÃŁ": 1562,
      "Ġgesp": 1563,
      "ĠĠĠĠĠĠĠĠĠĠĠĠĠĠĠĠĠĠĠĠĠĠĠĠĠĠĠĠĠĠĠĠ": 1564,
      "zz": 1565,
      "Ġgeil": 1566,
      "âĸĳâĸĳâĸĳ[": 1567,
      "((": 1568,
      "27": 1569,
      "tzt": 1570,
      "¢[": 1571,
      "Ġkenn": 1572,
      "Ġletz": 1573,
      "Ġgeb": 1574,
      "Ġmeinem": 1575,
      "OOOO": 1576,
      "ï¸ı[": 1577,
      "hmmm": 1578,
      "Ġdrauf": 1579,
      "LL": 1580,
      "ak": 1581,
      "echt": 1582,
      "Ġ|": 1583,
      "Ġdr": 1584,
      "Ġfe": 1585,
      "ckt": 1586,
      "Ġmache": 1587,
      "nnnn": 1588,
      "ĠkÃ¶nnte": 1589,
      "IIII": 1590,
      "????????????????????????????????????????????????????????????????": 1591,
      "97": 1592,
      "gute": 1593,
      "geht": 1594,
      "atz": 1595,
      "Ġkommen": 1596,
      "Ġklein": 1597,
      "DDDDDDDDDDDDDDDD": 1598,
      "skip": 1599,
      "Ġdamit": 1600,
      "Ġsc": 1601,
      "ðŁĳ": 1602,
      "ekt": 1603,
      "josef": 1604,
      "sry": 1605,
      "!![": 1606,
      "Ġper": 1607,
      "ahn": 1608,
      "yyyyyyyyyyyyyyyy": 1609,
      "Dann": 1610,
      "jo": 1611,
      "ock": 1612,
      "Ġ4": 1613,
      "Ġor": 1614,
      "atze": 1615,
      "reen": 1616,
      "elt": 1617,
      "Ġged": 1618,
      "]:([": 1619,
      "âĶ»": 1620,
      ">[": 1621,
      "CC": 1622,
      "^^[": 1623,
      "if": 1624,
      "mus": 1625,
      "top": 1626,
      "ats": 1627,
      "Ġste": 1628,
      "Ġwarum": 1629,
      "min": 1630,
      "mem": 1631,
      "Ġschule": 1632,
      "ungs": 1633,
      "Wieso": 1634,
      "Ġselber": 1635,
      "Ġweiter": 1636,
      "cool": 1637,
      "nee": 1638,
      "ĠnatÃ¼rlich": 1639,
      "are": 1640,
      "ssl": 1641,
      "opf": 1642,
      "keine": 1643,
      "ode": 1644,
      "pl": 1645,
      "Ġgr": 1646,
      "Ġfr": 1647,
      "ĠMin": 1648,
      "ilipp": 1649,
      "Ġmeinen": 1650,
      "ĠnÃ¤mlich": 1651,
      "50": 1652,
      "98": 1653,
      ";[": 1654,
      "will": 1655,
      "Ġx": 1656,
      "Ġerste": 1657,
      "Ġbitte": 1658,
      "ĠMal": 1659,
      "***[": 1660,
      "ixel": 1661,
      "Ġetw": 1662,
      "44": 1663,
      "AS": 1664,
      "glich": 1665,
      "hallo": 1666,
      "ner": 1667,
      "Ġbaden": 1668,
      "sehr": 1669,
      "itz": 1670,
      "tzdem": 1671,
      "oogle": 1672,
      "ICH": 1673,
      "per": 1674,
      "ãĢ": 1675,
      "Ġem": 1676,
      "Ġwissen": 1677,
      "utsch": 1678,
      "Ã¼b": 1679,
      "ure": 1680,
      "Ġwieso": 1681,
      "media": 1682,
      "Ġwerde": 1683,
      "Ġkeinen": 1684,
      "]ðŁ¦¦[": 1685,
      "Oder": 1686,
      "sag": 1687,
      "Ġnichts": 1688,
      "Ġvom": 1689,
      "Ġwaren": 1690,
      "Ġmeinte": 1691,
      "]***": 1692,
      "raining": 1693,
      "Ġgestern": 1694,
      "Í¡": 1695,
      "Ġ8": 1696,
      "Ġ.[": 1697,
      "Ġkon": 1698,
      "ĠfÃ¼": 1699,
      "Ġschla": 1700,
      "ĠPro": 1701,
      "Ġwillst": 1702,
      "ysik": 1703,
      "ðŁ«ĥðŁ«ĥðŁ«ĥðŁ«ĥðŁ«ĥðŁ«ĥðŁ«ĥðŁ«ĥðŁ«ĥðŁ«ĥðŁ«ĥðŁ«ĥðŁ«ĥðŁ«ĥðŁ«ĥðŁ«ĥ": 1704,
      "dig": 1705,
      "kenn": 1706,
      "sie": 1707,
      "asse": 1708,
      "Ġtro": 1709,
      "Ġhe": 1710,
      "Ã¤ch": 1711,
      "Ġirgendwie": 1712,
      "57": 1713,
      "igen": 1714,
      "sam": 1715,
      "Ġbtw": 1716,
      "Ġmen": 1717,
      "Ġit": 1718,
      "âĸĪâĸĪâĸĪâĸĪâĸĪ": 1719,
      "lock": 1720,
      "))": 1721,
      "23": 1722,
      ";)[": 1723,
      "Er": 1724,
      "put": 1725,
      "auch": 1726,
      "Ġwann": 1727,
      "Ġbil": 1728,
      "Ġessen": 1729,
      "Ġdazu": 1730,
      "000": 1731,
      "Ġproblem": 1732,
      "âĺŃâĺŃâĺŃâĺŃâĺŃâĺŃâĺŃâĺŃâĺŃâĺŃâĺŃâĺŃâĺŃâĺŃâĺŃâĺŃâĺŃâĺŃâĺŃâĺŃâĺŃâĺŃâĺŃâĺŃâĺŃâĺŃâĺŃâĺŃâĺŃâĺŃâĺŃâĺŃâĺŃâĺŃâĺŃâĺŃâĺŃâĺŃâĺŃâĺŃâĺŃâĺŃâĺŃâĺŃâĺŃâĺŃâĺŃâĺŃâĺŃâĺŃâĺŃâĺŃâĺŃâĺŃâĺŃâĺŃâĺŃâĺŃâĺŃâĺŃâĺŃâĺŃâĺŃâĺŃâĺŃâĺŃâĺŃâĺŃâĺŃâĺŃâĺŃâĺŃâĺŃâĺŃâĺŃâĺŃâĺŃâĺŃâĺŃâĺŃâĺŃâĺŃâĺŃâĺŃâĺŃâĺŃâĺŃâĺŃâĺŃâĺŃâĺŃâĺŃâĺŃâĺŃâĺŃâĺŃâĺŃâĺŃâĺŃâĺŃâĺŃâĺŃâĺŃâĺŃâĺŃâĺŃâĺŃâĺŃâĺŃâĺŃâĺŃâĺŃâĺŃâĺŃâĺŃâĺŃâĺŃâĺŃâĺŃâĺŃâĺŃâĺŃâĺŃâĺŃâĺŃâĺŃâĺŃâĺŃâĺŃâĺŃâĺŃâĺŃâĺŃâĺŃâĺŃâĺŃâĺŃâĺŃâĺŃâĺŃâĺŃâĺŃâĺŃâĺŃâĺŃâĺŃâĺŃâĺŃâĺŃâĺŃâĺŃâĺŃâĺŃâĺŃâĺŃâĺŃâĺŃâĺŃâĺŃâĺŃâĺŃâĺŃâĺŃâĺŃâĺŃâĺŃâĺŃâĺŃâĺŃâĺŃâĺŃâĺŃâĺŃâĺŃâĺŃâĺŃâĺŃâĺŃâĺŃâĺŃâĺŃâĺŃâĺŃâĺŃâĺŃâĺŃâĺŃâĺŃâĺŃâĺŃâĺŃâĺŃâĺŃâĺŃâĺŃâĺŃâĺŃâĺŃâĺŃâĺŃâĺŃâĺŃâĺŃâĺŃâĺŃâĺŃâĺŃâĺŃâĺŃâĺŃâĺŃâĺŃâĺŃâĺŃâĺŃâĺŃâĺŃâĺŃâĺŃâĺŃâĺŃâĺŃâĺŃâĺŃâĺŃâĺŃâĺŃâĺŃâĺŃâĺŃâĺŃâĺŃâĺŃâĺŃâĺŃâĺŃâĺŃâĺŃâĺŃâĺŃâĺŃâĺŃâĺŃâĺŃâĺŃâĺŃâĺŃâĺŃâĺŃâĺŃâĺŃâĺŃâĺŃâĺŃâĺŃâĺŃâĺŃâĺŃâĺŃâĺŃâĺŃâĺŃâĺŃâĺŃâĺŃâĺŃâĺŃâĺŃâĺŃâĺŃâĺŃâĺŃâĺŃâĺŃâĺŃâĺŃâĺŃâĺŃâĺŃâĺŃâĺŃâĺŃâĺŃâĺŃâĺŃâĺŃâĺŃâĺŃâĺŃâĺŃâĺŃâĺŃâĺŃâĺŃâĺŃâĺŃâĺŃâĺŃâĺŃâĺŃâĺŃâĺŃâĺŃâĺŃâĺŃâĺŃâĺŃâĺŃâĺŃâĺŃâĺŃâĺŃâĺŃâĺŃâĺŃâĺŃâĺŃâĺŃâĺŃâĺŃâĺŃâĺŃâĺŃâĺŃâĺŃâĺŃâĺŃâĺŃâĺŃâĺŃâĺŃâĺŃâĺŃâĺŃâĺŃâĺŃâĺŃâĺŃâĺŃâĺŃâĺŃâĺŃâĺŃâĺŃâĺŃâĺŃâĺŃâĺŃâĺŃâĺŃâĺŃâĺŃâĺŃâĺŃâĺŃâĺŃâĺŃâĺŃâĺŃâĺŃâĺŃâĺŃâĺŃâĺŃâĺŃâĺŃâĺŃâĺŃâĺŃâĺŃâĺŃâĺŃâĺŃâĺŃâĺŃâĺŃâĺŃâĺŃâĺŃâĺŃâĺŃâĺŃâĺŃâĺŃâĺŃâĺŃâĺŃâĺŃâĺŃâĺŃâĺŃâĺŃâĺŃâĺŃâĺŃâĺŃâĺŃâĺŃâĺŃâĺŃâĺŃâĺŃâĺŃâĺŃâĺŃâĺŃâĺŃâĺŃâĺŃâĺŃâĺŃâĺŃâĺŃâĺŃâĺŃâĺŃâĺŃâĺŃâĺŃâĺŃâĺŃâĺŃâĺŃâĺŃâĺŃâĺŃâĺŃâĺŃâĺŃâĺŃâĺŃâĺŃâĺŃâĺŃâĺŃâĺŃâĺŃâĺŃâĺŃâĺŃâĺŃâĺŃâĺŃâĺŃâĺŃâĺŃâĺŃâĺŃâĺŃâĺŃâĺŃâĺŃâĺŃâĺŃâĺŃâĺŃâĺŃâĺŃâĺŃâĺŃâĺŃâĺŃâĺŃâĺŃâĺŃâĺŃâĺŃâĺŃâĺŃâĺŃâĺŃâĺŃâĺŃâĺŃâĺŃâĺŃâĺŃâĺŃâĺŃâĺŃâĺŃâĺŃâĺŃâĺŃâĺŃâĺŃâĺŃâĺŃâĺŃâĺŃâĺŃâĺŃâĺŃâĺŃâĺŃâĺŃâĺŃâĺŃâĺŃâĺŃâĺŃâĺŃâĺŃâĺŃâĺŃâĺŃâĺŃâĺŃâĺŃâĺŃâĺŃâĺŃâĺŃâĺŃâĺŃâĺŃâĺŃâĺŃâĺŃâĺŃâĺŃâĺŃâĺŃâĺŃâĺŃâĺŃâĺŃâĺŃâĺŃâĺŃâĺŃâĺŃâĺŃâĺŃâĺŃâĺŃâĺŃâĺŃâĺŃâĺŃâĺŃâĺŃâĺŃâĺŃâĺŃâĺŃâĺŃâĺŃâĺŃâĺŃâĺŃâĺŃâĺŃâĺŃâĺŃâĺŃâĺŃâĺŃâĺŃâĺŃâĺŃâĺŃâĺŃâĺŃâĺŃâĺŃâĺŃâĺŃâĺŃâĺŃâĺŃâĺŃâĺŃâĺŃâĺŃâĺŃâĺŃâĺŃâĺŃâĺŃâĺŃâĺŃâĺŃâĺŃâĺŃâĺŃâĺŃâĺŃâĺŃâĺŃâĺŃâĺŃâĺŃâĺŃâĺŃâĺŃâĺŃâĺŃâĺŃâĺŃâĺŃâĺŃâĺŃâĺŃâĺŃâĺŃâĺŃâĺŃâĺŃâĺŃâĺŃâĺŃâĺŃâĺŃâĺŃâĺŃâĺŃâĺŃâĺŃâĺŃâĺŃâĺŃâĺŃâĺŃâĺŃâĺŃâĺŃâĺŃâĺŃâĺŃâĺŃâĺŃâĺŃâĺŃâĺŃâĺŃâĺŃâĺŃâĺŃâĺŃâĺŃâĺŃâĺŃâĺŃâĺŃâĺŃâĺŃâĺŃâĺŃâĺŃâĺŃâĺŃâĺŃâĺŃâĺŃâĺŃâĺŃâĺŃâĺŃâĺŃâĺŃâĺŃâĺŃâĺŃâĺŃâĺŃâĺŃâĺŃâĺŃâĺŃâĺŃâĺŃâĺŃâĺŃâĺŃâĺŃâĺŃâĺŃâĺŃâĺŃâĺŃâĺŃâĺŃâĺŃâĺŃâĺŃâĺŃâĺŃâĺŃâĺŃâĺŃâĺŃâĺŃâĺŃâĺŃâĺŃâĺŃâĺŃâĺŃâĺŃâĺŃâĺŃâĺŃâĺŃâĺŃâĺŃâĺŃâĺŃâĺŃâĺŃâĺŃâĺŃâĺŃâĺŃâĺŃâĺŃâĺŃâĺŃâĺŃâĺŃâĺŃâĺŃâĺŃâĺŃâĺŃâĺŃâĺŃâĺŃâĺŃâĺŃâĺŃâĺŃâĺŃâĺŃâĺŃâĺŃâĺŃâĺŃâĺŃâĺŃâĺŃâĺŃâĺŃâĺŃâĺŃâĺŃâĺŃâĺŃâĺŃâĺŃâĺŃâĺŃâĺŃâĺŃâĺŃâĺŃâĺŃâĺŃâĺŃâĺŃâĺŃâĺŃâĺŃâĺŃâĺŃâĺŃâĺŃâĺŃâĺŃâĺŃâĺŃâĺŃâĺŃâĺŃâĺŃâĺŃâĺŃâĺŃâĺŃâĺŃâĺŃâĺŃâĺŃâĺŃâĺŃâĺŃâĺŃâĺŃâĺŃâĺŃâĺŃâĺŃâĺŃâĺŃâĺŃâĺŃâĺŃâĺŃâĺŃâĺŃâĺŃâĺŃâĺŃâĺŃâĺŃâĺŃâĺŃâĺŃâĺŃâĺŃâĺŃâĺŃâĺŃâĺŃâĺŃâĺŃâĺŃâĺŃâĺŃâĺŃâĺŃâĺŃâĺŃâĺŃâĺŃâĺŃâĺŃâĺŃâĺŃâĺŃâĺŃâĺŃâĺŃâĺŃâĺŃâĺŃâĺŃâĺŃâĺŃâĺŃâĺŃâĺŃâĺŃâĺŃâĺŃâĺŃâĺŃâĺŃâĺŃâĺŃâĺŃâĺŃâĺŃâĺŃâĺŃâĺŃâĺŃâĺŃâĺŃâĺŃâĺŃâĺŃâĺŃâĺŃâĺŃâĺŃâĺŃâĺŃâĺŃâĺŃâĺŃâĺŃâĺŃâĺŃâĺŃâĺŃâĺŃâĺŃâĺŃâĺŃâĺŃâĺŃâĺŃâĺŃâĺŃâĺŃâĺŃâĺŃâĺŃâĺŃâĺŃâĺŃâĺŃâĺŃâĺŃâĺŃâĺŃâĺŃâĺŃâĺŃâĺŃâĺŃâĺŃâĺŃâĺŃâĺŃâĺŃâĺŃâĺŃâĺŃâĺŃâĺŃâĺŃâĺŃâĺŃâĺŃâĺŃâĺŃâĺŃâĺŃâĺŃâĺŃâĺŃâĺŃâĺŃâĺŃâĺŃâĺŃâĺŃâĺŃâĺŃâĺŃâĺŃâĺŃâĺŃâĺŃâĺŃâĺŃâĺŃâĺŃâĺŃâĺŃâĺŃâĺŃâĺŃâĺŃâĺŃâĺŃâĺŃâĺŃâĺŃâĺŃâĺŃâĺŃâĺŃâĺŃâĺŃâĺŃâĺŃâĺŃâĺŃâĺŃâĺŃâĺŃâĺŃâĺŃâĺŃâĺŃâĺŃâĺŃâĺŃâĺŃâĺŃâĺŃâĺŃâĺŃâĺŃâĺŃâĺŃâĺŃâĺŃâĺŃâĺŃâĺŃâĺŃâĺŃâĺŃâĺŃâĺŃâĺŃâĺŃâĺŃâĺŃâĺŃâĺŃâĺŃâĺŃâĺŃâĺŃâĺŃâĺŃâĺŃâĺŃâĺŃâĺŃâĺŃâĺŃâĺŃâĺŃâĺŃâĺŃâĺŃâĺŃâĺŃâĺŃâĺŃâĺŃâĺŃâĺŃâĺŃâĺŃâĺŃâĺŃâĺŃ": 1733,
      "Ġthimo": 1734,
      "Ã¼Ã¼Ã¼Ã¼Ã¼Ã¼Ã¼Ã¼": 1735,
      "ÃŁÃŁÃŁÃŁ": 1736,
      "KL": 1737,
      "MM": 1738,
      "heit": 1739,
      "wow": 1740,
      "Ġben": 1741,
      "âĸĳâĸĪ": 1742,
      "Ġdo": 1743,
      "Ġhandy": 1744,
      "ald": 1745,
      "âĸĳâĸĳâĸĳâĸĳâĸĳâĸĳâĸĳâĸĳâĸĳâĸĳ": 1746,
      "Ġpls": 1747,
      "ĠspaÃŁ": 1748,
      "ische": 1749,
      "ĠZeit": 1750,
      "Lol": 1751,
      "St": 1752,
      "Ãĸ": 1753,
      "Ġminecraft": 1754,
      "Ġdus": 1755,
      "ĠðŁĲ": 1756,
      "tern": 1757,
      "Ġsonst": 1758,
      "XDXDXDXDXDXDXDXDXDXDXDXDXDXDXDXDXDXDXDXDXDXDXDXDXDXDXDXDXDXDXDXD": 1759,
      "67": 1760,
      "fall": 1761,
      "hol": 1762,
      "qu": 1763,
      "wu": 1764,
      "ĠÐ": 1765,
      "alsch": 1766,
      "ormal": 1767,
      "Ġlos": 1768,
      "âĸĪâĸĪâĸĪâĸĪâĸĪâĸĪâĸĪ": 1769,
      "oher": 1770,
      "Ġbeim": 1771,
      "Ġklar": 1772,
      "ĠðŁĺ«": 1773,
      "ĠmÃ¼ssen": 1774,
      "819": 1775,
      "the": 1776,
      "ĺŃ[": 1777,
      "Ġdachte": 1778,
      "scha": 1779,
      "schie": 1780,
      "Ġsowas": 1781,
      "isa": 1782,
      "Ġmeiner": 1783,
      "ive": 1784,
      "hure": 1785,
      "Ġziemlich": 1786,
      "fu": 1787,
      "ä¸": 1788,
      "Ġ0": 1789,
      "arbeit": 1790,
      "dert": 1791,
      "Ġbissl": 1792,
      "âĶģ": 1793,
      "thimo": 1794,
      "Ġohne": 1795,
      "Bin": 1796,
      "]<:": 1797,
      "noch": 1798,
      "ob": 1799,
      "ren": 1800,
      "Ġus": 1801,
      "Ġdan": 1802,
      "ark": 1803,
      "Ã¤hr": 1804,
      "ings": 1805,
      "kannst": 1806,
      "Ġschlimm": 1807,
      "Ah": 1808,
      "Weil": 1809,
      "glau": 1810,
      "ma": 1811,
      "Ġhal": 1812,
      "annt": 1813,
      "âĢľ": 1814,
      "ĠspÃ¤ter": 1815,
      "ĻĤ[": 1816,
      "klÃ¤r": 1817,
      "aptop": 1818,
      "SCHAU": 1819,
      "LOCK": 1820,
      "ĠMinuten": 1821,
      "AN": 1822,
      "HER": 1823,
      "dee": 1824,
      "upp": 1825,
      "âĸĳâĸĳâĸĳâĸĳ[": 1826,
      "Ġget": 1827,
      "ĠAn": 1828,
      "Ġwollte": 1829,
      "!!!***[": 1830,
      "62": 1831,
      "93": 1832,
      "EI": 1833,
      "gs": 1834,
      "geh": 1835,
      "pf": 1836,
      "ird": 1837,
      "aaaaaa": 1838,
      "Ġschwer": 1839,
      "Ġdies": 1840,
      "Ġeinem": 1841,
      "amen": 1842,
      "Ġgek": 1843,
      "ĠSHER": 1844,
      "Ġbestimmt": 1845,
      "kommen": 1846,
      "Ġgibts": 1847,
      "ĠnÃ¤ch": 1848,
      "ĠSHERLOCK": 1849,
      "si": 1850,
      "tim": 1851,
      "Ġtoll": 1852,
      "abei": 1853,
      "Ġfast": 1854,
      "ĠĠĠĠĠĠĠ": 1855,
      "Ġonline": 1856,
      "ahahahahahahahah": 1857,
      "ffffffffffffffffffffffffffffffffffffffffffffffffffffffffffffffffffffffffffffffffffffffffffffffffffffffffffffffffffffffffffffffff": 1858,
      "Warum": 1859,
      "Ein": 1860,
      "TZ": 1861,
      "ca": 1862,
      "wik": 1863,
      "Ġmag": 1864,
      "Ġfall": 1865,
      "ehmen": 1866,
      "genau": 1867,
      "Ġpl": 1868,
      "]-.": 1869,
      "ĠLisa": 1870,
      "FFFF": 1871,
      "hihihihihihihihi": 1872,
      "bittebittebittebittebittebittebittebittebittebittebittebittebittebittebittebitte": 1873,
      "Ġpassiert": 1874,
      "Doch": 1875,
      "Kann": 1876,
      "akt": 1877,
      "by": 1878,
      "Ġdabei": 1879,
      "Ġnein": 1880,
      "Ġtyp": 1881,
      "ath": 1882,
      "ooooo": 1883,
      ":/[": 1884,
      "igrÃ¤": 1885,
      "Ġmeinst": 1886,
      "Ġup": 1887,
      "igrÃ¤ne": 1888,
      "ex": 1889,
      "gal": 1890,
      "pn": 1891,
      "ud": 1892,
      "âĸĢ": 1893,
      "Ġnich": 1894,
      "esch": 1895,
      "one": 1896,
      "rad": 1897,
      "ittag": 1898,
      "Ġbekommen": 1899,
      "haupt": 1900,
      "'([": 1901,
      "85": 1902,
      "]âĢ": 1903,
      "âĺŃ[": 1904,
      "âĸĦ": 1905,
      "âĸĳâĸĪâĸĪâĸĪ": 1906,
      "Ã¼n": 1907,
      "wester": 1908,
      "Ġgeschickt": 1909,
      "Ġselbst": 1910,
      "ssssssss": 1911,
      "________________": 1912,
      "tttttttt": 1913,
      "Ġkomple": 1914,
      "Ġbilder": 1915,
      "iere": 1916,
      "morgen": 1917,
      "asch": 1918,
      "ðŁ¥": 1919,
      "????[": 1920,
      "olz": 1921,
      "Ġantw": 1922,
      "ĠThimo": 1923,
      "ĠðŁĲĮ": 1924,
      "Ach": 1925,
      "RR": 1926,
      "dr": 1927,
      "mo": 1928,
      "Ġahn": 1929,
      "Ġ^^[": 1930,
      "Ġgute": 1931,
      "unst": 1932,
      "ache": 1933,
      "org": 1934,
      "ory": 1935,
      "Ġfeh": 1936,
      "Ġpixel": 1937,
      "âĸĪâĸĪâĸĪâĸĪâĸĪâĸĳâĸĳâĸĳâĸĳâĸĳâĸĳâĸĳâĸĳâĸĳâĸĳâĸĳâĸĳâĸĳâĸĳâĸĳâĸĳ": 1938,
      "Ġ15": 1939,
      "Th": 1940,
      "Yhttps": 1941,
      "]âĸĳâĸĳâĸĳâĸĳ": 1942,
      "fd": 1943,
      "gessen": 1944,
      "âĸĪâĸĪâĸĳâĸĳâĸĳâĸĳâĸĳâĸĳâĸĳâĸĳâĸĳâĸĳâĸĳâĸĳ": 1945,
      "ĠfrÃ¼": 1946,
      "Ġlink": 1947,
      "Ġange": 1948,
      "ragt": 1949,
      "Ġmachst": 1950,
      "ideos": 1951,
      "âĸĳâĸĳâĸĳâĸĳâĸĳâĸĳâĸĳâĸĳâĸĳâĸĳâĸĳâĸĳâĸĳâĸĳâĸĳâĸĳâĸĳâĸĳâĸĳâĸĳâĸĳâĸĳâĸĳâĸĳâĸĳâĸĳâĸĳâĸĳâĸĳâĸĳâĸĳâĸĳâĸĳâĸĳâĸĳâĸĳâĸĳâĸĳâĸĳâĸĳâĸĳâĸĳâĸĳâĸĳâĸĳâĸĳâĸĳâĸĳ": 1952,
      "uuuuuuuuuuuuuuuuuuuuuuuuuuuuuuuu": 1953,
      "Ġeher": 1954,
      "//": 1955,
      "86": 1956,
      "bar": 1957,
      "date": 1958,
      "ial": 1959,
      "lass": 1960,
      "pe": 1961,
      "to": 1962,
      "wel": 1963,
      "Ã´": 1964,
      "Ġwohl": 1965,
      "eiten": 1966,
      "Ã¤re": 1967,
      "schon": 1968,
      "Ġlaptop": 1969,
      "ight": 1970,
      "gibt": 1971,
      "!!!![": 1972,
      "ĠÃ¼berhaupt": 1973,
      "âĸĪâĸĪâĸĪâĸĳâĸĳâĸĳâĸĳâĸĳâĸĳâĸĳâĸĳâĸĳâĸĳâĸĳâĸĳâĸĳâĸĳâĸĳâĸĳ": 1974,
      "Ġapp": 1975,
      "phy": 1976,
      "Ġahnung": 1977,
      "73": 1978,
      "82": 1979,
      "utter": 1980,
      "âĸĳ[": 1981,
      "oha": 1982,
      "ild": 1983,
      "âĢįðŁ": 1984,
      "Ġlustig": 1985,
      "reensh": 1986,
      "ä¸Ģ": 1987,
      "form": 1988,
      "¶[": 1989,
      "ause": 1990,
      "Ġteil": 1991,
      "Ġfuck": 1992,
      "oche": 1993,
      "ĠðŁĳ": 1994,
      "Ġneue": 1995,
      "Ġ----": 1996,
      "stens": 1997,
      "oooooooooooooooooooooooooooooooooooooooooooooooooooooooooooooooooooooooooooooooooooooooooooooooooooooooooooooooooooooooooooooooo": 1998,
      "]...": 1999,
      "WW": 2000,
      "ml": 2001,
      "tere": 2002,
      "ub": 2003,
      "anden": 2004,
      "mmen": 2005,
      "Ġlo": 2006,
      "Ġeinmal": 2007,
      "ommen": 2008,
      "Ġgemein": 2009,
      "Ġlieber": 2010,
      "Ġblei": 2011,
      "ĠscheiÃŁe": 2012,
      "Sp": 2013,
      "go": 2014,
      "pls": 2015,
      "uer": 2016,
      "Ġgl": 2017,
      "..[": 2018,
      "unn": 2019,
      "Ġkam": 2020,
      "geb": 2021,
      "ÃŁen": 2022,
      "]ðŁĻĤ[": 2023,
      "Ġstunden": 2024,
      "heute": 2025,
      "immer": 2026,
      "?!?[": 2027,
      "iscord": 2028,
      "Ġanders": 2029,
      "unkte": 2030,
      "24": 2031,
      "ace": 2032,
      "ef": 2033,
      "keit": 2034,
      "wor": 2035,
      "ĠÃ¶": 2036,
      "ase": 2037,
      "Ġme": 2038,
      "Ġno": 2039,
      "Ã¤llt": 2040,
      "immen": 2041,
      "ady": 2042,
      "Ġjeden": 2043,
      ",,,,": 2044,
      "UUUUUUUUUUUUUUUUUUUUUUUUUUUUUUUUUUUUUUUUUUUUUUUUUUUUUUUUUUUUUUUUUUUUUUUUUUUUUUUUUUUUUUUUUUUUUUUUUUUUUUUUUUUUUUUUUUUUUUUUUUUUUUUU": 2045,
      "dankedankedankedankedankedankedankedanke": 2046,
      "ðŁ¤¦âĢįâĻĤï¸ıðŁ¤¦âĢįâĻĤï¸ıðŁ¤¦âĢįâĻĤï¸ıðŁ¤¦âĢįâĻĤï¸ı": 2047,
      "ðŁ¤¦âĢįâĻĤðŁ¤¦âĢįâĻĤðŁ¤¦âĢįâĻĤðŁ¤¦âĢįâĻĤ": 2048,
      "gabe": 2049,
      "dar": 2050,
      "lk": 2051,
      "err": 2052,
      "Ġdrei": 2053,
      "Ġweit": 2054,
      "Ġhoff": 2055,
      "Ġzw": 2056,
      "rech": 2057,
      "Ġhabs": 2058,
      "Ġstr": 2059,
      "bist": 2060,
      "]-..": 2061,
      "]ðŁ¥¶[": 2062,
      "zZzZzZzZzZzZzZzZzZzZzZzZzZzZzZzZ": 2063,
      "isser": 2064,
      "reenshot": 2065,
      "Hmm": 2066,
      "eben": 2067,
      "nter": 2068,
      "wÃ¼r": 2069,
      "âĺŃâĺŃâĺŃâĺŃâĺŃâĺŃâĺŃâĺŃâĺŃâĺŃâĺŃâĺŃ": 2070,
      "Ġdrin": 2071,
      "Ġsk": 2072,
      "eigt": 2073,
      "atus": 2074,
      "Ġdavon": 2075,
      "Ġeben": 2076,
      "Ġegal": 2077,
      "Ġca": 2078,
      "Ġschreibt": 2079,
      "idk": 2080,
      "WgXcQhttps": 2081,
      "Ã¤uft": 2082,
      "Ġtrotzdem": 2083,
      "EA": 2084,
      "Wo": 2085,
      "dk": 2086,
      "eug": 2087,
      "hre": 2088,
      "sur": 2089,
      "Ð¾": 2090,
      "áķ": 2091,
      "Ġ30": 2092,
      "chill": 2093,
      "Ġtr": 2094,
      "Ġfor": 2095,
      "ahl": 2096,
      "eln": 2097,
      "dass": 2098,
      "entlich": 2099,
      "Ġkomme": 2100,
      "Ġwegen": 2101,
      "Ġgehts": 2102,
      "Ġque": 2103,
      "Ġfilm": 2104,
      "afft": 2105,
      "Ġdanach": 2106,
      "21": 2107,
      "app": 2108,
      "jh": 2109,
      "zÃ¤h": 2110,
      "Ġsry": 2111,
      "Ġnormal": 2112,
      "Ġkack": 2113,
      "scht": 2114,
      "Ġpasst": 2115,
      "iger": 2116,
      "rage": 2117,
      "Ġstunde": 2118,
      "usste": 2119,
      "andom": 2120,
      "own": 2121,
      "Ġ-...": 2122,
      "Ġleid": 2123,
      "Ġrum": 2124,
      "Ġschicken": 2125,
      "schaft": 2126,
      "gn": 2127,
      "jaaa": 2128,
      "wq": 2129,
      "Ġgott": 2130,
      "atei": 2131,
      "oooooo": 2132,
      "Ġfrei": 2133,
      "Ġfalsch": 2134,
      "schw": 2135,
      "Ġpc": 2136,
      "ĠĠĠĠĠ": 2137,
      "Ġverl": 2138,
      "Ġgehe": 2139,
      "giphy": 2140,
      "ernt": 2141,
      "fekt": 2142,
      "ĠweiÃŁt": 2143,
      "Â¶Â¶Â¶Â¶": 2144,
      "Ġengl": 2145,
      "Ġqu": 2146,
      "mmmmmmmmmmmmmmmmmmmmmmmmmmmmmmmm": 2147,
      "ĠzurÃ¼ck": 2148,
      "hitler": 2149,
      "teress": 2150,
      "Na": 2151,
      "Thimo": 2152,
      "dan": 2153,
      "jp": 2154,
      "oje": 2155,
      "ts": 2156,
      "uh": 2157,
      "´[": 2158,
      "ãĥ": 2159,
      "Ġbr": 2160,
      "Ġbro": 2161,
      "Ġmer": 2162,
      "âĸĪ[": 2163,
      "Ġfar": 2164,
      "egal": 2165,
      "cccccccccccccccc": 2166,
      ".<": 2167,
      "87": 2168,
      "94": 2169,
      "An": 2170,
      "Wir": 2171,
      "fuck": 2172,
      "sst": 2173,
      "Ġdiscord": 2174,
      "alle": 2175,
      "ite": 2176,
      "Ġoff": 2177,
      "Ġinter": 2178,
      "Ġgegen": 2179,
      "Ġ-_-[": 2180,
      "ĠspÃ¤t": 2181,
      "indow": 2182,
      "btw": 2183,
      "Ġabend": 2184,
      "Ã¶ren": 2185,
      "Ġdeinen": 2186,
      "Ġkomisch": 2187,
      "llllllll": 2188,
      "IE": 2189,
      "]--": 2190,
      "kst": 2191,
      "mathe": 2192,
      "zie": 2193,
      "ood": 2194,
      "Ġtun": 2195,
      "sehen": 2196,
      "ĠlÃ¤": 2197,
      "deut": 2198,
      "Ġrunter": 2199,
      "stellen": 2200,
      "0000": 2201,
      "Ġdeiner": 2202,
      "Ġallem": 2203,
      "Ġdarf": 2204,
      "HHHH": 2205,
      "kkkkkkkkkkkkkkkk": 2206,
      "Ġletzten": 2207,
      "=&": 2208,
      "hin": 2209,
      "od": 2210,
      "sor": 2211,
      "Ðµ": 2212,
      "Ġoft": 2213,
      "___": 2214,
      "stellt": 2215,
      "âĸĳâĸĳâĸĳâĸĪâĸĪ": 2216,
      "Ġgefragt": 2217,
      "indest": 2218,
      "9680": 2219,
      "ĠmÃ¶chte": 2220,
      "âĸĵâĸĵ": 2221,
      "krass": 2222,
      "Ġdieses": 2223,
      "83": 2224,
      "ake": 2225,
      "hst": 2226,
      "udi": 2227,
      "Ð°": 2228,
      "âĤ": 2229,
      "Ġ*": 2230,
      "ı[": 2231,
      "chn": 2232,
      "âĸĳâĸĪâĸĪ": 2233,
      "Ġnut": 2234,
      "Ġwoche": 2235,
      "achs": 2236,
      "Ġfol": 2237,
      "Ġli": 2238,
      "ĠdafÃ¼r": 2239,
      "Ġext": 2240,
      "verst": 2241,
      "Ġganzen": 2242,
      "weilig": 2243,
      "ĠVer": 2244,
      "Ġfragen": 2245,
      "xDxDxDxDxDxDxDxD": 2246,
      "IR": 2247,
      "ail": 2248,
      "jf": 2249,
      "los": 2250,
      "vt": 2251,
      "ÙĪ": 2252,
      "Ġâķı": 2253,
      "Ġ:/[": 2254,
      "Ĥ[": 2255,
      "Ġsoo": 2256,
      "Ġtre": 2257,
      "Ġkunst": 2258,
      "Ã¤nd": 2259,
      "ome": 2260,
      "wwww": 2261,
      "hhh": 2262,
      "ĠerklÃ¤r": 2263,
      "ierst": 2264,
      "bis": 2265,
      "laden": 2266,
      "alles": 2267,
      "ï¸»": 2268,
      "ðŁ¤®ðŁ¤®ðŁ¤®ðŁ¤®": 2269,
      "Ġneuen": 2270,
      "Ġseite": 2271,
      "ĠâĢ¸": 2272,
      "]ðŁ¤®": 2273,
      "âķĲâĶģ": 2274,
      "áķķ": 2275,
      "âĤ¬": 2276,
      "89": 2277,
      ">.<": 2278,
      "EB": 2279,
      "Josef": 2280,
      "gh": 2281,
      "sion": 2282,
      "voll": 2283,
      "zeit": 2284,
      "Ġtag": 2285,
      "einfach": 2286,
      "tten": 2287,
      "alk": 2288,
      "Ġkopf": 2289,
      "under": 2290,
      "ĠlÃ¤n": 2291,
      "oment": 2292,
      "image": 2293,
      "Ġbest": 2294,
      "schauen": 2295,
      "Ġyt": 2296,
      "puter": 2297,
      "55": 2298,
      "EF": 2299,
      "fin": 2300,
      "gleich": 2301,
      "viel": 2302,
      "Ġ+": 2303,
      "irn": 2304,
      "stag": 2305,
      "ichte": 2306,
      "Ġvater": 2307,
      "bel": 2308,
      "Ġ...[": 2309,
      "imme": 2310,
      "Ġbraucht": 2311,
      "aaaaaaaaaaaaaaaaaaaaaaaaaaaaaaaaaaaaaaaaaaaaaaaaaaaaaaaaaaaaaaaaaaaaaaaaaaaaaaaaaaaaaaaaaaaaaaaaaaaaaaaaaaaaaaaaaaaaaaaaaaaaaaaa": 2312,
      "ablablablablablablablabl": 2313,
      "indows": 2314,
      "AB": 2315,
      "Cr": 2316,
      "jaa": 2317,
      "sse": 2318,
      "ĠÃ¤n": 2319,
      "ĠÃ¼b": 2320,
      "Ġmem": 2321,
      "atik": 2322,
      "aaaaa": 2323,
      "Ġfur": 2324,
      "Ġschn": 2325,
      "ĠlÃ¶": 2326,
      "Ġeinz": 2327,
      "Ġsol": 2328,
      "ppen": 2329,
      "ish": 2330,
      "habs": 2331,
      "Ġ--.": 2332,
      "rÃ¼cke": 2333,
      "olololol": 2334,
      "sammen": 2335,
      "jjjj": 2336,
      "âĸĪâĸĪâĸĳâĸĳâĸĳâĸĳâĸĳâĸĪâĸĪ": 2337,
      "âĸĳâĸĳâĸĪâĸĳâĸĳâĸĳâĸĳâĸĳâĸĳ": 2338,
      "69": 2339,
      "cat": 2340,
      "ew": 2341,
      "hÃ¶": 2342,
      "list": 2343,
      "mir": 2344,
      "meine": 2345,
      "nst": 2346,
      "nis": 2347,
      "Ġdc": 2348,
      "Ġtut": 2349,
      "ale": 2350,
      "ativ": 2351,
      "Ġichs": 2352,
      "urch": 2353,
      "ahh": 2354,
      "Ġangst": 2355,
      "ĠAr": 2356,
      "âĢ¦[": 2357,
      "ĠgehÃ¶rt": 2358,
      "Ġ-.-": 2359,
      "âĸĪâĸĪâĸĪâĸĳâĸĳâĸĳâĸĳâĸĳâĸĳâĸĳâĸĳâĸĳâĸĳâĸĳâĸĳ": 2360,
      "ĠRe": 2361,
      "Ġdaran": 2362,
      "ationen": 2363,
      "Ġunterricht": 2364,
      "Ġhinter": 2365,
      "]âĸĳâĸĳâĸĳâĸĪ": 2366,
      "]âĸĳâĸĳâĸĳâĸĪâĸĳâĸĳâĸĳâĸĳâĸĳâĸĳâĸĳâĸĳâĸĳâĸĳâĸĳâĸĳâĸĳâĸĳâĸĳâĸĳ": 2367,
      "iiiiiiiiiiiiiiiiiiiiiiiiiiiiiiiiiiiiiiiiiiiiiiiiiiiiiiiiiiiiiiii": 2368,
      "77777777777777777777777777777777777777777777777777777777777777777777777777777777777777777777777777777777777777777777777777777777": 2369,
      "âĪŀâĪŀâĪŀâĪŀâĪŀâĪŀâĪŀâĪŀâĪŀâĪŀâĪŀâĪŀâĪŀâĪŀâĪŀâĪŀâĪŀâĪŀâĪŀâĪŀâĪŀâĪŀâĪŀâĪŀâĪŀâĪŀâĪŀâĪŀâĪŀâĪŀâĪŀâĪŀâĪŀâĪŀâĪŀâĪŀâĪŀâĪŀâĪŀâĪŀâĪŀâĪŀâĪŀâĪŀâĪŀâĪŀâĪŀâĪŀâĪŀâĪŀâĪŀâĪŀâĪŀâĪŀâĪŀâĪŀâĪŀâĪŀâĪŀâĪŀâĪŀâĪŀâĪŀâĪŀ": 2370,
      "jpg": 2371,
      "41": 2372,
      "Xd": 2373,
      "]....": 2374,
      "lie": 2375,
      "woll": 2376,
      "Ġ9": 2377,
      "Ġel": 2378,
      "stfu": 2379,
      "Ġsachen": 2380,
      "Ġlost": 2381,
      "ĠlÃ¤uft": 2382,
      "Ġof": 2383,
      "Ġzusammen": 2384,
      "ielt": 2385,
      "habe": 2386,
      "ĠPh": 2387,
      "twitter": 2388,
      "âĺŃâĺŃâĺŃâĺŃâĺŃâĺŃâĺŃâĺŃâĺŃâĺŃâĺŃâĺŃâĺŃâĺŃâĺŃâĺŃâĺŃâĺŃâĺŃâĺŃâĺŃâĺŃâĺŃâĺŃâĺŃâĺŃâĺŃâĺŃâĺŃâĺŃâĺŃâĺŃâĺŃâĺŃâĺŃâĺŃâĺŃâĺŃâĺŃâĺŃâĺŃâĺŃâĺŃâĺŃâĺŃâĺŃâĺŃâĺŃâĺŃâĺŃâĺŃâĺŃâĺŃâĺŃâĺŃâĺŃâĺŃâĺŃâĺŃâĺŃâĺŃâĺŃâĺŃâĺŃâĺŃâĺŃâĺŃâĺŃâĺŃâĺŃâĺŃâĺŃâĺŃâĺŃâĺŃâĺŃâĺŃâĺŃâĺŃâĺŃâĺŃâĺŃâĺŃâĺŃâĺŃâĺŃâĺŃâĺŃâĺŃâĺŃâĺŃâĺŃâĺŃâĺŃâĺŃâĺŃâĺŃâĺŃâĺŃâĺŃâĺŃâĺŃâĺŃâĺŃâĺŃâĺŃâĺŃâĺŃâĺŃâĺŃâĺŃâĺŃâĺŃâĺŃâĺŃâĺŃâĺŃâĺŃâĺŃâĺŃâĺŃâĺŃâĺŃâĺŃâĺŃâĺŃâĺŃâĺŃâĺŃâĺŃâĺŃâĺŃâĺŃâĺŃâĺŃâĺŃâĺŃâĺŃâĺŃâĺŃâĺŃâĺŃâĺŃâĺŃâĺŃâĺŃâĺŃâĺŃâĺŃâĺŃâĺŃâĺŃâĺŃâĺŃâĺŃâĺŃâĺŃâĺŃâĺŃâĺŃâĺŃâĺŃâĺŃâĺŃâĺŃâĺŃâĺŃâĺŃâĺŃâĺŃâĺŃâĺŃâĺŃâĺŃâĺŃâĺŃâĺŃâĺŃâĺŃâĺŃâĺŃâĺŃâĺŃâĺŃâĺŃâĺŃâĺŃâĺŃâĺŃâĺŃâĺŃâĺŃâĺŃâĺŃâĺŃâĺŃâĺŃâĺŃâĺŃâĺŃâĺŃâĺŃâĺŃâĺŃâĺŃâĺŃâĺŃâĺŃâĺŃâĺŃâĺŃâĺŃâĺŃâĺŃâĺŃâĺŃâĺŃâĺŃâĺŃâĺŃâĺŃâĺŃâĺŃâĺŃâĺŃâĺŃâĺŃâĺŃâĺŃâĺŃâĺŃâĺŃâĺŃâĺŃâĺŃâĺŃâĺŃâĺŃâĺŃâĺŃâĺŃâĺŃâĺŃâĺŃâĺŃâĺŃâĺŃâĺŃâĺŃâĺŃâĺŃâĺŃâĺŃâĺŃâĺŃâĺŃâĺŃâĺŃâĺŃâĺŃâĺŃâĺŃâĺŃâĺŃâĺŃâĺŃâĺŃâĺŃâĺŃâĺŃâĺŃâĺŃâĺŃâĺŃâĺŃâĺŃâĺŃâĺŃâĺŃâĺŃâĺŃâĺŃâĺŃâĺŃâĺŃâĺŃâĺŃâĺŃâĺŃâĺŃâĺŃâĺŃâĺŃâĺŃâĺŃâĺŃâĺŃâĺŃâĺŃâĺŃâĺŃâĺŃâĺŃâĺŃâĺŃâĺŃâĺŃâĺŃâĺŃâĺŃâĺŃâĺŃâĺŃâĺŃâĺŃâĺŃâĺŃâĺŃâĺŃâĺŃâĺŃâĺŃâĺŃâĺŃâĺŃâĺŃâĺŃâĺŃâĺŃâĺŃâĺŃâĺŃâĺŃâĺŃâĺŃâĺŃâĺŃâĺŃâĺŃâĺŃâĺŃâĺŃâĺŃâĺŃâĺŃâĺŃâĺŃâĺŃâĺŃâĺŃâĺŃâĺŃâĺŃâĺŃâĺŃâĺŃâĺŃâĺŃâĺŃâĺŃâĺŃâĺŃâĺŃâĺŃâĺŃâĺŃâĺŃâĺŃâĺŃâĺŃâĺŃâĺŃâĺŃâĺŃâĺŃâĺŃâĺŃâĺŃâĺŃâĺŃâĺŃâĺŃâĺŃâĺŃâĺŃâĺŃâĺŃâĺŃâĺŃâĺŃâĺŃâĺŃâĺŃâĺŃâĺŃâĺŃâĺŃâĺŃâĺŃâĺŃâĺŃâĺŃâĺŃâĺŃâĺŃâĺŃâĺŃâĺŃâĺŃâĺŃâĺŃâĺŃâĺŃâĺŃâĺŃâĺŃâĺŃâĺŃâĺŃâĺŃâĺŃâĺŃâĺŃâĺŃâĺŃâĺŃâĺŃâĺŃâĺŃâĺŃâĺŃâĺŃâĺŃâĺŃâĺŃâĺŃâĺŃâĺŃâĺŃâĺŃâĺŃâĺŃâĺŃâĺŃâĺŃâĺŃâĺŃâĺŃâĺŃâĺŃâĺŃâĺŃâĺŃâĺŃâĺŃâĺŃâĺŃâĺŃâĺŃâĺŃâĺŃâĺŃâĺŃâĺŃâĺŃâĺŃâĺŃâĺŃâĺŃâĺŃâĺŃâĺŃâĺŃâĺŃâĺŃâĺŃâĺŃâĺŃâĺŃâĺŃâĺŃâĺŃâĺŃâĺŃâĺŃâĺŃâĺŃâĺŃâĺŃâĺŃâĺŃâĺŃâĺŃâĺŃâĺŃâĺŃâĺŃâĺŃâĺŃâĺŃâĺŃâĺŃâĺŃâĺŃâĺŃâĺŃâĺŃâĺŃâĺŃâĺŃâĺŃâĺŃâĺŃâĺŃâĺŃâĺŃâĺŃâĺŃâĺŃâĺŃâĺŃâĺŃâĺŃâĺŃâĺŃâĺŃâĺŃâĺŃâĺŃâĺŃâĺŃâĺŃâĺŃâĺŃâĺŃâĺŃâĺŃâĺŃâĺŃâĺŃâĺŃâĺŃâĺŃâĺŃâĺŃâĺŃâĺŃâĺŃâĺŃâĺŃâĺŃâĺŃâĺŃâĺŃâĺŃâĺŃâĺŃâĺŃâĺŃâĺŃâĺŃâĺŃâĺŃâĺŃâĺŃâĺŃâĺŃâĺŃâĺŃâĺŃâĺŃâĺŃâĺŃâĺŃâĺŃâĺŃâĺŃâĺŃâĺŃâĺŃâĺŃâĺŃâĺŃâĺŃâĺŃâĺŃâĺŃâĺŃâĺŃâĺŃâĺŃâĺŃâĺŃâĺŃâĺŃâĺŃâĺŃâĺŃâĺŃâĺŃâĺŃâĺŃâĺŃâĺŃâĺŃâĺŃâĺŃâĺŃâĺŃâĺŃâĺŃâĺŃâĺŃâĺŃâĺŃâĺŃâĺŃâĺŃâĺŃâĺŃâĺŃâĺŃâĺŃâĺŃâĺŃâĺŃâĺŃâĺŃâĺŃâĺŃâĺŃâĺŃâĺŃâĺŃâĺŃâĺŃâĺŃâĺŃâĺŃâĺŃâĺŃâĺŃâĺŃâĺŃâĺŃâĺŃâĺŃâĺŃâĺŃâĺŃâĺŃâĺŃâĺŃâĺŃâĺŃâĺŃâĺŃâĺŃâĺŃâĺŃâĺŃâĺŃâĺŃâĺŃâĺŃâĺŃâĺŃâĺŃâĺŃâĺŃâĺŃâĺŃâĺŃâĺŃâĺŃâĺŃâĺŃâĺŃâĺŃâĺŃâĺŃâĺŃâĺŃâĺŃâĺŃâĺŃâĺŃâĺŃâĺŃâĺŃâĺŃâĺŃâĺŃâĺŃâĺŃâĺŃâĺŃâĺŃâĺŃâĺŃâĺŃâĺŃâĺŃâĺŃâĺŃâĺŃâĺŃâĺŃâĺŃâĺŃâĺŃâĺŃâĺŃâĺŃâĺŃâĺŃâĺŃâĺŃâĺŃâĺŃâĺŃâĺŃâĺŃâĺŃâĺŃâĺŃâĺŃâĺŃâĺŃâĺŃâĺŃâĺŃâĺŃâĺŃâĺŃâĺŃâĺŃâĺŃâĺŃâĺŃâĺŃâĺŃâĺŃâĺŃâĺŃâĺŃâĺŃâĺŃâĺŃâĺŃâĺŃâĺŃâĺŃâĺŃâĺŃâĺŃâĺŃâĺŃâĺŃâĺŃâĺŃâĺŃâĺŃâĺŃâĺŃâĺŃâĺŃâĺŃ": 2389,
      "liste": 2390,
      "Ġanderes": 2391,
      "Ġwelche": 2392,
      "Í¡Â°": 2393,
      "Ġschlafen": 2394,
      "Ã¤chlich": 2395,
      "png": 2396,
      "120": 2397,
      "63": 2398,
      "]||": 2399,
      "af": 2400,
      "act": 2401,
      "passt": 2402,
      "wohl": 2403,
      "ãģ": 2404,
      "ĠXD": 2405,
      "aul": 2406,
      "enz": 2407,
      "eim": 2408,
      "Ġhel": 2409,
      "Ġhil": 2410,
      "Ġidee": 2411,
      "ith": 2412,
      "Ġinteress": 2413,
      "ierte": 2414,
      "Ġaufm": 2415,
      "ĠGo": 2416,
      "Ġleben": 2417,
      "geschaut": 2418,
      "hause": 2419,
      "Ġbenut": 2420,
      "Jetzt": 2421,
      "_.": 2422,
      "az": 2423,
      "ks": 2424,
      "tra": 2425,
      "ÑĤ": 2426,
      "Ġdanke": 2427,
      "icher": 2428,
      "schn": 2429,
      "urt": 2430,
      "Ġeins": 2431,
      "gest": 2432,
      "iges": 2433,
      "ÃŁe": 2434,
      "Ġwirst": 2435,
      "Ġricht": 2436,
      "pppp": 2437,
      "Ġverb": 2438,
      "hren": 2439,
      "Ġready": 2440,
      "ĠHolz": 2441,
      "weise": 2442,
      "ega": 2443,
      "gggg": 2444,
      "Ġjeder": 2445,
      "Ġverstehe": 2446,
      "hhhhhhhhhhhhhhhhhhhhhhhhhhhhhhhh": 2447,
      "||[": 2448,
      "unny": 2449,
      "433": 2450,
      "NG": 2451,
      "Xk": 2452,
      "^-": 2453,
      "hier": 2454,
      "kein": 2455,
      "nach": 2456,
      "ogen": 2457,
      "vv": 2458,
      "witter": 2459,
      "Ġra": 2460,
      "Ġendlich": 2461,
      "ĺŃðŁ": 2462,
      "erne": 2463,
      "status": 2464,
      "Ġsu": 2465,
      "Ġgere": 2466,
      "Ġnot": 2467,
      "Ġkn": 2468,
      "Ġfahr": 2469,
      "Ġschul": 2470,
      "schul": 2471,
      "ĠzB": 2472,
      "Ġ..-.": 2473,
      "].--": 2474,
      "Ġgeschafft": 2475,
      "zeich": 2476,
      "Ġerstmal": 2477,
      "................................................................": 2478,
      "ÃĦÃĦ": 2479,
      "08": 2480,
      "EH": 2481,
      "Tja": 2482,
      "fr": 2483,
      "hal": 2484,
      "nf": 2485,
      "oi": 2486,
      "pff": 2487,
      "yst": 2488,
      "³[": 2489,
      "Ġ6": 2490,
      "Ġ_": 2491,
      "inge": 2492,
      "Ġgra": 2493,
      "Ġtrau": 2494,
      "eres": 2495,
      "eigen": 2496,
      "Ã¼h": 2497,
      "ller": 2498,
      "Ġfin": 2499,
      "soll": 2500,
      "Ġjtzt": 2501,
      "ĠerzÃ¤h": 2502,
      "Ġrandom": 2503,
      "ppe": 2504,
      "Ġ12": 2505,
      "Ġ--..": 2506,
      "lost": 2507,
      "Ġdarauf": 2508,
      "Ġleider": 2509,
      "Ġdeutsch": 2510,
      "]âİ": 2511,
      "========": 2512,
      "----------------": 2513,
      "Ġkenne": 2514,
      "Ġmenschen": 2515,
      "glaube": 2516,
      "Ġkomplett": 2517,
      "âĸĳâĸĳâĸĳâĸĳâĸĳâĸĳâĸĳâĸĳâĸĳâĸĳâĸĳâĸĳâĸĳâĸĳâĸĳâĸĳâĸĳâĸĳâĸĳâĸĳâĸĳâĸĳâĸĳâĸĳâĸĳâĸĳâĸĳâĸĳâĸĳâĸĳâĸĳâĸĳâĸĳâĸĳâĸĳâĸĳâĸĳâĸĳâĸĳâĸĳâĸĳâĸĳâĸĳâĸĳâĸĳâĸĳâĸĳâĸĳâĸĳâĸĳâĸĳâĸĳâĸĳâĸĳâĸĳâĸĳâĸĳâĸĳâĸĳâĸĳ": 2518,
      "Ġkacke": 2519,
      "29": 2520,
      "HÃ¤": 2521,
      "google": 2522,
      "sm": 2523,
      "sw": 2524,
      "uwu": 2525,
      "chst": 2526,
      "inter": 2527,
      "ĠhÃ¶": 2528,
      "Ġfahren": 2529,
      "Ġschwester": 2530,
      "ruck": 2531,
      "Ġvc": 2532,
      "schla": 2533,
      "Ġant": 2534,
      "]ðŁĺŃ[": 2535,
      "stell": 2536,
      "Ġmusste": 2537,
      "Ġliegt": 2538,
      "407": 2539,
      "âĸĴâĸĴâĸĴâĸĴâĸĴâĸĴâĸĴâĸĴ": 2540,
      "Ġschneller": 2541,
      "ĠmÃ¶glich": 2542,
      "gaben": 2543,
      "Ġweniger": 2544,
      "????????????????????????????????????????????????????????????????????????????????????????????????????????????????????????????????": 2545,
      "Ġgedacht": 2546,
      "Ahttps": 2547,
      "DA": 2548,
      "LK": 2549,
      "Wann": 2550,
      "katze": 2551,
      "mand": 2552,
      "moin": 2553,
      "Ġcom": 2554,
      "Ħ[": 2555,
      "auert": 2556,
      "Ġbot": 2557,
      "Ġbald": 2558,
      "Ġsehe": 2559,
      "ore": 2560,
      "Ġleute": 2561,
      "del": 2562,
      "ema": 2563,
      "Ġdenen": 2564,
      "Ġvergessen": 2565,
      "Ġreg": 2566,
      "allen": 2567,
      "Ġarbei": 2568,
      "atsÃ¤chlich": 2569,
      "âĸĦâĸĦ": 2570,
      "64": 2571,
      "822": 2572,
      "ib": 2573,
      "macht": 2574,
      "rig": 2575,
      "va": 2576,
      "woher": 2577,
      "Ġbere": 2578,
      "Ġsim": 2579,
      "Ġsinn": 2580,
      "unge": 2581,
      "llig": 2582,
      "Ġvideos": 2583,
      "Ġzeug": 2584,
      "eter": 2585,
      "Ġanf": 2586,
      "ĠðŁ¥": 2587,
      "Ġstre": 2588,
      "Ġ-.[": 2589,
      "Ġwasser": 2590,
      "Ġ100": 2591,
      "Ġvorher": 2592,
      "prnt": 2593,
      "Ġbesch": 2594,
      "ĠâĢŀ": 2595,
      "Ã¤Ã¤Ã¤Ã¤Ã¤Ã¤Ã¤Ã¤": 2596,
      "ÃŁerdem": 2597,
      "Nicht": 2598,
      "]âĸĳâĸĳâĸĳâĸĳâĸĳâĸĳâĸĳâĸĳâĸĳâĸĳâĸĳâĸĳâĸĳâĸĳâĸĳâĸĳ": 2599,
      "ey": 2600,
      "fs": 2601,
      "oa": 2602,
      "ree": 2603,
      "µðŁ¥": 2604,
      "ðĿ": 2605,
      "Ġber": 2606,
      "Ġdi": 2607,
      "Ġseine": 2608,
      "Ġmei": 2609,
      "ook": 2610,
      "eile": 2611,
      "oren": 2612,
      "Ġlassen": 2613,
      "Ġversu": 2614,
      "lausur": 2615,
      "Ġnachher": 2616,
      "374": 2617,
      "Ġdeinem": 2618,
      "Ġgelernt": 2619,
      "Ġende": 2620,
      "Ġphysik": 2621,
      "AAAAAAAAAAAAAAAA": 2622,
      "Ġhoffe": 2623,
      "Ġtreffen": 2624,
      "68": 2625,
      "Nur": 2626,
      "co": 2627,
      "fte": 2628,
      "fil": 2629,
      "hmmmm": 2630,
      "tet": 2631,
      "vÃ¶": 2632,
      "ya": 2633,
      "Ġ;)[": 2634,
      "auen": 2635,
      "str": 2636,
      "ies": 2637,
      "Ġmega": 2638,
      "atur": 2639,
      "able": 2640,
      "Ġesse": 2641,
      "Ġspiele": 2642,
      "ĠTraining": 2643,
      "spank": 2644,
      "ringen": 2645,
      "Ġprogrammieren": 2646,
      "Ġlangsam": 2647,
      "Ġ.--.": 2648,
      "dddddddd": 2649,
      "Ġ|[": 2650,
      "ä¸Ģáķķ": 2651,
      "ystem": 2652,
      "NN": 2653,
      "]???[": 2654,
      "]âĺŃâĺŃâĺŃâĺŃâĺŃâĺŃâĺŃâĺŃâĺŃâĺŃâĺŃâĺŃâĺŃâĺŃâĺŃâĺŃâĺŃâĺŃâĺŃâĺŃâĺŃâĺŃâĺŃâĺŃâĺŃâĺŃâĺŃâĺŃâĺŃâĺŃâĺŃâĺŃâĺŃâĺŃâĺŃâĺŃâĺŃâĺŃâĺŃâĺŃâĺŃâĺŃâĺŃâĺŃâĺŃâĺŃâĺŃâĺŃâĺŃâĺŃâĺŃâĺŃâĺŃâĺŃâĺŃâĺŃâĺŃâĺŃâĺŃâĺŃâĺŃâĺŃâĺŃâĺŃâĺŃâĺŃâĺŃâĺŃâĺŃâĺŃâĺŃâĺŃâĺŃâĺŃâĺŃâĺŃâĺŃâĺŃâĺŃâĺŃâĺŃâĺŃâĺŃâĺŃâĺŃâĺŃâĺŃâĺŃâĺŃâĺŃâĺŃâĺŃâĺŃâĺŃâĺŃâĺŃâĺŃâĺŃâĺŃâĺŃâĺŃâĺŃâĺŃâĺŃâĺŃâĺŃâĺŃâĺŃâĺŃâĺŃâĺŃâĺŃâĺŃâĺŃâĺŃâĺŃâĺŃâĺŃâĺŃâĺŃâĺŃâĺŃâĺŃâĺŃâĺŃâĺŃâĺŃâĺŃâĺŃâĺŃâĺŃâĺŃâĺŃâĺŃâĺŃâĺŃâĺŃâĺŃâĺŃâĺŃâĺŃâĺŃâĺŃâĺŃâĺŃâĺŃâĺŃâĺŃâĺŃâĺŃâĺŃâĺŃâĺŃâĺŃâĺŃâĺŃâĺŃâĺŃâĺŃâĺŃâĺŃâĺŃâĺŃâĺŃâĺŃâĺŃâĺŃâĺŃâĺŃâĺŃâĺŃâĺŃâĺŃâĺŃâĺŃâĺŃâĺŃâĺŃâĺŃâĺŃâĺŃâĺŃâĺŃâĺŃâĺŃâĺŃâĺŃâĺŃâĺŃâĺŃâĺŃâĺŃâĺŃâĺŃâĺŃâĺŃâĺŃâĺŃâĺŃâĺŃâĺŃâĺŃâĺŃâĺŃâĺŃâĺŃâĺŃâĺŃâĺŃâĺŃâĺŃâĺŃâĺŃâĺŃâĺŃâĺŃâĺŃâĺŃâĺŃâĺŃâĺŃâĺŃâĺŃâĺŃâĺŃâĺŃâĺŃâĺŃâĺŃâĺŃâĺŃâĺŃâĺŃâĺŃâĺŃâĺŃâĺŃâĺŃâĺŃâĺŃâĺŃâĺŃâĺŃâĺŃâĺŃâĺŃâĺŃâĺŃâĺŃâĺŃâĺŃâĺŃâĺŃâĺŃâĺŃâĺŃâĺŃâĺŃâĺŃâĺŃâĺŃâĺŃâĺŃâĺŃâĺŃâĺŃâĺŃâĺŃâĺŃâĺŃâĺŃâĺŃâĺŃâĺŃâĺŃâĺŃâĺŃâĺŃâĺŃâĺŃâĺŃâĺŃâĺŃâĺŃâĺŃâĺŃâĺŃâĺŃâĺŃâĺŃâĺŃâĺŃâĺŃâĺŃâĺŃâĺŃâĺŃâĺŃâĺŃâĺŃâĺŃâĺŃâĺŃâĺŃâĺŃâĺŃâĺŃâĺŃâĺŃâĺŃâĺŃâĺŃâĺŃâĺŃâĺŃâĺŃâĺŃâĺŃâĺŃâĺŃâĺŃâĺŃâĺŃâĺŃâĺŃâĺŃâĺŃâĺŃâĺŃâĺŃâĺŃâĺŃâĺŃâĺŃâĺŃâĺŃâĺŃâĺŃâĺŃâĺŃâĺŃâĺŃâĺŃâĺŃâĺŃâĺŃâĺŃâĺŃâĺŃâĺŃâĺŃâĺŃâĺŃâĺŃâĺŃâĺŃâĺŃâĺŃâĺŃâĺŃâĺŃâĺŃâĺŃâĺŃâĺŃâĺŃâĺŃâĺŃâĺŃâĺŃâĺŃâĺŃâĺŃâĺŃâĺŃâĺŃâĺŃâĺŃâĺŃâĺŃâĺŃâĺŃâĺŃâĺŃâĺŃâĺŃâĺŃâĺŃâĺŃâĺŃâĺŃâĺŃâĺŃâĺŃâĺŃâĺŃâĺŃâĺŃâĺŃâĺŃâĺŃâĺŃâĺŃâĺŃâĺŃâĺŃâĺŃâĺŃâĺŃâĺŃâĺŃâĺŃâĺŃâĺŃâĺŃâĺŃâĺŃâĺŃâĺŃâĺŃâĺŃâĺŃâĺŃâĺŃâĺŃâĺŃâĺŃâĺŃâĺŃâĺŃâĺŃâĺŃâĺŃâĺŃâĺŃâĺŃâĺŃâĺŃâĺŃâĺŃâĺŃâĺŃâĺŃâĺŃâĺŃâĺŃâĺŃâĺŃâĺŃâĺŃâĺŃâĺŃâĺŃâĺŃâĺŃâĺŃâĺŃâĺŃâĺŃâĺŃâĺŃâĺŃâĺŃâĺŃâĺŃâĺŃâĺŃâĺŃâĺŃâĺŃâĺŃâĺŃâĺŃâĺŃâĺŃâĺŃâĺŃâĺŃâĺŃâĺŃâĺŃâĺŃâĺŃâĺŃâĺŃâĺŃâĺŃâĺŃâĺŃâĺŃâĺŃâĺŃâĺŃâĺŃâĺŃâĺŃâĺŃâĺŃâĺŃâĺŃâĺŃâĺŃâĺŃâĺŃâĺŃâĺŃâĺŃâĺŃâĺŃâĺŃâĺŃâĺŃâĺŃâĺŃâĺŃâĺŃâĺŃâĺŃâĺŃâĺŃâĺŃâĺŃâĺŃâĺŃâĺŃâĺŃâĺŃâĺŃâĺŃâĺŃâĺŃâĺŃâĺŃâĺŃâĺŃâĺŃâĺŃâĺŃâĺŃâĺŃâĺŃâĺŃâĺŃâĺŃâĺŃâĺŃâĺŃâĺŃâĺŃâĺŃâĺŃâĺŃâĺŃâĺŃâĺŃâĺŃâĺŃâĺŃâĺŃâĺŃâĺŃâĺŃâĺŃâĺŃâĺŃâĺŃâĺŃâĺŃâĺŃâĺŃâĺŃâĺŃâĺŃâĺŃâĺŃâĺŃâĺŃâĺŃâĺŃâĺŃâĺŃâĺŃâĺŃâĺŃâĺŃâĺŃâĺŃâĺŃâĺŃâĺŃâĺŃâĺŃâĺŃâĺŃâĺŃâĺŃâĺŃâĺŃâĺŃâĺŃâĺŃâĺŃâĺŃâĺŃâĺŃâĺŃâĺŃâĺŃâĺŃâĺŃâĺŃâĺŃâĺŃâĺŃâĺŃâĺŃâĺŃâĺŃâĺŃâĺŃâĺŃâĺŃâĺŃâĺŃâĺŃâĺŃâĺŃâĺŃâĺŃâĺŃâĺŃâĺŃâĺŃâĺŃâĺŃâĺŃâĺŃâĺŃâĺŃâĺŃâĺŃâĺŃâĺŃâĺŃâĺŃâĺŃâĺŃâĺŃâĺŃâĺŃâĺŃâĺŃâĺŃâĺŃâĺŃâĺŃâĺŃâĺŃâĺŃâĺŃâĺŃâĺŃâĺŃâĺŃâĺŃâĺŃâĺŃâĺŃâĺŃâĺŃâĺŃâĺŃâĺŃâĺŃâĺŃâĺŃâĺŃâĺŃâĺŃâĺŃâĺŃâĺŃâĺŃâĺŃâĺŃâĺŃâĺŃâĺŃâĺŃâĺŃâĺŃâĺŃâĺŃâĺŃâĺŃâĺŃâĺŃâĺŃâĺŃâĺŃâĺŃâĺŃâĺŃâĺŃâĺŃâĺŃâĺŃâĺŃâĺŃâĺŃâĺŃâĺŃâĺŃâĺŃâĺŃâĺŃâĺŃâĺŃâĺŃâĺŃâĺŃâĺŃâĺŃâĺŃâĺŃâĺŃâĺŃâĺŃâĺŃâĺŃâĺŃâĺŃâĺŃâĺŃâĺŃâĺŃâĺŃâĺŃâĺŃâĺŃâĺŃâĺŃâĺŃâĺŃâĺŃâĺŃâĺŃâĺŃâĺŃâĺŃâĺŃâĺŃâĺŃâĺŃâĺŃâĺŃâĺŃâĺŃâĺŃâĺŃâĺŃâĺŃâĺŃâĺŃâĺŃâĺŃâĺŃâĺŃâĺŃâĺŃâĺŃâĺŃâĺŃâĺŃâĺŃâĺŃâĺŃâĺŃâĺŃâĺŃâĺŃâĺŃâĺŃâĺŃâĺŃâĺŃâĺŃâĺŃâĺŃâĺŃâĺŃâĺŃâĺŃâĺŃâĺŃâĺŃâĺŃâĺŃâĺŃâĺŃâĺŃâĺŃâĺŃâĺŃâĺŃâĺŃâĺŃâĺŃâĺŃâĺŃâĺŃâĺŃâĺŃâĺŃâĺŃâĺŃâĺŃâĺŃâĺŃâĺŃâĺŃâĺŃâĺŃâĺŃâĺŃâĺŃâĺŃâĺŃâĺŃâĺŃâĺŃâĺŃâĺŃâĺŃâĺŃâĺŃâĺŃâĺŃâĺŃâĺŃâĺŃâĺŃâĺŃâĺŃâĺŃâĺŃâĺŃâĺŃâĺŃâĺŃâĺŃâĺŃâĺŃâĺŃâĺŃâĺŃâĺŃâĺŃâĺŃâĺŃâĺŃâĺŃâĺŃâĺŃâĺŃâĺŃâĺŃâĺŃâĺŃâĺŃâĺŃâĺŃâĺŃâĺŃâĺŃâĺŃâĺŃâĺŃâĺŃâĺŃâĺŃâĺŃâĺŃâĺŃâĺŃâĺŃâĺŃâĺŃâĺŃâĺŃâĺŃâĺŃâĺŃâĺŃâĺŃâĺŃâĺŃâĺŃâĺŃâĺŃâĺŃâĺŃâĺŃâĺŃâĺŃâĺŃâĺŃâĺŃâĺŃâĺŃâĺŃâĺŃâĺŃâĺŃâĺŃâĺŃâĺŃâĺŃâĺŃâĺŃâĺŃâĺŃâĺŃâĺŃâĺŃâĺŃâĺŃâĺŃâĺŃâĺŃâĺŃâĺŃâĺŃâĺŃâĺŃâĺŃâĺŃâĺŃâĺŃâĺŃâĺŃâĺŃâĺŃâĺŃâĺŃâĺŃâĺŃâĺŃâĺŃâĺŃâĺŃâĺŃâĺŃâĺŃâĺŃâĺŃâĺŃâĺŃâĺŃâĺŃâĺŃâĺŃâĺŃâĺŃâĺŃâĺŃâĺŃâĺŃâĺŃâĺŃâĺŃâĺŃâĺŃâĺŃâĺŃâĺŃâĺŃâĺŃâĺŃâĺŃâĺŃâĺŃâĺŃâĺŃâĺŃâĺŃâĺŃâĺŃâĺŃâĺŃâĺŃâĺŃâĺŃâĺŃâĺŃâĺŃâĺŃâĺŃâĺŃâĺŃâĺŃâĺŃâĺŃâĺŃâĺŃâĺŃâĺŃâĺŃâĺŃâĺŃâĺŃâĺŃâĺŃâĺŃâĺŃâĺŃâĺŃâĺŃâĺŃâĺŃâĺŃâĺŃâĺŃâĺŃ": 2655,
      "ain": 2656,
      "halt": 2657,
      "yes": 2658,
      "Ð¸": 2659,
      "Ġad": 2660,
      "chmal": 2661,
      "Ġwichtig": 2662,
      "âĸĳâĸĳâĸĳâĸĳâĸĳâĸĳâĸĳâĸĳâĸĳâĸĪ": 2663,
      "ruch": 2664,
      "sche": 2665,
      "âĺŃâĺŃâĺŃâĺŃâĺŃâĺŃâĺŃâĺŃâĺŃâĺŃâĺŃâĺŃâĺŃâĺŃâĺŃâĺŃâĺŃâĺŃâĺŃâĺŃâĺŃâĺŃâĺŃâĺŃâĺŃâĺŃâĺŃâĺŃâĺŃâĺŃâĺŃâĺŃâĺŃâĺŃâĺŃâĺŃâĺŃâĺŃâĺŃâĺŃâĺŃâĺŃâĺŃâĺŃâĺŃâĺŃâĺŃâĺŃâĺŃâĺŃâĺŃâĺŃâĺŃâĺŃâĺŃâĺŃâĺŃâĺŃâĺŃâĺŃâĺŃâĺŃâĺŃâĺŃâĺŃâĺŃâĺŃâĺŃâĺŃâĺŃâĺŃâĺŃâĺŃâĺŃâĺŃâĺŃ": 2666,
      "Ġpunkte": 2667,
      "ahlen": 2668,
      "liche": 2669,
      "]ðŁĲ": 2670,
      "Ġ-[": 2671,
      "ĠĠĠĠĠĠĠĠĠĠĠĠĠĠĠĠĠĠĠĠĠĠĠĠĠĠĠĠĠĠĠĠĠĠĠĠĠĠĠĠĠĠĠĠĠĠĠĠĠĠĠĠĠĠĠĠĠĠĠĠĠĠĠĠ": 2672,
      "âĺŃâĺŃâĺŃâĺŃâĺŃâĺŃâĺŃâĺŃâĺŃâĺŃâĺŃâĺŃâĺŃâĺŃâĺŃâĺŃâĺŃâĺŃâĺŃâĺŃâĺŃâĺŃâĺŃâĺŃâĺŃâĺŃâĺŃâĺŃâĺŃâĺŃâĺŃâĺŃâĺŃâĺŃâĺŃâĺŃâĺŃâĺŃâĺŃâĺŃâĺŃâĺŃâĺŃâĺŃâĺŃâĺŃâĺŃâĺŃâĺŃâĺŃâĺŃâĺŃâĺŃâĺŃâĺŃâĺŃâĺŃâĺŃâĺŃâĺŃâĺŃâĺŃâĺŃâĺŃâĺŃâĺŃâĺŃâĺŃâĺŃâĺŃâĺŃâĺŃâĺŃâĺŃâĺŃâĺŃâĺŃâĺŃâĺŃâĺŃâĺŃâĺŃâĺŃâĺŃâĺŃâĺŃâĺŃâĺŃâĺŃâĺŃâĺŃâĺŃâĺŃâĺŃâĺŃâĺŃâĺŃâĺŃâĺŃâĺŃâĺŃâĺŃâĺŃâĺŃâĺŃâĺŃâĺŃâĺŃâĺŃâĺŃâĺŃâĺŃâĺŃâĺŃâĺŃâĺŃâĺŃâĺŃâĺŃâĺŃâĺŃâĺŃâĺŃâĺŃâĺŃâĺŃâĺŃâĺŃâĺŃâĺŃâĺŃâĺŃâĺŃâĺŃâĺŃâĺŃâĺŃâĺŃâĺŃâĺŃâĺŃâĺŃâĺŃâĺŃâĺŃâĺŃâĺŃâĺŃâĺŃâĺŃâĺŃâĺŃâĺŃâĺŃâĺŃâĺŃâĺŃâĺŃâĺŃâĺŃâĺŃâĺŃâĺŃâĺŃâĺŃâĺŃâĺŃâĺŃâĺŃâĺŃâĺŃâĺŃâĺŃâĺŃâĺŃâĺŃâĺŃâĺŃâĺŃâĺŃâĺŃâĺŃâĺŃâĺŃâĺŃâĺŃâĺŃâĺŃâĺŃâĺŃâĺŃâĺŃâĺŃâĺŃâĺŃâĺŃâĺŃâĺŃâĺŃâĺŃâĺŃâĺŃâĺŃâĺŃâĺŃâĺŃâĺŃâĺŃâĺŃâĺŃâĺŃâĺŃâĺŃâĺŃâĺŃâĺŃâĺŃâĺŃâĺŃâĺŃâĺŃâĺŃâĺŃâĺŃâĺŃâĺŃâĺŃâĺŃâĺŃâĺŃâĺŃâĺŃâĺŃâĺŃâĺŃâĺŃâĺŃâĺŃâĺŃâĺŃâĺŃâĺŃâĺŃâĺŃâĺŃâĺŃâĺŃâĺŃâĺŃâĺŃâĺŃâĺŃâĺŃâĺŃâĺŃâĺŃâĺŃâĺŃâĺŃâĺŃâĺŃâĺŃâĺŃâĺŃâĺŃâĺŃâĺŃâĺŃâĺŃâĺŃâĺŃâĺŃâĺŃâĺŃâĺŃâĺŃâĺŃâĺŃâĺŃâĺŃâĺŃâĺŃâĺŃâĺŃâĺŃâĺŃâĺŃâĺŃâĺŃâĺŃâĺŃâĺŃâĺŃâĺŃâĺŃâĺŃâĺŃâĺŃâĺŃâĺŃâĺŃâĺŃâĺŃâĺŃâĺŃâĺŃâĺŃâĺŃâĺŃâĺŃâĺŃâĺŃâĺŃâĺŃâĺŃâĺŃâĺŃâĺŃâĺŃâĺŃâĺŃâĺŃâĺŃâĺŃâĺŃâĺŃâĺŃâĺŃâĺŃâĺŃâĺŃâĺŃâĺŃâĺŃâĺŃâĺŃâĺŃâĺŃâĺŃâĺŃâĺŃâĺŃâĺŃâĺŃâĺŃâĺŃâĺŃâĺŃâĺŃâĺŃâĺŃâĺŃâĺŃâĺŃâĺŃâĺŃâĺŃâĺŃâĺŃâĺŃâĺŃâĺŃâĺŃâĺŃâĺŃâĺŃâĺŃâĺŃâĺŃâĺŃâĺŃâĺŃâĺŃâĺŃâĺŃâĺŃâĺŃâĺŃâĺŃâĺŃâĺŃâĺŃâĺŃâĺŃâĺŃâĺŃâĺŃâĺŃâĺŃâĺŃâĺŃâĺŃâĺŃâĺŃâĺŃâĺŃâĺŃâĺŃâĺŃâĺŃâĺŃâĺŃâĺŃâĺŃâĺŃâĺŃâĺŃâĺŃâĺŃâĺŃâĺŃâĺŃâĺŃâĺŃâĺŃâĺŃâĺŃâĺŃâĺŃâĺŃâĺŃâĺŃâĺŃâĺŃâĺŃâĺŃâĺŃâĺŃâĺŃâĺŃâĺŃâĺŃâĺŃâĺŃâĺŃâĺŃâĺŃâĺŃâĺŃâĺŃâĺŃâĺŃâĺŃâĺŃâĺŃâĺŃâĺŃâĺŃâĺŃâĺŃâĺŃâĺŃâĺŃâĺŃâĺŃâĺŃâĺŃâĺŃâĺŃâĺŃâĺŃâĺŃâĺŃâĺŃâĺŃâĺŃâĺŃâĺŃâĺŃâĺŃâĺŃâĺŃâĺŃâĺŃâĺŃâĺŃâĺŃâĺŃâĺŃâĺŃâĺŃâĺŃâĺŃâĺŃâĺŃâĺŃâĺŃâĺŃâĺŃâĺŃâĺŃâĺŃâĺŃâĺŃâĺŃâĺŃâĺŃâĺŃâĺŃâĺŃâĺŃâĺŃâĺŃâĺŃâĺŃâĺŃâĺŃâĺŃâĺŃâĺŃâĺŃâĺŃâĺŃâĺŃâĺŃâĺŃâĺŃâĺŃâĺŃâĺŃâĺŃâĺŃâĺŃâĺŃâĺŃâĺŃâĺŃâĺŃâĺŃâĺŃâĺŃâĺŃâĺŃâĺŃâĺŃâĺŃâĺŃâĺŃâĺŃâĺŃâĺŃâĺŃâĺŃâĺŃâĺŃâĺŃâĺŃâĺŃâĺŃâĺŃâĺŃâĺŃâĺŃâĺŃâĺŃâĺŃâĺŃâĺŃâĺŃâĺŃâĺŃâĺŃâĺŃâĺŃâĺŃâĺŃâĺŃâĺŃâĺŃâĺŃâĺŃâĺŃâĺŃâĺŃâĺŃâĺŃâĺŃâĺŃâĺŃâĺŃâĺŃâĺŃâĺŃâĺŃâĺŃâĺŃâĺŃâĺŃâĺŃâĺŃâĺŃâĺŃâĺŃâĺŃâĺŃâĺŃâĺŃâĺŃâĺŃâĺŃâĺŃâĺŃâĺŃâĺŃâĺŃâĺŃâĺŃâĺŃâĺŃâĺŃâĺŃâĺŃâĺŃâĺŃâĺŃâĺŃâĺŃâĺŃâĺŃâĺŃâĺŃâĺŃâĺŃâĺŃâĺŃâĺŃâĺŃâĺŃâĺŃâĺŃâĺŃâĺŃâĺŃâĺŃâĺŃâĺŃâĺŃâĺŃâĺŃâĺŃâĺŃâĺŃâĺŃâĺŃâĺŃâĺŃâĺŃâĺŃâĺŃâĺŃâĺŃâĺŃâĺŃâĺŃâĺŃâĺŃâĺŃâĺŃâĺŃâĺŃâĺŃâĺŃâĺŃâĺŃâĺŃâĺŃâĺŃâĺŃâĺŃâĺŃâĺŃâĺŃâĺŃâĺŃâĺŃâĺŃâĺŃâĺŃâĺŃâĺŃâĺŃâĺŃâĺŃâĺŃâĺŃâĺŃâĺŃâĺŃâĺŃâĺŃâĺŃâĺŃâĺŃâĺŃâĺŃâĺŃâĺŃâĺŃâĺŃâĺŃâĺŃâĺŃâĺŃâĺŃâĺŃâĺŃâĺŃâĺŃâĺŃâĺŃâĺŃâĺŃâĺŃâĺŃâĺŃâĺŃâĺŃâĺŃâĺŃâĺŃâĺŃâĺŃâĺŃâĺŃâĺŃâĺŃâĺŃâĺŃâĺŃâĺŃâĺŃâĺŃâĺŃâĺŃâĺŃâĺŃâĺŃâĺŃâĺŃâĺŃâĺŃâĺŃâĺŃâĺŃâĺŃâĺŃâĺŃâĺŃâĺŃâĺŃâĺŃâĺŃâĺŃâĺŃâĺŃâĺŃâĺŃâĺŃâĺŃâĺŃâĺŃâĺŃâĺŃâĺŃâĺŃâĺŃâĺŃâĺŃâĺŃâĺŃâĺŃâĺŃâĺŃâĺŃâĺŃâĺŃâĺŃâĺŃâĺŃâĺŃâĺŃâĺŃâĺŃâĺŃâĺŃâĺŃâĺŃâĺŃâĺŃâĺŃâĺŃâĺŃâĺŃâĺŃâĺŃâĺŃâĺŃâĺŃâĺŃâĺŃâĺŃâĺŃâĺŃâĺŃâĺŃâĺŃâĺŃâĺŃâĺŃâĺŃâĺŃâĺŃâĺŃâĺŃâĺŃâĺŃâĺŃâĺŃâĺŃâĺŃâĺŃâĺŃâĺŃâĺŃâĺŃâĺŃâĺŃâĺŃâĺŃâĺŃâĺŃâĺŃâĺŃâĺŃâĺŃâĺŃâĺŃâĺŃâĺŃâĺŃâĺŃâĺŃâĺŃâĺŃ": 2673,
      "ĺŃðŁĺŃðŁ": 2674,
      "]âĺŃâĺŃâĺŃâĺŃâĺŃâĺŃâĺŃâĺŃâĺŃâĺŃâĺŃâĺŃâĺŃâĺŃâĺŃâĺŃâĺŃâĺŃâĺŃâĺŃâĺŃâĺŃâĺŃâĺŃâĺŃâĺŃâĺŃâĺŃâĺŃâĺŃâĺŃâĺŃâĺŃâĺŃâĺŃâĺŃâĺŃâĺŃâĺŃâĺŃâĺŃâĺŃâĺŃâĺŃâĺŃâĺŃâĺŃâĺŃâĺŃâĺŃâĺŃâĺŃâĺŃâĺŃâĺŃâĺŃâĺŃâĺŃâĺŃâĺŃâĺŃâĺŃâĺŃâĺŃâĺŃâĺŃâĺŃâĺŃâĺŃâĺŃâĺŃâĺŃâĺŃâĺŃâĺŃâĺŃâĺŃâĺŃâĺŃâĺŃâĺŃâĺŃâĺŃâĺŃâĺŃâĺŃâĺŃâĺŃâĺŃâĺŃâĺŃâĺŃâĺŃâĺŃâĺŃâĺŃâĺŃâĺŃâĺŃâĺŃâĺŃâĺŃâĺŃâĺŃâĺŃâĺŃâĺŃâĺŃâĺŃâĺŃâĺŃâĺŃâĺŃâĺŃâĺŃâĺŃâĺŃâĺŃâĺŃâĺŃâĺŃâĺŃâĺŃâĺŃâĺŃâĺŃâĺŃâĺŃâĺŃâĺŃâĺŃâĺŃâĺŃâĺŃâĺŃâĺŃâĺŃâĺŃâĺŃâĺŃâĺŃâĺŃâĺŃâĺŃâĺŃâĺŃâĺŃâĺŃâĺŃâĺŃâĺŃâĺŃâĺŃâĺŃâĺŃâĺŃâĺŃâĺŃâĺŃâĺŃâĺŃâĺŃâĺŃâĺŃâĺŃâĺŃâĺŃâĺŃâĺŃâĺŃâĺŃâĺŃâĺŃâĺŃâĺŃâĺŃâĺŃâĺŃâĺŃâĺŃâĺŃâĺŃâĺŃâĺŃâĺŃâĺŃâĺŃâĺŃâĺŃâĺŃâĺŃâĺŃâĺŃâĺŃâĺŃâĺŃâĺŃâĺŃâĺŃâĺŃâĺŃâĺŃâĺŃâĺŃâĺŃâĺŃâĺŃâĺŃâĺŃâĺŃâĺŃâĺŃâĺŃâĺŃâĺŃâĺŃâĺŃâĺŃâĺŃâĺŃâĺŃâĺŃâĺŃâĺŃâĺŃâĺŃâĺŃâĺŃâĺŃâĺŃâĺŃâĺŃâĺŃâĺŃâĺŃâĺŃâĺŃâĺŃâĺŃâĺŃâĺŃâĺŃâĺŃâĺŃâĺŃâĺŃâĺŃâĺŃâĺŃâĺŃâĺŃâĺŃâĺŃâĺŃâĺŃâĺŃâĺŃâĺŃâĺŃâĺŃâĺŃâĺŃâĺŃâĺŃâĺŃâĺŃâĺŃâĺŃâĺŃâĺŃâĺŃâĺŃâĺŃâĺŃâĺŃâĺŃâĺŃâĺŃâĺŃâĺŃâĺŃâĺŃâĺŃâĺŃâĺŃâĺŃâĺŃâĺŃâĺŃâĺŃâĺŃâĺŃâĺŃâĺŃâĺŃâĺŃâĺŃâĺŃâĺŃâĺŃâĺŃâĺŃâĺŃâĺŃâĺŃâĺŃâĺŃâĺŃâĺŃâĺŃâĺŃâĺŃâĺŃâĺŃâĺŃâĺŃâĺŃâĺŃâĺŃâĺŃâĺŃâĺŃâĺŃâĺŃâĺŃâĺŃâĺŃâĺŃâĺŃâĺŃâĺŃâĺŃâĺŃâĺŃâĺŃâĺŃâĺŃâĺŃâĺŃâĺŃâĺŃâĺŃâĺŃâĺŃâĺŃâĺŃâĺŃâĺŃâĺŃâĺŃâĺŃâĺŃâĺŃâĺŃâĺŃâĺŃâĺŃâĺŃâĺŃâĺŃâĺŃâĺŃâĺŃâĺŃâĺŃâĺŃâĺŃâĺŃâĺŃâĺŃâĺŃâĺŃâĺŃâĺŃâĺŃâĺŃâĺŃâĺŃâĺŃâĺŃâĺŃâĺŃâĺŃâĺŃâĺŃâĺŃâĺŃâĺŃâĺŃâĺŃâĺŃâĺŃâĺŃâĺŃâĺŃâĺŃâĺŃâĺŃâĺŃâĺŃâĺŃâĺŃâĺŃâĺŃâĺŃâĺŃâĺŃâĺŃâĺŃâĺŃâĺŃâĺŃâĺŃâĺŃâĺŃâĺŃâĺŃâĺŃâĺŃâĺŃâĺŃâĺŃâĺŃâĺŃâĺŃâĺŃâĺŃâĺŃâĺŃâĺŃâĺŃâĺŃâĺŃâĺŃâĺŃâĺŃâĺŃâĺŃâĺŃâĺŃâĺŃâĺŃâĺŃâĺŃâĺŃâĺŃâĺŃâĺŃâĺŃâĺŃâĺŃâĺŃâĺŃâĺŃâĺŃâĺŃâĺŃâĺŃâĺŃâĺŃâĺŃâĺŃâĺŃâĺŃâĺŃâĺŃâĺŃâĺŃâĺŃâĺŃâĺŃâĺŃâĺŃâĺŃâĺŃâĺŃâĺŃâĺŃâĺŃâĺŃâĺŃâĺŃâĺŃâĺŃâĺŃâĺŃâĺŃâĺŃâĺŃâĺŃâĺŃâĺŃâĺŃâĺŃâĺŃâĺŃâĺŃâĺŃâĺŃâĺŃâĺŃâĺŃâĺŃâĺŃâĺŃâĺŃâĺŃâĺŃâĺŃâĺŃâĺŃâĺŃâĺŃâĺŃâĺŃâĺŃâĺŃâĺŃâĺŃâĺŃâĺŃâĺŃâĺŃâĺŃâĺŃâĺŃâĺŃâĺŃâĺŃâĺŃâĺŃâĺŃâĺŃâĺŃâĺŃâĺŃâĺŃâĺŃâĺŃâĺŃâĺŃâĺŃâĺŃâĺŃâĺŃâĺŃâĺŃâĺŃâĺŃâĺŃâĺŃâĺŃâĺŃâĺŃâĺŃâĺŃâĺŃâĺŃâĺŃâĺŃâĺŃâĺŃâĺŃâĺŃâĺŃâĺŃâĺŃâĺŃâĺŃâĺŃâĺŃâĺŃâĺŃâĺŃâĺŃâĺŃâĺŃâĺŃâĺŃâĺŃâĺŃâĺŃâĺŃâĺŃâĺŃâĺŃâĺŃâĺŃâĺŃâĺŃâĺŃâĺŃâĺŃâĺŃâĺŃâĺŃâĺŃâĺŃâĺŃâĺŃâĺŃâĺŃâĺŃâĺŃâĺŃâĺŃâĺŃâĺŃâĺŃâĺŃâĺŃâĺŃâĺŃâĺŃâĺŃâĺŃâĺŃâĺŃâĺŃâĺŃâĺŃâĺŃâĺŃâĺŃâĺŃâĺŃâĺŃâĺŃâĺŃâĺŃâĺŃâĺŃâĺŃâĺŃâĺŃâĺŃâĺŃâĺŃâĺŃâĺŃâĺŃâĺŃâĺŃâĺŃâĺŃâĺŃâĺŃâĺŃâĺŃâĺŃâĺŃâĺŃâĺŃâĺŃâĺŃâĺŃâĺŃâĺŃâĺŃâĺŃâĺŃâĺŃâĺŃâĺŃâĺŃâĺŃâĺŃâĺŃâĺŃâĺŃâĺŃâĺŃâĺŃâĺŃâĺŃâĺŃâĺŃâĺŃâĺŃâĺŃâĺŃâĺŃâĺŃâĺŃâĺŃâĺŃâĺŃâĺŃâĺŃâĺŃâĺŃâĺŃâĺŃâĺŃâĺŃâĺŃâĺŃâĺŃâĺŃâĺŃâĺŃâĺŃâĺŃâĺŃâĺŃâĺŃâĺŃâĺŃâĺŃâĺŃâĺŃâĺŃâĺŃâĺŃâĺŃâĺŃâĺŃâĺŃâĺŃâĺŃâĺŃâĺŃâĺŃâĺŃâĺŃâĺŃâĺŃâĺŃâĺŃâĺŃâĺŃâĺŃâĺŃâĺŃâĺŃâĺŃâĺŃâĺŃâĺŃâĺŃâĺŃâĺŃâĺŃâĺŃâĺŃâĺŃâĺŃâĺŃâĺŃâĺŃâĺŃâĺŃâĺŃâĺŃâĺŃâĺŃâĺŃâĺŃâĺŃâĺŃâĺŃâĺŃâĺŃâĺŃâĺŃâĺŃâĺŃâĺŃâĺŃâĺŃâĺŃâĺŃâĺŃâĺŃâĺŃâĺŃâĺŃâĺŃâĺŃâĺŃâĺŃâĺŃâĺŃâĺŃâĺŃâĺŃâĺŃâĺŃâĺŃâĺŃâĺŃâĺŃâĺŃâĺŃâĺŃâĺŃâĺŃâĺŃâĺŃâĺŃâĺŃâĺŃâĺŃâĺŃâĺŃâĺŃâĺŃâĺŃâĺŃâĺŃâĺŃâĺŃâĺŃâĺŃâĺŃâĺŃâĺŃâĺŃâĺŃâĺŃâĺŃâĺŃâĺŃâĺŃâĺŃâĺŃâĺŃâĺŃâĺŃâĺŃâĺŃâĺŃâĺŃâĺŃâĺŃâĺŃâĺŃâĺŃâĺŃâĺŃâĺŃâĺŃâĺŃâĺŃâĺŃâĺŃâĺŃâĺŃâĺŃâĺŃâĺŃâĺŃâĺŃâĺŃâĺŃâĺŃâĺŃâĺŃâĺŃâĺŃâĺŃâĺŃâĺŃâĺŃâĺŃâĺŃâĺŃâĺŃâĺŃâĺŃâĺŃâĺŃâĺŃâĺŃâĺŃâĺŃâĺŃâĺŃâĺŃâĺŃâĺŃâĺŃâĺŃâĺŃâĺŃâĺŃâĺŃâĺŃâĺŃâĺŃâĺŃâĺŃâĺŃâĺŃâĺŃâĺŃâĺŃâĺŃâĺŃâĺŃâĺŃâĺŃâĺŃâĺŃâĺŃâĺŃâĺŃâĺŃâĺŃâĺŃâĺŃâĺŃâĺŃâĺŃâĺŃâĺŃâĺŃâĺŃâĺŃâĺŃâĺŃâĺŃâĺŃâĺŃâĺŃâĺŃâĺŃâĺŃâĺŃâĺŃâĺŃâĺŃâĺŃâĺŃâĺŃâĺŃâĺŃâĺŃâĺŃâĺŃâĺŃâĺŃâĺŃâĺŃâĺŃâĺŃâĺŃâĺŃâĺŃâĺŃâĺŃâĺŃâĺŃâĺŃâĺŃâĺŃâĺŃâĺŃâĺŃâĺŃâĺŃâĺŃâĺŃâĺŃâĺŃâĺŃâĺŃâĺŃâĺŃâĺŃâĺŃâĺŃâĺŃâĺŃâĺŃâĺŃâĺŃâĺŃâĺŃâĺŃâĺŃâĺŃâĺŃâĺŃâĺŃâĺŃâĺŃâĺŃâĺŃâĺŃâĺŃâĺŃâĺŃâĺŃâĺŃâĺŃâĺŃâĺŃâĺŃâĺŃâĺŃâĺŃâĺŃâĺŃâĺŃâĺŃâĺŃâĺŃâĺŃâĺŃâĺŃâĺŃâĺŃâĺŃâĺŃâĺŃâĺŃâĺŃâĺŃâĺŃâĺŃâĺŃâĺŃâĺŃâĺŃâĺŃâĺŃâĺŃâĺŃâĺŃâĺŃâĺŃâĺŃâĺŃâĺŃâĺŃâĺŃâĺŃâĺŃâĺŃâĺŃâĺŃâĺŃâĺŃâĺŃâĺŃâĺŃâĺŃâĺŃâĺŃâĺŃâĺŃâĺŃâĺŃâĺŃâĺŃâĺŃâĺŃâĺŃâĺŃâĺŃâĺŃâĺŃâĺŃâĺŃâĺŃâĺŃâĺŃâĺŃâĺŃâĺŃâĺŃâĺŃâĺŃâĺŃâĺŃâĺŃâĺŃâĺŃâĺŃâĺŃâĺŃâĺŃâĺŃâĺŃâĺŃâĺŃâĺŃâĺŃâĺŃâĺŃâĺŃâĺŃâĺŃâĺŃâĺŃâĺŃâĺŃâĺŃâĺŃâĺŃâĺŃâĺŃâĺŃâĺŃâĺŃâĺŃâĺŃâĺŃâĺŃâĺŃâĺŃâĺŃâĺŃâĺŃâĺŃâĺŃâĺŃâĺŃâĺŃâĺŃâĺŃâĺŃâĺŃâĺŃâĺŃâĺŃâĺŃâĺŃâĺŃâĺŃâĺŃâĺŃâĺŃâĺŃâĺŃâĺŃâĺŃâĺŃâĺŃâĺŃâĺŃâĺŃâĺŃâĺŃâĺŃâĺŃâĺŃâĺŃâĺŃâĺŃâĺŃâĺŃâĺŃâĺŃâĺŃâĺŃâĺŃâĺŃâĺŃâĺŃâĺŃâĺŃâĺŃâĺŃâĺŃâĺŃâĺŃâĺŃâĺŃâĺŃâĺŃâĺŃâĺŃâĺŃâĺŃâĺŃâĺŃâĺŃâĺŃâĺŃâĺŃâĺŃâĺŃâĺŃâĺŃâĺŃâĺŃâĺŃâĺŃâĺŃâĺŃâĺŃâĺŃâĺŃâĺŃâĺŃâĺŃâĺŃâĺŃâĺŃâĺŃâĺŃâĺŃâĺŃâĺŃâĺŃâĺŃâĺŃâĺŃâĺŃâĺŃâĺŃâĺŃâĺŃâĺŃâĺŃâĺŃâĺŃâĺŃâĺŃâĺŃâĺŃâĺŃâĺŃâĺŃâĺŃâĺŃâĺŃâĺŃâĺŃâĺŃâĺŃâĺŃâĺŃâĺŃâĺŃâĺŃâĺŃâĺŃâĺŃâĺŃâĺŃâĺŃâĺŃâĺŃâĺŃâĺŃâĺŃâĺŃâĺŃâĺŃâĺŃâĺŃâĺŃâĺŃâĺŃâĺŃâĺŃâĺŃâĺŃâĺŃâĺŃâĺŃâĺŃâĺŃâĺŃâĺŃâĺŃâĺŃâĺŃâĺŃâĺŃâĺŃâĺŃâĺŃâĺŃâĺŃâĺŃâĺŃâĺŃâĺŃâĺŃâĺŃâĺŃâĺŃâĺŃâĺŃâĺŃâĺŃâĺŃâĺŃâĺŃâĺŃâĺŃâĺŃâĺŃâĺŃâĺŃâĺŃâĺŃâĺŃâĺŃâĺŃâĺŃâĺŃâĺŃâĺŃâĺŃâĺŃâĺŃâĺŃâĺŃâĺŃâĺŃâĺŃâĺŃâĺŃâĺŃâĺŃâĺŃâĺŃâĺŃâĺŃâĺŃâĺŃâĺŃâĺŃâĺŃâĺŃâĺŃâĺŃâĺŃâĺŃâĺŃâĺŃâĺŃâĺŃâĺŃâĺŃâĺŃâĺŃâĺŃâĺŃâĺŃâĺŃâĺŃâĺŃâĺŃâĺŃâĺŃâĺŃâĺŃâĺŃâĺŃâĺŃâĺŃâĺŃâĺŃâĺŃâĺŃâĺŃâĺŃâĺŃâĺŃâĺŃâĺŃâĺŃâĺŃâĺŃâĺŃâĺŃâĺŃâĺŃâĺŃâĺŃâĺŃâĺŃâĺŃâĺŃâĺŃâĺŃâĺŃâĺŃâĺŃâĺŃâĺŃâĺŃâĺŃâĺŃâĺŃâĺŃâĺŃâĺŃâĺŃâĺŃâĺŃâĺŃâĺŃâĺŃâĺŃâĺŃâĺŃâĺŃâĺŃâĺŃâĺŃâĺŃâĺŃâĺŃâĺŃâĺŃâĺŃâĺŃâĺŃâĺŃâĺŃâĺŃâĺŃâĺŃâĺŃâĺŃâĺŃâĺŃâĺŃâĺŃâĺŃâĺŃâĺŃâĺŃâĺŃâĺŃâĺŃâĺŃâĺŃâĺŃâĺŃâĺŃâĺŃâĺŃâĺŃâĺŃâĺŃâĺŃâĺŃâĺŃâĺŃâĺŃâĺŃâĺŃâĺŃâĺŃâĺŃâĺŃâĺŃâĺŃâĺŃâĺŃâĺŃâĺŃâĺŃâĺŃâĺŃâĺŃâĺŃâĺŃâĺŃâĺŃâĺŃâĺŃâĺŃâĺŃâĺŃâĺŃâĺŃâĺŃâĺŃâĺŃâĺŃâĺŃâĺŃâĺŃâĺŃâĺŃâĺŃâĺŃâĺŃâĺŃâĺŃâĺŃâĺŃâĺŃâĺŃâĺŃâĺŃâĺŃâĺŃâĺŃâĺŃâĺŃâĺŃâĺŃâĺŃâĺŃâĺŃâĺŃâĺŃâĺŃâĺŃâĺŃâĺŃâĺŃâĺŃâĺŃâĺŃâĺŃâĺŃâĺŃâĺŃâĺŃâĺŃâĺŃâĺŃâĺŃâĺŃâĺŃâĺŃâĺŃâĺŃâĺŃâĺŃâĺŃâĺŃâĺŃâĺŃâĺŃâĺŃâĺŃâĺŃâĺŃâĺŃâĺŃâĺŃâĺŃâĺŃâĺŃâĺŃâĺŃâĺŃâĺŃâĺŃâĺŃâĺŃâĺŃâĺŃâĺŃâĺŃâĺŃâĺŃâĺŃâĺŃâĺŃâĺŃâĺŃâĺŃâĺŃâĺŃâĺŃâĺŃâĺŃâĺŃâĺŃâĺŃâĺŃâĺŃâĺŃâĺŃâĺŃâĺŃâĺŃâĺŃâĺŃâĺŃâĺŃâĺŃâĺŃâĺŃâĺŃâĺŃâĺŃâĺŃâĺŃâĺŃâĺŃâĺŃâĺŃâĺŃâĺŃâĺŃâĺŃâĺŃâĺŃâĺŃâĺŃâĺŃâĺŃâĺŃâĺŃâĺŃâĺŃâĺŃâĺŃâĺŃâĺŃâĺŃâĺŃâĺŃâĺŃâĺŃâĺŃâĺŃâĺŃâĺŃâĺŃâĺŃâĺŃâĺŃâĺŃâĺŃâĺŃâĺŃâĺŃâĺŃâĺŃâĺŃâĺŃâĺŃâĺŃâĺŃâĺŃâĺŃâĺŃâĺŃâĺŃâĺŃâĺŃâĺŃâĺŃâĺŃâĺŃâĺŃâĺŃâĺŃâĺŃâĺŃâĺŃâĺŃâĺŃâĺŃâĺŃâĺŃâĺŃâĺŃâĺŃâĺŃâĺŃâĺŃâĺŃâĺŃâĺŃâĺŃâĺŃâĺŃâĺŃâĺŃâĺŃâĺŃâĺŃâĺŃâĺŃâĺŃâĺŃâĺŃâĺŃâĺŃâĺŃâĺŃâĺŃâĺŃâĺŃâĺŃâĺŃâĺŃâĺŃâĺŃâĺŃâĺŃâĺŃâĺŃâĺŃâĺŃâĺŃâĺŃâĺŃâĺŃâĺŃâĺŃâĺŃâĺŃâĺŃâĺŃâĺŃâĺŃâĺŃâĺŃâĺŃâĺŃâĺŃâĺŃâĺŃâĺŃâĺŃâĺŃâĺŃâĺŃâĺŃâĺŃâĺŃâĺŃâĺŃâĺŃâĺŃâĺŃâĺŃâĺŃâĺŃâĺŃâĺŃâĺŃâĺŃâĺŃâĺŃâĺŃâĺŃâĺŃâĺŃâĺŃâĺŃâĺŃâĺŃâĺŃâĺŃâĺŃâĺŃâĺŃâĺŃâĺŃâĺŃâĺŃâĺŃâĺŃâĺŃâĺŃâĺŃâĺŃâĺŃâĺŃâĺŃâĺŃâĺŃâĺŃâĺŃâĺŃâĺŃâĺŃâĺŃâĺŃâĺŃâĺŃâĺŃâĺŃâĺŃâĺŃâĺŃâĺŃâĺŃâĺŃâĺŃâĺŃâĺŃâĺŃâĺŃâĺŃâĺŃâĺŃâĺŃâĺŃâĺŃâĺŃâĺŃâĺŃâĺŃâĺŃâĺŃâĺŃâĺŃâĺŃâĺŃâĺŃâĺŃâĺŃâĺŃâĺŃâĺŃâĺŃâĺŃâĺŃâĺŃâĺŃâĺŃâĺŃâĺŃâĺŃâĺŃâĺŃâĺŃâĺŃâĺŃâĺŃâĺŃâĺŃâĺŃâĺŃâĺŃâĺŃâĺŃâĺŃâĺŃâĺŃâĺŃâĺŃâĺŃâĺŃâĺŃâĺŃâĺŃâĺŃâĺŃâĺŃâĺŃâĺŃâĺŃâĺŃâĺŃâĺŃâĺŃâĺŃâĺŃâĺŃâĺŃâĺŃâĺŃâĺŃâĺŃâĺŃâĺŃâĺŃâĺŃ": 2675,
      "]âĺŃâĺŃâĺŃâĺŃâĺŃâĺŃâĺŃâĺŃâĺŃâĺŃâĺŃâĺŃâĺŃâĺŃâĺŃâĺŃâĺŃâĺŃâĺŃâĺŃâĺŃâĺŃâĺŃâĺŃâĺŃâĺŃâĺŃâĺŃâĺŃâĺŃâĺŃâĺŃâĺŃâĺŃâĺŃâĺŃâĺŃâĺŃâĺŃâĺŃâĺŃâĺŃâĺŃâĺŃâĺŃâĺŃâĺŃâĺŃâĺŃâĺŃâĺŃâĺŃâĺŃâĺŃâĺŃâĺŃâĺŃâĺŃâĺŃâĺŃâĺŃâĺŃâĺŃâĺŃâĺŃâĺŃâĺŃâĺŃâĺŃâĺŃâĺŃâĺŃâĺŃâĺŃâĺŃâĺŃâĺŃâĺŃâĺŃâĺŃâĺŃâĺŃâĺŃâĺŃâĺŃâĺŃâĺŃâĺŃâĺŃâĺŃâĺŃâĺŃâĺŃâĺŃâĺŃâĺŃâĺŃâĺŃâĺŃâĺŃâĺŃâĺŃâĺŃâĺŃâĺŃâĺŃâĺŃâĺŃâĺŃâĺŃâĺŃâĺŃâĺŃâĺŃâĺŃâĺŃâĺŃâĺŃâĺŃâĺŃâĺŃâĺŃâĺŃâĺŃâĺŃâĺŃâĺŃâĺŃâĺŃâĺŃâĺŃâĺŃâĺŃâĺŃâĺŃâĺŃâĺŃâĺŃâĺŃâĺŃâĺŃâĺŃâĺŃâĺŃâĺŃâĺŃâĺŃâĺŃâĺŃâĺŃâĺŃâĺŃâĺŃâĺŃâĺŃâĺŃâĺŃâĺŃâĺŃâĺŃâĺŃâĺŃâĺŃâĺŃâĺŃâĺŃâĺŃâĺŃâĺŃâĺŃâĺŃâĺŃâĺŃâĺŃâĺŃâĺŃâĺŃâĺŃâĺŃâĺŃâĺŃâĺŃâĺŃâĺŃâĺŃâĺŃâĺŃâĺŃâĺŃâĺŃâĺŃâĺŃâĺŃâĺŃâĺŃâĺŃâĺŃâĺŃâĺŃâĺŃâĺŃâĺŃâĺŃâĺŃâĺŃâĺŃâĺŃâĺŃâĺŃâĺŃâĺŃâĺŃâĺŃâĺŃâĺŃâĺŃâĺŃâĺŃâĺŃâĺŃâĺŃâĺŃâĺŃâĺŃâĺŃâĺŃâĺŃâĺŃâĺŃâĺŃâĺŃâĺŃâĺŃâĺŃâĺŃâĺŃâĺŃâĺŃâĺŃâĺŃâĺŃâĺŃâĺŃâĺŃâĺŃâĺŃâĺŃâĺŃâĺŃâĺŃâĺŃâĺŃâĺŃâĺŃâĺŃâĺŃâĺŃâĺŃâĺŃâĺŃâĺŃâĺŃâĺŃâĺŃâĺŃâĺŃâĺŃâĺŃâĺŃâĺŃâĺŃâĺŃâĺŃâĺŃâĺŃâĺŃâĺŃâĺŃâĺŃâĺŃâĺŃâĺŃâĺŃâĺŃâĺŃâĺŃâĺŃâĺŃâĺŃâĺŃâĺŃâĺŃâĺŃâĺŃâĺŃâĺŃâĺŃâĺŃâĺŃâĺŃâĺŃâĺŃâĺŃâĺŃâĺŃâĺŃâĺŃâĺŃâĺŃâĺŃâĺŃâĺŃâĺŃâĺŃâĺŃâĺŃâĺŃâĺŃâĺŃâĺŃâĺŃâĺŃâĺŃâĺŃâĺŃâĺŃâĺŃâĺŃâĺŃâĺŃâĺŃâĺŃâĺŃâĺŃâĺŃâĺŃâĺŃâĺŃâĺŃâĺŃâĺŃâĺŃâĺŃâĺŃâĺŃâĺŃâĺŃâĺŃâĺŃâĺŃâĺŃâĺŃâĺŃâĺŃâĺŃâĺŃâĺŃâĺŃâĺŃâĺŃâĺŃâĺŃâĺŃâĺŃâĺŃâĺŃâĺŃâĺŃâĺŃâĺŃâĺŃâĺŃâĺŃâĺŃâĺŃâĺŃâĺŃâĺŃâĺŃâĺŃâĺŃâĺŃâĺŃâĺŃâĺŃâĺŃâĺŃâĺŃâĺŃâĺŃâĺŃâĺŃâĺŃâĺŃâĺŃâĺŃâĺŃâĺŃâĺŃâĺŃâĺŃâĺŃâĺŃâĺŃâĺŃâĺŃâĺŃâĺŃâĺŃâĺŃâĺŃâĺŃâĺŃâĺŃâĺŃâĺŃâĺŃâĺŃâĺŃâĺŃâĺŃâĺŃâĺŃâĺŃâĺŃâĺŃâĺŃâĺŃâĺŃâĺŃâĺŃâĺŃâĺŃâĺŃâĺŃâĺŃâĺŃâĺŃâĺŃâĺŃâĺŃâĺŃâĺŃâĺŃâĺŃâĺŃâĺŃâĺŃâĺŃâĺŃâĺŃâĺŃâĺŃâĺŃâĺŃâĺŃâĺŃâĺŃâĺŃâĺŃâĺŃâĺŃâĺŃâĺŃâĺŃâĺŃâĺŃâĺŃâĺŃâĺŃâĺŃâĺŃâĺŃâĺŃâĺŃâĺŃâĺŃâĺŃâĺŃâĺŃâĺŃâĺŃâĺŃâĺŃâĺŃâĺŃâĺŃâĺŃâĺŃâĺŃâĺŃâĺŃâĺŃâĺŃâĺŃâĺŃâĺŃâĺŃâĺŃâĺŃâĺŃâĺŃâĺŃâĺŃâĺŃâĺŃâĺŃâĺŃâĺŃâĺŃâĺŃâĺŃâĺŃâĺŃâĺŃâĺŃâĺŃâĺŃâĺŃâĺŃâĺŃâĺŃâĺŃâĺŃâĺŃâĺŃâĺŃâĺŃâĺŃâĺŃâĺŃâĺŃâĺŃâĺŃâĺŃâĺŃâĺŃâĺŃâĺŃâĺŃâĺŃâĺŃâĺŃâĺŃâĺŃâĺŃâĺŃâĺŃâĺŃâĺŃâĺŃâĺŃâĺŃâĺŃâĺŃâĺŃâĺŃâĺŃâĺŃâĺŃâĺŃâĺŃâĺŃâĺŃâĺŃâĺŃâĺŃâĺŃâĺŃâĺŃâĺŃâĺŃâĺŃâĺŃâĺŃâĺŃâĺŃâĺŃâĺŃâĺŃâĺŃâĺŃâĺŃâĺŃâĺŃâĺŃâĺŃâĺŃâĺŃâĺŃâĺŃâĺŃâĺŃâĺŃâĺŃâĺŃâĺŃâĺŃâĺŃâĺŃâĺŃâĺŃâĺŃâĺŃâĺŃâĺŃâĺŃâĺŃâĺŃâĺŃâĺŃâĺŃâĺŃâĺŃâĺŃâĺŃâĺŃâĺŃâĺŃâĺŃâĺŃâĺŃâĺŃâĺŃâĺŃâĺŃâĺŃâĺŃâĺŃâĺŃâĺŃâĺŃâĺŃâĺŃâĺŃâĺŃâĺŃâĺŃâĺŃâĺŃâĺŃâĺŃâĺŃâĺŃâĺŃâĺŃâĺŃâĺŃâĺŃâĺŃâĺŃâĺŃâĺŃâĺŃâĺŃâĺŃâĺŃâĺŃâĺŃâĺŃâĺŃâĺŃâĺŃâĺŃâĺŃâĺŃâĺŃâĺŃâĺŃâĺŃâĺŃâĺŃâĺŃâĺŃâĺŃâĺŃâĺŃâĺŃâĺŃâĺŃâĺŃâĺŃâĺŃâĺŃâĺŃâĺŃâĺŃâĺŃâĺŃâĺŃâĺŃâĺŃâĺŃâĺŃâĺŃâĺŃâĺŃâĺŃâĺŃâĺŃâĺŃâĺŃâĺŃâĺŃâĺŃâĺŃâĺŃâĺŃâĺŃâĺŃâĺŃâĺŃâĺŃâĺŃâĺŃâĺŃâĺŃâĺŃâĺŃâĺŃâĺŃâĺŃâĺŃâĺŃâĺŃâĺŃâĺŃâĺŃâĺŃâĺŃâĺŃâĺŃâĺŃâĺŃâĺŃâĺŃâĺŃâĺŃâĺŃâĺŃâĺŃâĺŃâĺŃâĺŃâĺŃâĺŃâĺŃâĺŃâĺŃâĺŃâĺŃâĺŃâĺŃâĺŃâĺŃâĺŃâĺŃâĺŃâĺŃâĺŃâĺŃâĺŃâĺŃâĺŃâĺŃâĺŃâĺŃâĺŃâĺŃâĺŃâĺŃâĺŃâĺŃâĺŃâĺŃâĺŃâĺŃâĺŃâĺŃâĺŃâĺŃâĺŃâĺŃâĺŃâĺŃâĺŃâĺŃâĺŃâĺŃâĺŃâĺŃâĺŃâĺŃâĺŃâĺŃâĺŃâĺŃâĺŃâĺŃâĺŃâĺŃâĺŃâĺŃâĺŃâĺŃâĺŃâĺŃâĺŃâĺŃâĺŃâĺŃâĺŃâĺŃâĺŃâĺŃâĺŃâĺŃâĺŃâĺŃâĺŃâĺŃâĺŃâĺŃâĺŃâĺŃâĺŃâĺŃâĺŃâĺŃâĺŃâĺŃâĺŃâĺŃâĺŃâĺŃâĺŃâĺŃâĺŃâĺŃâĺŃâĺŃâĺŃâĺŃâĺŃâĺŃâĺŃâĺŃâĺŃâĺŃâĺŃâĺŃâĺŃâĺŃâĺŃâĺŃâĺŃâĺŃâĺŃâĺŃâĺŃâĺŃâĺŃâĺŃâĺŃâĺŃâĺŃâĺŃâĺŃâĺŃâĺŃâĺŃâĺŃâĺŃâĺŃâĺŃâĺŃâĺŃâĺŃâĺŃâĺŃâĺŃâĺŃâĺŃâĺŃâĺŃâĺŃâĺŃâĺŃâĺŃâĺŃâĺŃâĺŃâĺŃâĺŃâĺŃâĺŃâĺŃâĺŃâĺŃâĺŃâĺŃâĺŃâĺŃâĺŃâĺŃâĺŃâĺŃâĺŃâĺŃâĺŃâĺŃâĺŃâĺŃâĺŃâĺŃâĺŃâĺŃâĺŃâĺŃâĺŃâĺŃâĺŃâĺŃâĺŃâĺŃâĺŃâĺŃâĺŃâĺŃâĺŃâĺŃâĺŃâĺŃâĺŃâĺŃâĺŃâĺŃâĺŃâĺŃâĺŃâĺŃâĺŃâĺŃâĺŃâĺŃâĺŃâĺŃâĺŃâĺŃâĺŃâĺŃâĺŃâĺŃâĺŃâĺŃâĺŃâĺŃâĺŃâĺŃâĺŃâĺŃâĺŃâĺŃâĺŃâĺŃâĺŃâĺŃâĺŃâĺŃâĺŃâĺŃâĺŃâĺŃâĺŃâĺŃâĺŃâĺŃâĺŃâĺŃâĺŃâĺŃâĺŃâĺŃâĺŃâĺŃâĺŃâĺŃâĺŃâĺŃâĺŃâĺŃâĺŃâĺŃâĺŃâĺŃâĺŃâĺŃâĺŃâĺŃâĺŃâĺŃâĺŃâĺŃâĺŃâĺŃâĺŃâĺŃâĺŃâĺŃâĺŃâĺŃâĺŃâĺŃâĺŃâĺŃâĺŃâĺŃâĺŃâĺŃâĺŃâĺŃâĺŃâĺŃâĺŃâĺŃâĺŃâĺŃâĺŃâĺŃâĺŃâĺŃâĺŃâĺŃâĺŃâĺŃâĺŃâĺŃâĺŃâĺŃâĺŃâĺŃâĺŃâĺŃâĺŃâĺŃâĺŃâĺŃâĺŃâĺŃâĺŃâĺŃâĺŃâĺŃâĺŃâĺŃâĺŃâĺŃâĺŃâĺŃâĺŃâĺŃâĺŃâĺŃâĺŃâĺŃâĺŃâĺŃâĺŃâĺŃâĺŃâĺŃâĺŃâĺŃâĺŃâĺŃâĺŃâĺŃâĺŃâĺŃâĺŃâĺŃâĺŃâĺŃâĺŃâĺŃâĺŃâĺŃâĺŃâĺŃâĺŃâĺŃâĺŃâĺŃâĺŃâĺŃâĺŃâĺŃâĺŃâĺŃâĺŃâĺŃâĺŃâĺŃâĺŃâĺŃâĺŃâĺŃâĺŃâĺŃâĺŃâĺŃâĺŃâĺŃâĺŃâĺŃâĺŃâĺŃâĺŃâĺŃâĺŃâĺŃâĺŃâĺŃâĺŃâĺŃâĺŃâĺŃâĺŃâĺŃâĺŃâĺŃâĺŃâĺŃâĺŃâĺŃâĺŃâĺŃâĺŃâĺŃâĺŃâĺŃâĺŃâĺŃâĺŃâĺŃâĺŃâĺŃâĺŃâĺŃâĺŃâĺŃâĺŃâĺŃâĺŃâĺŃâĺŃâĺŃâĺŃâĺŃâĺŃâĺŃâĺŃâĺŃâĺŃâĺŃâĺŃâĺŃâĺŃâĺŃâĺŃâĺŃâĺŃâĺŃâĺŃâĺŃâĺŃâĺŃâĺŃâĺŃâĺŃâĺŃâĺŃâĺŃâĺŃâĺŃâĺŃâĺŃâĺŃâĺŃâĺŃâĺŃâĺŃâĺŃâĺŃâĺŃâĺŃâĺŃâĺŃâĺŃâĺŃâĺŃâĺŃâĺŃâĺŃâĺŃâĺŃâĺŃâĺŃâĺŃâĺŃâĺŃâĺŃâĺŃâĺŃâĺŃâĺŃâĺŃâĺŃâĺŃâĺŃâĺŃâĺŃâĺŃâĺŃâĺŃâĺŃâĺŃâĺŃâĺŃâĺŃâĺŃâĺŃâĺŃâĺŃâĺŃâĺŃâĺŃâĺŃâĺŃâĺŃâĺŃâĺŃâĺŃâĺŃâĺŃâĺŃâĺŃâĺŃâĺŃâĺŃâĺŃâĺŃâĺŃâĺŃâĺŃâĺŃâĺŃâĺŃâĺŃâĺŃâĺŃâĺŃâĺŃâĺŃâĺŃâĺŃâĺŃâĺŃâĺŃâĺŃâĺŃâĺŃâĺŃâĺŃâĺŃâĺŃâĺŃâĺŃâĺŃâĺŃâĺŃâĺŃâĺŃâĺŃâĺŃâĺŃâĺŃâĺŃâĺŃâĺŃâĺŃâĺŃâĺŃâĺŃâĺŃâĺŃâĺŃâĺŃâĺŃâĺŃâĺŃâĺŃâĺŃâĺŃâĺŃâĺŃâĺŃâĺŃâĺŃâĺŃâĺŃâĺŃâĺŃâĺŃâĺŃâĺŃâĺŃâĺŃâĺŃâĺŃâĺŃâĺŃâĺŃâĺŃâĺŃâĺŃâĺŃâĺŃâĺŃâĺŃâĺŃâĺŃâĺŃâĺŃâĺŃâĺŃâĺŃâĺŃâĺŃâĺŃâĺŃâĺŃâĺŃâĺŃâĺŃâĺŃâĺŃâĺŃâĺŃâĺŃâĺŃâĺŃâĺŃâĺŃâĺŃâĺŃâĺŃâĺŃâĺŃâĺŃâĺŃâĺŃâĺŃâĺŃâĺŃâĺŃâĺŃâĺŃâĺŃâĺŃâĺŃâĺŃâĺŃâĺŃâĺŃâĺŃâĺŃâĺŃâĺŃâĺŃâĺŃâĺŃâĺŃâĺŃâĺŃâĺŃâĺŃâĺŃâĺŃâĺŃâĺŃâĺŃâĺŃâĺŃâĺŃâĺŃâĺŃâĺŃâĺŃâĺŃâĺŃâĺŃâĺŃâĺŃâĺŃâĺŃâĺŃâĺŃâĺŃâĺŃâĺŃâĺŃâĺŃâĺŃâĺŃâĺŃâĺŃâĺŃâĺŃâĺŃâĺŃâĺŃâĺŃâĺŃâĺŃâĺŃâĺŃâĺŃâĺŃâĺŃâĺŃâĺŃâĺŃâĺŃâĺŃâĺŃâĺŃâĺŃâĺŃâĺŃâĺŃâĺŃâĺŃâĺŃâĺŃâĺŃâĺŃâĺŃâĺŃâĺŃâĺŃâĺŃâĺŃâĺŃâĺŃâĺŃâĺŃâĺŃâĺŃâĺŃâĺŃâĺŃâĺŃâĺŃâĺŃâĺŃâĺŃâĺŃâĺŃâĺŃâĺŃâĺŃâĺŃâĺŃâĺŃâĺŃâĺŃâĺŃâĺŃâĺŃâĺŃâĺŃâĺŃâĺŃâĺŃâĺŃâĺŃâĺŃâĺŃâĺŃâĺŃâĺŃâĺŃâĺŃâĺŃâĺŃâĺŃâĺŃâĺŃâĺŃâĺŃâĺŃâĺŃâĺŃâĺŃâĺŃâĺŃâĺŃâĺŃâĺŃâĺŃâĺŃâĺŃâĺŃâĺŃâĺŃâĺŃâĺŃâĺŃâĺŃâĺŃâĺŃâĺŃâĺŃâĺŃâĺŃâĺŃâĺŃâĺŃâĺŃâĺŃâĺŃâĺŃâĺŃâĺŃâĺŃâĺŃâĺŃâĺŃâĺŃâĺŃâĺŃâĺŃâĺŃâĺŃâĺŃâĺŃâĺŃâĺŃâĺŃâĺŃâĺŃâĺŃâĺŃâĺŃâĺŃâĺŃâĺŃâĺŃâĺŃâĺŃâĺŃâĺŃâĺŃâĺŃâĺŃâĺŃâĺŃâĺŃâĺŃâĺŃâĺŃâĺŃâĺŃâĺŃâĺŃâĺŃâĺŃâĺŃâĺŃâĺŃâĺŃâĺŃâĺŃâĺŃâĺŃâĺŃâĺŃâĺŃâĺŃâĺŃâĺŃâĺŃâĺŃâĺŃâĺŃâĺŃâĺŃâĺŃâĺŃâĺŃâĺŃâĺŃâĺŃâĺŃâĺŃâĺŃâĺŃâĺŃâĺŃâĺŃâĺŃâĺŃâĺŃâĺŃâĺŃâĺŃâĺŃâĺŃâĺŃâĺŃâĺŃâĺŃâĺŃâĺŃâĺŃâĺŃâĺŃâĺŃâĺŃâĺŃâĺŃâĺŃâĺŃâĺŃâĺŃâĺŃâĺŃâĺŃâĺŃâĺŃâĺŃâĺŃâĺŃâĺŃâĺŃâĺŃâĺŃâĺŃâĺŃâĺŃâĺŃâĺŃâĺŃâĺŃâĺŃâĺŃâĺŃâĺŃâĺŃâĺŃâĺŃâĺŃâĺŃâĺŃâĺŃâĺŃâĺŃâĺŃâĺŃâĺŃâĺŃâĺŃâĺŃâĺŃâĺŃâĺŃâĺŃâĺŃâĺŃâĺŃâĺŃâĺŃâĺŃâĺŃâĺŃâĺŃâĺŃâĺŃâĺŃâĺŃâĺŃâĺŃâĺŃâĺŃâĺŃâĺŃâĺŃâĺŃâĺŃâĺŃâĺŃâĺŃâĺŃâĺŃâĺŃâĺŃâĺŃâĺŃâĺŃâĺŃâĺŃâĺŃâĺŃâĺŃâĺŃâĺŃâĺŃâĺŃâĺŃâĺŃâĺŃâĺŃâĺŃâĺŃâĺŃâĺŃâĺŃâĺŃâĺŃâĺŃâĺŃâĺŃâĺŃâĺŃâĺŃâĺŃâĺŃâĺŃâĺŃâĺŃâĺŃâĺŃâĺŃâĺŃâĺŃâĺŃâĺŃâĺŃâĺŃâĺŃâĺŃâĺŃâĺŃâĺŃâĺŃâĺŃâĺŃâĺŃâĺŃâĺŃâĺŃâĺŃâĺŃâĺŃâĺŃâĺŃâĺŃâĺŃâĺŃâĺŃâĺŃâĺŃâĺŃâĺŃâĺŃâĺŃâĺŃâĺŃâĺŃâĺŃâĺŃâĺŃâĺŃâĺŃâĺŃâĺŃâĺŃâĺŃâĺŃâĺŃâĺŃâĺŃâĺŃâĺŃâĺŃâĺŃâĺŃâĺŃâĺŃâĺŃâĺŃâĺŃâĺŃâĺŃâĺŃâĺŃâĺŃâĺŃâĺŃâĺŃâĺŃâĺŃâĺŃâĺŃâĺŃâĺŃâĺŃâĺŃâĺŃâĺŃâĺŃâĺŃâĺŃâĺŃâĺŃâĺŃâĺŃâĺŃâĺŃâĺŃâĺŃâĺŃâĺŃâĺŃâĺŃâĺŃâĺŃâĺŃâĺŃâĺŃâĺŃâĺŃâĺŃâĺŃâĺŃâĺŃâĺŃâĺŃâĺŃâĺŃâĺŃâĺŃâĺŃâĺŃâĺŃâĺŃâĺŃâĺŃâĺŃâĺŃâĺŃâĺŃâĺŃâĺŃâĺŃâĺŃâĺŃâĺŃ[": 2676,
      ");[": 2677,
      "100": 2678,
      "ACH": 2679,
      "Bei": 2680,
      "ETZ": 2681,
      "Man": 2682,
      "NÃ¶": 2683,
      "birnbaum": 2684,
      "gj": 2685,
      "ganz": 2686,
      "jaaaaaaaa": 2687,
      "kom": 2688,
      "sicht": 2689,
      "uii": 2690,
      "wa": 2691,
      "wen": 2692,
      "ãĤ": 2693,
      "Ġdatei": 2694,
      "Ġnamen": 2695,
      "ans": 2696,
      "antw": 2697,
      "ooh": 2698,
      "Ġhol": 2699,
      "esse": 2700,
      "ehst": 2701,
      "emp": 2702,
      "eeeee": 2703,
      "lagen": 2704,
      "Ġklingt": 2705,
      "Ġare": 2706,
      "Ġgener": 2707,
      "haft": 2708,
      "Ġwollen": 2709,
      "âĸĪâĸĪâĸĪâĸĪâĸĪâĸĪâĸĪâĸĪâĸĪâĸĪâĸĪâĸĪâĸĪâĸĪâĸĪâĸĪâĸĪâĸĪâĸĪâĸĪâĸĪâĸĪâĸĪâĸĪ": 2710,
      "!!!!!!!!!!!!!!!!": 2711,
      "uiui": 2712,
      "EEEEEEEE": 2713,
      "âĶĢâĶĢâĶĢâĶĢâĶĢâĶĢâĶĢâĶĢ": 2714,
      "++++": 2715,
      "((((": 2716,
      "Ġletzte": 2717,
      "Ġdran": 2718,
      "yyyyyyyyyyyyyyyyyyyyyyyyyyyyyyyy": 2719,
      "ðŁ«ĥðŁ«ĥðŁ«ĥðŁ«ĥðŁ«ĥðŁ«ĥðŁ«ĥðŁ«ĥðŁ«ĥðŁ«ĥðŁ«ĥðŁ«ĥðŁ«ĥðŁ«ĥðŁ«ĥðŁ«ĥðŁ«ĥðŁ«ĥðŁ«ĥðŁ«ĥðŁ«ĥðŁ«ĥðŁ«ĥðŁ«ĥðŁ«ĥðŁ«ĥðŁ«ĥðŁ«ĥðŁ«ĥðŁ«ĥðŁ«ĥðŁ«ĥ": 2720,
      "kennst": 2721,
      "ĠnÃ¤chste": 2722,
      "214": 2723,
      "FE": 2724,
      "Wer": 2725,
      "^)[": 2726,
      "edia": 2727,
      "fh": 2728,
      "gp": 2729,
      "get": 2730,
      "halten": 2731,
      "lei": 2732,
      "mehr": 2733,
      "mimim": 2734,
      "np": 2735,
      "sind": 2736,
      "wh": 2737,
      "Ġ/": 2738,
      "Ġas": 2739,
      "Ġsh": 2740,
      "ĠtatsÃ¤chlich": 2741,
      "âĸĪâĸĪâķ": 2742,
      "Ġauss": 2743,
      "rem": 2744,
      "Ġjem": 2745,
      "ams": 2746,
      "]ðŁİ": 2747,
      "Ġrunde": 2748,
      "Ġwarst": 2749,
      "gifs": 2750,
      "Ġschreibe": 2751,
      "idth": 2752,
      "discord": 2753,
      "geln": 2754,
      "ĠJosef": 2755,
      "Ġneues": 2756,
      "Ġsagst": 2757,
      "ÃľÃľÃľÃľ": 2758,
      "Ã¶Ã¶Ã¶Ã¶Ã¶Ã¶Ã¶Ã¶Ã¶Ã¶Ã¶Ã¶Ã¶Ã¶Ã¶Ã¶": 2759,
      "schreib": 2760,
      "CrS": 2761,
      "Ġfurby": 2762,
      "72": 2763,
      "Aha": 2764,
      "ES": 2765,
      "JYhttps": 2766,
      "JCrS": 2767,
      "con": 2768,
      "hÃ¶r": 2769,
      "oj": 2770,
      "punkt": 2771,
      "ull": 2772,
      "ĠÃ¤": 2773,
      "âĸĳâĸĳ[": 2774,
      "ene": 2775,
      "Ġmon": 2776,
      "ðŁ§": 2777,
      "ard": 2778,
      "Ġdieser": 2779,
      "gew": 2780,
      "Ġpunkt": 2781,
      "igt": 2782,
      "duck": 2783,
      "dukt": 2784,
      "âĢ¢[": 2785,
      "Ġbeg": 2786,
      "ionen": 2787,
      "ortet": 2788,
      "¦âĢįâĻĤï¸ı[": 2789,
      "Ġmusik": 2790,
      "Ġkrank": 2791,
      "Ġheraus": 2792,
      "Ġfreund": 2793,
      "âķĲâķĲ": 2794,
      "Ġflie": 2795,
      "eight": 2796,
      "XDXDXDXDXDXDXDXDXDXDXDXDXDXDXDXDXDXDXDXDXDXDXDXDXDXDXDXDXDXDXDXDXDXDXDXDXDXDXDXDXDXDXDXDXDXDXDXDXDXDXDXDXDXDXDXDXDXDXDXDXDXDXDXD": 2797,
      "Ġusw": 2798,
      "Ġfehler": 2799,
      "Ġenglisch": 2800,
      "XkJYhttps": 2801,
      "ETZT": 2802,
      "JCrSXkJYhttps": 2803,
      "31": 2804,
      "DE": 2805,
      "Mein": 2806,
      "]Â": 2807,
      "cl": 2808,
      "fre": 2809,
      "gie": 2810,
      "ile": 2811,
      "mittag": 2812,
      "utt": 2813,
      "inder": 2814,
      "Ġmutter": 2815,
      "ander": 2816,
      "Ġwor": 2817,
      "atzen": 2818,
      "schule": 2819,
      "âĸĪâĸĪâĸĪâĸĪâĸĪâĸĪ": 2820,
      "Ġbesten": 2821,
      "Ġrel": 2822,
      "Ġdirekt": 2823,
      "oto": 2824,
      "].-": 2825,
      "kommt": 2826,
      "Ã¤ndert": 2827,
      "Ġarbeit": 2828,
      "ĠSpaÃŁ": 2829,
      "Ġscreenshot": 2830,
      "ICHT": 2831,
      "wiki": 2832,
      "Ġupdate": 2833,
      "Ġantwor": 2834,
      "Ġinternet": 2835,
      "µðŁ¥µðŁ¥": 2836,
      "130": 2837,
      "];)[": 2838,
      "frage": 2839,
      "minecraft": 2840,
      "neee": 2841,
      "ron": 2842,
      "such": 2843,
      "width": 2844,
      "Ì·": 2845,
      "Ì¿": 2846,
      "Ķ[": 2847,
      "Ġbock": 2848,
      "ĠsÃ¼": 2849,
      "Ġgo": 2850,
      "asd": 2851,
      "Ġmo": 2852,
      "Ġwitz": 2853,
      "âĸĪâĸĳâĸĳâĸĳâĸĳâĸĳ": 2854,
      "ars": 2855,
      "schade": 2856,
      "ĠlÃ¼": 2857,
      "Ġinst": 2858,
      "Ġgez": 2859,
      "bild": 2860,
      "ppt": 2861,
      "Ġspr": 2862,
      "Ġausre": 2863,
      "Ġcoo": 2864,
      "ischer": 2865,
      "ĠTe": 2866,
      "ĠTim": 2867,
      "ipedia": 2868,
      "Ġthis": 2869,
      "Ġschaue": 2870,
      "uper": 2871,
      "Ġtext": 2872,
      "ĠmÃ¼de": 2873,
      "Ġbekomme": 2874,
      "eeeeeeeeeeeeeeeeeeeeeeeeeeeeeeee": 2875,
      "]âĺ": 2876,
      "Ġlangweilig": 2877,
      "SSSS": 2878,
      "âĶ»Ì¿": 2879,
      "Achso": 2880,
      "wÃ¼rdig": 2881,
      "._.": 2882,
      "HI": 2883,
      "XR": 2884,
      "]<": 2885,
      "feh": 2886,
      "ga": 2887,
      "jupp": 2888,
      "ms": 2889,
      "nte": 2890,
      "que": 2891,
      "umm": 2892,
      "ĠáµĶ": 2893,
      "auft": 2894,
      "ieze": 2895,
      "NEIN": 2896,
      "âĸĳâĸĳâĸĳâĸĳâĸĪâĸĪ": 2897,
      "ĠmigrÃ¤ne": 2898,
      "Ġnow": 2899,
      "Ġtrain": 2900,
      "ature": 2901,
      "iiiiii": 2902,
      "olo": 2903,
      "Ġangeschaut": 2904,
      "Ġernst": 2905,
      "Ġ14": 2906,
      "]:'([": 2907,
      "Ġabi": 2908,
      "Ġvorbei": 2909,
      "!!!!![": 2910,
      "orts": 2911,
      "?!?!": 2912,
      "ĠEr": 2913,
      "Ġsave": 2914,
      "Ġseiten": 2915,
      "Ġphilipp": 2916,
      "rrrrrrrr": 2917,
      "iao": 2918,
      "Ġgespannt": 2919,
      "ĠgrÃ¶": 2920,
      "ĠfÃ¼h": 2921,
      "]-.-[": 2922,
      "âĸĢâĸĢ": 2923,
      "Auf": 2924,
      "Im": 2925,
      "Nice": 2926,
      "Yo": 2927,
      "_[": 2928,
      "fol": 2929,
      "height": 2930,
      "jd": 2931,
      "md": 2932,
      "ohttps": 2933,
      "sste": 2934,
      "uk": 2935,
      "ups": 2936,
      "zwei": 2937,
      "Ġ7": 2938,
      "ĠÃ²": 2939,
      "Ġse": 2940,
      "Ġtraining": 2941,
      "Ġkap": 2942,
      "ðŁ¦": 2943,
      "arch": 2944,
      "arte": 2945,
      "orre": 2946,
      "Ġfaul": 2947,
      "Ġschein": 2948,
      "Ġpr": 2949,
      "Ġprin": 2950,
      "amt": 2951,
      "tent": 2952,
      "Ġvert": 2953,
      "ĠMen": 2954,
      "warte": 2955,
      "ĠBild": 2956,
      "Ġwebs": 2957,
      "ahrscheinlich": 2958,
      "ĠWe": 2959,
      "Ġglaub": 2960,
      "hnung": 2961,
      "âĸĳâĸĳâĸĳâĸĳâĸĳâĸĳâĸĳâĸĳâĸĳâĸĳâĸĳâĸĳâĸĳâĸĳâĸĳ": 2962,
      "Ġunser": 2963,
      "Ġsondern": 2964,
      "sonst": 2965,
      "zwischen": 2966,
      "ï¸»Ì·": 2967,
      "âĶ»Ì¿âķĲâĶģ": 2968,
      "iezekatze": 2969,
      "ï¸»Ì·âĶ»Ì¿âķĲâĶģ": 2970,
      "OR": 2971,
      "br": 2972,
      "dachte": 2973,
      "gehen": 2974,
      "miezekatze": 2975,
      "Ġbz": 2976,
      "âĸĳâĸĳâĸĪâĸĪâĸĪ": 2977,
      "Ġwusste": 2978,
      "Ġtra": 2979,
      "7762": 2980,
      "reck": 2981,
      "Ġoben": 2982,
      "Ġersten": 2983,
      "Ġdavor": 2984,
      "Ġ.-.[": 2985,
      "Ġkommst": 2986,
      "Ġweird": 2987,
      "Ġwirds": 2988,
      "Ġkleine": 2989,
      "Ġarme": 2990,
      "667762": 2991,
      "âĸĳâĸĳâĸĳâĸĳâĸĳâĸĳâĸĪâĸĪâĸĳâĸĳâĸĳâĸĳâĸĳâĸĳâĸĳâĸĳâĸĳâĸĳâĸĳâĸĳâĸĳâĸĳâĸĳâĸĳ": 2992,
      "ĠblÃ¶": 2993,
      "âĸĳâĸĳâĸĳâĸĳâĸĳâĸĳâĸĳâĸĪâĸĪâĸĳâĸĳâĸĳâĸĳâĸĳâĸĳâĸĳâĸĳâĸĳâĸĳâĸĳâĸĳâĸĳâĸĳâĸĳâĸĳ": 2994,
      "ostet": 2995,
      "Ġgespielt": 2996,
      "IIIIIIII": 2997,
      "meme": 2998,
      "wikipedia": 2999
    },
    "merges": [
      "O M",
      "ĺ Ń",
      "â ĺŃ",
      "âĺŃ âĺŃ",
      ": [",
      "S OM",
      "E OM",
      "č Ċ",
      "âĺŃâĺŃ âĺŃâĺŃ",
      "c h",
      "â ĸ",
      "a u",
      "Ġ b",
      "i r",
      "e r",
      "âĸ ĳ",
      "n b",
      "au m",
      "ir nb",
      "irnb aum",
      "Ġb irnbaum",
      "âĸĳ âĸĳ",
      "Ġ K",
      ". :[",
      "âĺŃâĺŃâĺŃâĺŃ âĺŃâĺŃâĺŃâĺŃ",
      "e n",
      "Ġ d",
      "¶ ŀ",
      "à ¶ŀ",
      "à¶ŀ à¶ŀ",
      "i n",
      "i ch",
      "s t",
      "i e",
      "Ġ s",
      "N E",
      "âĸĳâĸĳ âĸĳâĸĳ",
      "âĺŃâĺŃâĺŃâĺŃâĺŃâĺŃâĺŃâĺŃ âĺŃâĺŃâĺŃâĺŃâĺŃâĺŃâĺŃâĺŃ",
      "Ġ \\",
      "Ġ g",
      "i i",
      "a s",
      "Ġ m",
      "Ġ n",
      "a n",
      "o o",
      "a a",
      "Ġ w",
      "f f",
      "à¶ŀà¶ŀ à¶ŀà¶ŀ",
      "Ġ t",
      "âĸ Ī",
      "e in",
      "er e",
      "e i",
      "Ġ h",
      "? [",
      ". .",
      "m m",
      "u n",
      "b er",
      "t t",
      "ere x",
      "erex ii",
      "Ġt erexii",
      "L I",
      "NE W",
      "LI NE",
      "NEW LINE",
      "âĺŃâĺŃâĺŃâĺŃâĺŃâĺŃâĺŃâĺŃâĺŃâĺŃâĺŃâĺŃâĺŃâĺŃâĺŃâĺŃ âĺŃâĺŃâĺŃâĺŃâĺŃâĺŃâĺŃâĺŃâĺŃâĺŃâĺŃâĺŃâĺŃâĺŃâĺŃâĺŃ",
      "e s",
      "a l",
      "Ġ i",
      "âĸĪ âĸĪ",
      "Ġ Ġ",
      "s e",
      "U U",
      "Ġd u",
      "ich t",
      "Ġd as",
      "u t",
      "Ġ k",
      "a t",
      "âĸĳâĸĳâĸĳâĸĳ âĸĳâĸĳâĸĳâĸĳ",
      "o n",
      "ð Ł",
      "Ġ au",
      "? ?",
      "aa aa",
      "x D",
      "a r",
      "a ch",
      "à¶ŀà¶ŀà¶ŀà¶ŀ à¶ŀà¶ŀà¶ŀà¶ŀ",
      "a b",
      "oo oo",
      "Ã ¼",
      "l l",
      "j a",
      "Ġ ich",
      "7 7",
      "o r",
      "ff ff",
      "Ġi st",
      "Ġn icht",
      "Ġ f",
      "Ġs ch",
      "e h",
      "r u",
      "un d",
      "Ġ v",
      "an n",
      "Ã ¤",
      "p s",
      "o ch",
      "e e",
      "s ch",
      ": /",
      "ie se",
      ":/ /",
      "tt ps",
      "Ġg ru",
      "Ġ l",
      "Ã ¶",
      "ber iese",
      "Ġgru beriese",
      "h ttps",
      "d e",
      "d er",
      "âĺŃâĺŃâĺŃâĺŃâĺŃâĺŃâĺŃâĺŃâĺŃâĺŃâĺŃâĺŃâĺŃâĺŃâĺŃâĺŃâĺŃâĺŃâĺŃâĺŃâĺŃâĺŃâĺŃâĺŃâĺŃâĺŃâĺŃâĺŃâĺŃâĺŃâĺŃâĺŃ âĺŃâĺŃâĺŃâĺŃâĺŃâĺŃâĺŃâĺŃâĺŃâĺŃâĺŃâĺŃâĺŃâĺŃâĺŃâĺŃâĺŃâĺŃâĺŃâĺŃâĺŃâĺŃâĺŃâĺŃâĺŃâĺŃâĺŃâĺŃâĺŃâĺŃâĺŃâĺŃ",
      "o m",
      "w w",
      "b e",
      "Ġd ie",
      "Ġ z",
      "u u",
      "u r",
      "l e",
      "Ġ ein",
      "g en",
      "i t",
      "e t",
      "Ġs o",
      "UU UU",
      "r e",
      "y o",
      "c k",
      "g e",
      "! !",
      "c om",
      "ii ii",
      "Ġ xD",
      "a ber",
      "Ġ p",
      "s s",
      "e m",
      "ut u",
      "yo utu",
      "à¶ŀà¶ŀà¶ŀà¶ŀà¶ŀà¶ŀà¶ŀà¶ŀ à¶ŀà¶ŀà¶ŀà¶ŀà¶ŀà¶ŀà¶ŀà¶ŀ",
      "Ġau ch",
      "t e",
      "ĠĠ ĠĠ",
      "a h",
      "Ġ o",
      "s o",
      "?? ??",
      "Ġh ab",
      "! [",
      "aaaa aaaa",
      "ffff ffff",
      "Ġ j",
      "i g",
      "oooo oooo",
      "e l",
      "77 77",
      "o l",
      "Ġ in",
      "Ã Ł",
      "Ġ an",
      "â Ī",
      "h h",
      "âĪ ŀ",
      "âĪŀ âĪŀ",
      ". [",
      "- -",
      "X D",
      "Ġd er",
      "l ich",
      "r a",
      "Ġ und",
      "Ġn och",
      "u m",
      "d as",
      "âĸĪâĸĪ âĸĪâĸĪ",
      "Ġ A",
      "Ġ er",
      "en n",
      "Ġb in",
      "i er",
      ".. ..",
      "âĸĳâĸĳâĸĳâĸĳâĸĳâĸĳâĸĳâĸĳ âĸĳâĸĳâĸĳâĸĳâĸĳâĸĳâĸĳâĸĳ",
      "Ġ .",
      "Ġb i",
      "r o",
      "âĺŃâĺŃâĺŃâĺŃâĺŃâĺŃâĺŃâĺŃâĺŃâĺŃâĺŃâĺŃâĺŃâĺŃâĺŃâĺŃâĺŃâĺŃâĺŃâĺŃâĺŃâĺŃâĺŃâĺŃâĺŃâĺŃâĺŃâĺŃâĺŃâĺŃâĺŃâĺŃâĺŃâĺŃâĺŃâĺŃâĺŃâĺŃâĺŃâĺŃâĺŃâĺŃâĺŃâĺŃâĺŃâĺŃâĺŃâĺŃâĺŃâĺŃâĺŃâĺŃâĺŃâĺŃâĺŃâĺŃâĺŃâĺŃâĺŃâĺŃâĺŃâĺŃâĺŃâĺŃ âĺŃâĺŃâĺŃâĺŃâĺŃâĺŃâĺŃâĺŃâĺŃâĺŃâĺŃâĺŃâĺŃâĺŃâĺŃâĺŃâĺŃâĺŃâĺŃâĺŃâĺŃâĺŃâĺŃâĺŃâĺŃâĺŃâĺŃâĺŃâĺŃâĺŃâĺŃâĺŃâĺŃâĺŃâĺŃâĺŃâĺŃâĺŃâĺŃâĺŃâĺŃâĺŃâĺŃâĺŃâĺŃâĺŃâĺŃâĺŃâĺŃâĺŃâĺŃâĺŃâĺŃâĺŃâĺŃâĺŃâĺŃâĺŃâĺŃâĺŃâĺŃâĺŃâĺŃâĺŃ",
      "a m",
      "Ġ ðŁ",
      "Ġau f",
      "n e",
      "XD XD",
      "t en",
      "ww w",
      "Ġ ja",
      "a st",
      "Ġ es",
      "Ġz u",
      "Ġg e",
      "o k",
      "Ġw ir",
      "Ã¼ r",
      "M O",
      "U S",
      "Ġ al",
      "Ġw ie",
      "i m",
      "tt e",
      "MO G",
      "MOG US",
      "D D",
      "uu uu",
      "_ _",
      "Ġsch on",
      "a g",
      "youtu be",
      "Ġdu mm",
      "Ġd ann",
      "UUUU UUUU",
      "] ðŁ",
      "z t",
      "ein e",
      "at ch",
      "Ġd a",
      "Ġ st",
      "d en",
      "w atch",
      "t er",
      "Ġ aber",
      "Ġ -",
      "Ġd en",
      "Ġm it",
      "y y",
      "Ġ S",
      "ee ee",
      "Â °",
      "Ġn e",
      "Ġ r",
      ") [",
      "b en",
      "b i",
      "o mm",
      "p p",
      "d u",
      "Ġh at",
      "Ġm an",
      "Ġ :",
      "Ġg es",
      "u s",
      "Ġv er",
      "Ġk ann",
      "Ġm ir",
      "mm mm",
      "ei l",
      "i s",
      "i ll",
      "ach t",
      "eh r",
      "Ġw as",
      "ie l",
      "ĠA MOGUS",
      "Ġ e",
      "Ġw ar",
      "ut e",
      "â Ģ",
      "un g",
      "ei t",
      "iiii iiii",
      "Ġn ur",
      "ch t",
      "Ġs p",
      "l a",
      "7777 7777",
      "k t",
      "???? ????",
      "w as",
      "et zt",
      "ffffffff ffffffff",
      "Ġ ..",
      "k e",
      "A A",
      "Ġg eh",
      "Ġau s",
      "âĪŀâĪŀ âĪŀâĪŀ",
      "in g",
      "Ġm al",
      "o h",
      "in d",
      "Ġ 1",
      "Ġb e",
      "Ġd och",
      "w ie",
      "Ġ c",
      "oooooooo oooooooo",
      "Ġ M",
      "Ġdas s",
      "h e",
      "g i",
      "aaaaaaaa aaaaaaaa",
      "en t",
      "ĠðŁ ¦",
      "st e",
      "i l",
      "as s",
      "ei ÃŁ",
      "Ġm ein",
      "« ĥ",
      "h r",
      "à¶ŀà¶ŀà¶ŀà¶ŀà¶ŀà¶ŀà¶ŀà¶ŀà¶ŀà¶ŀà¶ŀà¶ŀà¶ŀà¶ŀà¶ŀà¶ŀ à¶ŀà¶ŀà¶ŀà¶ŀà¶ŀà¶ŀà¶ŀà¶ŀà¶ŀà¶ŀà¶ŀà¶ŀà¶ŀà¶ŀà¶ŀà¶ŀ",
      "ðŁ «ĥ",
      "ðŁ«ĥ ðŁ«ĥ",
      "Ġ un",
      "Ġm ach",
      "ĠĠĠĠ ĠĠĠĠ",
      "i mm",
      "Ġ re",
      "i on",
      "r ei",
      "bi tte",
      "âĸ Ĵ",
      "f t",
      "b t",
      "hh hh",
      "* *",
      "I ch",
      "] :",
      ".. .[",
      "XDXD XDXD",
      "i ck",
      "Ġ. -",
      "l ol",
      "Ġo der",
      "âĸĳâĸĳ âĸĳ",
      "i c",
      "Ġf Ã¼r",
      "c c",
      "â Ķ",
      "Ġd ir",
      "n d",
      "n n",
      "âĺŃâĺŃâĺŃâĺŃâĺŃâĺŃâĺŃâĺŃâĺŃâĺŃâĺŃâĺŃâĺŃâĺŃâĺŃâĺŃâĺŃâĺŃâĺŃâĺŃâĺŃâĺŃâĺŃâĺŃâĺŃâĺŃâĺŃâĺŃâĺŃâĺŃâĺŃâĺŃâĺŃâĺŃâĺŃâĺŃâĺŃâĺŃâĺŃâĺŃâĺŃâĺŃâĺŃâĺŃâĺŃâĺŃâĺŃâĺŃâĺŃâĺŃâĺŃâĺŃâĺŃâĺŃâĺŃâĺŃâĺŃâĺŃâĺŃâĺŃâĺŃâĺŃâĺŃâĺŃâĺŃâĺŃâĺŃâĺŃâĺŃâĺŃâĺŃâĺŃâĺŃâĺŃâĺŃâĺŃâĺŃâĺŃâĺŃâĺŃâĺŃâĺŃâĺŃâĺŃâĺŃâĺŃâĺŃâĺŃâĺŃâĺŃâĺŃâĺŃâĺŃâĺŃâĺŃâĺŃâĺŃâĺŃâĺŃâĺŃâĺŃâĺŃâĺŃâĺŃâĺŃâĺŃâĺŃâĺŃâĺŃâĺŃâĺŃâĺŃâĺŃâĺŃâĺŃâĺŃâĺŃâĺŃâĺŃâĺŃâĺŃâĺŃâĺŃâĺŃâĺŃâĺŃâĺŃâĺŃ âĺŃâĺŃâĺŃâĺŃâĺŃâĺŃâĺŃâĺŃâĺŃâĺŃâĺŃâĺŃâĺŃâĺŃâĺŃâĺŃâĺŃâĺŃâĺŃâĺŃâĺŃâĺŃâĺŃâĺŃâĺŃâĺŃâĺŃâĺŃâĺŃâĺŃâĺŃâĺŃâĺŃâĺŃâĺŃâĺŃâĺŃâĺŃâĺŃâĺŃâĺŃâĺŃâĺŃâĺŃâĺŃâĺŃâĺŃâĺŃâĺŃâĺŃâĺŃâĺŃâĺŃâĺŃâĺŃâĺŃâĺŃâĺŃâĺŃâĺŃâĺŃâĺŃâĺŃâĺŃâĺŃâĺŃâĺŃâĺŃâĺŃâĺŃâĺŃâĺŃâĺŃâĺŃâĺŃâĺŃâĺŃâĺŃâĺŃâĺŃâĺŃâĺŃâĺŃâĺŃâĺŃâĺŃâĺŃâĺŃâĺŃâĺŃâĺŃâĺŃâĺŃâĺŃâĺŃâĺŃâĺŃâĺŃâĺŃâĺŃâĺŃâĺŃâĺŃâĺŃâĺŃâĺŃâĺŃâĺŃâĺŃâĺŃâĺŃâĺŃâĺŃâĺŃâĺŃâĺŃâĺŃâĺŃâĺŃâĺŃâĺŃâĺŃâĺŃâĺŃâĺŃâĺŃâĺŃâĺŃ",
      "Ġg er",
      "Ã¶ Ã¶",
      "a de",
      "l au",
      "Ġj etzt",
      "Ġh ast",
      "er n",
      "bitte bitte",
      "al l",
      "u ss",
      "an d",
      "Ġ ab",
      "o p",
      "o ll",
      "Ġ ei",
      "Ġ Í",
      "i sch",
      "Ġw enn",
      "0 0",
      "D as",
      "Ġb ei",
      "d a",
      "J a",
      "k k",
      "Ġ G",
      "Ġv on",
      "h i",
      "m al",
      "Ġs ind",
      "Ġm ich",
      "es s",
      "an z",
      "w ar",
      ".... ....",
      "i st",
      "DD DD",
      "UUUUUUUU UUUUUUUU",
      "Ġs ie",
      "o t",
      "ier t",
      "z Z",
      "f ach",
      "Ġwie der",
      "Ġm ehr",
      "Ã¼ ber",
      "Ġs ich",
      "ðŁ ¤",
      "uuuu uuuu",
      "zZ zZ",
      "h ab",
      "ah ah",
      "Ġ T",
      "s p",
      "Ġ B",
      "i k",
      "r au",
      "gi f",
      "] .",
      "âĸĴ âĸĴ",
      "v er",
      "Ġv or",
      "Ġg ut",
      "!! !!",
      "Ã¼ Ã¼",
      "ll t",
      "Ġd em",
      "yy yy",
      "U nd",
      "an ke",
      "] #",
      "Ġger ade",
      "Ġein fach",
      "Ġj z",
      "o se",
      "Ġbi st",
      "2 0",
      "mm er",
      "d ie",
      "o s",
      "ĠðŁ¦ ¦",
      "e ute",
      "w e",
      "Ġ- .",
      "__ __",
      "er t",
      "Ġ D",
      "Ġges ch",
      "âĸĪâĸĪâĸĪâĸĪ âĸĪâĸĪâĸĪâĸĪ",
      "] -",
      "Ġhab e",
      "Ġg anz",
      "Ġi m",
      "Ġ --",
      "f en",
      "Ġd ich",
      "o w",
      "77777777 77777777",
      "v ie",
      "ten or",
      "z e",
      "a d",
      "or gen",
      "Ġk omm",
      "âĢ į",
      "Ġn ach",
      "Ġ Ã¼ber",
      "h t",
      "Ġw e",
      "Ġ N",
      "Ġ ch",
      "en d",
      "Ġwir d",
      "âĪŀâĪŀâĪŀâĪŀ âĪŀâĪŀâĪŀâĪŀ",
      "k omm",
      "p la",
      "ah r",
      "_ .[",
      "Ġal l",
      "Ġ P",
      "Ļ Ĥ",
      "???????? ????????",
      "Ġ u",
      "Ġm uss",
      "ffffffffffffffff ffffffffffffffff",
      "ĠÍ ¡",
      "vie w",
      "1 1",
      "âĸĪâĸĪ âĸĪ",
      "oo l",
      "g t",
      "eh en",
      "d i",
      "Ġso ll",
      "âĶ Ģ",
      "Ġ F",
      "al so",
      "eeee eeee",
      "Ġgeh t",
      "d f",
      "ic e",
      "Ġmach en",
      "i x",
      "Ġhab en",
      "ï ¸",
      "Ġp ro",
      "Ġ am",
      "Ã¶ r",
      "C H",
      "u st",
      "Ġv iel",
      "ier en",
      "Ġ H",
      "al t",
      "Ġg i",
      "mmmm mmmm",
      "l o",
      "Ġi mmer",
      "hi hi",
      "A ber",
      "d anke",
      "n ein",
      "E E",
      "ose f",
      "iiiiiiii iiiiiiii",
      "f e",
      "in e",
      "pla y",
      "Ġg em",
      "t h",
      "â ķ",
      "Ġal s",
      "Ġ L",
      "1 5",
      "Ġ W",
      "Ġw ill",
      "ðŁ«ĥðŁ«ĥ ðŁ«ĥðŁ«ĥ",
      "âĢį â",
      "or t",
      "- [",
      "n et",
      "] [",
      "au s",
      "Ġh eute",
      "t w",
      "u l",
      "m e",
      "Ġ a",
      "Ġs ein",
      "Ġg lau",
      "d d",
      "Ġ um",
      "le ich",
      "Ã¶ nn",
      "h n",
      "Ġw er",
      "i tt",
      "âĸĳâĸĳâĸĳâĸĳâĸĳâĸĳâĸĳâĸĳ âĸĳâĸĳâĸĳâĸĳ",
      "( [",
      "Ġ 2",
      "XDXDXDXD XDXDXDXD",
      "imm t",
      "z u",
      "oooooooooooooooo oooooooooooooooo",
      "o der",
      "Ġk l",
      "âĶĢ âĶĢ",
      "Ġgi bt",
      "] ?[",
      "k l",
      "r ie",
      "Ġk eine",
      "Ã¤ Ã¤",
      "ag t",
      "âĢįâ ĻĤ",
      "3 7",
      "? ![",
      "ch e",
      "O O",
      "d ann",
      "AA AA",
      "Ġw eiÃŁ",
      "!! ![",
      "A MOGUS",
      "Ġsch rei",
      "w eil",
      "Ġge f",
      "Ã¤ n",
      "Ġ: )[",
      "Ġm orgen",
      "Ġ [",
      "1 4",
      "r Ã¼",
      "im o",
      "ĠAMOGUS AMOGUS",
      "ĠÍ¡ Â°",
      "i d",
      "u e",
      "Ġk ein",
      "bittebitte bittebitte",
      "g es",
      "Ġ \"",
      "ï¸ ı",
      "w ei",
      "Ġn en",
      "i p",
      "Â° [",
      "3 3",
      "Ġk Ã¶nn",
      "aaaaaaaaaaaaaaaa aaaaaaaaaaaaaaaa",
      "b in",
      "st en",
      "Ġ ar",
      "¦ âĢįâĻĤ",
      "un kt",
      "i v",
      "? !",
      "in de",
      "und en",
      "sch en",
      "h ast",
      "c or",
      "eh t",
      "9 9",
      "] Â°",
      "1 0",
      "ch en",
      "Ġei g",
      "1 6",
      "l t",
      "Ġ E",
      "war um",
      "= =",
      "Ġd ein",
      "ĠðŁ ĺ",
      "Ġun s",
      "Â ¶",
      "h mm",
      "h ur",
      "âĺŃâĺŃâĺŃâĺŃâĺŃâĺŃâĺŃâĺŃâĺŃâĺŃâĺŃâĺŃâĺŃâĺŃâĺŃâĺŃâĺŃâĺŃâĺŃâĺŃâĺŃâĺŃâĺŃâĺŃâĺŃâĺŃâĺŃâĺŃâĺŃâĺŃâĺŃâĺŃâĺŃâĺŃâĺŃâĺŃâĺŃâĺŃâĺŃâĺŃâĺŃâĺŃâĺŃâĺŃâĺŃâĺŃâĺŃâĺŃâĺŃâĺŃâĺŃâĺŃâĺŃâĺŃâĺŃâĺŃâĺŃâĺŃâĺŃâĺŃâĺŃâĺŃâĺŃâĺŃâĺŃâĺŃâĺŃâĺŃâĺŃâĺŃâĺŃâĺŃâĺŃâĺŃâĺŃâĺŃâĺŃâĺŃâĺŃâĺŃâĺŃâĺŃâĺŃâĺŃâĺŃâĺŃâĺŃâĺŃâĺŃâĺŃâĺŃâĺŃâĺŃâĺŃâĺŃâĺŃâĺŃâĺŃâĺŃâĺŃâĺŃâĺŃâĺŃâĺŃâĺŃâĺŃâĺŃâĺŃâĺŃâĺŃâĺŃâĺŃâĺŃâĺŃâĺŃâĺŃâĺŃâĺŃâĺŃâĺŃâĺŃâĺŃâĺŃâĺŃâĺŃâĺŃâĺŃâĺŃâĺŃâĺŃâĺŃâĺŃâĺŃâĺŃâĺŃâĺŃâĺŃâĺŃâĺŃâĺŃâĺŃâĺŃâĺŃâĺŃâĺŃâĺŃâĺŃâĺŃâĺŃâĺŃâĺŃâĺŃâĺŃâĺŃâĺŃâĺŃâĺŃâĺŃâĺŃâĺŃâĺŃâĺŃâĺŃâĺŃâĺŃâĺŃâĺŃâĺŃâĺŃâĺŃâĺŃâĺŃâĺŃâĺŃâĺŃâĺŃâĺŃâĺŃâĺŃâĺŃâĺŃâĺŃâĺŃâĺŃâĺŃâĺŃâĺŃâĺŃâĺŃâĺŃâĺŃâĺŃâĺŃâĺŃâĺŃâĺŃâĺŃâĺŃâĺŃâĺŃâĺŃâĺŃâĺŃâĺŃâĺŃâĺŃâĺŃâĺŃâĺŃâĺŃâĺŃâĺŃâĺŃâĺŃâĺŃâĺŃâĺŃâĺŃâĺŃâĺŃâĺŃâĺŃâĺŃâĺŃâĺŃâĺŃâĺŃâĺŃâĺŃâĺŃâĺŃâĺŃâĺŃâĺŃâĺŃâĺŃâĺŃâĺŃâĺŃâĺŃâĺŃâĺŃâĺŃâĺŃâĺŃâĺŃâĺŃâĺŃâĺŃâĺŃâĺŃâĺŃâĺŃâĺŃâĺŃâĺŃ âĺŃâĺŃâĺŃâĺŃâĺŃâĺŃâĺŃâĺŃâĺŃâĺŃâĺŃâĺŃâĺŃâĺŃâĺŃâĺŃâĺŃâĺŃâĺŃâĺŃâĺŃâĺŃâĺŃâĺŃâĺŃâĺŃâĺŃâĺŃâĺŃâĺŃâĺŃâĺŃâĺŃâĺŃâĺŃâĺŃâĺŃâĺŃâĺŃâĺŃâĺŃâĺŃâĺŃâĺŃâĺŃâĺŃâĺŃâĺŃâĺŃâĺŃâĺŃâĺŃâĺŃâĺŃâĺŃâĺŃâĺŃâĺŃâĺŃâĺŃâĺŃâĺŃâĺŃâĺŃâĺŃâĺŃâĺŃâĺŃâĺŃâĺŃâĺŃâĺŃâĺŃâĺŃâĺŃâĺŃâĺŃâĺŃâĺŃâĺŃâĺŃâĺŃâĺŃâĺŃâĺŃâĺŃâĺŃâĺŃâĺŃâĺŃâĺŃâĺŃâĺŃâĺŃâĺŃâĺŃâĺŃâĺŃâĺŃâĺŃâĺŃâĺŃâĺŃâĺŃâĺŃâĺŃâĺŃâĺŃâĺŃâĺŃâĺŃâĺŃâĺŃâĺŃâĺŃâĺŃâĺŃâĺŃâĺŃâĺŃâĺŃâĺŃâĺŃâĺŃâĺŃâĺŃâĺŃâĺŃâĺŃâĺŃâĺŃâĺŃâĺŃâĺŃâĺŃâĺŃâĺŃâĺŃâĺŃâĺŃâĺŃâĺŃâĺŃâĺŃâĺŃâĺŃâĺŃâĺŃâĺŃâĺŃâĺŃâĺŃâĺŃâĺŃâĺŃâĺŃâĺŃâĺŃâĺŃâĺŃâĺŃâĺŃâĺŃâĺŃâĺŃâĺŃâĺŃâĺŃâĺŃâĺŃâĺŃâĺŃâĺŃâĺŃâĺŃâĺŃâĺŃâĺŃâĺŃâĺŃâĺŃâĺŃâĺŃâĺŃâĺŃâĺŃâĺŃâĺŃâĺŃâĺŃâĺŃâĺŃâĺŃâĺŃâĺŃâĺŃâĺŃâĺŃâĺŃâĺŃâĺŃâĺŃâĺŃâĺŃâĺŃâĺŃâĺŃâĺŃâĺŃâĺŃâĺŃâĺŃâĺŃâĺŃâĺŃâĺŃâĺŃâĺŃâĺŃâĺŃâĺŃâĺŃâĺŃâĺŃâĺŃâĺŃâĺŃâĺŃâĺŃâĺŃâĺŃâĺŃâĺŃâĺŃâĺŃâĺŃâĺŃâĺŃâĺŃâĺŃâĺŃâĺŃâĺŃâĺŃâĺŃâĺŃâĺŃâĺŃâĺŃâĺŃâĺŃâĺŃâĺŃâĺŃâĺŃâĺŃ",
      "cc cc",
      "i de",
      "Ġ.. .",
      "a p",
      "ss en",
      "is cor",
      "hhhh hhhh",
      "ĠðŁ¦ Ĩ",
      "a tt",
      "icht ig",
      "Ġg leich",
      "Ġein e",
      "] *",
      "]. _.[",
      "3 0",
      "r y",
      "âĸĳâĸĳâĸĳâĸĳâĸĳâĸĳâĸĳâĸĳâĸĳâĸĳâĸĳâĸĳâĸĳâĸĳâĸĳâĸĳ âĸĳâĸĳâĸĳâĸĳâĸĳâĸĳâĸĳâĸĳâĸĳâĸĳâĸĳâĸĳâĸĳâĸĳâĸĳâĸĳ",
      "Ġg en",
      "Ġo k",
      "W ie",
      "t lich",
      "Ġg ar",
      "gen d",
      "Ġall es",
      "1 9",
      "UUUUUUUUUUUUUUUU UUUUUUUUUUUUUUUU",
      "Ġh alt",
      "Ġm us",
      "r r",
      "Ġw Ã¤",
      "Ġei gen",
      "Ã¶Ã¶ Ã¶Ã¶",
      "Ġglau be",
      "ĠĠĠĠĠĠĠĠ ĠĠĠĠĠĠĠĠ",
      "h er",
      "an g",
      "-- --",
      "a ck",
      "2 5",
      "n en",
      "Ġt h",
      "zZzZ zZzZ",
      "^ Â°[",
      "ðŁ¤ ¦âĢįâĻĤ",
      "danke danke",
      "]Â° ^Â°[",
      "Ġsp iel",
      "kk kk",
      "t f",
      "Ġbi s",
      "........ ........",
      "s h",
      "Ġm in",
      "Ġgem acht",
      "ach so",
      "W as",
      "P A",
      "Ġer st",
      "Ġ R",
      "T T",
      "Ġm eine",
      "b ei",
      "Ġ (",
      "ut en",
      "z en",
      "Ġw eil",
      "ess er",
      "u g",
      "Ġl ie",
      "Ġc ool",
      "Ġal le",
      "I I",
      "à¶ŀà¶ŀà¶ŀà¶ŀà¶ŀà¶ŀà¶ŀà¶ŀ à¶ŀ",
      "à¶ŀà¶ŀà¶ŀà¶ŀà¶ŀà¶ŀà¶ŀà¶ŀà¶ŀà¶ŀà¶ŀà¶ŀà¶ŀà¶ŀà¶ŀà¶ŀà¶ŀà¶ŀà¶ŀà¶ŀà¶ŀà¶ŀà¶ŀà¶ŀà¶ŀà¶ŀà¶ŀà¶ŀà¶ŀà¶ŀà¶ŀà¶ŀ à¶ŀà¶ŀà¶ŀà¶ŀà¶ŀà¶ŀà¶ŀà¶ŀà¶ŀà¶ŀà¶ŀà¶ŀà¶ŀà¶ŀà¶ŀà¶ŀà¶ŀà¶ŀà¶ŀà¶ŀà¶ŀà¶ŀà¶ŀà¶ŀà¶ŀà¶ŀà¶ŀà¶ŀà¶ŀà¶ŀà¶ŀà¶ŀ",
      "à¶ŀà¶ŀà¶ŀà¶ŀà¶ŀà¶ŀà¶ŀà¶ŀà¶ŀà¶ŀà¶ŀà¶ŀà¶ŀà¶ŀà¶ŀà¶ŀà¶ŀà¶ŀà¶ŀà¶ŀà¶ŀà¶ŀà¶ŀà¶ŀà¶ŀà¶ŀà¶ŀà¶ŀà¶ŀà¶ŀà¶ŀà¶ŀà¶ŀà¶ŀà¶ŀà¶ŀà¶ŀà¶ŀà¶ŀà¶ŀà¶ŀà¶ŀà¶ŀà¶ŀà¶ŀà¶ŀà¶ŀà¶ŀà¶ŀà¶ŀà¶ŀà¶ŀà¶ŀà¶ŀà¶ŀà¶ŀà¶ŀà¶ŀà¶ŀà¶ŀà¶ŀà¶ŀà¶ŀà¶ŀ à¶ŀà¶ŀà¶ŀà¶ŀà¶ŀà¶ŀà¶ŀà¶ŀà¶ŀ",
      "p h",
      "Ġd ar",
      "Ġs a",
      "âĸĪâĸĪ âĸĳâĸĳâĸĳâĸĳâĸĳâĸĳâĸĳâĸĳâĸĳâĸĳâĸĳâĸĳâĸĳâĸĳâĸĳâĸĳ",
      "l d",
      "âĸĳâĸĳâĸĳâĸĳ âĸĳ",
      "DDDD DDDD",
      "Ġch ill",
      "w ir",
      "u ch",
      "Ġ I",
      "g v",
      "Ġk r",
      "Ġe cht",
      "w er",
      "h a",
      "h m",
      "Ġd enn",
      "]ðŁ ĺ",
      "b st",
      "Ġs el",
      "g ra",
      "m k",
      "at ion",
      "D u",
      "Ġl ust",
      "Ġeigen tlich",
      "Ġs ehr",
      "]: )[",
      "d och",
      "Ġ V",
      "ff le",
      "Ġsch au",
      "ab l",
      "w o",
      "Ġz eit",
      "- .",
      "6 6",
      "Ġ Z",
      "âĸĳâĸĳâĸĳâĸĳ âĸĳâĸĳ",
      "9 0",
      "Ġ on",
      "xD xD",
      "Ġf ra",
      "Ã¶ n",
      "de m",
      "]ðŁ ¥",
      "s en",
      "an k",
      "Ġbi ffle",
      "_ -[",
      "m c",
      "Ġ ir",
      "1 2",
      "8 0",
      "U PA",
      "df mk",
      "gv UPA",
      "gvUPA s",
      "n icht",
      "E R",
      "d iscor",
      "Ġein en",
      "H A",
      "1 3",
      "c e",
      "l er",
      "?? ?[",
      "l s",
      "Â¶ Â¶",
      "abl abl",
      "e g",
      "yyyy yyyy",
      "n Ã¶",
      "s er",
      "ie le",
      "Ġz um",
      "7777777777777777 7777777777777777",
      "O k",
      "¦ [",
      "eh e",
      "x t",
      "ĠĠ Ġ",
      "Ã¼Ã¼ Ã¼Ã¼",
      "Ġo b",
      "rie ben",
      "n a",
      "Ġh Ã¤",
      "ÃŁ ÃŁ",
      "Ġb esser",
      "âĪŀâĪŀâĪŀâĪŀâĪŀâĪŀâĪŀâĪŀ âĪŀâĪŀâĪŀâĪŀâĪŀâĪŀâĪŀâĪŀ",
      "r in",
      "u p",
      "au t",
      "Ġm a",
      "ss ss",
      "uuuuuuuu uuuuuuuu",
      "4 0",
      "g g",
      "Ġt e",
      "] **",
      "st er",
      "Ġm acht",
      "Ġun ter",
      "ðŁ¤ ®",
      "unkt ion",
      "wie so",
      "Ġj e",
      "] (",
      "c Q",
      "m lich",
      "Ġn ix",
      "H ab",
      "k ann",
      "Ġan d",
      "ahah ahah",
      "2 2",
      "Ġg el",
      "Ġk om",
      "ar t",
      "ge l",
      "Q w",
      "g X",
      "Ġm Ã¼",
      "Ġn h",
      "Ġgeh en",
      "???????????????? ????????????????",
      "Ê ĸ",
      "und e",
      "ĠS t",
      "ĠwÃ¤ re",
      "l i",
      "Ġw Ã¼r",
      "tt er",
      "ĠÍ ľ",
      "gra mm",
      "u ck",
      "Ġr ichtig",
      "ent s",
      "m ach",
      "r i",
      "sch ick",
      "te st",
      "au f",
      "Ġdu r",
      "ll e",
      "hur en",
      "W gX",
      "k a",
      "an ge",
      "Ġt he",
      "Ã¼ ck",
      "Ġl e",
      "WgX cQ",
      "4 5",
      "c ra",
      "Ã ľ",
      "Ġ ....",
      "âĸĪ âĸĳâĸĳâĸĳâĸĳâĸĳâĸĳâĸĳâĸĳâĸĳâĸĳâĸĳâĸĳâĸĳâĸĳâĸĳâĸĳ",
      "Ġl ol",
      "d Qw",
      "w enn",
      "w tf",
      "Ġv llt",
      "ann el",
      "ffffffffffffffffffffffffffffffff ffffffffffffffffffffffffffffffff",
      "n t",
      "u ff",
      "gvUPAs https",
      "D ie",
      "h Ã¤",
      "Ġ =",
      "ĠN acht",
      "? ?[",
      "Ġ U",
      "Ġkann st",
      "eiÃŁ t",
      "Ġ 3",
      "ch annel",
      "Ġn Ã¤",
      "Ġh in",
      "j e",
      "y s",
      "Ġ en",
      "Ġ eh",
      "aa a",
      "un gen",
      "ach m",
      "sch ein",
      "Ġj osef",
      "Ġ- ..",
      "ll en",
      "Ã¤ t",
      "Ġges agt",
      "\" [",
      "at e",
      "ĠS ch",
      "Ã¤ r",
      "9 6",
      "____ ____",
      "F F",
      "S ch",
      "Ġs on",
      "Ġi hn",
      "at he",
      "da pp",
      "discor dapp",
      "tt tt",
      "Ġan der",
      "ðŁ«ĥðŁ«ĥðŁ«ĥðŁ«ĥ ðŁ«ĥðŁ«ĥðŁ«ĥðŁ«ĥ",
      "1 7",
      "g er",
      "v e",
      "ide o",
      "Ġdur ch",
      "Ġh a",
      "ges ch",
      "ĠkÃ¶nn en",
      "Ġir gend",
      "d n",
      "st immt",
      "Ġ.- ..",
      "au fen",
      "der n",
      "âĸĴâĸĴ âĸĴâĸĴ",
      "Ġwer den",
      "ja ja",
      "a ÃŁ",
      "Ã ³",
      "]ðŁ ¦",
      "Ġ et",
      "Ġsch ne",
      "ol ol",
      "ĠwÃ¼r de",
      "b le",
      "p r",
      "sch au",
      "att achm",
      "attachm ents",
      "s k",
      "ll ll",
      "n ice",
      "XDXDXDXDXDXDXDXD XDXDXDXDXDXDXDXD",
      "Ġb l",
      "Ġn ice",
      "hihi hihi",
      "a den",
      "g ar",
      "h at",
      "t z",
      "ðŁ ĺ",
      "Ġf inde",
      "Ġ.- .",
      "Ġgesch rieben",
      "cra ft",
      "6 5",
      "m en",
      "Ġkomm t",
      "1 8",
      "N e",
      "Ġsch l",
      "ðŁ¤® ðŁ¤®",
      "i ge",
      "Ġ q",
      "l en",
      "u le",
      "Ġbe komm",
      "i en",
      "]- _-[",
      "s a",
      "in k",
      "as st",
      "Ġi hr",
      "yo u",
      "Ġr aus",
      "Ġb rau",
      "Ġf unktion",
      "j j",
      "r icht",
      "Ġsie ht",
      "ine craft",
      "k lich",
      "Ġw oll",
      "Ġand ere",
      "6 0",
      "H H",
      "O h",
      "i pp",
      "o ff",
      "Ġ ent",
      "Ġn ie",
      "oo o",
      "Ġl ei",
      "ah a",
      "op e",
      "] âĸĳâĸĳâĸĳ",
      "ee e",
      "ck e",
      "Ġre cht",
      "mmmmmmmm mmmmmmmm",
      "4 2",
      "f l",
      "n ur",
      "p t",
      "Ġ 5",
      "Ġver st",
      "bittebittebittebitte bittebittebittebitte",
      "v c",
      "w ann",
      "Ġd eine",
      "Ġh ier",
      "Ġl ern",
      "ĠG ute",
      "Ġschne ll",
      "/ [",
      "r Ã¤",
      "v on",
      "se l",
      "Ġd e",
      "ge f",
      "Ġ1 0",
      "Ġkr ass",
      "m an",
      "Ġsch le",
      "Ġ-. -.",
      "Ġmus st",
      "7 5",
      "E N",
      "a ge",
      "Ġn em",
      "âĸĪâĸĪâĸĪâĸĪâĸĪâĸĪâĸĪâĸĪ âĸĪâĸĪâĸĪâĸĪâĸĪâĸĪâĸĪâĸĪ",
      "oooooooooooooooooooooooooooooooo oooooooooooooooooooooooooooooooo",
      "f Ã¼r",
      "Ġs er",
      "an t",
      "Ġw ur",
      "Ġz wei",
      "iiiiiiiiiiiiiiii iiiiiiiiiiiiiiii",
      "ĠÍ¡Â° )",
      "d s",
      "Ġk ur",
      "Ġv iele",
      "Ġspiel en",
      "D er",
      "g l",
      "Ġw ahr",
      "m p",
      "s on",
      "Ġ.. -",
      "g ut",
      "Ã ²",
      "Ġ J",
      "Ġschrei ben",
      "schein lich",
      "Ġw o",
      "Ġbi ld",
      "Ġne u",
      "!!!! !!!!",
      ", ,",
      "d o",
      "u i",
      "Ġh er",
      "et z",
      "Ġal so",
      "Ġu hr",
      "Ġsa gen",
      "2 8",
      "Ġb es",
      "Ġs ei",
      "Ġm c",
      "Ġw el",
      "Ġp h",
      "di a",
      "eeeeeeee eeeeeeee",
      "4 9",
      "Ġd rau",
      "Ġ-- -",
      "b eit",
      "i ssen",
      "v or",
      "Ġw ei",
      "] â",
      "i o",
      "j k",
      "âĸĳâĸĳâĸĳâĸĳ âĸĳâĸĳâĸĳ",
      "Ġw en",
      "Ġh ttps",
      "ra in",
      "] .[",
      "m ein",
      "o st",
      "Ġ C",
      "Ġnoch mal",
      "am it",
      "k en",
      "Ġ âĢ",
      "Ġs ag",
      "ach te",
      "Ġsch Ã¶n",
      "ass en",
      "4 8",
      "a y",
      "Ġd iese",
      "Ġn er",
      "A l",
      "s d",
      "ðŁ¤¦âĢįâĻĤ ï¸ı",
      "4 3",
      "EE EE",
      "UUUUUUUUUUUUUUUUUUUUUUUUUUUUUUUU UUUUUUUUUUUUUUUUUUUUUUUUUUUUUUUU",
      "^ [",
      "h au",
      "Ġ ru",
      "in n",
      "]ðŁ ¤",
      "cccc cccc",
      "b o",
      "h imo",
      "ff en",
      "sch l",
      "Ġge w",
      "Ġge st",
      "ert ig",
      "Ġpro gramm",
      "âĶĢâĶĢ âĶĢâĶĢ",
      "z w",
      "Ġf re",
      "Ġl ange",
      "dankedanke dankedanke",
      "µ [",
      "Ġh eiÃŁt",
      "Ġi hm",
      "Ġges ehen",
      "zZzZzZzZ zZzZzZzZ",
      "ðŁ¤¦âĢįâĻĤï¸ı ðŁ¤¦âĢįâĻĤï¸ı",
      "n ope",
      "Ġm Ã¶",
      "on t",
      "Ã¶r t",
      "ðŁ¤¦âĢįâĻĤ ðŁ¤¦âĢįâĻĤ",
      "ro ÃŁ",
      "Ġ: ([",
      "all o",
      "Ġwe g",
      "ĠhÃ¤ tte",
      "4 6",
      "j z",
      "u f",
      "es en",
      "aaaaaaaaaaaaaaaaaaaaaaaaaaaaaaaa aaaaaaaaaaaaaaaaaaaaaaaaaaaaaaaa",
      "Ġgen au",
      "S T",
      "] ...[",
      "b l",
      "t ja",
      "Ġ 20",
      "aa r",
      "* [",
      "7 0",
      "A U",
      "Ġsch w",
      "Ġz ur",
      "Ġwir klich",
      "D a",
      "c t",
      "o in",
      "and y",
      "HA HA",
      "e d",
      "o tt",
      "s u",
      "at Ã¼r",
      "Ġl ang",
      "oh l",
      "kkkk kkkk",
      "Ġlern en",
      "m it",
      "Ġ O",
      "Ã¤Ã¤ Ã¤Ã¤",
      "W ar",
      "j etzt",
      "Ġ you",
      "ĠðŁĺ ¡",
      "ch te",
      "Ã¤ u",
      "Ġden ke",
      "Ġha tte",
      "atÃ¼r lich",
      "8 8",
      "I st",
      "S S",
      "y p",
      "or m",
      "hhhhhhhh hhhhhhhh",
      "................ ................",
      "3 6",
      "] ..",
      "g st",
      "at en",
      "Ã¤ h",
      "9 5",
      "S o",
      "ach en",
      "Ġv oll",
      "ĠS p",
      "ess en",
      "we gen",
      "Ġschau en",
      "== ==",
      "+ +",
      "< :",
      "C K",
      "g ab",
      "á µ",
      "Ġso gar",
      "Ġ. _.[",
      "im im",
      "** [",
      "âķ Ĳ",
      "AAAA AAAA",
      "Ġkur z",
      "Al so",
      "S CH",
      "i ss",
      "m er",
      "Ġt o",
      "un k",
      "ahr en",
      "âĸĪâĸĪ âĸĳâĸĳâĸĳâĸĳâĸĳ",
      "ick t",
      "h en",
      "m uss",
      "s c",
      "v llt",
      "at er",
      "Ġf ertig",
      "Ġin s",
      "am e",
      "Ġganz e",
      "Ġschle cht",
      "Ġwen ig",
      "Ġz ie",
      "Ġe x",
      "Ġsich er",
      "---- ----",
      "Ġi s",
      "Ġ. --",
      "xDxD xDxD",
      "Ġser ver",
      "i z",
      "an gen",
      "Ġp ass",
      "end lich",
      "Ġsoll te",
      "4 7",
      "f er",
      "Ġs ehen",
      "Ġst eht",
      "Ġr ein",
      "isch en",
      "itt er",
      "]ðŁ¥ µ[",
      "áµ Ķ",
      "] @",
      "h o",
      "Ġ y",
      "âĸ ĵ",
      "Ġd es",
      "Ã¤ ter",
      "Ġst immt",
      "Ãľ Ãľ",
      "Ġwur de",
      "3 8",
      "E s",
      "I N",
      "b s",
      "Ġt im",
      "âķ ı",
      "' s",
      "H ast",
      "p ro",
      "ch er",
      "Ġp aar",
      "ing t",
      "Ã¶Ã¶Ã¶Ã¶ Ã¶Ã¶Ã¶Ã¶",
      "I n",
      "| |",
      "Ġn acht",
      "?! ?![",
      "ablabl ablabl",
      "ble m",
      "h v",
      "Ġh och",
      "Ġf l",
      "!! !",
      "Ġo h",
      "Ġkom p",
      "2 6",
      "ÃŁ er",
      "3 5",
      "L O",
      "ei g",
      "Ġv ideo",
      "ge ben",
      "dd dd",
      "Ġmin uten",
      "77777777777777777777777777777777 77777777777777777777777777777777",
      "al ten",
      "Ġsch ick",
      "Ġein er",
      "Ġger ne",
      "âĪŀâĪŀâĪŀâĪŀâĪŀâĪŀâĪŀâĪŀâĪŀâĪŀâĪŀâĪŀâĪŀâĪŀâĪŀâĪŀ âĪŀâĪŀâĪŀâĪŀâĪŀâĪŀâĪŀâĪŀâĪŀâĪŀâĪŀâĪŀâĪŀâĪŀâĪŀâĪŀ",
      "Ġfunktion iert",
      "] \"",
      "f Ã¼",
      "âĸĳâĸĳ âĸĪ",
      "Ġg roÃŁ",
      "Ġm athe",
      "de t",
      "rr rr",
      "Ġfra ge",
      "W enn",
      "d es",
      "g r",
      "h it",
      "l ine",
      "n o",
      "Ġs agt",
      "un ter",
      "al s",
      "sch rei",
      "Ġwahr scheinlich",
      "i a",
      "Ġ ro",
      "ii i",
      "Ġf il",
      "och en",
      "ck en",
      "ra g",
      "sp iel",
      "Ġbis schen",
      "Ġander en",
      "N ein",
      "a ff",
      "b b",
      "c dn",
      "e ich",
      "Ġl aufen",
      "Ġgef unden",
      "e k",
      "k r",
      "Ã Ħ",
      "er st",
      "oo g",
      "Ġsch eiÃŁ",
      "Ġges p",
      "ĠĠĠĠĠĠĠĠĠĠĠĠĠĠĠĠ ĠĠĠĠĠĠĠĠĠĠĠĠĠĠĠĠ",
      "z z",
      "Ġg eil",
      "âĸĳâĸĳâĸĳ [",
      "( (",
      "2 7",
      "t zt",
      "¢ [",
      "Ġk enn",
      "Ġl etz",
      "Ġge b",
      "Ġmein em",
      "OO OO",
      "ï¸ı [",
      "hmm m",
      "Ġdrau f",
      "L L",
      "a k",
      "e cht",
      "Ġ |",
      "Ġd r",
      "Ġf e",
      "ck t",
      "Ġmach e",
      "nn nn",
      "ĠkÃ¶nn te",
      "II II",
      "???????????????????????????????? ????????????????????????????????",
      "9 7",
      "g ute",
      "g eht",
      "at z",
      "Ġkomm en",
      "Ġkl ein",
      "DDDDDDDD DDDDDDDD",
      "sk ip",
      "Ġd amit",
      "Ġs c",
      "ðŁ ĳ",
      "e kt",
      "j osef",
      "s ry",
      "!! [",
      "Ġp er",
      "ah n",
      "yyyyyyyy yyyyyyyy",
      "D ann",
      "j o",
      "o ck",
      "Ġ 4",
      "Ġ or",
      "at ze",
      "re en",
      "el t",
      "Ġge d",
      "]: ([",
      "âĶ »",
      "> [",
      "C C",
      "^ ^[",
      "i f",
      "m us",
      "t op",
      "at s",
      "Ġst e",
      "Ġwar um",
      "m in",
      "m em",
      "Ġsch ule",
      "ung s",
      "Wie so",
      "Ġsel ber",
      "Ġwei ter",
      "c ool",
      "n ee",
      "Ġn atÃ¼rlich",
      "ar e",
      "ss l",
      "op f",
      "k eine",
      "o de",
      "p l",
      "Ġg r",
      "Ġf r",
      "ĠM in",
      "il ipp",
      "Ġmein en",
      "ĠnÃ¤ mlich",
      "5 0",
      "9 8",
      "; [",
      "w ill",
      "Ġ x",
      "Ġer ste",
      "Ġbi tte",
      "ĠM al",
      "** *[",
      "ix el",
      "Ġet w",
      "4 4",
      "A S",
      "g lich",
      "h allo",
      "n er",
      "Ġb aden",
      "se hr",
      "it z",
      "tz dem",
      "oog le",
      "I CH",
      "p er",
      "ã Ģ",
      "Ġ em",
      "Ġw issen",
      "ut sch",
      "Ã¼ b",
      "ur e",
      "Ġwie so",
      "me dia",
      "Ġwer de",
      "Ġkein en",
      "]ðŁ¦ ¦[",
      "O der",
      "s ag",
      "Ġnicht s",
      "Ġv om",
      "Ġwar en",
      "Ġmein te",
      "]** *",
      "rain ing",
      "Ġgest ern",
      "Í ¡",
      "Ġ 8",
      "Ġ .[",
      "Ġk on",
      "Ġf Ã¼",
      "Ġsch la",
      "ĠP ro",
      "Ġwill st",
      "ys ik",
      "ðŁ«ĥðŁ«ĥðŁ«ĥðŁ«ĥðŁ«ĥðŁ«ĥðŁ«ĥðŁ«ĥ ðŁ«ĥðŁ«ĥðŁ«ĥðŁ«ĥðŁ«ĥðŁ«ĥðŁ«ĥðŁ«ĥ",
      "d ig",
      "k enn",
      "s ie",
      "as se",
      "Ġt ro",
      "Ġh e",
      "Ã¤ ch",
      "Ġirgend wie",
      "5 7",
      "i gen",
      "s am",
      "Ġb tw",
      "Ġm en",
      "Ġi t",
      "âĸĪâĸĪâĸĪâĸĪ âĸĪ",
      "lo ck",
      ") )",
      "2 3",
      "; )[",
      "E r",
      "p ut",
      "au ch",
      "Ġw ann",
      "Ġbi l",
      "Ġes sen",
      "Ġda zu",
      "00 0",
      "Ġpro blem",
      "âĺŃâĺŃâĺŃâĺŃâĺŃâĺŃâĺŃâĺŃâĺŃâĺŃâĺŃâĺŃâĺŃâĺŃâĺŃâĺŃâĺŃâĺŃâĺŃâĺŃâĺŃâĺŃâĺŃâĺŃâĺŃâĺŃâĺŃâĺŃâĺŃâĺŃâĺŃâĺŃâĺŃâĺŃâĺŃâĺŃâĺŃâĺŃâĺŃâĺŃâĺŃâĺŃâĺŃâĺŃâĺŃâĺŃâĺŃâĺŃâĺŃâĺŃâĺŃâĺŃâĺŃâĺŃâĺŃâĺŃâĺŃâĺŃâĺŃâĺŃâĺŃâĺŃâĺŃâĺŃâĺŃâĺŃâĺŃâĺŃâĺŃâĺŃâĺŃâĺŃâĺŃâĺŃâĺŃâĺŃâĺŃâĺŃâĺŃâĺŃâĺŃâĺŃâĺŃâĺŃâĺŃâĺŃâĺŃâĺŃâĺŃâĺŃâĺŃâĺŃâĺŃâĺŃâĺŃâĺŃâĺŃâĺŃâĺŃâĺŃâĺŃâĺŃâĺŃâĺŃâĺŃâĺŃâĺŃâĺŃâĺŃâĺŃâĺŃâĺŃâĺŃâĺŃâĺŃâĺŃâĺŃâĺŃâĺŃâĺŃâĺŃâĺŃâĺŃâĺŃâĺŃâĺŃâĺŃâĺŃâĺŃâĺŃâĺŃâĺŃâĺŃâĺŃâĺŃâĺŃâĺŃâĺŃâĺŃâĺŃâĺŃâĺŃâĺŃâĺŃâĺŃâĺŃâĺŃâĺŃâĺŃâĺŃâĺŃâĺŃâĺŃâĺŃâĺŃâĺŃâĺŃâĺŃâĺŃâĺŃâĺŃâĺŃâĺŃâĺŃâĺŃâĺŃâĺŃâĺŃâĺŃâĺŃâĺŃâĺŃâĺŃâĺŃâĺŃâĺŃâĺŃâĺŃâĺŃâĺŃâĺŃâĺŃâĺŃâĺŃâĺŃâĺŃâĺŃâĺŃâĺŃâĺŃâĺŃâĺŃâĺŃâĺŃâĺŃâĺŃâĺŃâĺŃâĺŃâĺŃâĺŃâĺŃâĺŃâĺŃâĺŃâĺŃâĺŃâĺŃâĺŃâĺŃâĺŃâĺŃâĺŃâĺŃâĺŃâĺŃâĺŃâĺŃâĺŃâĺŃâĺŃâĺŃâĺŃâĺŃâĺŃâĺŃâĺŃâĺŃâĺŃâĺŃâĺŃâĺŃâĺŃâĺŃâĺŃâĺŃâĺŃâĺŃâĺŃâĺŃâĺŃâĺŃâĺŃâĺŃâĺŃâĺŃâĺŃâĺŃâĺŃâĺŃâĺŃâĺŃâĺŃâĺŃâĺŃâĺŃâĺŃâĺŃâĺŃâĺŃâĺŃâĺŃâĺŃâĺŃâĺŃâĺŃâĺŃâĺŃâĺŃâĺŃâĺŃâĺŃâĺŃâĺŃâĺŃâĺŃâĺŃâĺŃâĺŃâĺŃâĺŃâĺŃâĺŃâĺŃâĺŃâĺŃâĺŃâĺŃâĺŃâĺŃâĺŃâĺŃâĺŃâĺŃâĺŃâĺŃâĺŃâĺŃâĺŃâĺŃâĺŃâĺŃâĺŃâĺŃâĺŃâĺŃâĺŃâĺŃâĺŃâĺŃâĺŃâĺŃâĺŃâĺŃâĺŃâĺŃâĺŃâĺŃâĺŃâĺŃâĺŃâĺŃâĺŃâĺŃâĺŃâĺŃâĺŃâĺŃâĺŃâĺŃâĺŃâĺŃâĺŃâĺŃâĺŃâĺŃâĺŃâĺŃâĺŃâĺŃâĺŃâĺŃâĺŃâĺŃâĺŃâĺŃâĺŃâĺŃâĺŃâĺŃâĺŃâĺŃâĺŃâĺŃâĺŃâĺŃâĺŃâĺŃâĺŃâĺŃâĺŃâĺŃâĺŃâĺŃâĺŃâĺŃâĺŃâĺŃâĺŃâĺŃâĺŃâĺŃâĺŃâĺŃâĺŃâĺŃâĺŃâĺŃâĺŃâĺŃâĺŃâĺŃâĺŃâĺŃâĺŃâĺŃâĺŃâĺŃâĺŃâĺŃâĺŃâĺŃâĺŃâĺŃâĺŃâĺŃâĺŃâĺŃâĺŃâĺŃâĺŃâĺŃâĺŃâĺŃâĺŃâĺŃâĺŃâĺŃâĺŃâĺŃâĺŃâĺŃâĺŃâĺŃâĺŃâĺŃâĺŃâĺŃâĺŃâĺŃâĺŃâĺŃâĺŃâĺŃâĺŃâĺŃâĺŃâĺŃâĺŃâĺŃâĺŃâĺŃâĺŃâĺŃâĺŃâĺŃâĺŃâĺŃâĺŃâĺŃâĺŃâĺŃâĺŃâĺŃâĺŃâĺŃâĺŃâĺŃâĺŃâĺŃâĺŃâĺŃâĺŃâĺŃâĺŃâĺŃâĺŃâĺŃâĺŃâĺŃâĺŃâĺŃâĺŃâĺŃâĺŃâĺŃâĺŃâĺŃâĺŃâĺŃâĺŃâĺŃâĺŃâĺŃâĺŃâĺŃâĺŃâĺŃâĺŃâĺŃâĺŃâĺŃâĺŃâĺŃâĺŃâĺŃâĺŃâĺŃâĺŃâĺŃâĺŃâĺŃâĺŃâĺŃâĺŃâĺŃâĺŃâĺŃâĺŃâĺŃâĺŃâĺŃâĺŃâĺŃâĺŃâĺŃâĺŃâĺŃâĺŃâĺŃâĺŃâĺŃ âĺŃâĺŃâĺŃâĺŃâĺŃâĺŃâĺŃâĺŃâĺŃâĺŃâĺŃâĺŃâĺŃâĺŃâĺŃâĺŃâĺŃâĺŃâĺŃâĺŃâĺŃâĺŃâĺŃâĺŃâĺŃâĺŃâĺŃâĺŃâĺŃâĺŃâĺŃâĺŃâĺŃâĺŃâĺŃâĺŃâĺŃâĺŃâĺŃâĺŃâĺŃâĺŃâĺŃâĺŃâĺŃâĺŃâĺŃâĺŃâĺŃâĺŃâĺŃâĺŃâĺŃâĺŃâĺŃâĺŃâĺŃâĺŃâĺŃâĺŃâĺŃâĺŃâĺŃâĺŃâĺŃâĺŃâĺŃâĺŃâĺŃâĺŃâĺŃâĺŃâĺŃâĺŃâĺŃâĺŃâĺŃâĺŃâĺŃâĺŃâĺŃâĺŃâĺŃâĺŃâĺŃâĺŃâĺŃâĺŃâĺŃâĺŃâĺŃâĺŃâĺŃâĺŃâĺŃâĺŃâĺŃâĺŃâĺŃâĺŃâĺŃâĺŃâĺŃâĺŃâĺŃâĺŃâĺŃâĺŃâĺŃâĺŃâĺŃâĺŃâĺŃâĺŃâĺŃâĺŃâĺŃâĺŃâĺŃâĺŃâĺŃâĺŃâĺŃâĺŃâĺŃâĺŃâĺŃâĺŃâĺŃâĺŃâĺŃâĺŃâĺŃâĺŃâĺŃâĺŃâĺŃâĺŃâĺŃâĺŃâĺŃâĺŃâĺŃâĺŃâĺŃâĺŃâĺŃâĺŃâĺŃâĺŃâĺŃâĺŃâĺŃâĺŃâĺŃâĺŃâĺŃâĺŃâĺŃâĺŃâĺŃâĺŃâĺŃâĺŃâĺŃâĺŃâĺŃâĺŃâĺŃâĺŃâĺŃâĺŃâĺŃâĺŃâĺŃâĺŃâĺŃâĺŃâĺŃâĺŃâĺŃâĺŃâĺŃâĺŃâĺŃâĺŃâĺŃâĺŃâĺŃâĺŃâĺŃâĺŃâĺŃâĺŃâĺŃâĺŃâĺŃâĺŃâĺŃâĺŃâĺŃâĺŃâĺŃâĺŃâĺŃâĺŃâĺŃâĺŃâĺŃâĺŃâĺŃâĺŃâĺŃâĺŃâĺŃâĺŃâĺŃâĺŃâĺŃâĺŃâĺŃâĺŃâĺŃâĺŃâĺŃâĺŃâĺŃâĺŃâĺŃâĺŃâĺŃâĺŃâĺŃâĺŃâĺŃâĺŃâĺŃâĺŃâĺŃâĺŃâĺŃâĺŃâĺŃâĺŃâĺŃâĺŃâĺŃâĺŃâĺŃâĺŃâĺŃâĺŃâĺŃâĺŃâĺŃâĺŃâĺŃâĺŃâĺŃâĺŃâĺŃâĺŃâĺŃâĺŃâĺŃâĺŃâĺŃâĺŃâĺŃâĺŃâĺŃâĺŃâĺŃâĺŃâĺŃâĺŃâĺŃâĺŃâĺŃâĺŃâĺŃâĺŃâĺŃâĺŃâĺŃâĺŃâĺŃâĺŃâĺŃâĺŃâĺŃâĺŃâĺŃâĺŃâĺŃâĺŃâĺŃâĺŃâĺŃâĺŃâĺŃâĺŃâĺŃâĺŃâĺŃâĺŃâĺŃâĺŃâĺŃâĺŃâĺŃâĺŃâĺŃâĺŃâĺŃâĺŃâĺŃâĺŃâĺŃâĺŃâĺŃâĺŃâĺŃâĺŃâĺŃâĺŃâĺŃâĺŃâĺŃâĺŃâĺŃâĺŃâĺŃâĺŃâĺŃâĺŃâĺŃâĺŃâĺŃâĺŃâĺŃâĺŃâĺŃâĺŃâĺŃâĺŃâĺŃâĺŃâĺŃâĺŃâĺŃâĺŃâĺŃâĺŃâĺŃâĺŃâĺŃâĺŃâĺŃâĺŃâĺŃâĺŃâĺŃâĺŃâĺŃâĺŃâĺŃâĺŃâĺŃâĺŃâĺŃâĺŃâĺŃâĺŃâĺŃâĺŃâĺŃâĺŃâĺŃâĺŃâĺŃâĺŃâĺŃâĺŃâĺŃâĺŃâĺŃâĺŃâĺŃâĺŃâĺŃâĺŃâĺŃâĺŃâĺŃâĺŃâĺŃâĺŃâĺŃâĺŃâĺŃâĺŃâĺŃâĺŃâĺŃâĺŃâĺŃâĺŃâĺŃâĺŃâĺŃâĺŃâĺŃâĺŃâĺŃâĺŃâĺŃâĺŃâĺŃâĺŃâĺŃâĺŃâĺŃâĺŃâĺŃâĺŃâĺŃâĺŃâĺŃâĺŃâĺŃâĺŃâĺŃâĺŃâĺŃâĺŃâĺŃâĺŃâĺŃâĺŃâĺŃâĺŃâĺŃâĺŃâĺŃâĺŃâĺŃâĺŃâĺŃâĺŃâĺŃâĺŃâĺŃâĺŃâĺŃâĺŃâĺŃâĺŃâĺŃâĺŃâĺŃâĺŃâĺŃâĺŃâĺŃâĺŃâĺŃâĺŃâĺŃâĺŃâĺŃâĺŃâĺŃâĺŃâĺŃâĺŃâĺŃâĺŃâĺŃâĺŃâĺŃâĺŃâĺŃâĺŃâĺŃâĺŃâĺŃâĺŃâĺŃâĺŃâĺŃâĺŃâĺŃâĺŃâĺŃâĺŃâĺŃâĺŃâĺŃâĺŃâĺŃâĺŃâĺŃâĺŃâĺŃâĺŃâĺŃâĺŃâĺŃâĺŃâĺŃâĺŃ",
      "Ġth imo",
      "Ã¼Ã¼Ã¼Ã¼ Ã¼Ã¼Ã¼Ã¼",
      "ÃŁÃŁ ÃŁÃŁ",
      "K L",
      "M M",
      "h eit",
      "w ow",
      "Ġb en",
      "âĸĳ âĸĪ",
      "Ġd o",
      "Ġh andy",
      "al d",
      "âĸĳâĸĳâĸĳâĸĳâĸĳâĸĳâĸĳâĸĳ âĸĳâĸĳ",
      "Ġp ls",
      "Ġsp aÃŁ",
      "isch e",
      "ĠZ eit",
      "L ol",
      "S t",
      "Ã ĸ",
      "Ġm inecraft",
      "Ġdu s",
      "ĠðŁ Ĳ",
      "ter n",
      "Ġson st",
      "XDXDXDXDXDXDXDXDXDXDXDXDXDXDXDXD XDXDXDXDXDXDXDXDXDXDXDXDXDXDXDXD",
      "6 7",
      "f all",
      "h ol",
      "q u",
      "w u",
      "Ġ Ð",
      "al sch",
      "or mal",
      "Ġl os",
      "âĸĪâĸĪâĸĪâĸĪ âĸĪâĸĪâĸĪ",
      "oh er",
      "Ġbei m",
      "Ġkl ar",
      "ĠðŁĺ «",
      "ĠmÃ¼ ssen",
      "8 19",
      "t he",
      "ĺŃ [",
      "Ġd achte",
      "sch a",
      "sch ie",
      "Ġso was",
      "is a",
      "Ġmein er",
      "iv e",
      "hur e",
      "Ġzie mlich",
      "f u",
      "ä ¸",
      "Ġ 0",
      "ar beit",
      "der t",
      "Ġbi ssl",
      "âĶ ģ",
      "th imo",
      "Ġoh ne",
      "B in",
      "] <:",
      "n och",
      "o b",
      "r en",
      "Ġ us",
      "Ġd an",
      "ar k",
      "Ã¤ hr",
      "ing s",
      "kann st",
      "Ġschl imm",
      "A h",
      "W eil",
      "g lau",
      "m a",
      "Ġh al",
      "ann t",
      "âĢ ľ",
      "Ġsp Ã¤ter",
      "ĻĤ [",
      "kl Ã¤r",
      "ap top",
      "SCH AU",
      "LO CK",
      "ĠMin uten",
      "A N",
      "H ER",
      "d ee",
      "u pp",
      "âĸĳâĸĳâĸĳâĸĳ [",
      "Ġg et",
      "ĠA n",
      "Ġwoll te",
      "!!! ***[",
      "6 2",
      "9 3",
      "E I",
      "g s",
      "g eh",
      "p f",
      "ir d",
      "aaaa aa",
      "Ġsch wer",
      "Ġdie s",
      "Ġein em",
      "am en",
      "Ġge k",
      "ĠS HER",
      "Ġbe stimmt",
      "komm en",
      "Ġgibt s",
      "ĠnÃ¤ ch",
      "ĠSHER LOCK",
      "s i",
      "t im",
      "Ġt oll",
      "ab ei",
      "Ġf ast",
      "ĠĠĠĠ ĠĠĠ",
      "Ġon line",
      "ahahahah ahahahah",
      "ffffffffffffffffffffffffffffffffffffffffffffffffffffffffffffffff ffffffffffffffffffffffffffffffffffffffffffffffffffffffffffffffff",
      "War um",
      "E in",
      "T Z",
      "c a",
      "w ik",
      "Ġm ag",
      "Ġf all",
      "eh men",
      "gen au",
      "Ġp l",
      "]- .",
      "ĠL isa",
      "FF FF",
      "hihihihi hihihihi",
      "bittebittebittebittebittebittebittebitte bittebittebittebittebittebittebittebitte",
      "Ġpass iert",
      "D och",
      "K ann",
      "a kt",
      "b y",
      "Ġd abei",
      "Ġn ein",
      "Ġt yp",
      "at h",
      "oooo o",
      ":/ [",
      "ig rÃ¤",
      "Ġmein st",
      "Ġu p",
      "igrÃ¤ ne",
      "e x",
      "g al",
      "p n",
      "u d",
      "âĸ Ģ",
      "Ġn ich",
      "es ch",
      "on e",
      "ra d",
      "itt ag",
      "Ġbekomm en",
      "hau pt",
      "' ([",
      "8 5",
      "] âĢ",
      "âĺŃ [",
      "âĸ Ħ",
      "âĸĳ âĸĪâĸĪâĸĪ",
      "Ã¼ n",
      "we ster",
      "Ġgesch ickt",
      "Ġsel bst",
      "ssss ssss",
      "________ ________",
      "tttt tttt",
      "Ġkomp le",
      "Ġbil der",
      "i ere",
      "m orgen",
      "as ch",
      "ðŁ ¥",
      "?? ??[",
      "ol z",
      "Ġan tw",
      "ĠT himo",
      "ĠðŁĲ Į",
      "A ch",
      "R R",
      "d r",
      "m o",
      "Ġ ahn",
      "Ġ ^^[",
      "Ġg ute",
      "un st",
      "ach e",
      "or g",
      "or y",
      "Ġf eh",
      "Ġp ixel",
      "âĸĪâĸĪâĸĪâĸĪ âĸĪâĸĳâĸĳâĸĳâĸĳâĸĳâĸĳâĸĳâĸĳâĸĳâĸĳâĸĳâĸĳâĸĳâĸĳâĸĳâĸĳ",
      "Ġ1 5",
      "T h",
      "Y https",
      "] âĸĳâĸĳâĸĳâĸĳ",
      "f d",
      "g essen",
      "âĸĪâĸĪ âĸĳâĸĳâĸĳâĸĳâĸĳâĸĳâĸĳâĸĳâĸĳâĸĳâĸĳâĸĳ",
      "Ġf rÃ¼",
      "Ġl ink",
      "Ġan ge",
      "ra gt",
      "Ġmach st",
      "ide os",
      "âĸĳâĸĳâĸĳâĸĳâĸĳâĸĳâĸĳâĸĳâĸĳâĸĳâĸĳâĸĳâĸĳâĸĳâĸĳâĸĳâĸĳâĸĳâĸĳâĸĳâĸĳâĸĳâĸĳâĸĳâĸĳâĸĳâĸĳâĸĳâĸĳâĸĳâĸĳâĸĳ âĸĳâĸĳâĸĳâĸĳâĸĳâĸĳâĸĳâĸĳâĸĳâĸĳâĸĳâĸĳâĸĳâĸĳâĸĳâĸĳ",
      "uuuuuuuuuuuuuuuu uuuuuuuuuuuuuuuu",
      "Ġeh er",
      "/ /",
      "8 6",
      "b ar",
      "d ate",
      "i al",
      "l ass",
      "p e",
      "t o",
      "w el",
      "Ã ´",
      "Ġw ohl",
      "ei ten",
      "Ã¤ re",
      "sch on",
      "Ġl aptop",
      "ig ht",
      "gi bt",
      "!!!! [",
      "ĠÃ¼ber haupt",
      "âĸĪâĸĪâĸĪ âĸĳâĸĳâĸĳâĸĳâĸĳâĸĳâĸĳâĸĳâĸĳâĸĳâĸĳâĸĳâĸĳâĸĳâĸĳâĸĳ",
      "Ġa pp",
      "ph y",
      "Ġahn ung",
      "7 3",
      "8 2",
      "u tter",
      "âĸĳ [",
      "oh a",
      "il d",
      "âĢį ðŁ",
      "Ġlust ig",
      "reen sh",
      "ä¸ Ģ",
      "f orm",
      "¶ [",
      "au se",
      "Ġt eil",
      "Ġf uck",
      "och e",
      "ĠðŁ ĳ",
      "Ġne ue",
      "Ġ-- --",
      "sten s",
      "oooooooooooooooooooooooooooooooooooooooooooooooooooooooooooooooo oooooooooooooooooooooooooooooooooooooooooooooooooooooooooooooooo",
      "].. .",
      "W W",
      "m l",
      "t ere",
      "u b",
      "an den",
      "mm en",
      "Ġl o",
      "Ġein mal",
      "omm en",
      "Ġgem ein",
      "Ġlie ber",
      "Ġbl ei",
      "ĠscheiÃŁ e",
      "S p",
      "g o",
      "p ls",
      "u er",
      "Ġg l",
      ".. [",
      "un n",
      "Ġk am",
      "ge b",
      "ÃŁ en",
      "]ðŁ ĻĤ[",
      "Ġst unden",
      "he ute",
      "imm er",
      "?! ?[",
      "iscor d",
      "Ġander s",
      "unk te",
      "2 4",
      "a ce",
      "e f",
      "k eit",
      "w or",
      "Ġ Ã¶",
      "as e",
      "Ġm e",
      "Ġn o",
      "Ã¤ llt",
      "imm en",
      "ad y",
      "Ġje den",
      ",, ,,",
      "UUUUUUUUUUUUUUUUUUUUUUUUUUUUUUUUUUUUUUUUUUUUUUUUUUUUUUUUUUUUUUUU UUUUUUUUUUUUUUUUUUUUUUUUUUUUUUUUUUUUUUUUUUUUUUUUUUUUUUUUUUUUUUUU",
      "dankedankedankedanke dankedankedankedanke",
      "ðŁ¤¦âĢįâĻĤï¸ıðŁ¤¦âĢįâĻĤï¸ı ðŁ¤¦âĢįâĻĤï¸ıðŁ¤¦âĢįâĻĤï¸ı",
      "ðŁ¤¦âĢįâĻĤðŁ¤¦âĢįâĻĤ ðŁ¤¦âĢįâĻĤðŁ¤¦âĢįâĻĤ",
      "gab e",
      "d ar",
      "l k",
      "er r",
      "Ġd rei",
      "Ġw eit",
      "Ġh off",
      "Ġz w",
      "re ch",
      "Ġhab s",
      "Ġst r",
      "bi st",
      "]- ..",
      "]ðŁ¥ ¶[",
      "zZzZzZzZzZzZzZzZ zZzZzZzZzZzZzZzZ",
      "iss er",
      "reensh ot",
      "H mm",
      "e ben",
      "n ter",
      "w Ã¼r",
      "âĺŃâĺŃâĺŃâĺŃâĺŃâĺŃâĺŃâĺŃ âĺŃâĺŃâĺŃâĺŃ",
      "Ġd rin",
      "Ġs k",
      "ei gt",
      "at us",
      "Ġda von",
      "Ġe ben",
      "Ġe gal",
      "Ġc a",
      "Ġschrei bt",
      "id k",
      "WgXcQ https",
      "Ã¤u ft",
      "Ġtro tzdem",
      "E A",
      "W o",
      "d k",
      "e ug",
      "h re",
      "s ur",
      "Ð ¾",
      "á ķ",
      "Ġ 30",
      "ch ill",
      "Ġt r",
      "Ġf or",
      "ah l",
      "el n",
      "das s",
      "ent lich",
      "Ġkomm e",
      "Ġwe gen",
      "Ġgeht s",
      "Ġq ue",
      "Ġfil m",
      "aff t",
      "Ġdan ach",
      "2 1",
      "a pp",
      "j h",
      "z Ã¤h",
      "Ġs ry",
      "Ġn ormal",
      "Ġk ack",
      "sch t",
      "Ġp asst",
      "ig er",
      "ra ge",
      "Ġst unde",
      "us ste",
      "and om",
      "ow n",
      "Ġ-.. .",
      "Ġlei d",
      "Ġru m",
      "Ġschick en",
      "scha ft",
      "g n",
      "j aaa",
      "w q",
      "Ġg ott",
      "at ei",
      "oooo oo",
      "Ġf rei",
      "Ġf alsch",
      "sch w",
      "Ġp c",
      "ĠĠĠĠ Ġ",
      "Ġver l",
      "Ġgeh e",
      "gi phy",
      "ern t",
      "fe kt",
      "ĠweiÃŁ t",
      "Â¶Â¶ Â¶Â¶",
      "Ġen gl",
      "Ġq u",
      "mmmmmmmmmmmmmmmm mmmmmmmmmmmmmmmm",
      "Ġzur Ã¼ck",
      "hit ler",
      "tere ss",
      "N a",
      "T himo",
      "d an",
      "j p",
      "o je",
      "t s",
      "u h",
      "´ [",
      "ã ĥ",
      "Ġb r",
      "Ġb ro",
      "Ġm er",
      "âĸĪ [",
      "Ġf ar",
      "eg al",
      "cccccccc cccccccc",
      ". <",
      "8 7",
      "9 4",
      "A n",
      "W ir",
      "f uck",
      "s st",
      "Ġd iscord",
      "al le",
      "it e",
      "Ġo ff",
      "Ġin ter",
      "Ġge gen",
      "Ġ- _-[",
      "Ġsp Ã¤t",
      "ind ow",
      "bt w",
      "Ġab end",
      "Ã¶r en",
      "Ġdein en",
      "Ġkom isch",
      "llll llll",
      "I E",
      "] --",
      "k st",
      "m athe",
      "z ie",
      "oo d",
      "Ġt un",
      "se hen",
      "Ġl Ã¤",
      "de ut",
      "Ġr unter",
      "ste llen",
      "00 00",
      "Ġdein er",
      "Ġalle m",
      "Ġdar f",
      "HH HH",
      "kkkkkkkk kkkkkkkk",
      "Ġletz ten",
      "= &",
      "h in",
      "o d",
      "s or",
      "Ð µ",
      "Ġo ft",
      "__ _",
      "ste llt",
      "âĸĳâĸĳâĸĳ âĸĪâĸĪ",
      "Ġgef ragt",
      "inde st",
      "96 80",
      "ĠmÃ¶ chte",
      "âĸĵ âĸĵ",
      "kr ass",
      "Ġdies es",
      "8 3",
      "a ke",
      "h st",
      "u di",
      "Ð °",
      "â Ĥ",
      "Ġ *",
      "ı [",
      "ch n",
      "âĸĳ âĸĪâĸĪ",
      "Ġn ut",
      "Ġw oche",
      "ach s",
      "Ġf ol",
      "Ġl i",
      "Ġda fÃ¼r",
      "Ġe xt",
      "ver st",
      "Ġganz en",
      "weil ig",
      "ĠV er",
      "Ġfra gen",
      "xDxDxDxD xDxDxDxD",
      "I R",
      "a il",
      "j f",
      "l os",
      "v t",
      "Ù Ī",
      "Ġ âķı",
      "Ġ :/[",
      "Ĥ [",
      "Ġs oo",
      "Ġt re",
      "Ġk unst",
      "Ã¤ nd",
      "om e",
      "ww ww",
      "hh h",
      "Ġer klÃ¤r",
      "ier st",
      "bi s",
      "la den",
      "all es",
      "ï¸ »",
      "ðŁ¤®ðŁ¤® ðŁ¤®ðŁ¤®",
      "Ġneu en",
      "Ġsei te",
      "ĠâĢ ¸",
      "]ðŁ¤ ®",
      "âķĲ âĶģ",
      "áķ ķ",
      "âĤ ¬",
      "8 9",
      "> .<",
      "E B",
      "J osef",
      "g h",
      "s ion",
      "v oll",
      "z eit",
      "Ġt ag",
      "ein fach",
      "tt en",
      "al k",
      "Ġk opf",
      "und er",
      "Ġl Ã¤n",
      "om ent",
      "im age",
      "Ġbe st",
      "schau en",
      "Ġy t",
      "put er",
      "5 5",
      "E F",
      "f in",
      "g leich",
      "v iel",
      "Ġ +",
      "ir n",
      "st ag",
      "icht e",
      "Ġv ater",
      "be l",
      "Ġ.. .[",
      "imm e",
      "Ġbrau cht",
      "aaaaaaaaaaaaaaaaaaaaaaaaaaaaaaaaaaaaaaaaaaaaaaaaaaaaaaaaaaaaaaaa aaaaaaaaaaaaaaaaaaaaaaaaaaaaaaaaaaaaaaaaaaaaaaaaaaaaaaaaaaaaaaaa",
      "ablablablabl ablablablabl",
      "indow s",
      "A B",
      "C r",
      "j aa",
      "s se",
      "Ġ Ã¤n",
      "Ġ Ã¼b",
      "Ġm em",
      "at ik",
      "aaaa a",
      "Ġf ur",
      "Ġsch n",
      "Ġl Ã¶",
      "Ġein z",
      "Ġso l",
      "pp en",
      "is h",
      "hab s",
      "Ġ-- .",
      "rÃ¼ cke",
      "olol olol",
      "sa mmen",
      "jj jj",
      "âĸĪâĸĪâĸĳâĸĳâĸĳâĸĳâĸĳ âĸĪâĸĪ",
      "âĸĳâĸĳâĸĪ âĸĳâĸĳâĸĳâĸĳâĸĳâĸĳ",
      "6 9",
      "c at",
      "e w",
      "h Ã¶",
      "l ist",
      "m ir",
      "m eine",
      "n st",
      "n is",
      "Ġd c",
      "Ġt ut",
      "al e",
      "at iv",
      "Ġich s",
      "ur ch",
      "ah h",
      "Ġan gst",
      "ĠA r",
      "âĢ ¦[",
      "Ġgeh Ã¶rt",
      "Ġ-. -",
      "âĸĪâĸĪâĸĪ âĸĳâĸĳâĸĳâĸĳâĸĳâĸĳâĸĳâĸĳâĸĳâĸĳâĸĳâĸĳ",
      "ĠR e",
      "Ġdar an",
      "ation en",
      "Ġunter richt",
      "Ġhin ter",
      "]âĸĳâĸĳâĸĳ âĸĪ",
      "]âĸĳâĸĳâĸĳ âĸĪâĸĳâĸĳâĸĳâĸĳâĸĳâĸĳâĸĳâĸĳâĸĳâĸĳâĸĳâĸĳâĸĳâĸĳâĸĳâĸĳ",
      "iiiiiiiiiiiiiiiiiiiiiiiiiiiiiiii iiiiiiiiiiiiiiiiiiiiiiiiiiiiiiii",
      "7777777777777777777777777777777777777777777777777777777777777777 7777777777777777777777777777777777777777777777777777777777777777",
      "âĪŀâĪŀâĪŀâĪŀâĪŀâĪŀâĪŀâĪŀâĪŀâĪŀâĪŀâĪŀâĪŀâĪŀâĪŀâĪŀâĪŀâĪŀâĪŀâĪŀâĪŀâĪŀâĪŀâĪŀâĪŀâĪŀâĪŀâĪŀâĪŀâĪŀâĪŀâĪŀ âĪŀâĪŀâĪŀâĪŀâĪŀâĪŀâĪŀâĪŀâĪŀâĪŀâĪŀâĪŀâĪŀâĪŀâĪŀâĪŀâĪŀâĪŀâĪŀâĪŀâĪŀâĪŀâĪŀâĪŀâĪŀâĪŀâĪŀâĪŀâĪŀâĪŀâĪŀâĪŀ",
      "jp g",
      "4 1",
      "X d",
      "] ....",
      "l ie",
      "w oll",
      "Ġ 9",
      "Ġ el",
      "st fu",
      "Ġs achen",
      "Ġl ost",
      "Ġl Ã¤uft",
      "Ġo f",
      "Ġzu sammen",
      "iel t",
      "hab e",
      "ĠP h",
      "tw itter",
      "âĺŃâĺŃâĺŃâĺŃâĺŃâĺŃâĺŃâĺŃâĺŃâĺŃâĺŃâĺŃâĺŃâĺŃâĺŃâĺŃâĺŃâĺŃâĺŃâĺŃâĺŃâĺŃâĺŃâĺŃâĺŃâĺŃâĺŃâĺŃâĺŃâĺŃâĺŃâĺŃâĺŃâĺŃâĺŃâĺŃâĺŃâĺŃâĺŃâĺŃâĺŃâĺŃâĺŃâĺŃâĺŃâĺŃâĺŃâĺŃâĺŃâĺŃâĺŃâĺŃâĺŃâĺŃâĺŃâĺŃâĺŃâĺŃâĺŃâĺŃâĺŃâĺŃâĺŃâĺŃâĺŃâĺŃâĺŃâĺŃâĺŃâĺŃâĺŃâĺŃâĺŃâĺŃâĺŃâĺŃâĺŃâĺŃâĺŃâĺŃâĺŃâĺŃâĺŃâĺŃâĺŃâĺŃâĺŃâĺŃâĺŃâĺŃâĺŃâĺŃâĺŃâĺŃâĺŃâĺŃâĺŃâĺŃâĺŃâĺŃâĺŃâĺŃâĺŃâĺŃâĺŃâĺŃâĺŃâĺŃâĺŃâĺŃâĺŃâĺŃâĺŃâĺŃâĺŃâĺŃâĺŃâĺŃâĺŃâĺŃâĺŃâĺŃâĺŃâĺŃâĺŃâĺŃâĺŃâĺŃâĺŃâĺŃâĺŃâĺŃâĺŃâĺŃâĺŃâĺŃâĺŃâĺŃâĺŃâĺŃâĺŃâĺŃâĺŃâĺŃâĺŃâĺŃâĺŃâĺŃâĺŃâĺŃâĺŃâĺŃâĺŃâĺŃâĺŃâĺŃâĺŃâĺŃâĺŃâĺŃâĺŃâĺŃâĺŃâĺŃâĺŃâĺŃâĺŃâĺŃâĺŃâĺŃâĺŃâĺŃâĺŃâĺŃâĺŃâĺŃâĺŃâĺŃâĺŃâĺŃâĺŃâĺŃâĺŃâĺŃâĺŃâĺŃâĺŃâĺŃâĺŃâĺŃâĺŃâĺŃâĺŃâĺŃâĺŃâĺŃâĺŃâĺŃâĺŃâĺŃâĺŃâĺŃâĺŃâĺŃâĺŃâĺŃâĺŃâĺŃâĺŃâĺŃâĺŃâĺŃâĺŃâĺŃâĺŃâĺŃâĺŃâĺŃâĺŃâĺŃâĺŃâĺŃâĺŃâĺŃâĺŃâĺŃâĺŃâĺŃâĺŃâĺŃâĺŃâĺŃâĺŃâĺŃâĺŃâĺŃâĺŃâĺŃâĺŃâĺŃâĺŃâĺŃâĺŃâĺŃâĺŃâĺŃâĺŃâĺŃâĺŃâĺŃâĺŃâĺŃâĺŃâĺŃâĺŃâĺŃâĺŃâĺŃâĺŃâĺŃâĺŃâĺŃâĺŃâĺŃâĺŃâĺŃâĺŃâĺŃâĺŃâĺŃâĺŃâĺŃâĺŃâĺŃâĺŃâĺŃâĺŃâĺŃâĺŃâĺŃâĺŃâĺŃâĺŃâĺŃâĺŃâĺŃâĺŃâĺŃâĺŃâĺŃâĺŃâĺŃâĺŃâĺŃâĺŃâĺŃâĺŃâĺŃâĺŃâĺŃâĺŃâĺŃâĺŃâĺŃâĺŃâĺŃâĺŃâĺŃâĺŃâĺŃâĺŃâĺŃâĺŃâĺŃâĺŃâĺŃâĺŃâĺŃâĺŃâĺŃâĺŃâĺŃâĺŃâĺŃâĺŃâĺŃâĺŃâĺŃâĺŃâĺŃâĺŃâĺŃâĺŃâĺŃâĺŃâĺŃâĺŃâĺŃâĺŃâĺŃâĺŃâĺŃâĺŃâĺŃâĺŃâĺŃâĺŃâĺŃâĺŃâĺŃâĺŃâĺŃâĺŃâĺŃâĺŃâĺŃâĺŃâĺŃâĺŃâĺŃâĺŃâĺŃâĺŃâĺŃâĺŃâĺŃâĺŃâĺŃâĺŃâĺŃâĺŃâĺŃâĺŃâĺŃâĺŃâĺŃâĺŃâĺŃâĺŃâĺŃâĺŃâĺŃâĺŃâĺŃâĺŃâĺŃâĺŃâĺŃâĺŃâĺŃâĺŃâĺŃâĺŃâĺŃâĺŃâĺŃâĺŃâĺŃâĺŃâĺŃâĺŃâĺŃâĺŃâĺŃâĺŃâĺŃâĺŃâĺŃâĺŃâĺŃâĺŃâĺŃâĺŃâĺŃâĺŃâĺŃâĺŃâĺŃâĺŃâĺŃâĺŃâĺŃâĺŃâĺŃâĺŃâĺŃâĺŃâĺŃâĺŃâĺŃâĺŃâĺŃâĺŃâĺŃâĺŃâĺŃâĺŃâĺŃâĺŃâĺŃâĺŃâĺŃâĺŃâĺŃâĺŃâĺŃâĺŃâĺŃâĺŃâĺŃâĺŃâĺŃâĺŃâĺŃâĺŃâĺŃâĺŃâĺŃâĺŃâĺŃâĺŃâĺŃâĺŃâĺŃâĺŃâĺŃâĺŃâĺŃâĺŃâĺŃâĺŃâĺŃâĺŃâĺŃâĺŃâĺŃâĺŃâĺŃâĺŃâĺŃâĺŃâĺŃâĺŃâĺŃâĺŃâĺŃâĺŃâĺŃâĺŃâĺŃâĺŃâĺŃâĺŃâĺŃâĺŃâĺŃâĺŃâĺŃâĺŃâĺŃâĺŃâĺŃâĺŃâĺŃâĺŃâĺŃâĺŃâĺŃâĺŃâĺŃâĺŃâĺŃ âĺŃâĺŃâĺŃâĺŃâĺŃâĺŃâĺŃâĺŃâĺŃâĺŃâĺŃâĺŃâĺŃâĺŃâĺŃâĺŃâĺŃâĺŃâĺŃâĺŃâĺŃâĺŃâĺŃâĺŃâĺŃâĺŃâĺŃâĺŃâĺŃâĺŃâĺŃâĺŃâĺŃâĺŃâĺŃâĺŃâĺŃâĺŃâĺŃâĺŃâĺŃâĺŃâĺŃâĺŃâĺŃâĺŃâĺŃâĺŃâĺŃâĺŃâĺŃâĺŃâĺŃâĺŃâĺŃâĺŃâĺŃâĺŃâĺŃâĺŃâĺŃâĺŃâĺŃâĺŃâĺŃâĺŃâĺŃâĺŃâĺŃâĺŃâĺŃâĺŃâĺŃâĺŃâĺŃâĺŃâĺŃâĺŃâĺŃâĺŃâĺŃâĺŃâĺŃâĺŃâĺŃâĺŃâĺŃâĺŃâĺŃâĺŃâĺŃâĺŃâĺŃâĺŃâĺŃâĺŃâĺŃâĺŃâĺŃâĺŃâĺŃâĺŃâĺŃâĺŃâĺŃâĺŃâĺŃâĺŃâĺŃâĺŃâĺŃâĺŃâĺŃâĺŃâĺŃâĺŃâĺŃâĺŃâĺŃâĺŃâĺŃâĺŃâĺŃâĺŃâĺŃâĺŃâĺŃâĺŃâĺŃâĺŃâĺŃâĺŃâĺŃâĺŃâĺŃâĺŃâĺŃâĺŃâĺŃâĺŃâĺŃâĺŃâĺŃâĺŃâĺŃâĺŃâĺŃâĺŃâĺŃâĺŃâĺŃâĺŃâĺŃâĺŃâĺŃâĺŃâĺŃâĺŃâĺŃâĺŃâĺŃâĺŃâĺŃâĺŃâĺŃâĺŃâĺŃâĺŃâĺŃâĺŃâĺŃâĺŃâĺŃâĺŃâĺŃâĺŃâĺŃâĺŃâĺŃâĺŃâĺŃâĺŃâĺŃâĺŃâĺŃâĺŃâĺŃâĺŃâĺŃâĺŃâĺŃâĺŃâĺŃâĺŃâĺŃâĺŃâĺŃâĺŃâĺŃâĺŃâĺŃâĺŃâĺŃâĺŃâĺŃâĺŃâĺŃâĺŃâĺŃâĺŃâĺŃâĺŃâĺŃâĺŃâĺŃâĺŃâĺŃâĺŃâĺŃâĺŃâĺŃâĺŃâĺŃâĺŃâĺŃâĺŃâĺŃâĺŃâĺŃâĺŃâĺŃâĺŃâĺŃâĺŃâĺŃâĺŃâĺŃâĺŃâĺŃâĺŃâĺŃâĺŃâĺŃâĺŃâĺŃâĺŃâĺŃâĺŃâĺŃâĺŃâĺŃâĺŃâĺŃâĺŃâĺŃâĺŃ",
      "li ste",
      "Ġandere s",
      "Ġwel che",
      "Í¡ Â°",
      "Ġschla fen",
      "Ã¤ch lich",
      "pn g",
      "1 20",
      "6 3",
      "] ||",
      "a f",
      "a ct",
      "p asst",
      "w ohl",
      "ã ģ",
      "Ġ XD",
      "au l",
      "en z",
      "ei m",
      "Ġh el",
      "Ġh il",
      "Ġi dee",
      "it h",
      "Ġin teress",
      "ier te",
      "Ġauf m",
      "ĠG o",
      "Ġle ben",
      "gesch aut",
      "hau se",
      "Ġben ut",
      "J etzt",
      "_ .",
      "a z",
      "k s",
      "t ra",
      "Ñ Ĥ",
      "Ġd anke",
      "ich er",
      "sch n",
      "ur t",
      "Ġein s",
      "ge st",
      "ig es",
      "ÃŁ e",
      "Ġwir st",
      "Ġr icht",
      "pp pp",
      "Ġver b",
      "hr en",
      "Ġre ady",
      "ĠH olz",
      "wei se",
      "eg a",
      "gg gg",
      "Ġje der",
      "Ġverst ehe",
      "hhhhhhhhhhhhhhhh hhhhhhhhhhhhhhhh",
      "|| [",
      "unn y",
      "4 33",
      "N G",
      "X k",
      "^ -",
      "h ier",
      "k ein",
      "n ach",
      "o gen",
      "v v",
      "w itter",
      "Ġ ra",
      "Ġ endlich",
      "ĺŃ ðŁ",
      "er ne",
      "st atus",
      "Ġs u",
      "Ġg ere",
      "Ġn ot",
      "Ġk n",
      "Ġf ahr",
      "Ġsch ul",
      "sch ul",
      "Ġz B",
      "Ġ.. -.",
      "]. --",
      "Ġgesch afft",
      "ze ich",
      "Ġerst mal",
      "................................ ................................",
      "ÃĦ ÃĦ",
      "0 8",
      "E H",
      "T ja",
      "f r",
      "h al",
      "n f",
      "o i",
      "p ff",
      "y st",
      "³ [",
      "Ġ 6",
      "Ġ _",
      "in ge",
      "Ġg ra",
      "Ġt rau",
      "ere s",
      "ei gen",
      "Ã¼ h",
      "ll er",
      "Ġf in",
      "so ll",
      "Ġj tzt",
      "Ġer zÃ¤h",
      "Ġr andom",
      "pp e",
      "Ġ1 2",
      "Ġ-- ..",
      "lo st",
      "Ġdar auf",
      "Ġlei der",
      "Ġde utsch",
      "]â İ",
      "==== ====",
      "-------- --------",
      "Ġkenn e",
      "Ġmen schen",
      "glau be",
      "Ġkomple tt",
      "âĸĳâĸĳâĸĳâĸĳâĸĳâĸĳâĸĳâĸĳâĸĳâĸĳâĸĳâĸĳâĸĳâĸĳâĸĳâĸĳâĸĳâĸĳâĸĳâĸĳâĸĳâĸĳâĸĳâĸĳâĸĳâĸĳâĸĳâĸĳâĸĳâĸĳâĸĳâĸĳâĸĳâĸĳâĸĳâĸĳâĸĳâĸĳâĸĳâĸĳâĸĳâĸĳâĸĳâĸĳâĸĳâĸĳâĸĳâĸĳ âĸĳâĸĳâĸĳâĸĳâĸĳâĸĳâĸĳâĸĳâĸĳâĸĳâĸĳâĸĳ",
      "Ġkack e",
      "2 9",
      "H Ã¤",
      "g oogle",
      "s m",
      "s w",
      "u wu",
      "ch st",
      "in ter",
      "Ġh Ã¶",
      "Ġf ahren",
      "Ġsch wester",
      "ru ck",
      "Ġv c",
      "sch la",
      "Ġan t",
      "]ðŁ ĺŃ[",
      "ste ll",
      "Ġmus ste",
      "Ġlie gt",
      "40 7",
      "âĸĴâĸĴâĸĴâĸĴ âĸĴâĸĴâĸĴâĸĴ",
      "Ġschnell er",
      "ĠmÃ¶ glich",
      "gab en",
      "Ġwenig er",
      "???????????????????????????????????????????????????????????????? ????????????????????????????????????????????????????????????????",
      "Ġged acht",
      "A https",
      "D A",
      "L K",
      "W ann",
      "k atze",
      "m and",
      "m oin",
      "Ġ com",
      "Ħ [",
      "au ert",
      "Ġb ot",
      "Ġb ald",
      "Ġs ehe",
      "or e",
      "Ġl eute",
      "de l",
      "em a",
      "Ġden en",
      "Ġver gessen",
      "Ġre g",
      "all en",
      "Ġar bei",
      "ats Ã¤chlich",
      "âĸĦ âĸĦ",
      "6 4",
      "8 22",
      "i b",
      "m acht",
      "r ig",
      "v a",
      "w oher",
      "Ġb ere",
      "Ġs im",
      "Ġs inn",
      "un ge",
      "ll ig",
      "Ġv ideos",
      "Ġz eug",
      "et er",
      "Ġan f",
      "ĠðŁ ¥",
      "Ġst re",
      "Ġ- .[",
      "Ġwas ser",
      "Ġ1 00",
      "Ġvor her",
      "pr nt",
      "Ġbes ch",
      "ĠâĢ ŀ",
      "Ã¤Ã¤Ã¤Ã¤ Ã¤Ã¤Ã¤Ã¤",
      "ÃŁer dem",
      "N icht",
      "] âĸĳâĸĳâĸĳâĸĳâĸĳâĸĳâĸĳâĸĳâĸĳâĸĳâĸĳâĸĳâĸĳâĸĳâĸĳâĸĳ",
      "e y",
      "f s",
      "o a",
      "r ee",
      "µ ðŁ¥",
      "ð Ŀ",
      "Ġb er",
      "Ġd i",
      "Ġs eine",
      "Ġm ei",
      "oo k",
      "ei le",
      "or en",
      "Ġl assen",
      "Ġver su",
      "lau sur",
      "Ġnach her",
      "37 4",
      "Ġdein em",
      "Ġgel ernt",
      "Ġen de",
      "Ġph ysik",
      "AAAAAAAA AAAAAAAA",
      "Ġhoff e",
      "Ġtre ffen",
      "6 8",
      "N ur",
      "c o",
      "f te",
      "f il",
      "h mmmm",
      "t et",
      "v Ã¶",
      "y a",
      "Ġ ;)[",
      "au en",
      "st r",
      "ie s",
      "Ġm ega",
      "at ur",
      "ab le",
      "Ġes se",
      "Ġsp iele",
      "ĠT raining",
      "sp ank",
      "rin gen",
      "Ġprogramm ieren",
      "Ġlang sam",
      "Ġ.-- .",
      "dddd dddd",
      "Ġ| [",
      "ä¸Ģ áķķ",
      "yst em",
      "N N",
      "] ???[",
      "] âĺŃâĺŃâĺŃâĺŃâĺŃâĺŃâĺŃâĺŃâĺŃâĺŃâĺŃâĺŃâĺŃâĺŃâĺŃâĺŃâĺŃâĺŃâĺŃâĺŃâĺŃâĺŃâĺŃâĺŃâĺŃâĺŃâĺŃâĺŃâĺŃâĺŃâĺŃâĺŃâĺŃâĺŃâĺŃâĺŃâĺŃâĺŃâĺŃâĺŃâĺŃâĺŃâĺŃâĺŃâĺŃâĺŃâĺŃâĺŃâĺŃâĺŃâĺŃâĺŃâĺŃâĺŃâĺŃâĺŃâĺŃâĺŃâĺŃâĺŃâĺŃâĺŃâĺŃâĺŃâĺŃâĺŃâĺŃâĺŃâĺŃâĺŃâĺŃâĺŃâĺŃâĺŃâĺŃâĺŃâĺŃâĺŃâĺŃâĺŃâĺŃâĺŃâĺŃâĺŃâĺŃâĺŃâĺŃâĺŃâĺŃâĺŃâĺŃâĺŃâĺŃâĺŃâĺŃâĺŃâĺŃâĺŃâĺŃâĺŃâĺŃâĺŃâĺŃâĺŃâĺŃâĺŃâĺŃâĺŃâĺŃâĺŃâĺŃâĺŃâĺŃâĺŃâĺŃâĺŃâĺŃâĺŃâĺŃâĺŃâĺŃâĺŃâĺŃâĺŃâĺŃâĺŃâĺŃâĺŃâĺŃâĺŃâĺŃâĺŃâĺŃâĺŃâĺŃâĺŃâĺŃâĺŃâĺŃâĺŃâĺŃâĺŃâĺŃâĺŃâĺŃâĺŃâĺŃâĺŃâĺŃâĺŃâĺŃâĺŃâĺŃâĺŃâĺŃâĺŃâĺŃâĺŃâĺŃâĺŃâĺŃâĺŃâĺŃâĺŃâĺŃâĺŃâĺŃâĺŃâĺŃâĺŃâĺŃâĺŃâĺŃâĺŃâĺŃâĺŃâĺŃâĺŃâĺŃâĺŃâĺŃâĺŃâĺŃâĺŃâĺŃâĺŃâĺŃâĺŃâĺŃâĺŃâĺŃâĺŃâĺŃâĺŃâĺŃâĺŃâĺŃâĺŃâĺŃâĺŃâĺŃâĺŃâĺŃâĺŃâĺŃâĺŃâĺŃâĺŃâĺŃâĺŃâĺŃâĺŃâĺŃâĺŃâĺŃâĺŃâĺŃâĺŃâĺŃâĺŃâĺŃâĺŃâĺŃâĺŃâĺŃâĺŃâĺŃâĺŃâĺŃâĺŃâĺŃâĺŃâĺŃâĺŃâĺŃâĺŃâĺŃâĺŃâĺŃâĺŃâĺŃâĺŃâĺŃâĺŃâĺŃâĺŃâĺŃâĺŃâĺŃâĺŃâĺŃâĺŃâĺŃâĺŃâĺŃâĺŃâĺŃâĺŃâĺŃâĺŃâĺŃâĺŃâĺŃâĺŃâĺŃâĺŃâĺŃâĺŃâĺŃâĺŃâĺŃâĺŃâĺŃâĺŃâĺŃâĺŃâĺŃâĺŃâĺŃâĺŃâĺŃâĺŃâĺŃâĺŃâĺŃâĺŃâĺŃâĺŃâĺŃâĺŃâĺŃâĺŃâĺŃâĺŃâĺŃâĺŃâĺŃâĺŃâĺŃâĺŃâĺŃâĺŃâĺŃâĺŃâĺŃâĺŃâĺŃâĺŃâĺŃâĺŃâĺŃâĺŃâĺŃâĺŃâĺŃâĺŃâĺŃâĺŃâĺŃâĺŃâĺŃâĺŃâĺŃâĺŃâĺŃâĺŃâĺŃâĺŃâĺŃâĺŃâĺŃâĺŃâĺŃâĺŃâĺŃâĺŃâĺŃâĺŃâĺŃâĺŃâĺŃâĺŃâĺŃâĺŃâĺŃâĺŃâĺŃâĺŃâĺŃâĺŃâĺŃâĺŃâĺŃâĺŃâĺŃâĺŃâĺŃâĺŃâĺŃâĺŃâĺŃâĺŃâĺŃâĺŃâĺŃâĺŃâĺŃâĺŃâĺŃâĺŃâĺŃâĺŃâĺŃâĺŃâĺŃâĺŃâĺŃâĺŃâĺŃâĺŃâĺŃâĺŃâĺŃâĺŃâĺŃâĺŃâĺŃâĺŃâĺŃâĺŃâĺŃâĺŃâĺŃâĺŃâĺŃâĺŃâĺŃâĺŃâĺŃâĺŃâĺŃâĺŃâĺŃâĺŃâĺŃâĺŃâĺŃâĺŃâĺŃâĺŃâĺŃâĺŃâĺŃâĺŃâĺŃâĺŃâĺŃâĺŃâĺŃâĺŃâĺŃâĺŃâĺŃâĺŃâĺŃâĺŃâĺŃâĺŃâĺŃâĺŃâĺŃâĺŃâĺŃâĺŃâĺŃâĺŃâĺŃâĺŃâĺŃâĺŃâĺŃâĺŃâĺŃâĺŃâĺŃâĺŃâĺŃâĺŃâĺŃâĺŃâĺŃâĺŃâĺŃâĺŃâĺŃâĺŃâĺŃâĺŃâĺŃâĺŃâĺŃâĺŃâĺŃâĺŃâĺŃâĺŃâĺŃâĺŃâĺŃâĺŃâĺŃâĺŃâĺŃâĺŃâĺŃâĺŃâĺŃâĺŃâĺŃâĺŃâĺŃâĺŃâĺŃâĺŃâĺŃâĺŃâĺŃâĺŃâĺŃâĺŃâĺŃâĺŃâĺŃâĺŃâĺŃâĺŃâĺŃâĺŃâĺŃâĺŃâĺŃâĺŃâĺŃâĺŃâĺŃâĺŃâĺŃâĺŃâĺŃâĺŃâĺŃâĺŃâĺŃâĺŃâĺŃâĺŃâĺŃâĺŃâĺŃâĺŃâĺŃâĺŃâĺŃâĺŃâĺŃâĺŃâĺŃâĺŃâĺŃâĺŃâĺŃâĺŃâĺŃâĺŃâĺŃâĺŃâĺŃâĺŃâĺŃâĺŃâĺŃâĺŃâĺŃâĺŃâĺŃâĺŃâĺŃâĺŃâĺŃâĺŃâĺŃâĺŃâĺŃâĺŃâĺŃâĺŃâĺŃâĺŃâĺŃâĺŃâĺŃâĺŃâĺŃâĺŃâĺŃâĺŃâĺŃâĺŃâĺŃâĺŃâĺŃâĺŃâĺŃâĺŃâĺŃâĺŃâĺŃâĺŃâĺŃâĺŃâĺŃâĺŃâĺŃâĺŃâĺŃâĺŃâĺŃâĺŃâĺŃâĺŃâĺŃâĺŃâĺŃâĺŃâĺŃâĺŃâĺŃâĺŃâĺŃâĺŃâĺŃâĺŃâĺŃâĺŃâĺŃâĺŃâĺŃâĺŃâĺŃâĺŃâĺŃâĺŃâĺŃâĺŃâĺŃâĺŃâĺŃâĺŃâĺŃâĺŃâĺŃâĺŃâĺŃâĺŃâĺŃâĺŃâĺŃâĺŃâĺŃâĺŃâĺŃâĺŃâĺŃâĺŃâĺŃâĺŃâĺŃâĺŃâĺŃâĺŃâĺŃâĺŃâĺŃâĺŃâĺŃâĺŃâĺŃâĺŃâĺŃâĺŃâĺŃâĺŃâĺŃâĺŃâĺŃâĺŃâĺŃâĺŃâĺŃâĺŃâĺŃâĺŃâĺŃâĺŃâĺŃâĺŃâĺŃâĺŃâĺŃâĺŃâĺŃâĺŃâĺŃâĺŃâĺŃâĺŃâĺŃâĺŃâĺŃâĺŃâĺŃâĺŃâĺŃâĺŃâĺŃâĺŃâĺŃâĺŃâĺŃâĺŃâĺŃâĺŃâĺŃâĺŃâĺŃâĺŃâĺŃâĺŃâĺŃâĺŃâĺŃâĺŃâĺŃâĺŃâĺŃâĺŃâĺŃâĺŃâĺŃâĺŃâĺŃâĺŃâĺŃâĺŃâĺŃâĺŃâĺŃâĺŃâĺŃâĺŃâĺŃâĺŃâĺŃâĺŃâĺŃâĺŃâĺŃâĺŃâĺŃâĺŃâĺŃâĺŃâĺŃâĺŃâĺŃâĺŃâĺŃâĺŃâĺŃâĺŃâĺŃâĺŃâĺŃâĺŃâĺŃâĺŃâĺŃâĺŃâĺŃâĺŃâĺŃâĺŃâĺŃâĺŃâĺŃâĺŃâĺŃâĺŃâĺŃâĺŃâĺŃâĺŃâĺŃâĺŃâĺŃâĺŃâĺŃâĺŃâĺŃâĺŃâĺŃâĺŃâĺŃâĺŃâĺŃâĺŃâĺŃâĺŃâĺŃâĺŃâĺŃâĺŃâĺŃâĺŃâĺŃâĺŃâĺŃâĺŃâĺŃâĺŃâĺŃâĺŃâĺŃâĺŃâĺŃâĺŃâĺŃâĺŃâĺŃâĺŃâĺŃâĺŃâĺŃâĺŃâĺŃâĺŃâĺŃâĺŃâĺŃâĺŃâĺŃâĺŃâĺŃâĺŃâĺŃâĺŃâĺŃâĺŃâĺŃâĺŃâĺŃâĺŃâĺŃâĺŃâĺŃâĺŃâĺŃâĺŃâĺŃâĺŃâĺŃâĺŃâĺŃâĺŃâĺŃâĺŃâĺŃâĺŃâĺŃâĺŃâĺŃâĺŃâĺŃâĺŃâĺŃâĺŃâĺŃâĺŃâĺŃâĺŃâĺŃâĺŃâĺŃâĺŃâĺŃâĺŃâĺŃâĺŃâĺŃâĺŃâĺŃâĺŃâĺŃâĺŃâĺŃâĺŃâĺŃâĺŃâĺŃâĺŃâĺŃâĺŃâĺŃâĺŃâĺŃâĺŃâĺŃâĺŃâĺŃâĺŃâĺŃâĺŃâĺŃâĺŃâĺŃâĺŃâĺŃâĺŃâĺŃâĺŃâĺŃâĺŃâĺŃâĺŃâĺŃâĺŃâĺŃâĺŃâĺŃâĺŃâĺŃâĺŃâĺŃâĺŃâĺŃâĺŃâĺŃâĺŃâĺŃâĺŃâĺŃâĺŃâĺŃâĺŃâĺŃâĺŃâĺŃâĺŃâĺŃâĺŃâĺŃâĺŃâĺŃâĺŃâĺŃâĺŃâĺŃâĺŃâĺŃâĺŃâĺŃâĺŃâĺŃâĺŃâĺŃâĺŃâĺŃâĺŃâĺŃâĺŃâĺŃâĺŃâĺŃâĺŃâĺŃâĺŃâĺŃâĺŃâĺŃâĺŃâĺŃâĺŃâĺŃâĺŃâĺŃâĺŃâĺŃâĺŃâĺŃâĺŃâĺŃâĺŃâĺŃâĺŃâĺŃâĺŃâĺŃâĺŃâĺŃâĺŃâĺŃâĺŃâĺŃâĺŃâĺŃâĺŃâĺŃâĺŃâĺŃâĺŃâĺŃâĺŃâĺŃâĺŃâĺŃâĺŃâĺŃâĺŃâĺŃâĺŃâĺŃâĺŃâĺŃâĺŃâĺŃâĺŃâĺŃâĺŃâĺŃâĺŃâĺŃâĺŃâĺŃâĺŃâĺŃâĺŃâĺŃâĺŃâĺŃâĺŃâĺŃâĺŃâĺŃâĺŃâĺŃâĺŃâĺŃâĺŃâĺŃâĺŃâĺŃâĺŃâĺŃâĺŃ",
      "a in",
      "h alt",
      "y es",
      "Ð ¸",
      "Ġ ad",
      "ch mal",
      "Ġw ichtig",
      "âĸĳâĸĳâĸĳâĸĳâĸĳâĸĳâĸĳâĸĳ âĸĳâĸĪ",
      "ru ch",
      "sch e",
      "âĺŃâĺŃâĺŃâĺŃâĺŃâĺŃâĺŃâĺŃâĺŃâĺŃâĺŃâĺŃâĺŃâĺŃâĺŃâĺŃâĺŃâĺŃâĺŃâĺŃâĺŃâĺŃâĺŃâĺŃâĺŃâĺŃâĺŃâĺŃâĺŃâĺŃâĺŃâĺŃâĺŃâĺŃâĺŃâĺŃâĺŃâĺŃâĺŃâĺŃâĺŃâĺŃâĺŃâĺŃâĺŃâĺŃâĺŃâĺŃâĺŃâĺŃâĺŃâĺŃâĺŃâĺŃâĺŃâĺŃâĺŃâĺŃâĺŃâĺŃâĺŃâĺŃâĺŃâĺŃ âĺŃâĺŃâĺŃâĺŃâĺŃâĺŃâĺŃâĺŃâĺŃâĺŃâĺŃâĺŃ",
      "Ġp unkte",
      "ah len",
      "lich e",
      "]ðŁ Ĳ",
      "Ġ- [",
      "ĠĠĠĠĠĠĠĠĠĠĠĠĠĠĠĠĠĠĠĠĠĠĠĠĠĠĠĠĠĠĠĠ ĠĠĠĠĠĠĠĠĠĠĠĠĠĠĠĠĠĠĠĠĠĠĠĠĠĠĠĠĠĠĠĠ",
      "âĺŃâĺŃâĺŃâĺŃâĺŃâĺŃâĺŃâĺŃâĺŃâĺŃâĺŃâĺŃâĺŃâĺŃâĺŃâĺŃâĺŃâĺŃâĺŃâĺŃâĺŃâĺŃâĺŃâĺŃâĺŃâĺŃâĺŃâĺŃâĺŃâĺŃâĺŃâĺŃâĺŃâĺŃâĺŃâĺŃâĺŃâĺŃâĺŃâĺŃâĺŃâĺŃâĺŃâĺŃâĺŃâĺŃâĺŃâĺŃâĺŃâĺŃâĺŃâĺŃâĺŃâĺŃâĺŃâĺŃâĺŃâĺŃâĺŃâĺŃâĺŃâĺŃâĺŃâĺŃâĺŃâĺŃâĺŃâĺŃâĺŃâĺŃâĺŃâĺŃâĺŃâĺŃâĺŃâĺŃâĺŃâĺŃâĺŃâĺŃâĺŃâĺŃâĺŃâĺŃâĺŃâĺŃâĺŃâĺŃâĺŃâĺŃâĺŃâĺŃâĺŃâĺŃâĺŃâĺŃâĺŃâĺŃâĺŃâĺŃâĺŃâĺŃâĺŃâĺŃâĺŃâĺŃâĺŃâĺŃâĺŃâĺŃâĺŃâĺŃâĺŃâĺŃâĺŃâĺŃâĺŃâĺŃâĺŃâĺŃâĺŃâĺŃâĺŃâĺŃâĺŃâĺŃâĺŃâĺŃâĺŃâĺŃâĺŃâĺŃâĺŃâĺŃâĺŃâĺŃâĺŃâĺŃâĺŃâĺŃâĺŃâĺŃâĺŃâĺŃâĺŃâĺŃâĺŃâĺŃâĺŃâĺŃâĺŃâĺŃâĺŃâĺŃâĺŃâĺŃâĺŃâĺŃâĺŃâĺŃâĺŃâĺŃâĺŃâĺŃâĺŃâĺŃâĺŃâĺŃâĺŃâĺŃâĺŃâĺŃâĺŃâĺŃâĺŃâĺŃâĺŃâĺŃâĺŃâĺŃâĺŃâĺŃâĺŃâĺŃâĺŃâĺŃâĺŃâĺŃâĺŃâĺŃâĺŃâĺŃâĺŃâĺŃâĺŃâĺŃâĺŃâĺŃâĺŃâĺŃâĺŃâĺŃâĺŃâĺŃâĺŃâĺŃâĺŃâĺŃâĺŃâĺŃâĺŃâĺŃâĺŃâĺŃâĺŃâĺŃâĺŃâĺŃâĺŃâĺŃâĺŃâĺŃâĺŃâĺŃâĺŃâĺŃâĺŃâĺŃâĺŃâĺŃâĺŃâĺŃâĺŃâĺŃâĺŃâĺŃâĺŃâĺŃâĺŃâĺŃâĺŃâĺŃâĺŃâĺŃâĺŃâĺŃâĺŃâĺŃâĺŃâĺŃâĺŃâĺŃâĺŃâĺŃâĺŃâĺŃâĺŃâĺŃâĺŃâĺŃâĺŃâĺŃâĺŃâĺŃâĺŃâĺŃâĺŃâĺŃâĺŃâĺŃâĺŃâĺŃâĺŃâĺŃâĺŃâĺŃâĺŃâĺŃâĺŃâĺŃâĺŃâĺŃâĺŃâĺŃâĺŃâĺŃâĺŃâĺŃâĺŃâĺŃâĺŃâĺŃâĺŃâĺŃâĺŃâĺŃâĺŃâĺŃâĺŃâĺŃâĺŃâĺŃâĺŃâĺŃâĺŃâĺŃâĺŃâĺŃâĺŃâĺŃâĺŃâĺŃâĺŃâĺŃâĺŃâĺŃâĺŃâĺŃâĺŃâĺŃâĺŃâĺŃâĺŃâĺŃâĺŃâĺŃâĺŃâĺŃâĺŃâĺŃâĺŃâĺŃâĺŃâĺŃâĺŃâĺŃâĺŃâĺŃâĺŃâĺŃâĺŃâĺŃâĺŃâĺŃâĺŃâĺŃâĺŃâĺŃâĺŃâĺŃâĺŃâĺŃâĺŃâĺŃâĺŃâĺŃâĺŃâĺŃâĺŃâĺŃâĺŃâĺŃâĺŃâĺŃâĺŃâĺŃâĺŃâĺŃâĺŃâĺŃâĺŃâĺŃâĺŃâĺŃâĺŃâĺŃâĺŃâĺŃâĺŃâĺŃâĺŃâĺŃâĺŃâĺŃâĺŃâĺŃâĺŃâĺŃâĺŃâĺŃâĺŃâĺŃâĺŃâĺŃâĺŃâĺŃâĺŃâĺŃâĺŃâĺŃâĺŃâĺŃâĺŃâĺŃâĺŃâĺŃâĺŃâĺŃâĺŃâĺŃâĺŃâĺŃâĺŃâĺŃâĺŃâĺŃâĺŃâĺŃâĺŃâĺŃâĺŃâĺŃâĺŃâĺŃâĺŃâĺŃâĺŃâĺŃâĺŃâĺŃâĺŃâĺŃâĺŃâĺŃâĺŃâĺŃâĺŃâĺŃâĺŃâĺŃâĺŃâĺŃâĺŃâĺŃâĺŃâĺŃâĺŃâĺŃâĺŃâĺŃâĺŃâĺŃâĺŃâĺŃâĺŃâĺŃâĺŃâĺŃâĺŃâĺŃâĺŃâĺŃâĺŃâĺŃâĺŃâĺŃâĺŃâĺŃâĺŃâĺŃâĺŃâĺŃâĺŃâĺŃâĺŃâĺŃâĺŃâĺŃâĺŃâĺŃâĺŃâĺŃâĺŃâĺŃâĺŃâĺŃâĺŃâĺŃâĺŃâĺŃâĺŃâĺŃâĺŃâĺŃâĺŃâĺŃâĺŃâĺŃâĺŃâĺŃâĺŃâĺŃâĺŃâĺŃâĺŃâĺŃâĺŃâĺŃâĺŃâĺŃâĺŃâĺŃâĺŃâĺŃâĺŃâĺŃâĺŃâĺŃâĺŃâĺŃâĺŃâĺŃâĺŃâĺŃâĺŃâĺŃâĺŃâĺŃâĺŃâĺŃâĺŃâĺŃâĺŃâĺŃâĺŃâĺŃâĺŃâĺŃâĺŃâĺŃâĺŃâĺŃâĺŃâĺŃâĺŃâĺŃâĺŃâĺŃâĺŃâĺŃâĺŃâĺŃâĺŃâĺŃâĺŃâĺŃâĺŃâĺŃâĺŃâĺŃâĺŃâĺŃâĺŃâĺŃâĺŃâĺŃâĺŃâĺŃâĺŃâĺŃâĺŃâĺŃâĺŃâĺŃâĺŃâĺŃâĺŃâĺŃâĺŃâĺŃâĺŃâĺŃâĺŃâĺŃâĺŃâĺŃâĺŃâĺŃâĺŃâĺŃâĺŃâĺŃâĺŃâĺŃâĺŃâĺŃâĺŃâĺŃâĺŃâĺŃâĺŃâĺŃâĺŃâĺŃâĺŃâĺŃâĺŃâĺŃâĺŃâĺŃâĺŃâĺŃâĺŃâĺŃâĺŃâĺŃâĺŃâĺŃâĺŃâĺŃâĺŃâĺŃâĺŃâĺŃâĺŃâĺŃâĺŃâĺŃâĺŃâĺŃâĺŃâĺŃâĺŃâĺŃâĺŃâĺŃâĺŃâĺŃâĺŃâĺŃâĺŃâĺŃâĺŃâĺŃâĺŃâĺŃâĺŃâĺŃâĺŃâĺŃâĺŃâĺŃâĺŃâĺŃâĺŃâĺŃâĺŃâĺŃâĺŃâĺŃâĺŃâĺŃâĺŃâĺŃâĺŃâĺŃâĺŃâĺŃâĺŃâĺŃâĺŃâĺŃâĺŃâĺŃâĺŃâĺŃâĺŃâĺŃâĺŃâĺŃâĺŃâĺŃâĺŃâĺŃâĺŃâĺŃâĺŃâĺŃâĺŃâĺŃâĺŃâĺŃâĺŃâĺŃâĺŃâĺŃâĺŃâĺŃâĺŃâĺŃâĺŃâĺŃâĺŃâĺŃâĺŃâĺŃâĺŃâĺŃâĺŃâĺŃâĺŃâĺŃâĺŃâĺŃâĺŃâĺŃâĺŃâĺŃâĺŃâĺŃâĺŃâĺŃâĺŃâĺŃâĺŃâĺŃâĺŃâĺŃâĺŃâĺŃâĺŃâĺŃâĺŃâĺŃâĺŃâĺŃâĺŃâĺŃâĺŃâĺŃâĺŃâĺŃâĺŃâĺŃâĺŃâĺŃâĺŃâĺŃâĺŃâĺŃâĺŃâĺŃâĺŃâĺŃâĺŃâĺŃâĺŃâĺŃâĺŃâĺŃâĺŃâĺŃâĺŃâĺŃâĺŃâĺŃâĺŃâĺŃ âĺŃâĺŃâĺŃâĺŃâĺŃâĺŃâĺŃâĺŃâĺŃâĺŃâĺŃâĺŃâĺŃâĺŃâĺŃâĺŃâĺŃâĺŃâĺŃâĺŃâĺŃâĺŃâĺŃâĺŃâĺŃâĺŃâĺŃâĺŃâĺŃâĺŃâĺŃâĺŃâĺŃâĺŃâĺŃâĺŃâĺŃâĺŃâĺŃâĺŃâĺŃâĺŃâĺŃâĺŃâĺŃâĺŃâĺŃâĺŃâĺŃâĺŃâĺŃâĺŃâĺŃâĺŃâĺŃâĺŃâĺŃâĺŃâĺŃâĺŃâĺŃâĺŃâĺŃâĺŃâĺŃâĺŃâĺŃâĺŃâĺŃâĺŃâĺŃâĺŃâĺŃâĺŃâĺŃâĺŃ",
      "ĺŃðŁ ĺŃðŁ",
      "]âĺŃâĺŃâĺŃâĺŃâĺŃâĺŃâĺŃâĺŃâĺŃâĺŃâĺŃâĺŃâĺŃâĺŃâĺŃâĺŃâĺŃâĺŃâĺŃâĺŃâĺŃâĺŃâĺŃâĺŃâĺŃâĺŃâĺŃâĺŃâĺŃâĺŃâĺŃâĺŃâĺŃâĺŃâĺŃâĺŃâĺŃâĺŃâĺŃâĺŃâĺŃâĺŃâĺŃâĺŃâĺŃâĺŃâĺŃâĺŃâĺŃâĺŃâĺŃâĺŃâĺŃâĺŃâĺŃâĺŃâĺŃâĺŃâĺŃâĺŃâĺŃâĺŃâĺŃâĺŃâĺŃâĺŃâĺŃâĺŃâĺŃâĺŃâĺŃâĺŃâĺŃâĺŃâĺŃâĺŃâĺŃâĺŃâĺŃâĺŃâĺŃâĺŃâĺŃâĺŃâĺŃâĺŃâĺŃâĺŃâĺŃâĺŃâĺŃâĺŃâĺŃâĺŃâĺŃâĺŃâĺŃâĺŃâĺŃâĺŃâĺŃâĺŃâĺŃâĺŃâĺŃâĺŃâĺŃâĺŃâĺŃâĺŃâĺŃâĺŃâĺŃâĺŃâĺŃâĺŃâĺŃâĺŃâĺŃâĺŃâĺŃâĺŃâĺŃâĺŃâĺŃâĺŃâĺŃâĺŃâĺŃâĺŃâĺŃâĺŃâĺŃâĺŃâĺŃâĺŃâĺŃâĺŃâĺŃâĺŃâĺŃâĺŃâĺŃâĺŃâĺŃâĺŃâĺŃâĺŃâĺŃâĺŃâĺŃâĺŃâĺŃâĺŃâĺŃâĺŃâĺŃâĺŃâĺŃâĺŃâĺŃâĺŃâĺŃâĺŃâĺŃâĺŃâĺŃâĺŃâĺŃâĺŃâĺŃâĺŃâĺŃâĺŃâĺŃâĺŃâĺŃâĺŃâĺŃâĺŃâĺŃâĺŃâĺŃâĺŃâĺŃâĺŃâĺŃâĺŃâĺŃâĺŃâĺŃâĺŃâĺŃâĺŃâĺŃâĺŃâĺŃâĺŃâĺŃâĺŃâĺŃâĺŃâĺŃâĺŃâĺŃâĺŃâĺŃâĺŃâĺŃâĺŃâĺŃâĺŃâĺŃâĺŃâĺŃâĺŃâĺŃâĺŃâĺŃâĺŃâĺŃâĺŃâĺŃâĺŃâĺŃâĺŃâĺŃâĺŃâĺŃâĺŃâĺŃâĺŃâĺŃâĺŃâĺŃâĺŃâĺŃâĺŃâĺŃâĺŃâĺŃâĺŃâĺŃâĺŃâĺŃâĺŃâĺŃâĺŃâĺŃâĺŃâĺŃâĺŃâĺŃâĺŃâĺŃâĺŃâĺŃâĺŃâĺŃâĺŃâĺŃâĺŃâĺŃâĺŃâĺŃâĺŃâĺŃâĺŃâĺŃâĺŃâĺŃâĺŃâĺŃâĺŃâĺŃâĺŃâĺŃâĺŃâĺŃâĺŃâĺŃâĺŃâĺŃâĺŃâĺŃâĺŃâĺŃâĺŃâĺŃâĺŃâĺŃâĺŃâĺŃâĺŃâĺŃâĺŃâĺŃâĺŃâĺŃâĺŃâĺŃâĺŃâĺŃâĺŃâĺŃâĺŃâĺŃâĺŃâĺŃâĺŃâĺŃâĺŃâĺŃâĺŃâĺŃâĺŃâĺŃâĺŃâĺŃâĺŃâĺŃâĺŃâĺŃâĺŃâĺŃâĺŃâĺŃâĺŃâĺŃâĺŃâĺŃâĺŃâĺŃâĺŃâĺŃâĺŃâĺŃâĺŃâĺŃâĺŃâĺŃâĺŃâĺŃâĺŃâĺŃâĺŃâĺŃâĺŃâĺŃâĺŃâĺŃâĺŃâĺŃâĺŃâĺŃâĺŃâĺŃâĺŃâĺŃâĺŃâĺŃâĺŃâĺŃâĺŃâĺŃâĺŃâĺŃâĺŃâĺŃâĺŃâĺŃâĺŃâĺŃâĺŃâĺŃâĺŃâĺŃâĺŃâĺŃâĺŃâĺŃâĺŃâĺŃâĺŃâĺŃâĺŃâĺŃâĺŃâĺŃâĺŃâĺŃâĺŃâĺŃâĺŃâĺŃâĺŃâĺŃâĺŃâĺŃâĺŃâĺŃâĺŃâĺŃâĺŃâĺŃâĺŃâĺŃâĺŃâĺŃâĺŃâĺŃâĺŃâĺŃâĺŃâĺŃâĺŃâĺŃâĺŃâĺŃâĺŃâĺŃâĺŃâĺŃâĺŃâĺŃâĺŃâĺŃâĺŃâĺŃâĺŃâĺŃâĺŃâĺŃâĺŃâĺŃâĺŃâĺŃâĺŃâĺŃâĺŃâĺŃâĺŃâĺŃâĺŃâĺŃâĺŃâĺŃâĺŃâĺŃâĺŃâĺŃâĺŃâĺŃâĺŃâĺŃâĺŃâĺŃâĺŃâĺŃâĺŃâĺŃâĺŃâĺŃâĺŃâĺŃâĺŃâĺŃâĺŃâĺŃâĺŃâĺŃâĺŃâĺŃâĺŃâĺŃâĺŃâĺŃâĺŃâĺŃâĺŃâĺŃâĺŃâĺŃâĺŃâĺŃâĺŃâĺŃâĺŃâĺŃâĺŃâĺŃâĺŃâĺŃâĺŃâĺŃâĺŃâĺŃâĺŃâĺŃâĺŃâĺŃâĺŃâĺŃâĺŃâĺŃâĺŃâĺŃâĺŃâĺŃâĺŃâĺŃâĺŃâĺŃâĺŃâĺŃâĺŃâĺŃâĺŃâĺŃâĺŃâĺŃâĺŃâĺŃâĺŃâĺŃâĺŃâĺŃâĺŃâĺŃâĺŃâĺŃâĺŃâĺŃâĺŃâĺŃâĺŃâĺŃâĺŃâĺŃâĺŃâĺŃâĺŃâĺŃâĺŃâĺŃâĺŃâĺŃâĺŃâĺŃâĺŃâĺŃâĺŃâĺŃâĺŃâĺŃâĺŃâĺŃâĺŃâĺŃâĺŃâĺŃâĺŃâĺŃâĺŃâĺŃâĺŃâĺŃâĺŃâĺŃâĺŃâĺŃâĺŃâĺŃâĺŃâĺŃâĺŃâĺŃâĺŃâĺŃâĺŃâĺŃâĺŃâĺŃâĺŃâĺŃâĺŃâĺŃâĺŃâĺŃâĺŃâĺŃâĺŃâĺŃâĺŃâĺŃâĺŃâĺŃâĺŃâĺŃâĺŃâĺŃâĺŃâĺŃâĺŃâĺŃâĺŃâĺŃâĺŃâĺŃâĺŃâĺŃâĺŃâĺŃâĺŃâĺŃâĺŃâĺŃâĺŃâĺŃâĺŃâĺŃâĺŃâĺŃâĺŃâĺŃâĺŃâĺŃâĺŃâĺŃâĺŃâĺŃâĺŃâĺŃâĺŃâĺŃâĺŃâĺŃâĺŃâĺŃâĺŃâĺŃâĺŃâĺŃâĺŃâĺŃâĺŃâĺŃâĺŃâĺŃâĺŃâĺŃâĺŃâĺŃâĺŃâĺŃâĺŃâĺŃâĺŃâĺŃâĺŃâĺŃâĺŃâĺŃâĺŃâĺŃâĺŃâĺŃâĺŃâĺŃâĺŃâĺŃâĺŃâĺŃâĺŃâĺŃâĺŃâĺŃâĺŃâĺŃâĺŃâĺŃâĺŃâĺŃâĺŃâĺŃâĺŃâĺŃâĺŃâĺŃâĺŃâĺŃâĺŃâĺŃâĺŃâĺŃâĺŃâĺŃâĺŃâĺŃâĺŃâĺŃâĺŃâĺŃâĺŃâĺŃâĺŃâĺŃâĺŃâĺŃâĺŃâĺŃâĺŃâĺŃâĺŃâĺŃâĺŃâĺŃâĺŃâĺŃâĺŃâĺŃâĺŃâĺŃâĺŃâĺŃâĺŃâĺŃâĺŃâĺŃâĺŃâĺŃâĺŃâĺŃâĺŃâĺŃâĺŃâĺŃâĺŃâĺŃâĺŃâĺŃâĺŃâĺŃâĺŃâĺŃâĺŃâĺŃâĺŃâĺŃâĺŃâĺŃâĺŃâĺŃâĺŃâĺŃâĺŃâĺŃâĺŃâĺŃâĺŃâĺŃâĺŃâĺŃâĺŃâĺŃâĺŃâĺŃâĺŃâĺŃâĺŃâĺŃâĺŃâĺŃâĺŃâĺŃâĺŃâĺŃâĺŃâĺŃâĺŃâĺŃâĺŃâĺŃâĺŃâĺŃâĺŃâĺŃâĺŃâĺŃâĺŃâĺŃâĺŃâĺŃâĺŃâĺŃâĺŃâĺŃâĺŃâĺŃâĺŃâĺŃâĺŃâĺŃâĺŃâĺŃâĺŃâĺŃâĺŃâĺŃâĺŃâĺŃâĺŃâĺŃâĺŃâĺŃâĺŃâĺŃâĺŃâĺŃâĺŃâĺŃâĺŃâĺŃâĺŃâĺŃâĺŃâĺŃâĺŃâĺŃâĺŃâĺŃâĺŃâĺŃâĺŃâĺŃâĺŃâĺŃâĺŃâĺŃâĺŃâĺŃâĺŃâĺŃâĺŃâĺŃâĺŃâĺŃâĺŃâĺŃâĺŃâĺŃâĺŃâĺŃâĺŃâĺŃâĺŃâĺŃâĺŃâĺŃâĺŃâĺŃâĺŃâĺŃâĺŃâĺŃâĺŃâĺŃâĺŃâĺŃâĺŃâĺŃâĺŃâĺŃâĺŃâĺŃâĺŃâĺŃâĺŃâĺŃâĺŃâĺŃâĺŃâĺŃâĺŃâĺŃâĺŃâĺŃâĺŃâĺŃâĺŃâĺŃâĺŃâĺŃâĺŃâĺŃâĺŃâĺŃâĺŃâĺŃâĺŃâĺŃâĺŃâĺŃâĺŃâĺŃâĺŃâĺŃâĺŃâĺŃâĺŃâĺŃâĺŃâĺŃâĺŃâĺŃâĺŃâĺŃâĺŃâĺŃâĺŃâĺŃâĺŃâĺŃâĺŃâĺŃâĺŃâĺŃâĺŃâĺŃâĺŃâĺŃâĺŃâĺŃâĺŃâĺŃâĺŃâĺŃâĺŃâĺŃâĺŃâĺŃâĺŃâĺŃâĺŃâĺŃâĺŃâĺŃâĺŃâĺŃâĺŃâĺŃâĺŃâĺŃâĺŃâĺŃâĺŃâĺŃâĺŃâĺŃâĺŃâĺŃâĺŃâĺŃâĺŃâĺŃâĺŃâĺŃâĺŃâĺŃâĺŃâĺŃâĺŃâĺŃâĺŃâĺŃâĺŃâĺŃâĺŃâĺŃâĺŃâĺŃâĺŃâĺŃâĺŃâĺŃâĺŃâĺŃâĺŃâĺŃâĺŃâĺŃâĺŃâĺŃâĺŃâĺŃâĺŃâĺŃâĺŃâĺŃâĺŃâĺŃâĺŃâĺŃâĺŃâĺŃâĺŃâĺŃâĺŃâĺŃâĺŃâĺŃâĺŃâĺŃâĺŃâĺŃâĺŃâĺŃâĺŃâĺŃâĺŃâĺŃâĺŃâĺŃâĺŃ âĺŃâĺŃâĺŃâĺŃâĺŃâĺŃâĺŃâĺŃâĺŃâĺŃâĺŃâĺŃâĺŃâĺŃâĺŃâĺŃâĺŃâĺŃâĺŃâĺŃâĺŃâĺŃâĺŃâĺŃâĺŃâĺŃâĺŃâĺŃâĺŃâĺŃâĺŃâĺŃâĺŃâĺŃâĺŃâĺŃâĺŃâĺŃâĺŃâĺŃâĺŃâĺŃâĺŃâĺŃâĺŃâĺŃâĺŃâĺŃâĺŃâĺŃâĺŃâĺŃâĺŃâĺŃâĺŃâĺŃâĺŃâĺŃâĺŃâĺŃâĺŃâĺŃâĺŃâĺŃâĺŃâĺŃâĺŃâĺŃâĺŃâĺŃâĺŃâĺŃâĺŃâĺŃâĺŃâĺŃâĺŃâĺŃâĺŃâĺŃâĺŃâĺŃâĺŃâĺŃâĺŃâĺŃâĺŃâĺŃâĺŃâĺŃâĺŃâĺŃâĺŃâĺŃâĺŃâĺŃâĺŃâĺŃâĺŃâĺŃâĺŃâĺŃâĺŃâĺŃâĺŃâĺŃâĺŃâĺŃâĺŃâĺŃâĺŃâĺŃâĺŃâĺŃâĺŃâĺŃâĺŃâĺŃâĺŃâĺŃâĺŃâĺŃâĺŃâĺŃâĺŃâĺŃâĺŃâĺŃâĺŃâĺŃâĺŃâĺŃâĺŃâĺŃâĺŃâĺŃâĺŃâĺŃâĺŃâĺŃâĺŃâĺŃâĺŃâĺŃâĺŃâĺŃâĺŃâĺŃâĺŃâĺŃâĺŃâĺŃâĺŃâĺŃâĺŃâĺŃâĺŃâĺŃâĺŃâĺŃâĺŃâĺŃâĺŃâĺŃâĺŃâĺŃâĺŃâĺŃâĺŃâĺŃâĺŃâĺŃâĺŃâĺŃâĺŃâĺŃâĺŃâĺŃâĺŃâĺŃâĺŃâĺŃâĺŃâĺŃâĺŃâĺŃâĺŃâĺŃâĺŃâĺŃâĺŃâĺŃâĺŃâĺŃâĺŃâĺŃâĺŃâĺŃâĺŃâĺŃâĺŃâĺŃâĺŃâĺŃâĺŃâĺŃâĺŃâĺŃâĺŃâĺŃâĺŃâĺŃâĺŃâĺŃâĺŃâĺŃâĺŃâĺŃâĺŃâĺŃâĺŃâĺŃâĺŃâĺŃâĺŃâĺŃâĺŃâĺŃâĺŃâĺŃâĺŃâĺŃâĺŃâĺŃâĺŃâĺŃâĺŃâĺŃâĺŃâĺŃâĺŃâĺŃâĺŃâĺŃâĺŃâĺŃâĺŃâĺŃâĺŃâĺŃâĺŃâĺŃâĺŃâĺŃâĺŃâĺŃâĺŃâĺŃâĺŃâĺŃâĺŃâĺŃâĺŃâĺŃâĺŃâĺŃâĺŃâĺŃâĺŃâĺŃâĺŃâĺŃâĺŃâĺŃâĺŃâĺŃâĺŃâĺŃâĺŃâĺŃâĺŃâĺŃâĺŃâĺŃâĺŃâĺŃâĺŃâĺŃâĺŃâĺŃâĺŃâĺŃâĺŃâĺŃâĺŃâĺŃâĺŃâĺŃâĺŃâĺŃâĺŃâĺŃâĺŃâĺŃâĺŃâĺŃâĺŃâĺŃâĺŃâĺŃâĺŃâĺŃâĺŃâĺŃâĺŃâĺŃâĺŃâĺŃâĺŃâĺŃâĺŃâĺŃâĺŃâĺŃâĺŃâĺŃâĺŃâĺŃâĺŃâĺŃâĺŃâĺŃâĺŃâĺŃâĺŃâĺŃâĺŃâĺŃâĺŃâĺŃâĺŃâĺŃâĺŃâĺŃâĺŃâĺŃâĺŃâĺŃâĺŃâĺŃâĺŃâĺŃâĺŃâĺŃâĺŃâĺŃâĺŃâĺŃâĺŃâĺŃâĺŃâĺŃâĺŃâĺŃâĺŃâĺŃâĺŃâĺŃâĺŃâĺŃâĺŃâĺŃâĺŃâĺŃâĺŃâĺŃâĺŃâĺŃâĺŃâĺŃâĺŃâĺŃâĺŃâĺŃâĺŃâĺŃâĺŃâĺŃâĺŃâĺŃâĺŃâĺŃâĺŃâĺŃâĺŃâĺŃâĺŃâĺŃâĺŃâĺŃâĺŃâĺŃâĺŃâĺŃâĺŃâĺŃâĺŃâĺŃâĺŃâĺŃâĺŃâĺŃâĺŃâĺŃâĺŃâĺŃâĺŃâĺŃâĺŃâĺŃâĺŃâĺŃâĺŃâĺŃâĺŃâĺŃâĺŃâĺŃâĺŃâĺŃâĺŃâĺŃâĺŃâĺŃâĺŃâĺŃâĺŃâĺŃâĺŃâĺŃâĺŃâĺŃâĺŃâĺŃâĺŃâĺŃâĺŃâĺŃâĺŃâĺŃâĺŃâĺŃâĺŃâĺŃâĺŃâĺŃâĺŃâĺŃâĺŃâĺŃâĺŃâĺŃâĺŃâĺŃâĺŃâĺŃâĺŃâĺŃâĺŃâĺŃâĺŃâĺŃâĺŃâĺŃâĺŃâĺŃâĺŃâĺŃâĺŃâĺŃâĺŃâĺŃâĺŃâĺŃâĺŃâĺŃâĺŃâĺŃâĺŃâĺŃâĺŃâĺŃâĺŃâĺŃâĺŃâĺŃâĺŃâĺŃâĺŃâĺŃâĺŃâĺŃâĺŃâĺŃâĺŃâĺŃâĺŃâĺŃâĺŃâĺŃâĺŃâĺŃâĺŃâĺŃâĺŃâĺŃâĺŃâĺŃâĺŃâĺŃâĺŃâĺŃâĺŃâĺŃâĺŃâĺŃâĺŃâĺŃâĺŃâĺŃâĺŃâĺŃâĺŃâĺŃâĺŃâĺŃâĺŃâĺŃâĺŃâĺŃâĺŃâĺŃâĺŃâĺŃâĺŃâĺŃâĺŃâĺŃâĺŃâĺŃâĺŃâĺŃâĺŃâĺŃâĺŃâĺŃâĺŃâĺŃâĺŃâĺŃâĺŃâĺŃâĺŃâĺŃâĺŃâĺŃâĺŃâĺŃâĺŃâĺŃâĺŃâĺŃâĺŃâĺŃâĺŃâĺŃâĺŃâĺŃâĺŃâĺŃâĺŃâĺŃâĺŃâĺŃâĺŃâĺŃâĺŃâĺŃâĺŃâĺŃâĺŃâĺŃâĺŃâĺŃâĺŃâĺŃâĺŃâĺŃâĺŃâĺŃâĺŃâĺŃâĺŃâĺŃâĺŃâĺŃâĺŃâĺŃâĺŃâĺŃâĺŃâĺŃâĺŃâĺŃâĺŃâĺŃâĺŃâĺŃâĺŃâĺŃâĺŃâĺŃâĺŃâĺŃâĺŃâĺŃâĺŃâĺŃâĺŃâĺŃâĺŃâĺŃâĺŃâĺŃâĺŃâĺŃâĺŃâĺŃâĺŃâĺŃâĺŃâĺŃâĺŃâĺŃâĺŃâĺŃâĺŃâĺŃâĺŃâĺŃâĺŃâĺŃâĺŃâĺŃâĺŃâĺŃâĺŃâĺŃâĺŃâĺŃâĺŃâĺŃâĺŃâĺŃâĺŃâĺŃâĺŃâĺŃâĺŃâĺŃâĺŃâĺŃâĺŃâĺŃâĺŃâĺŃâĺŃâĺŃâĺŃâĺŃâĺŃâĺŃâĺŃâĺŃâĺŃâĺŃâĺŃâĺŃâĺŃâĺŃâĺŃâĺŃâĺŃâĺŃâĺŃâĺŃâĺŃâĺŃâĺŃâĺŃâĺŃâĺŃâĺŃâĺŃâĺŃâĺŃâĺŃâĺŃâĺŃâĺŃâĺŃâĺŃâĺŃâĺŃâĺŃâĺŃâĺŃâĺŃâĺŃâĺŃâĺŃâĺŃâĺŃâĺŃâĺŃâĺŃâĺŃâĺŃâĺŃâĺŃâĺŃâĺŃâĺŃâĺŃâĺŃâĺŃâĺŃâĺŃâĺŃâĺŃâĺŃâĺŃâĺŃâĺŃâĺŃâĺŃâĺŃâĺŃâĺŃâĺŃâĺŃâĺŃâĺŃâĺŃâĺŃâĺŃâĺŃâĺŃâĺŃâĺŃâĺŃâĺŃâĺŃâĺŃâĺŃâĺŃâĺŃâĺŃâĺŃâĺŃâĺŃâĺŃâĺŃâĺŃâĺŃâĺŃâĺŃâĺŃâĺŃâĺŃâĺŃâĺŃâĺŃâĺŃâĺŃâĺŃâĺŃâĺŃâĺŃâĺŃâĺŃâĺŃâĺŃâĺŃâĺŃâĺŃâĺŃâĺŃâĺŃâĺŃâĺŃâĺŃâĺŃâĺŃâĺŃâĺŃâĺŃâĺŃâĺŃâĺŃâĺŃâĺŃâĺŃâĺŃâĺŃâĺŃâĺŃâĺŃâĺŃâĺŃâĺŃâĺŃâĺŃâĺŃâĺŃâĺŃâĺŃâĺŃâĺŃâĺŃâĺŃâĺŃâĺŃâĺŃâĺŃâĺŃâĺŃâĺŃâĺŃâĺŃâĺŃâĺŃâĺŃâĺŃ",
      "]âĺŃâĺŃâĺŃâĺŃâĺŃâĺŃâĺŃâĺŃâĺŃâĺŃâĺŃâĺŃâĺŃâĺŃâĺŃâĺŃâĺŃâĺŃâĺŃâĺŃâĺŃâĺŃâĺŃâĺŃâĺŃâĺŃâĺŃâĺŃâĺŃâĺŃâĺŃâĺŃâĺŃâĺŃâĺŃâĺŃâĺŃâĺŃâĺŃâĺŃâĺŃâĺŃâĺŃâĺŃâĺŃâĺŃâĺŃâĺŃâĺŃâĺŃâĺŃâĺŃâĺŃâĺŃâĺŃâĺŃâĺŃâĺŃâĺŃâĺŃâĺŃâĺŃâĺŃâĺŃâĺŃâĺŃâĺŃâĺŃâĺŃâĺŃâĺŃâĺŃâĺŃâĺŃâĺŃâĺŃâĺŃâĺŃâĺŃâĺŃâĺŃâĺŃâĺŃâĺŃâĺŃâĺŃâĺŃâĺŃâĺŃâĺŃâĺŃâĺŃâĺŃâĺŃâĺŃâĺŃâĺŃâĺŃâĺŃâĺŃâĺŃâĺŃâĺŃâĺŃâĺŃâĺŃâĺŃâĺŃâĺŃâĺŃâĺŃâĺŃâĺŃâĺŃâĺŃâĺŃâĺŃâĺŃâĺŃâĺŃâĺŃâĺŃâĺŃâĺŃâĺŃâĺŃâĺŃâĺŃâĺŃâĺŃâĺŃâĺŃâĺŃâĺŃâĺŃâĺŃâĺŃâĺŃâĺŃâĺŃâĺŃâĺŃâĺŃâĺŃâĺŃâĺŃâĺŃâĺŃâĺŃâĺŃâĺŃâĺŃâĺŃâĺŃâĺŃâĺŃâĺŃâĺŃâĺŃâĺŃâĺŃâĺŃâĺŃâĺŃâĺŃâĺŃâĺŃâĺŃâĺŃâĺŃâĺŃâĺŃâĺŃâĺŃâĺŃâĺŃâĺŃâĺŃâĺŃâĺŃâĺŃâĺŃâĺŃâĺŃâĺŃâĺŃâĺŃâĺŃâĺŃâĺŃâĺŃâĺŃâĺŃâĺŃâĺŃâĺŃâĺŃâĺŃâĺŃâĺŃâĺŃâĺŃâĺŃâĺŃâĺŃâĺŃâĺŃâĺŃâĺŃâĺŃâĺŃâĺŃâĺŃâĺŃâĺŃâĺŃâĺŃâĺŃâĺŃâĺŃâĺŃâĺŃâĺŃâĺŃâĺŃâĺŃâĺŃâĺŃâĺŃâĺŃâĺŃâĺŃâĺŃâĺŃâĺŃâĺŃâĺŃâĺŃâĺŃâĺŃâĺŃâĺŃâĺŃâĺŃâĺŃâĺŃâĺŃâĺŃâĺŃâĺŃâĺŃâĺŃâĺŃâĺŃâĺŃâĺŃâĺŃâĺŃâĺŃâĺŃâĺŃâĺŃâĺŃâĺŃâĺŃâĺŃâĺŃâĺŃâĺŃâĺŃâĺŃâĺŃâĺŃâĺŃâĺŃâĺŃâĺŃâĺŃâĺŃâĺŃâĺŃâĺŃâĺŃâĺŃâĺŃâĺŃâĺŃâĺŃâĺŃâĺŃâĺŃâĺŃâĺŃâĺŃâĺŃâĺŃâĺŃâĺŃâĺŃâĺŃâĺŃâĺŃâĺŃâĺŃâĺŃâĺŃâĺŃâĺŃâĺŃâĺŃâĺŃâĺŃâĺŃâĺŃâĺŃâĺŃâĺŃâĺŃâĺŃâĺŃâĺŃâĺŃâĺŃâĺŃâĺŃâĺŃâĺŃâĺŃâĺŃâĺŃâĺŃâĺŃâĺŃâĺŃâĺŃâĺŃâĺŃâĺŃâĺŃâĺŃâĺŃâĺŃâĺŃâĺŃâĺŃâĺŃâĺŃâĺŃâĺŃâĺŃâĺŃâĺŃâĺŃâĺŃâĺŃâĺŃâĺŃâĺŃâĺŃâĺŃâĺŃâĺŃâĺŃâĺŃâĺŃâĺŃâĺŃâĺŃâĺŃâĺŃâĺŃâĺŃâĺŃâĺŃâĺŃâĺŃâĺŃâĺŃâĺŃâĺŃâĺŃâĺŃâĺŃâĺŃâĺŃâĺŃâĺŃâĺŃâĺŃâĺŃâĺŃâĺŃâĺŃâĺŃâĺŃâĺŃâĺŃâĺŃâĺŃâĺŃâĺŃâĺŃâĺŃâĺŃâĺŃâĺŃâĺŃâĺŃâĺŃâĺŃâĺŃâĺŃâĺŃâĺŃâĺŃâĺŃâĺŃâĺŃâĺŃâĺŃâĺŃâĺŃâĺŃâĺŃâĺŃâĺŃâĺŃâĺŃâĺŃâĺŃâĺŃâĺŃâĺŃâĺŃâĺŃâĺŃâĺŃâĺŃâĺŃâĺŃâĺŃâĺŃâĺŃâĺŃâĺŃâĺŃâĺŃâĺŃâĺŃâĺŃâĺŃâĺŃâĺŃâĺŃâĺŃâĺŃâĺŃâĺŃâĺŃâĺŃâĺŃâĺŃâĺŃâĺŃâĺŃâĺŃâĺŃâĺŃâĺŃâĺŃâĺŃâĺŃâĺŃâĺŃâĺŃâĺŃâĺŃâĺŃâĺŃâĺŃâĺŃâĺŃâĺŃâĺŃâĺŃâĺŃâĺŃâĺŃâĺŃâĺŃâĺŃâĺŃâĺŃâĺŃâĺŃâĺŃâĺŃâĺŃâĺŃâĺŃâĺŃâĺŃâĺŃâĺŃâĺŃâĺŃâĺŃâĺŃâĺŃâĺŃâĺŃâĺŃâĺŃâĺŃâĺŃâĺŃâĺŃâĺŃâĺŃâĺŃâĺŃâĺŃâĺŃâĺŃâĺŃâĺŃâĺŃâĺŃâĺŃâĺŃâĺŃâĺŃâĺŃâĺŃâĺŃâĺŃâĺŃâĺŃâĺŃâĺŃâĺŃâĺŃâĺŃâĺŃâĺŃâĺŃâĺŃâĺŃâĺŃâĺŃâĺŃâĺŃâĺŃâĺŃâĺŃâĺŃâĺŃâĺŃâĺŃâĺŃâĺŃâĺŃâĺŃâĺŃâĺŃâĺŃâĺŃâĺŃâĺŃâĺŃâĺŃâĺŃâĺŃâĺŃâĺŃâĺŃâĺŃâĺŃâĺŃâĺŃâĺŃâĺŃâĺŃâĺŃâĺŃâĺŃâĺŃâĺŃâĺŃâĺŃâĺŃâĺŃâĺŃâĺŃâĺŃâĺŃâĺŃâĺŃâĺŃâĺŃâĺŃâĺŃâĺŃâĺŃâĺŃâĺŃâĺŃâĺŃâĺŃâĺŃâĺŃâĺŃâĺŃâĺŃâĺŃâĺŃâĺŃâĺŃâĺŃâĺŃâĺŃâĺŃâĺŃâĺŃâĺŃâĺŃâĺŃâĺŃâĺŃâĺŃâĺŃâĺŃâĺŃâĺŃâĺŃâĺŃâĺŃâĺŃâĺŃâĺŃâĺŃâĺŃâĺŃâĺŃâĺŃâĺŃâĺŃâĺŃâĺŃâĺŃâĺŃâĺŃâĺŃâĺŃâĺŃâĺŃâĺŃâĺŃâĺŃâĺŃâĺŃâĺŃâĺŃâĺŃâĺŃâĺŃâĺŃâĺŃâĺŃâĺŃâĺŃâĺŃâĺŃâĺŃâĺŃâĺŃâĺŃâĺŃâĺŃâĺŃâĺŃâĺŃâĺŃâĺŃâĺŃâĺŃâĺŃâĺŃâĺŃâĺŃâĺŃâĺŃâĺŃâĺŃâĺŃâĺŃâĺŃâĺŃâĺŃâĺŃâĺŃâĺŃâĺŃâĺŃâĺŃâĺŃâĺŃâĺŃâĺŃâĺŃâĺŃâĺŃâĺŃâĺŃâĺŃâĺŃâĺŃâĺŃâĺŃâĺŃâĺŃâĺŃâĺŃâĺŃâĺŃâĺŃâĺŃâĺŃâĺŃâĺŃâĺŃâĺŃâĺŃâĺŃâĺŃâĺŃâĺŃâĺŃâĺŃâĺŃâĺŃâĺŃâĺŃâĺŃâĺŃâĺŃâĺŃâĺŃâĺŃâĺŃâĺŃâĺŃâĺŃâĺŃâĺŃâĺŃâĺŃâĺŃâĺŃâĺŃâĺŃâĺŃâĺŃâĺŃâĺŃâĺŃâĺŃâĺŃâĺŃâĺŃâĺŃâĺŃâĺŃâĺŃâĺŃâĺŃâĺŃâĺŃâĺŃâĺŃâĺŃâĺŃâĺŃâĺŃâĺŃâĺŃâĺŃâĺŃâĺŃâĺŃâĺŃâĺŃâĺŃâĺŃâĺŃâĺŃâĺŃâĺŃâĺŃâĺŃâĺŃâĺŃâĺŃâĺŃâĺŃâĺŃâĺŃâĺŃâĺŃâĺŃâĺŃâĺŃâĺŃâĺŃâĺŃâĺŃâĺŃâĺŃâĺŃâĺŃâĺŃâĺŃâĺŃâĺŃâĺŃâĺŃâĺŃâĺŃâĺŃâĺŃâĺŃâĺŃâĺŃâĺŃâĺŃâĺŃâĺŃâĺŃâĺŃâĺŃâĺŃâĺŃâĺŃâĺŃâĺŃâĺŃâĺŃâĺŃâĺŃâĺŃâĺŃâĺŃâĺŃâĺŃâĺŃâĺŃâĺŃâĺŃâĺŃâĺŃâĺŃâĺŃâĺŃâĺŃâĺŃâĺŃâĺŃâĺŃâĺŃâĺŃâĺŃâĺŃâĺŃâĺŃâĺŃâĺŃâĺŃâĺŃâĺŃâĺŃâĺŃâĺŃâĺŃâĺŃâĺŃâĺŃâĺŃâĺŃâĺŃâĺŃâĺŃâĺŃâĺŃâĺŃâĺŃâĺŃâĺŃâĺŃâĺŃâĺŃâĺŃâĺŃâĺŃâĺŃâĺŃâĺŃâĺŃâĺŃâĺŃâĺŃâĺŃâĺŃâĺŃâĺŃâĺŃâĺŃâĺŃâĺŃâĺŃâĺŃâĺŃâĺŃâĺŃâĺŃâĺŃâĺŃâĺŃâĺŃâĺŃâĺŃâĺŃâĺŃâĺŃâĺŃâĺŃâĺŃâĺŃâĺŃâĺŃâĺŃâĺŃâĺŃâĺŃâĺŃâĺŃâĺŃâĺŃâĺŃâĺŃâĺŃâĺŃâĺŃâĺŃâĺŃâĺŃâĺŃâĺŃâĺŃâĺŃâĺŃâĺŃâĺŃâĺŃâĺŃâĺŃâĺŃâĺŃâĺŃâĺŃâĺŃâĺŃâĺŃâĺŃâĺŃâĺŃâĺŃâĺŃâĺŃâĺŃâĺŃâĺŃâĺŃâĺŃâĺŃâĺŃâĺŃâĺŃâĺŃâĺŃâĺŃâĺŃâĺŃâĺŃâĺŃâĺŃâĺŃâĺŃâĺŃâĺŃâĺŃâĺŃâĺŃâĺŃâĺŃâĺŃâĺŃâĺŃâĺŃâĺŃâĺŃâĺŃâĺŃâĺŃâĺŃâĺŃâĺŃâĺŃâĺŃâĺŃâĺŃâĺŃâĺŃâĺŃâĺŃâĺŃâĺŃâĺŃâĺŃâĺŃâĺŃâĺŃâĺŃâĺŃâĺŃâĺŃâĺŃâĺŃâĺŃâĺŃâĺŃâĺŃâĺŃâĺŃâĺŃâĺŃâĺŃâĺŃâĺŃâĺŃâĺŃâĺŃâĺŃâĺŃâĺŃâĺŃâĺŃâĺŃâĺŃâĺŃâĺŃâĺŃâĺŃâĺŃâĺŃâĺŃâĺŃâĺŃâĺŃâĺŃâĺŃâĺŃâĺŃâĺŃâĺŃâĺŃâĺŃâĺŃâĺŃâĺŃâĺŃâĺŃâĺŃâĺŃâĺŃâĺŃâĺŃâĺŃâĺŃâĺŃâĺŃâĺŃâĺŃâĺŃâĺŃâĺŃâĺŃâĺŃâĺŃâĺŃâĺŃâĺŃâĺŃâĺŃâĺŃâĺŃâĺŃâĺŃâĺŃâĺŃâĺŃâĺŃâĺŃâĺŃâĺŃâĺŃâĺŃâĺŃâĺŃâĺŃâĺŃâĺŃâĺŃâĺŃâĺŃâĺŃâĺŃâĺŃâĺŃâĺŃâĺŃâĺŃâĺŃâĺŃâĺŃâĺŃâĺŃâĺŃâĺŃâĺŃâĺŃâĺŃâĺŃâĺŃâĺŃâĺŃâĺŃâĺŃâĺŃâĺŃâĺŃâĺŃâĺŃâĺŃâĺŃâĺŃâĺŃâĺŃâĺŃâĺŃâĺŃâĺŃâĺŃâĺŃâĺŃâĺŃâĺŃâĺŃâĺŃâĺŃâĺŃâĺŃâĺŃâĺŃâĺŃâĺŃâĺŃâĺŃâĺŃâĺŃâĺŃâĺŃâĺŃâĺŃâĺŃâĺŃâĺŃâĺŃâĺŃâĺŃâĺŃâĺŃâĺŃâĺŃâĺŃâĺŃâĺŃâĺŃâĺŃâĺŃâĺŃâĺŃâĺŃâĺŃâĺŃâĺŃâĺŃâĺŃâĺŃâĺŃâĺŃâĺŃâĺŃâĺŃâĺŃâĺŃâĺŃâĺŃâĺŃâĺŃâĺŃâĺŃâĺŃâĺŃâĺŃâĺŃâĺŃâĺŃâĺŃâĺŃâĺŃâĺŃâĺŃâĺŃâĺŃâĺŃâĺŃâĺŃâĺŃâĺŃâĺŃâĺŃâĺŃâĺŃâĺŃâĺŃâĺŃâĺŃâĺŃâĺŃâĺŃâĺŃâĺŃâĺŃâĺŃâĺŃâĺŃâĺŃâĺŃâĺŃâĺŃâĺŃâĺŃâĺŃâĺŃâĺŃâĺŃâĺŃâĺŃâĺŃâĺŃâĺŃâĺŃâĺŃâĺŃâĺŃâĺŃâĺŃâĺŃâĺŃâĺŃâĺŃâĺŃâĺŃâĺŃâĺŃâĺŃâĺŃâĺŃâĺŃâĺŃâĺŃâĺŃâĺŃâĺŃâĺŃâĺŃâĺŃâĺŃâĺŃâĺŃâĺŃâĺŃâĺŃâĺŃâĺŃâĺŃâĺŃâĺŃâĺŃâĺŃâĺŃâĺŃâĺŃâĺŃâĺŃâĺŃâĺŃâĺŃâĺŃâĺŃâĺŃâĺŃâĺŃâĺŃâĺŃâĺŃâĺŃâĺŃâĺŃâĺŃâĺŃâĺŃâĺŃâĺŃâĺŃâĺŃâĺŃâĺŃâĺŃâĺŃâĺŃâĺŃâĺŃâĺŃâĺŃâĺŃâĺŃâĺŃâĺŃâĺŃâĺŃâĺŃâĺŃâĺŃâĺŃâĺŃâĺŃâĺŃâĺŃâĺŃâĺŃâĺŃâĺŃâĺŃâĺŃâĺŃâĺŃâĺŃâĺŃâĺŃâĺŃâĺŃâĺŃâĺŃâĺŃâĺŃâĺŃâĺŃâĺŃâĺŃâĺŃâĺŃâĺŃâĺŃâĺŃâĺŃâĺŃâĺŃâĺŃâĺŃâĺŃâĺŃâĺŃâĺŃâĺŃâĺŃâĺŃâĺŃâĺŃâĺŃâĺŃâĺŃâĺŃâĺŃâĺŃâĺŃâĺŃâĺŃâĺŃâĺŃâĺŃâĺŃâĺŃâĺŃâĺŃâĺŃâĺŃâĺŃâĺŃâĺŃâĺŃâĺŃâĺŃâĺŃâĺŃâĺŃâĺŃâĺŃâĺŃâĺŃâĺŃâĺŃâĺŃâĺŃâĺŃâĺŃâĺŃâĺŃâĺŃâĺŃâĺŃâĺŃâĺŃâĺŃâĺŃâĺŃâĺŃâĺŃâĺŃâĺŃâĺŃâĺŃâĺŃâĺŃâĺŃâĺŃâĺŃâĺŃâĺŃâĺŃâĺŃâĺŃâĺŃâĺŃâĺŃâĺŃâĺŃâĺŃâĺŃâĺŃâĺŃâĺŃâĺŃâĺŃâĺŃâĺŃâĺŃâĺŃâĺŃâĺŃâĺŃâĺŃâĺŃâĺŃâĺŃâĺŃâĺŃâĺŃâĺŃâĺŃâĺŃâĺŃâĺŃâĺŃâĺŃâĺŃâĺŃâĺŃâĺŃâĺŃâĺŃâĺŃâĺŃâĺŃâĺŃâĺŃâĺŃâĺŃâĺŃâĺŃâĺŃâĺŃâĺŃâĺŃâĺŃâĺŃâĺŃâĺŃâĺŃâĺŃâĺŃâĺŃâĺŃâĺŃâĺŃâĺŃâĺŃâĺŃâĺŃâĺŃâĺŃâĺŃâĺŃâĺŃâĺŃâĺŃâĺŃâĺŃâĺŃâĺŃâĺŃâĺŃâĺŃâĺŃâĺŃâĺŃâĺŃâĺŃâĺŃâĺŃâĺŃâĺŃâĺŃâĺŃâĺŃâĺŃâĺŃâĺŃâĺŃâĺŃâĺŃâĺŃâĺŃâĺŃâĺŃâĺŃâĺŃâĺŃâĺŃâĺŃâĺŃâĺŃâĺŃâĺŃâĺŃâĺŃâĺŃâĺŃâĺŃâĺŃâĺŃâĺŃâĺŃâĺŃâĺŃâĺŃâĺŃâĺŃâĺŃâĺŃâĺŃâĺŃâĺŃâĺŃâĺŃâĺŃâĺŃâĺŃâĺŃâĺŃâĺŃâĺŃâĺŃâĺŃâĺŃâĺŃâĺŃâĺŃâĺŃâĺŃâĺŃâĺŃâĺŃâĺŃâĺŃâĺŃâĺŃâĺŃâĺŃâĺŃâĺŃâĺŃâĺŃâĺŃâĺŃâĺŃâĺŃâĺŃâĺŃâĺŃâĺŃâĺŃâĺŃâĺŃâĺŃâĺŃâĺŃâĺŃâĺŃâĺŃâĺŃâĺŃâĺŃâĺŃâĺŃâĺŃâĺŃâĺŃâĺŃâĺŃâĺŃâĺŃâĺŃâĺŃâĺŃâĺŃâĺŃâĺŃâĺŃâĺŃâĺŃâĺŃâĺŃâĺŃâĺŃâĺŃâĺŃâĺŃâĺŃâĺŃâĺŃâĺŃâĺŃâĺŃâĺŃâĺŃâĺŃâĺŃâĺŃâĺŃâĺŃâĺŃâĺŃâĺŃâĺŃâĺŃâĺŃâĺŃâĺŃâĺŃâĺŃâĺŃâĺŃâĺŃâĺŃâĺŃâĺŃâĺŃâĺŃâĺŃâĺŃâĺŃâĺŃâĺŃâĺŃâĺŃâĺŃâĺŃâĺŃâĺŃâĺŃâĺŃâĺŃâĺŃâĺŃâĺŃâĺŃâĺŃâĺŃâĺŃâĺŃâĺŃâĺŃâĺŃâĺŃâĺŃâĺŃâĺŃâĺŃâĺŃâĺŃâĺŃâĺŃâĺŃâĺŃâĺŃâĺŃâĺŃâĺŃâĺŃâĺŃâĺŃâĺŃâĺŃâĺŃâĺŃâĺŃâĺŃâĺŃâĺŃâĺŃâĺŃâĺŃâĺŃâĺŃâĺŃâĺŃâĺŃâĺŃâĺŃâĺŃâĺŃâĺŃâĺŃâĺŃâĺŃâĺŃâĺŃâĺŃâĺŃâĺŃâĺŃâĺŃâĺŃâĺŃâĺŃâĺŃâĺŃâĺŃâĺŃâĺŃâĺŃâĺŃâĺŃâĺŃâĺŃâĺŃâĺŃâĺŃâĺŃâĺŃâĺŃâĺŃâĺŃâĺŃâĺŃâĺŃâĺŃâĺŃâĺŃâĺŃâĺŃâĺŃâĺŃâĺŃâĺŃâĺŃâĺŃâĺŃâĺŃâĺŃâĺŃâĺŃâĺŃâĺŃâĺŃâĺŃâĺŃâĺŃâĺŃâĺŃâĺŃâĺŃâĺŃâĺŃâĺŃâĺŃâĺŃâĺŃâĺŃâĺŃâĺŃâĺŃâĺŃâĺŃâĺŃâĺŃâĺŃâĺŃâĺŃâĺŃâĺŃâĺŃâĺŃâĺŃâĺŃâĺŃâĺŃâĺŃâĺŃâĺŃâĺŃâĺŃâĺŃâĺŃâĺŃâĺŃâĺŃâĺŃâĺŃâĺŃâĺŃâĺŃâĺŃâĺŃâĺŃâĺŃâĺŃ âĺŃ[",
      ") ;[",
      "1 00",
      "A CH",
      "B ei",
      "E TZ",
      "M an",
      "N Ã¶",
      "b irnbaum",
      "g j",
      "g anz",
      "j aaaaaaaa",
      "k om",
      "s icht",
      "u ii",
      "w a",
      "w en",
      "ã Ĥ",
      "Ġd atei",
      "Ġn amen",
      "an s",
      "an tw",
      "oo h",
      "Ġh ol",
      "es se",
      "eh st",
      "em p",
      "eeee e",
      "la gen",
      "Ġkl ingt",
      "Ġar e",
      "Ġgen er",
      "ha ft",
      "Ġwoll en",
      "âĸĪâĸĪâĸĪâĸĪâĸĪâĸĪâĸĪâĸĪâĸĪâĸĪâĸĪâĸĪâĸĪâĸĪâĸĪâĸĪ âĸĪâĸĪâĸĪâĸĪâĸĪâĸĪâĸĪâĸĪ",
      "!!!!!!!! !!!!!!!!",
      "ui ui",
      "EEEE EEEE",
      "âĶĢâĶĢâĶĢâĶĢ âĶĢâĶĢâĶĢâĶĢ",
      "++ ++",
      "(( ((",
      "Ġletz te",
      "Ġdr an",
      "yyyyyyyyyyyyyyyy yyyyyyyyyyyyyyyy",
      "ðŁ«ĥðŁ«ĥðŁ«ĥðŁ«ĥðŁ«ĥðŁ«ĥðŁ«ĥðŁ«ĥðŁ«ĥðŁ«ĥðŁ«ĥðŁ«ĥðŁ«ĥðŁ«ĥðŁ«ĥðŁ«ĥ ðŁ«ĥðŁ«ĥðŁ«ĥðŁ«ĥðŁ«ĥðŁ«ĥðŁ«ĥðŁ«ĥðŁ«ĥðŁ«ĥðŁ«ĥðŁ«ĥðŁ«ĥðŁ«ĥðŁ«ĥðŁ«ĥ",
      "kenn st",
      "ĠnÃ¤ch ste",
      "2 14",
      "F E",
      "W er",
      "^ )[",
      "e dia",
      "f h",
      "g p",
      "g et",
      "h alten",
      "l ei",
      "m ehr",
      "m imim",
      "n p",
      "s ind",
      "w h",
      "Ġ /",
      "Ġ as",
      "Ġs h",
      "Ġt atsÃ¤chlich",
      "âĸĪâĸĪ âķ",
      "Ġau ss",
      "re m",
      "Ġj em",
      "am s",
      "]ðŁ İ",
      "Ġr unde",
      "Ġwar st",
      "gif s",
      "Ġschrei be",
      "id th",
      "discor d",
      "gel n",
      "ĠJ osef",
      "Ġneu es",
      "Ġsag st",
      "ÃľÃľ ÃľÃľ",
      "Ã¶Ã¶Ã¶Ã¶Ã¶Ã¶Ã¶Ã¶ Ã¶Ã¶Ã¶Ã¶Ã¶Ã¶Ã¶Ã¶",
      "schrei b",
      "Cr S",
      "Ġfur by",
      "7 2",
      "A ha",
      "E S",
      "J Yhttps",
      "J CrS",
      "c on",
      "h Ã¶r",
      "o j",
      "p unkt",
      "u ll",
      "Ġ Ã¤",
      "âĸĳâĸĳ [",
      "en e",
      "Ġm on",
      "ðŁ §",
      "ar d",
      "Ġdie ser",
      "ge w",
      "Ġp unkt",
      "ig t",
      "du ck",
      "du kt",
      "âĢ ¢[",
      "Ġbe g",
      "ion en",
      "ort et",
      "¦âĢįâĻĤ ï¸ı[",
      "Ġmus ik",
      "Ġkr ank",
      "Ġher aus",
      "Ġfre und",
      "âķĲ âķĲ",
      "Ġfl ie",
      "eig ht",
      "XDXDXDXDXDXDXDXDXDXDXDXDXDXDXDXDXDXDXDXDXDXDXDXDXDXDXDXDXDXDXDXD XDXDXDXDXDXDXDXDXDXDXDXDXDXDXDXDXDXDXDXDXDXDXDXDXDXDXDXDXDXDXDXD",
      "Ġus w",
      "Ġfeh ler",
      "Ġengl isch",
      "Xk JYhttps",
      "ETZ T",
      "JCrS XkJYhttps",
      "3 1",
      "D E",
      "M ein",
      "] Â",
      "c l",
      "f re",
      "g ie",
      "i le",
      "m ittag",
      "u tt",
      "in der",
      "Ġm utter",
      "an der",
      "Ġw or",
      "at zen",
      "sch ule",
      "âĸĪâĸĪâĸĪâĸĪ âĸĪâĸĪ",
      "Ġbe sten",
      "Ġre l",
      "Ġdir ekt",
      "ot o",
      "]. -",
      "komm t",
      "Ã¤n dert",
      "Ġar beit",
      "ĠSp aÃŁ",
      "Ġsc reenshot",
      "ICH T",
      "wik i",
      "Ġup date",
      "Ġantw or",
      "Ġinter net",
      "µðŁ¥ µðŁ¥",
      "1 30",
      "] ;)[",
      "f rage",
      "m inecraft",
      "n eee",
      "r on",
      "s uch",
      "w idth",
      "Ì ·",
      "Ì ¿",
      "Ķ [",
      "Ġb ock",
      "Ġs Ã¼",
      "Ġg o",
      "as d",
      "Ġm o",
      "Ġw itz",
      "âĸĪ âĸĳâĸĳâĸĳâĸĳâĸĳ",
      "ar s",
      "sch ade",
      "Ġl Ã¼",
      "Ġin st",
      "Ġge z",
      "bi ld",
      "pp t",
      "Ġsp r",
      "Ġaus re",
      "Ġc oo",
      "isch er",
      "ĠT e",
      "ĠT im",
      "ip edia",
      "Ġth is",
      "Ġschau e",
      "up er",
      "Ġte xt",
      "ĠmÃ¼ de",
      "Ġbekomm e",
      "eeeeeeeeeeeeeeee eeeeeeeeeeeeeeee",
      "]â ĺ",
      "Ġlang weilig",
      "SS SS",
      "âĶ» Ì¿",
      "Ach so",
      "wÃ¼r dig",
      ". _.",
      "H I",
      "X R",
      "] <",
      "f eh",
      "g a",
      "j upp",
      "m s",
      "n te",
      "q ue",
      "u mm",
      "Ġ áµĶ",
      "au ft",
      "ie ze",
      "NE IN",
      "âĸĳâĸĳâĸĳâĸĳ âĸĪâĸĪ",
      "Ġm igrÃ¤ne",
      "Ġn ow",
      "Ġt rain",
      "at ure",
      "iiii ii",
      "ol o",
      "Ġan geschaut",
      "Ġer nst",
      "Ġ1 4",
      "]: '([",
      "Ġab i",
      "Ġvor bei",
      "!!!! ![",
      "ort s",
      "?! ?!",
      "ĠE r",
      "Ġsa ve",
      "Ġsei ten",
      "Ġph ilipp",
      "rrrr rrrr",
      "ia o",
      "Ġgesp annt",
      "Ġgr Ã¶",
      "ĠfÃ¼ h",
      "]-. -[",
      "âĸĢ âĸĢ",
      "A uf",
      "I m",
      "N ice",
      "Y o",
      "_ [",
      "f ol",
      "h eight",
      "j d",
      "m d",
      "o https",
      "s ste",
      "u k",
      "u ps",
      "z wei",
      "Ġ 7",
      "Ġ Ã²",
      "Ġs e",
      "Ġt raining",
      "Ġk ap",
      "ðŁ ¦",
      "ar ch",
      "ar te",
      "or re",
      "Ġf aul",
      "Ġsch ein",
      "Ġp r",
      "Ġp rin",
      "am t",
      "ten t",
      "Ġver t",
      "ĠM en",
      "war te",
      "ĠB ild",
      "Ġwe bs",
      "ahr scheinlich",
      "ĠW e",
      "Ġglau b",
      "hn ung",
      "âĸĳâĸĳâĸĳâĸĳâĸĳâĸĳâĸĳâĸĳâĸĳâĸĳâĸĳâĸĳ âĸĳâĸĳâĸĳ",
      "Ġuns er",
      "Ġson dern",
      "son st",
      "zw ischen",
      "ï¸» Ì·",
      "âĶ»Ì¿ âķĲâĶģ",
      "ieze katze",
      "ï¸»Ì· âĶ»Ì¿âķĲâĶģ",
      "O R",
      "b r",
      "d achte",
      "g ehen",
      "m iezekatze",
      "Ġb z",
      "âĸĳâĸĳ âĸĪâĸĪâĸĪ",
      "Ġw usste",
      "Ġt ra",
      "77 62",
      "re ck",
      "Ġo ben",
      "Ġer sten",
      "Ġda vor",
      "Ġ.- .[",
      "Ġkomm st",
      "Ġwe ird",
      "Ġwird s",
      "Ġkl eine",
      "Ġar me",
      "66 7762",
      "âĸĳâĸĳâĸĳâĸĳâĸĳâĸĳ âĸĪâĸĪâĸĳâĸĳâĸĳâĸĳâĸĳâĸĳâĸĳâĸĳâĸĳâĸĳâĸĳâĸĳâĸĳâĸĳâĸĳâĸĳ",
      "Ġbl Ã¶",
      "âĸĳâĸĳâĸĳâĸĳâĸĳâĸĳâĸĳ âĸĪâĸĪâĸĳâĸĳâĸĳâĸĳâĸĳâĸĳâĸĳâĸĳâĸĳâĸĳâĸĳâĸĳâĸĳâĸĳâĸĳâĸĳ",
      "ost et",
      "Ġgesp ielt",
      "IIII IIII",
      "mem e",
      "wik ipedia"
    ]
  }
}