{
  "version": "1.0",
  "truncation": null,
  "padding": null,
  "added_tokens": [
    {
      "id": 0,
      "content": "[SOM]",
      "single_word": false,
      "lstrip": false,
      "rstrip": false,
      "normalized": false,
      "special": false
    },
    {
      "id": 1,
      "content": "[EOM]",
      "single_word": false,
      "lstrip": false,
      "rstrip": false,
      "normalized": false,
      "special": false
    },
    {
      "id": 2,
      "content": "[PAD]",
      "single_word": false,
      "lstrip": false,
      "rstrip": false,
      "normalized": false,
      "special": false
    }
  ],
  "normalizer": null,
  "pre_tokenizer": {
    "type": "ByteLevel",
    "add_prefix_space": true,
    "trim_offsets": true,
    "use_regex": true
  },
  "post_processor": null,
  "decoder": {
    "type": "ByteLevel",
    "add_prefix_space": true,
    "trim_offsets": true,
    "use_regex": true
  },
  "model": {
    "type": "BPE",
    "dropout": null,
    "unk_token": null,
    "continuing_subword_prefix": null,
    "end_of_word_suffix": null,
    "fuse_unk": false,
    "byte_fallback": false,
    "vocab": {
      "[SOM]": 0,
      "[EOM]": 1,
      "[PAD]": 2,
      "!": 3,
      "\"": 4,
      "#": 5,
      "$": 6,
      "%": 7,
      "&": 8,
      "'": 9,
      "(": 10,
      ")": 11,
      "*": 12,
      "+": 13,
      ",": 14,
      "-": 15,
      ".": 16,
      "/": 17,
      "0": 18,
      "1": 19,
      "2": 20,
      "3": 21,
      "4": 22,
      "5": 23,
      "6": 24,
      "7": 25,
      "8": 26,
      "9": 27,
      ":": 28,
      ";": 29,
      "<": 30,
      "=": 31,
      ">": 32,
      "?": 33,
      "@": 34,
      "A": 35,
      "B": 36,
      "C": 37,
      "D": 38,
      "E": 39,
      "F": 40,
      "G": 41,
      "H": 42,
      "I": 43,
      "J": 44,
      "K": 45,
      "L": 46,
      "M": 47,
      "N": 48,
      "O": 49,
      "P": 50,
      "Q": 51,
      "R": 52,
      "S": 53,
      "T": 54,
      "U": 55,
      "V": 56,
      "W": 57,
      "X": 58,
      "Y": 59,
      "Z": 60,
      "[": 61,
      "\\": 62,
      "]": 63,
      "^": 64,
      "_": 65,
      "`": 66,
      "a": 67,
      "b": 68,
      "c": 69,
      "d": 70,
      "e": 71,
      "f": 72,
      "g": 73,
      "h": 74,
      "i": 75,
      "j": 76,
      "k": 77,
      "l": 78,
      "m": 79,
      "n": 80,
      "o": 81,
      "p": 82,
      "q": 83,
      "r": 84,
      "s": 85,
      "t": 86,
      "u": 87,
      "v": 88,
      "w": 89,
      "x": 90,
      "y": 91,
      "z": 92,
      "{": 93,
      "|": 94,
      "}": 95,
      "~": 96,
      "¡": 97,
      "¢": 98,
      "£": 99,
      "¤": 100,
      "¥": 101,
      "¦": 102,
      "§": 103,
      "¨": 104,
      "©": 105,
      "ª": 106,
      "«": 107,
      "¬": 108,
      "®": 109,
      "¯": 110,
      "°": 111,
      "±": 112,
      "²": 113,
      "³": 114,
      "´": 115,
      "µ": 116,
      "¶": 117,
      "·": 118,
      "¸": 119,
      "¹": 120,
      "º": 121,
      "»": 122,
      "¼": 123,
      "½": 124,
      "¾": 125,
      "¿": 126,
      "Â": 127,
      "Ã": 128,
      "Ä": 129,
      "Å": 130,
      "Æ": 131,
      "É": 132,
      "Ê": 133,
      "Ë": 134,
      "Ì": 135,
      "Í": 136,
      "Î": 137,
      "Ï": 138,
      "Ð": 139,
      "Ñ": 140,
      "Ø": 141,
      "Ù": 142,
      "à": 143,
      "á": 144,
      "â": 145,
      "ã": 146,
      "ä": 147,
      "å": 148,
      "æ": 149,
      "ç": 150,
      "è": 151,
      "é": 152,
      "ê": 153,
      "ë": 154,
      "ì": 155,
      "ï": 156,
      "ð": 157,
      "Ċ": 158,
      "č": 159,
      "Ġ": 160,
      "Ģ": 161,
      "ģ": 162,
      "Ĥ": 163,
      "ĥ": 164,
      "Ħ": 165,
      "ħ": 166,
      "Ĩ": 167,
      "ĩ": 168,
      "Ī": 169,
      "ī": 170,
      "Ĭ": 171,
      "ĭ": 172,
      "Į": 173,
      "į": 174,
      "İ": 175,
      "ı": 176,
      "Ĳ": 177,
      "ĳ": 178,
      "Ĵ": 179,
      "ĵ": 180,
      "Ķ": 181,
      "ķ": 182,
      "ĸ": 183,
      "Ĺ": 184,
      "ĺ": 185,
      "Ļ": 186,
      "ļ": 187,
      "Ľ": 188,
      "ľ": 189,
      "Ŀ": 190,
      "ŀ": 191,
      "Ł": 192,
      "ł": 193,
      "Ń": 194,
      "OM": 195,
      ":[": 196,
      "SOM": 197,
      "EOM": 198,
      "ch": 199,
      "au": 200,
      "er": 201,
      "ir": 202,
      "bau": 203,
      "irn": 204,
      "birn": 205,
      "baum": 206,
      "birnbaum": 207,
      ".:[": 208,
      "en": 209,
      "Ġd": 210,
      "ich": 211,
      "in": 212,
      "st": 213,
      "Ġs": 214,
      "ie": 215,
      "ii": 216,
      "as": 217,
      "Ġn": 218,
      "Ġm": 219,
      "oo": 220,
      "an": 221,
      "Ġw": 222,
      "ff": 223,
      "Ġg": 224,
      "ter": 225,
      "ein": 226,
      "Ġh": 227,
      "ei": 228,
      "?[": 229,
      "..": 230,
      "un": 231,
      "ex": 232,
      "ber": 233,
      "terex": 234,
      "terexii": 235,
      "es": 236,
      "Ġi": 237,
      "Ġb": 238,
      "mm": 239,
      "al": 240,
      "ĠĠ": 241,
      "icht": 242,
      "Ġdas": 243,
      "Ġk": 244,
      "ðŁ": 245,
      "Ġau": 246,
      "se": 247,
      "ja": 248,
      "on": 249,
      "xD": 250,
      "oooo": 251,
      "Ã¼": 252,
      "te": 253,
      "ar": 254,
      "čĊ": 255,
      "Ġich": 256,
      "ll": 257,
      "Ġdu": 258,
      "ab": 259,
      "ach": 260,
      "ffff": 261,
      "Ġnicht": 262,
      "Ġist": 263,
      "Ġf": 264,
      "Ġsch": 265,
      "eh": 266,
      "Ġv": 267,
      "und": 268,
      "Ã¤": 269,
      "ann": 270,
      "och": 271,
      "at": 272,
      "ee": 273,
      "ru": 274,
      "der": 275,
      "Ġl": 276,
      "Ã¶": 277,
      "sch": 278,
      "Ġdie": 279,
      "or": 280,
      "Ġz": 281,
      "uu": 282,
      "it": 283,
      "de": 284,
      "iese": 285,
      "Ġein": 286,
      "gru": 287,
      "beriese": 288,
      "gruberiese": 289,
      "gen": 290,
      "ur": 291,
      "le": 292,
      "Ġso": 293,
      "et": 294,
      "Ġt": 295,
      "!!": 296,
      "iiii": 297,
      "re": 298,
      "ĠxD": 299,
      "Ġp": 300,
      "aber": 301,
      "ge": 302,
      "ck": 303,
      "Ġauch": 304,
      "ss": 305,
      "ĠĠĠĠ": 306,
      "Ġge": 307,
      "Ġo": 308,
      "ah": 309,
      "Ġhab": 310,
      "so": 311,
      "ffffffff": 312,
      "![": 313,
      "Ġj": 314,
      "oooooooo": 315,
      "aa": 316,
      "Ġin": 317,
      "ÃŁ": 318,
      "Ġan": 319,
      "ol": 320,
      "âĪ": 321,
      "ig": 322,
      "ut": 323,
      "âĪŀ": 324,
      "âĪŀâĪŀ": 325,
      "hh": 326,
      "--": 327,
      "XD": 328,
      "Ġder": 329,
      "Ġund": 330,
      "lich": 331,
      "Ġnoch": 332,
      "Ġ.": 333,
      "ier": 334,
      "das": 335,
      "Ġzu": 336,
      "Ġer": 337,
      "ra": 338,
      "enn": 339,
      "ĠðŁ": 340,
      "em": 341,
      "....": 342,
      ".[": 343,
      "ro": 344,
      "Ġauf": 345,
      "XDXD": 346,
      "el": 347,
      "Ġbi": 348,
      "Ġja": 349,
      "Ġes": 350,
      "ast": 351,
      "Ġwir": 352,
      "am": 353,
      "Ã¼r": 354,
      "Ġal": 355,
      "Ġwie": 356,
      "ok": 357,
      "um": 358,
      "ne": 359,
      "uuuu": 360,
      "DD": 361,
      "__": 362,
      "Ġschon": 363,
      "zt": 364,
      "Ġ-": 365,
      "Ġdann": 366,
      "hi": 367,
      "eine": 368,
      "Ġmit": 369,
      "Ġst": 370,
      "ag": 371,
      "Ġda": 372,
      "Ġhat": 373,
      "den": 374,
      "ĠS": 375,
      "Ġaber": 376,
      "Ġden": 377,
      "yy": 378,
      "eeee": 379,
      "Ġr": 380,
      "Ġ:": 381,
      "eit": 382,
      "Ġne": 383,
      "ben": 384,
      "]ðŁ": 385,
      "Ġ1": 386,
      "Ġman": 387,
      "Ġges": 388,
      "omm": 389,
      ")[": 390,
      "Ġver": 391,
      "Ġkann": 392,
      "Ġmir": 393,
      "mmmm": 394,
      "eil": 395,
      "ehr": 396,
      "Ġwas": 397,
      "du": 398,
      "Ġwar": 399,
      "iel": 400,
      "Ġmach": 401,
      "etzt": 402,
      "cht": 403,
      "iiiiiiii": 404,
      "âĢ": 405,
      "Ġnur": 406,
      "Ġsp": 407,
      "ill": 408,
      "Ġc": 409,
      "ung": 410,
      "kt": 411,
      "ffffffffffffffff": 412,
      "was": 413,
      "Ġ..": 414,
      "us": 415,
      "Ġgeh": 416,
      "Ġaus": 417,
      "âĪŀâĪŀâĪŀâĪŀ": 418,
      "ke": 419,
      "Ġmal": 420,
      "ind": 421,
      "Ġdoch": 422,
      "ute": 423,
      "wie": 424,
      "oh": 425,
      "ĠM": 426,
      "oooooooooooooooo": 427,
      "Ġbe": 428,
      "Ġe": 429,
      "Ġdass": 430,
      "pp": 431,
      "im": 432,
      "ĠðŁ¦": 433,
      "Ġun": 434,
      "ten": 435,
      "be": 436,
      "eiÃŁ": 437,
      "«ĥ": 438,
      "Ġmein": 439,
      "¶ŀ": 440,
      "à¶ŀ": 441,
      "ste": 442,
      "ðŁ«ĥ": 443,
      "ðŁ«ĥðŁ«ĥ": 444,
      "om": 445,
      "ĠĠĠĠĠĠĠĠ": 446,
      "ass": 447,
      "hr": 448,
      "ĺŃ": 449,
      "Ġre": 450,
      "??": 451,
      "rei": 452,
      "imm": 453,
      "]:": 454,
      "ĠA": 455,
      "Ġger": 456,
      "**": 457,
      "AA": 458,
      "Ich": 459,
      "hhhh": 460,
      "bt": 461,
      "la": 462,
      "XDXDXDXD": 463,
      "ion": 464,
      "...[": 465,
      "Ġ.-": 466,
      "Ġoder": 467,
      "ing": 468,
      "ft": 469,
      "nn": 470,
      "lol": 471,
      "is": 472,
      "ĠfÃ¼r": 473,
      "Ġdir": 474,
      "cc": 475,
      "Ġ2": 476,
      "Ã¶Ã¶": 477,
      "he": 478,
      "Ġjetzt": 479,
      "Ġbin": 480,
      "lau": 481,
      "ade": 482,
      "Ġhast": 483,
      "il": 484,
      "nd": 485,
      "tt": 486,
      "uss": 487,
      "ess": 488,
      "Ġab": 489,
      "Ġei": 490,
      "ĠÍ": 491,
      "Â°": 492,
      "isch": 493,
      "Ġwenn": 494,
      "oll": 495,
      "Das": 496,
      "Ġbei": 497,
      "all": 498,
      "acht": 499,
      "ern": 500,
      "Ġvon": 501,
      "âĺŃ": 502,
      "Ja": 503,
      "Ġsind": 504,
      "mal": 505,
      "Ġmich": 506,
      "kk": 507,
      "anz": 508,
      "ist": 509,
      "Ġsie": 510,
      "........": 511,
      "DDDD": 512,
      "and": 513,
      "ic": 514,
      "iert": 515,
      "war": 516,
      "fach": 517,
      "Ġwieder": 518,
      "op": 519,
      "ick": 520,
      "Ġmehr": 521,
      "ent": 522,
      "Ã¼ber": 523,
      "ĠT": 524,
      "Ġsich": 525,
      "uuuuuuuu": 526,
      "zZ": 527,
      "ðŁ¤": 528,
      "ahah": 529,
      "zZzZ": 530,
      "].": 531,
      "rau": 532,
      "hab": 533,
      "ĠB": 534,
      "ĠčĊ": 535,
      "Ġvor": 536,
      "!!!!": 537,
      "Ã¼Ã¼": 538,
      "llt": 539,
      "Ġdem": 540,
      "Ġgut": 541,
      "à¶ŀà¶ŀ": 542,
      "yyyy": 543,
      "ot": 544,
      "Und": 545,
      "anke": 546,
      "âĺŃâĺŃ": 547,
      "Ġgerade": 548,
      "aaaa": 549,
      "ver": 550,
      "Ġeinfach": 551,
      "ĠD": 552,
      "Ġjz": 553,
      "mmer": 554,
      "Ġbist": 555,
      "ĠðŁ¦¦": 556,
      "00": 557,
      "eute": 558,
      "Ġ-.": 559,
      "____": 560,
      "Ġgesch": 561,
      "ĠG": 562,
      "Ġim": 563,
      "Ġganz": 564,
      "Ġhabe": 565,
      "die": 566,
      "Ġ--": 567,
      "Ġdich": 568,
      "ose": 569,
      "da": 570,
      "Ġ3": 571,
      "Ġch": 572,
      "fen": 573,
      "orgen": 574,
      "Ġkomm": 575,
      "âĢį": 576,
      "Ġnach": 577,
      "ĠÃ¼ber": 578,
      "end": 579,
      "os": 580,
      "ze": 581,
      "Ġwird": 582,
      "âĪŀâĪŀâĪŀâĪŀâĪŀâĪŀâĪŀâĪŀ": 583,
      "komm": 584,
      "ert": 585,
      "eg": 586,
      "Ġall": 587,
      "ibt": 588,
      "ahr": 589,
      "ĠP": 590,
      "ĻĤ": 591,
      "ffffffffffffffffffffffffffffffff": 592,
      "ik": 593,
      "Ġmuss": 594,
      "ĠÍ¡": 595,
      "_.[": 596,
      "sp": 597,
      "Ġsoll": 598,
      "ĠK": 599,
      "ĠF": 600,
      "ehen": 601,
      "ĠH": 602,
      "also": 603,
      "eeeeeeee": 604,
      "Ġgeht": 605,
      "Ġu": 606,
      "ool": 607,
      "Ġmachen": 608,
      "Ġa": 609,
      "Ġhaben": 610,
      "Ġpro": 611,
      "ï¸": 612,
      "Ġam": 613,
      "Ã¶r": 614,
      "ice": 615,
      "Ġviel": 616,
      "ieren": 617,
      "mmmmmmmm": 618,
      "ix": 619,
      "Ġimmer": 620,
      "danke": 621,
      "ĠW": 622,
      "hihi": 623,
      "EE": 624,
      "ust": 625,
      "nein": 626,
      "ow": 627,
      "iiiiiiiiiiiiiiii": 628,
      "Aber": 629,
      "CH": 630,
      "mo": 631,
      "Ġhal": 632,
      "]-": 633,
      "gt": 634,
      "osef": 635,
      "Ã¤t": 636,
      "Ġals": 637,
      "Ġwill": 638,
      "Ġgem": 639,
      "ðŁ«ĥðŁ«ĥðŁ«ĥðŁ«ĥ": 640,
      "âĢįâ": 641,
      "Ġmin": 642,
      "Ġheute": 643,
      "]#": 644,
      "Ġsein": 645,
      "aus": 646,
      "Ġglau": 647,
      "leich": 648,
      "-[": 649,
      "Ġum": 650,
      "Ã¶nn": 651,
      "Ġwer": 652,
      "Ġkl": 653,
      "hn": 654,
      "ht": 655,
      "OO": 656,
      "XDXDXDXDXDXDXDXD": 657,
      "we": 658,
      "immt": 659,
      "zu": 660,
      "oooooooooooooooooooooooooooooooo": 661,
      "([": 662,
      "Ġander": 663,
      "]?[": 664,
      "Ġ5": 665,
      "Ġkeine": 666,
      "Ġgibt": 667,
      "Ã¤Ã¤": 668,
      "agt": 669,
      "âĢįâĻĤ": 670,
      "?![": 671,
      "rie": 672,
      "dann": 673,
      "kl": 674,
      "ĠweiÃŁ": 675,
      "Ã¤n": 676,
      "dd": 677,
      "oder": 678,
      "!!![": 679,
      "lt": 680,
      "weil": 681,
      "Ġschrei": 682,
      "Ġgef": 683,
      "Ġ4": 684,
      "Ġmorgen": 685,
      "Ġ:)[": 686,
      "rÃ¼": 687,
      "uch": 688,
      "ĠÍ¡Â°": 689,
      "esch": 690,
      "Ġkein": 691,
      "test": 692,
      "ï¸ı": 693,
      "Ġ\"": 694,
      "Ġnen": 695,
      "unkt": 696,
      "ĠkÃ¶nn": 697,
      "lo": 698,
      "Ġar": 699,
      "¦âĢįâĻĤ": 700,
      "?!": 701,
      "bin": 702,
      "ĠE": 703,
      "unden": 704,
      "hast": 705,
      "tw": 706,
      "Ġeig": 707,
      "ĠL": 708,
      "schen": 709,
      "ĠðŁĺ": 710,
      "wei": 711,
      "ĠN": 712,
      "eht": 713,
      "ue": 714,
      "Ġuns": 715,
      "AAAA": 716,
      "==": 717,
      "Ġerst": 718,
      "warum": 719,
      "Â¶": 720,
      "Ġdein": 721,
      "Ġdumm": 722,
      "iv": 723,
      "himo": 724,
      "Ġ...": 725,
      "hmm": 726,
      "li": 727,
      "tlich": 728,
      "ld": 729,
      "cccc": 730,
      "Ġ8": 731,
      "ad": 732,
      "Ġy": 733,
      "her": 734,
      "hhhhhhhh": 735,
      "ĠðŁ¦Ĩ": 736,
      "inde": 737,
      "Ġgleich": 738,
      "ichtig": 739,
      "Ġeine": 740,
      "ssen": 741,
      "]*": 742,
      "Ġgen": 743,
      "Ġgar": 744,
      "Ġok": 745,
      "esser": 746,
      "gend": 747,
      "Ġalles": 748,
      "fe": 749,
      "che": 750,
      "ort": 751,
      "Ġhalt": 752,
      "]._.[": 753,
      "Ġmus": 754,
      "ĠwÃ¤": 755,
      "Ġeigen": 756,
      "rr": 757,
      "Ã¶Ã¶Ã¶Ã¶": 758,
      "Ġglaube": 759,
      "Wie": 760,
      "ĠĠĠĠĠĠĠĠĠĠĠĠĠĠĠĠ": 761,
      "Ġlan": 762,
      "----": 763,
      "Ġcool": 764,
      "Ġ(": 765,
      "zZzZzZzZ": 766,
      "ðŁ¤¦âĢįâĻĤ": 767,
      "dankedanke": 768,
      "ip": 769,
      "tf": 770,
      "Ġspiel": 771,
      "kkkk": 772,
      "Ġbis": 773,
      "................": 774,
      "Ġgemacht": 775,
      "pla": 776,
      "Ġ0": 777,
      "achso": 778,
      "ĠR": 779,
      "nen": 780,
      "Ġmeine": 781,
      "Ġlie": 782,
      "zen": 783,
      "Was": 784,
      "Ġweil": 785,
      "TT": 786,
      "net": 787,
      "uten": 788,
      "ack": 789,
      "Ġalle": 790,
      "chen": 791,
      "???[": 792,
      "bei": 793,
      "wer": 794,
      "ĠI": 795,
      "Ġsa": 796,
      "à¶ŀà¶ŀà¶ŀ": 797,
      "Ġ6": 798,
      "Ġdar": 799,
      "Ġzeit": 800,
      "ap": 801,
      "Ġ9": 802,
      "ens": 803,
      "DDDDDDDD": 804,
      "Ġchill": 805,
      "II": 806,
      "Ġkr": 807,
      "hat": 808,
      "ine": 809,
      "Ġecht": 810,
      "play": 811,
      "bst": 812,
      "hm": 813,
      "11": 814,
      "Ġdenn": 815,
      "ry": 816,
      "Ġwe": 817,
      "itte": 818,
      "me": 819,
      "Ġà¶ŀà¶ŀà¶ŀ": 820,
      "Ġsel": 821,
      "Ġbesser": 822,
      "id": 823,
      "wir": 824,
      "ĠV": 825,
      "Ġlust": 826,
      "Ġeigentlich": 827,
      "]:)[": 828,
      "ou": 829,
      "]ðŁĺ": 830,
      "Ġsehr": 831,
      "Ġschau": 832,
      "Du": 833,
      "ĠZ": 834,
      "ffle": 835,
      "abl": 836,
      "-.": 837,
      "Ġon": 838,
      "xDxD": 839,
      "Ã¶n": 840,
      "]ðŁ¥": 841,
      "doch": 842,
      "Ġfra": 843,
      "uren": 844,
      "gra": 845,
      "wo": 846,
      "Ġbiffle": 847,
      "_-[": 848,
      "Ġ7": 849,
      "Ġir": 850,
      "ide": 851,
      "âĶ": 852,
      "iele": 853,
      "dem": 854,
      "ls": 855,
      "ug": 856,
      "ler": 857,
      "nicht": 858,
      "Ġeinen": 859,
      "ER": 860,
      "mc": 861,
      "ation": 862,
      "Â¶Â¶": 863,
      "ablabl": 864,
      "ser": 865,
      "yyyyyyyy": 866,
      "nÃ¶": 867,
      "sen": 868,
      "ehe": 869,
      "Ġzum": 870,
      "Ã¼Ã¼Ã¼Ã¼": 871,
      "rieben": 872,
      "HA": 873,
      "ien": 874,
      "âķ": 875,
      "ÃŁÃŁ": 876,
      "uuuuuuuuuuuuuuuu": 877,
      "ĠĠĠ": 878,
      "âĪŀâĪŀâĪŀâĪŀâĪŀâĪŀâĪŀâĪŀâĪŀâĪŀâĪŀâĪŀâĪŀâĪŀâĪŀâĪŀ": 879,
      "ssss": 880,
      "Ġunter": 881,
      "¦[": 882,
      "Ġob": 883,
      "Ġmacht": 884,
      "ðŁ¤®": 885,
      "unktion": 886,
      "wieso": 887,
      "Ok": 888,
      "Ġje": 889,
      "omp": 890,
      "Ġnix": 891,
      "ahahahah": 892,
      "mlich": 893,
      "ĠU": 894,
      "Hab": 895,
      "ger": 896,
      "kann": 897,
      "ul": 898,
      "Ġnh": 899,
      "ĠmÃ¼": 900,
      "Ġgehen": 901,
      "13": 902,
      "na": 903,
      "Êĸ": 904,
      "ster": 905,
      "ĠwÃ¤re": 906,
      "ĠwÃ¼r": 907,
      "gel": 908,
      "ĠÍľ": 909,
      "tet": 910,
      "unde": 911,
      "gramm": 912,
      "ige": 913,
      "ww": 914,
      "Ġ\\": 915,
      "Ġrichtig": 916,
      "mach": 917,
      "Ġdur": 918,
      "ĠSt": 919,
      "Ġthe": 920,
      "](": 921,
      "Ãľ": 922,
      "Ġ....": 923,
      "Ã¼ck": 924,
      "Ġlol": 925,
      "Ġ=": 926,
      "lle": 927,
      "Ġvllt": 928,
      "Ġle": 929,
      "ffffffffffffffffffffffffffffffffffffffffffffffffffffffffffffffff": 930,
      "ka": 931,
      "rin": 932,
      "Ġhin": 933,
      "***": 934,
      "Ġjosef": 935,
      "auf": 936,
      "âĺŃâĺŃâĺŃâĺŃ": 937,
      "wenn": 938,
      "Ġkannst": 939,
      "eiÃŁt": 940,
      "10": 941,
      "uck": 942,
      "wtf": 943,
      "Ġeh": 944,
      "Die": 945,
      "ha": 946,
      "Ġen": 947,
      "ĠnÃ¤": 948,
      "aÃŁ": 949,
      "Ã¤r": 950,
      "Ġ-..": 951,
      "schein": 952,
      "ĠSch": 953,
      "14": 954,
      "Ġgesagt": 955,
      "??[": 956,
      "llen": 957,
      "________": 958,
      "gesch": 959,
      "Ġson": 960,
      "Ġihn": 961,
      "sten": 962,
      "ðŁ«ĥðŁ«ĥðŁ«ĥðŁ«ĥðŁ«ĥðŁ«ĥðŁ«ĥðŁ«ĥ": 963,
      "mit": 964,
      "up": 965,
      "athe": 966,
      "Ġdurch": 967,
      "Sch": 968,
      "ungen": 969,
      "ĠkÃ¶nnen": 970,
      "Ġirgend": 971,
      "stimmt": 972,
      "Ġbl": 973,
      "schau": 974,
      "Ġ.-..": 975,
      "tttt": 976,
      "je": 977,
      "dern": 978,
      "jaja": 979,
      "Ġwerden": 980,
      "sd": 981,
      "uff": 982,
      "Ã³": 983,
      "\"[": 984,
      "Ġet": 985,
      "llll": 986,
      "Ġschne": 987,
      "olol": 988,
      "ĠwÃ¼rde": 989,
      "FF": 990,
      "Ġex": 991,
      "ank": 992,
      "tz": 993,
      "]ðŁ¦": 994,
      "raft": 995,
      "XDXDXDXDXDXDXDXDXDXDXDXDXDXDXDXD": 996,
      "nice": 997,
      "Ġnice": 998,
      "Ġher": 999,
      "hihihihi": 1000,
      "Ġq": 1001,
      "ðŁĺ": 1002,
      "Ġfinde": 1003,
      "Ġ.-.": 1004,
      "Ġgeschrieben": 1005,
      "15": 1006,
      "ble": 1007,
      "Ġschl": 1008,
      "Ġkommt": 1009,
      "men": 1010,
      "aufen": 1011,
      "ðŁ¤®ðŁ¤®": 1012,
      "EN": 1013,
      "gar": 1014,
      "Ġde": 1015,
      "rÃ¤": 1016,
      "aha": 1017,
      "ys": 1018,
      "aden": 1019,
      "gg": 1020,
      "hÃ¤": 1021,
      "Ġbekomm": 1022,
      "]-_-[": 1023,
      "ule": 1024,
      "Ġihr": 1025,
      "Ġraus": 1026,
      "asst": 1027,
      "Ġfunktion": 1028,
      "Ġlei": 1029,
      "Ġrecht": 1030,
      "richt": 1031,
      "Ġent": 1032,
      "Ġbrau": 1033,
      "Ġsieht": 1034,
      "aaa": 1035,
      "Ne": 1036,
      "Ġwoll": 1037,
      "klich": 1038,
      "len": 1039,
      "Ġnie": 1040,
      "eiten": 1041,
      "12": 1042,
      "jj": 1043,
      "sk": 1044,
      "Ġ10": 1045,
      "Ġverst": 1046,
      "mmmmmmmmmmmmmmmm": 1047,
      "nur": 1048,
      "Ġlern": 1049,
      "Ġdeine": 1050,
      "sel": 1051,
      "art": 1052,
      "Ġschnell": 1053,
      "wann": 1054,
      "ooo": 1055,
      "eee": 1056,
      "gef": 1057,
      "cke": 1058,
      "ope": 1059,
      "HH": 1060,
      "Ġkrass": 1061,
      "66": 1062,
      "di": 1063,
      "Ġschle": 1064,
      "Ġ-.-.": 1065,
      "inn": 1066,
      "Ġvide": 1067,
      "Ġmusst": 1068,
      "pt": 1069,
      "aut": 1070,
      "Ġser": 1071,
      "Ġwei": 1072,
      "Ġhier": 1073,
      "oooooooooooooooooooooooooooooooooooooooooooooooooooooooooooooooo": 1074,
      "vc": 1075,
      "Ġnem": 1076,
      "Ġwur": 1077,
      "Ġgel": 1078,
      "iiiiiiiiiiiiiiiiiiiiiiiiiiiiiiii": 1079,
      "ĠÍ¡Â°)": 1080,
      "fÃ¼r": 1081,
      "Ġkur": 1082,
      "Ġviele": 1083,
      "Ġspielen": 1084,
      "von": 1085,
      "ink": 1086,
      "Ġru": 1087,
      "Ġwahr": 1088,
      "Ġ..-": 1089,
      "craft": 1090,
      "ds": 1091,
      "off": 1092,
      "Ã²": 1093,
      "ĠJ": 1094,
      "Ġte": 1095,
      "Ġschreiben": 1096,
      "Ġneu": 1097,
      "!!!!!!!!": 1098,
      "scheinlich": 1099,
      ",,": 1100,
      "Der": 1101,
      "ĠC": 1102,
      "Ġalso": 1103,
      "Ġuhr": 1104,
      "Ġsagen": 1105,
      "Ġmc": 1106,
      "Ġbild": 1107,
      "eeeeeeeeeeeeeeee": 1108,
      "man": 1109,
      "Ġdrau": 1110,
      "Ġwel": 1111,
      "Ã¤u": 1112,
      "Ġ---": 1113,
      "aar": 1114,
      "fl": 1115,
      "ĠâĢ": 1116,
      "Oh": 1117,
      "son": 1118,
      "vor": 1119,
      "Ġwo": 1120,
      "Ġwen": 1121,
      "hal": 1122,
      "issen": 1123,
      "amit": 1124,
      "EEEE": 1125,
      "gl": 1126,
      "Ġsag": 1127,
      "Ġweg": 1128,
      "achte": 1129,
      "ĠschÃ¶n": 1130,
      "Ġnochmal": 1131,
      "Ã¤tte": 1132,
      "IN": 1133,
      "Ġner": 1134,
      "ont": 1135,
      "assen": 1136,
      "gut": 1137,
      "Ġhuren": 1138,
      "ĠSp": 1139,
      "ðŁ¤¦âĢįâĻĤï¸ı": 1140,
      "19": 1141,
      "mein": 1142,
      "sa": 1143,
      "Ġlo": 1144,
      "Ġzwei": 1145,
      "Ġgew": 1146,
      "cccccccc": 1147,
      "^[": 1148,
      "ri": 1149,
      "Ġgest": 1150,
      "Ġprogramm": 1151,
      "hau": 1152,
      "Ġfre": 1153,
      "Ġdiese": 1154,
      "rain": 1155,
      "ertig": 1156,
      "Ġlange": 1157,
      "dankedankedankedanke": 1158,
      "ges": 1159,
      "tja": 1160,
      "ve": 1161,
      "ĠheiÃŁt": 1162,
      "Ġihm": 1163,
      "allo": 1164,
      "zZzZzZzZzZzZzZzZ": 1165,
      "ðŁ¤¦âĢįâĻĤï¸ıðŁ¤¦âĢįâĻĤï¸ı": 1166,
      "ken": 1167,
      "ui": 1168,
      "ĠmÃ¶": 1169,
      "Ġgesehen": 1170,
      "Ã¶rt": 1171,
      "ðŁ¤¦âĢįâĻĤðŁ¤¦âĢįâĻĤ": 1172,
      "SS": 1173,
      "ĠO": 1174,
      "roÃŁ": 1175,
      "AU": 1176,
      "ce": 1177,
      "nt": 1178,
      "µ[": 1179,
      "ant": 1180,
      "Ġ20": 1181,
      "Ġgenau": 1182,
      "hen": 1183,
      "esen": 1184,
      "]...[": 1185,
      "io": 1186,
      "jz": 1187,
      "nope": 1188,
      "Ġ:([": 1189,
      "iss": 1190,
      "zw": 1191,
      "ffen": 1192,
      "atÃ¼r": 1193,
      "Ġzur": 1194,
      "Ġwirklich": 1195,
      "HAHA": 1196,
      "eich": 1197,
      "aten": 1198,
      "schl": 1199,
      "ohl": 1200,
      "kkkkkkkk": 1201,
      "Ġlernen": 1202,
      "Ġschw": 1203,
      "andy": 1204,
      "Ã¤Ã¤Ã¤Ã¤": 1205,
      "99": 1206,
      "Al": 1207,
      "gst": 1208,
      "jk": 1209,
      "jetzt": 1210,
      "ĠðŁĺ¡": 1211,
      "atÃ¼rlich": 1212,
      "Da": 1213,
      "War": 1214,
      "]..": 1215,
      "chte": 1216,
      "Ġdenke": 1217,
      "Ġyou": 1218,
      "Ġlang": 1219,
      "yp": 1220,
      "ord": 1221,
      "ure": 1222,
      "ett": 1223,
      "hhhhhhhhhhhhhhhh": 1224,
      "................................": 1225,
      "ang": 1226,
      "achen": 1227,
      "Ġfl": 1228,
      "Ġvoll": 1229,
      "Ã¤h": 1230,
      "Ġschauen": 1231,
      "77": 1232,
      "Ġ._.[": 1233,
      "essen": 1234,
      "ickt": 1235,
      "wegen": 1236,
      "====": 1237,
      "Ġschlecht": 1238,
      "++": 1239,
      "<:": 1240,
      "Ist": 1241,
      "SCH": 1242,
      "áµ": 1243,
      "Ġsogar": 1244,
      "Ġto": 1245,
      "imim": 1246,
      "AAAAAAAA": 1247,
      "Ġkurz": 1248,
      "Also": 1249,
      "**[": 1250,
      "fer": 1251,
      "gab": 1252,
      "Ġgesp": 1253,
      "Ġsicher": 1254,
      "ahren": 1255,
      "22": 1256,
      "muss": 1257,
      "vllt": 1258,
      "Ġfertig": 1259,
      "ischen": 1260,
      "Ġganze": 1261,
      "Ġwenig": 1262,
      "/[": 1263,
      "bo": 1264,
      "Ġis": 1265,
      "Ġzie": 1266,
      "Ġins": 1267,
      "endlich": 1268,
      "--------": 1269,
      "CK": 1270,
      "ib": 1271,
      "ott": 1272,
      "Ġ.--": 1273,
      "xDxDxDxD": 1274,
      "Ġserver": 1275,
      "16": 1276,
      "]**": 1277,
      "ater": 1278,
      "mer": 1279,
      "Ġkomp": 1280,
      "Ġhatte": 1281,
      "Ġsollte": 1282,
      "Ġsehen": 1283,
      "Ġtim": 1284,
      "Ġpass": 1285,
      "Ġinter": 1286,
      "Ġsteht": 1287,
      "Ġrein": 1288,
      "]ðŁ¥µ[": 1289,
      "áµĶ": 1290,
      "ST": 1291,
      "beit": 1292,
      "Ġdes": 1293,
      "angen": 1294,
      "Ġoh": 1295,
      "Ġstimmt": 1296,
      "ÃľÃľ": 1297,
      "Ġwurde": 1298,
      "]@": 1299,
      "bl": 1300,
      "Ã¤ter": 1301,
      "âķı": 1302,
      "Hast": 1303,
      "Ġ|": 1304,
      "Ġro": 1305,
      "Ġnacht": 1306,
      "ÃŁer": 1307,
      "Ã¶Ã¶Ã¶Ã¶Ã¶Ã¶Ã¶Ã¶": 1308,
      "'s": 1309,
      "ner": 1310,
      "!!!": 1311,
      "Ġpaar": 1312,
      "Ġ.[": 1313,
      "ame": 1314,
      "ablablablabl": 1315,
      "echt": 1316,
      "Ġhoch": 1317,
      "hili": 1318,
      "?!?![": 1319,
      "blem": 1320,
      "||": 1321,
      "cher": 1322,
      "dddd": 1323,
      "ĠhÃ¤tte": 1324,
      "geben": 1325,
      "Ġminuten": 1326,
      "Ġsei": 1327,
      "Ġschick": 1328,
      "Ġeiner": 1329,
      "Ġgerne": 1330,
      "rrrr": 1331,
      "âĪŀâĪŀâĪŀâĪŀâĪŀâĪŀâĪŀâĪŀâĪŀâĪŀâĪŀâĪŀâĪŀâĪŀâĪŀâĪŀâĪŀâĪŀâĪŀâĪŀâĪŀâĪŀâĪŀâĪŀâĪŀâĪŀâĪŀâĪŀâĪŀâĪŀâĪŀâĪŀ": 1332,
      "Ġfunktioniert": 1333,
      "]\"": 1334,
      "fÃ¼": 1335,
      "ere": 1336,
      "Ġdr": 1337,
      "Ġmathe": 1338,
      "ĠgroÃŁ": 1339,
      "unk": 1340,
      "Ã¼b": 1341,
      "orm": 1342,
      "ingt": 1343,
      "ild": 1344,
      "OOOO": 1345,
      "Ġweiter": 1346,
      "Es": 1347,
      "lat": 1348,
      "Ġsagt": 1349,
      "Ġma": 1350,
      "tel": 1351,
      "Ġandere": 1352,
      "Ġfrage": 1353,
      "uf": 1354,
      "zz": 1355,
      "unter": 1356,
      "ext": 1357,
      "Ġfil": 1358,
      "Ġanderen": 1359,
      "Ġbisschen": 1360,
      "Ġwahrscheinlich": 1361,
      "Nein": 1362,
      "]â": 1363,
      "df": 1364,
      "nung": 1365,
      "Ġlaufen": 1366,
      "det": 1367,
      "rag": 1368,
      "]ðŁ¤": 1369,
      "30": 1370,
      "ob": 1371,
      "ÃĦ": 1372,
      "iii": 1373,
      "ĠscheiÃŁ": 1374,
      "ochen": 1375,
      "schrei": 1376,
      "ĠĠĠĠĠĠĠĠĠĠĠĠĠĠĠĠĠĠĠĠĠĠĠĠĠĠĠĠĠĠĠĠ": 1377,
      "Ġvideo": 1378,
      "hilipp": 1379,
      "((": 1380,
      "tzt": 1381,
      "Ġgeil": 1382,
      "Ġgefunden": 1383,
      "In": 1384,
      "LO": 1385,
      "aff": 1386,
      "ct": 1387,
      "line": 1388,
      "th": 1389,
      "¢[": 1390,
      "Ġkenn": 1391,
      "cken": 1392,
      "Ġmeinem": 1393,
      "hmmm": 1394,
      "IIII": 1395,
      "Ġdrauf": 1396,
      "Wenn": 1397,
      "do": 1398,
      "zi": 1399,
      "Ġmache": 1400,
      "spiel": 1401,
      "ĠkÃ¶nnte": 1402,
      "des": 1403,
      "omisch": 1404,
      "nnnn": 1405,
      "Ġkommen": 1406,
      "Ġklein": 1407,
      "twor": 1408,
      "DDDDDDDDDDDDDDDD": 1409,
      "skip": 1410,
      "bitte": 1411,
      "geht": 1412,
      "Ġdamit": 1413,
      "Ġsc": 1414,
      "ðŁĳ": 1415,
      "ckt": 1416,
      "ICH": 1417,
      "MO": 1418,
      "pro": 1419,
      "!![": 1420,
      "Ġper": 1421,
      "yyyyyyyyyyyyyyyy": 1422,
      "40": 1423,
      "sry": 1424,
      "Ġged": 1425,
      "Ġwarum": 1426,
      "]:([": 1427,
      "âĶ»": 1428,
      "So": 1429,
      "hys": 1430,
      "kr": 1431,
      "top": 1432,
      "Ġdis": 1433,
      "als": 1434,
      "Ġste": 1435,
      "Dann": 1436,
      "^^[": 1437,
      "ren": 1438,
      "Ġx": 1439,
      "????[": 1440,
      "Ġselber": 1441,
      "gute": 1442,
      "ia": 1443,
      "ĠnatÃ¼rlich": 1444,
      "Ġschule": 1445,
      "opf": 1446,
      "ï¸ı[": 1447,
      "Wieso": 1448,
      ">[": 1449,
      "GU": 1450,
      "ay": 1451,
      "ek": 1452,
      "keine": 1453,
      "ode": 1454,
      "sh": 1455,
      "zei": 1456,
      "tern": 1457,
      "atze": 1458,
      "ungs": 1459,
      "ĠMin": 1460,
      "Ġmeinen": 1461,
      "LL": 1462,
      "erst": 1463,
      "Ġbitte": 1464,
      "schick": 1465,
      "Ġgeb": 1466,
      "Ġerste": 1467,
      "ĠMal": 1468,
      "Ġmine": 1469,
      "ĠnÃ¤mlich": 1470,
      "Ġetw": 1471,
      "ekt": 1472,
      "glich": 1473,
      "hallo": 1474,
      "nee": 1475,
      "Ġbaden": 1476,
      "sehr": 1477,
      "ixel": 1478,
      "tzdem": 1479,
      "33": 1480,
      "age": 1481,
      "ãĢ": 1482,
      "Ġber": 1483,
      "Ġem": 1484,
      "Ġwissen": 1485,
      "Ġbes": 1486,
      "Ġth": 1487,
      "Ġwieso": 1488,
      "Ġwerde": 1489,
      "Ġkeinen": 1490,
      "]ðŁ¦¦[": 1491,
      "sag": 1492,
      "Ġschla": 1493,
      "Ġvom": 1494,
      "Ġwaren": 1495,
      "Ġmeinte": 1496,
      "ĠPro": 1497,
      "Ġgestern": 1498,
      "AS": 1499,
      "ud": 1500,
      "will": 1501,
      "Í¡": 1502,
      "Ġgr": 1503,
      "Ġnichts": 1504,
      "ĠfÃ¼": 1505,
      "etz": 1506,
      "iere": 1507,
      "Ġwillst": 1508,
      "ðŁ«ĥðŁ«ĥðŁ«ĥðŁ«ĥðŁ«ĥðŁ«ĥðŁ«ĥðŁ«ĥðŁ«ĥðŁ«ĥðŁ«ĥðŁ«ĥðŁ«ĥðŁ«ĥðŁ«ĥðŁ«ĥ": 1509,
      "Oder": 1510,
      "kenn": 1511,
      "min": 1512,
      "mus": 1513,
      "Ġbtw": 1514,
      "itz": 1515,
      "Ġtro": 1516,
      "raining": 1517,
      "))": 1518,
      "sam": 1519,
      "ĠÐ": 1520,
      "Ġmen": 1521,
      "Ġhe": 1522,
      "Ġthimo": 1523,
      "ssl": 1524,
      "elt": 1525,
      "Ġirgendwie": 1526,
      "igen": 1527,
      "tag": 1528,
      "Ġwann": 1529,
      "Ġbil": 1530,
      "Ġdazu": 1531,
      "Ġvers": 1532,
      "Ġproblem": 1533,
      "Ã¼Ã¼Ã¼Ã¼Ã¼Ã¼Ã¼Ã¼": 1534,
      "ÃŁÃŁÃŁÃŁ": 1535,
      ";)[": 1536,
      "Ġhandy": 1537,
      "Ġben": 1538,
      "Ġpls": 1539,
      "ĠðŁĲ": 1540,
      "ĠspaÃŁ": 1541,
      "KL": 1542,
      "Lol": 1543,
      "heit": 1544,
      "hot": 1545,
      "sie": 1546,
      "wow": 1547,
      "Ãĸ": 1548,
      "asse": 1549,
      "Ġdus": 1550,
      "Ġessen": 1551,
      "Ġklar": 1552,
      "ĠZeit": 1553,
      "Ġsonst": 1554,
      "XDXDXDXDXDXDXDXDXDXDXDXDXDXDXDXDXDXDXDXDXDXDXDXDXDXDXDXDXDXDXDXD": 1555,
      "Ġminecraft": 1556,
      "CC": 1557,
      "uter": 1558,
      "Ġit": 1559,
      "Ġlos": 1560,
      "oher": 1561,
      "Ġbeim": 1562,
      "ĠThimo": 1563,
      "ĠðŁĺ«": 1564,
      "aptop": 1565,
      "ĠmÃ¼ssen": 1566,
      "hysik": 1567,
      "Ġdan": 1568,
      "ald": 1569,
      "alsch": 1570,
      "Ã¤ch": 1571,
      "schie": 1572,
      "Ġsowas": 1573,
      "utsch": 1574,
      "Ġmeiner": 1575,
      "ĺŃ[": 1576,
      "Ġziemlich": 1577,
      "ech": 1578,
      "per": 1579,
      "ä¸": 1580,
      "Ġdachte": 1581,
      "itter": 1582,
      "Ġbissl": 1583,
      "lock": 1584,
      "âĶģ": 1585,
      "Ġohne": 1586,
      "20": 1587,
      "Bin": 1588,
      "]<:": 1589,
      "bs": 1590,
      "josef": 1591,
      "Ġah": 1592,
      "Ġus": 1593,
      "Ġhit": 1594,
      "Ġschwer": 1595,
      "Ã¤hr": 1596,
      "ĠAn": 1597,
      "kannst": 1598,
      "Ġschlimm": 1599,
      "MOGU": 1600,
      "819": 1601,
      "Er": 1602,
      "bb": 1603,
      "glau": 1604,
      "hol": 1605,
      "Ġâ": 1606,
      "Ġfr": 1607,
      "annt": 1608,
      "âĢľ": 1609,
      "ĻĤ[": 1610,
      "Ġup": 1611,
      "klÃ¤r": 1612,
      "SCHAU": 1613,
      "LOCK": 1614,
      "ĠMinuten": 1615,
      "HER": 1616,
      "Weil": 1617,
      "pf": 1618,
      "upp": 1619,
      "Ġkon": 1620,
      "Ġzw": 1621,
      "ĠspÃ¤ter": 1622,
      "isa": 1623,
      "kommen": 1624,
      "Ġwollte": 1625,
      "!!!***": 1626,
      "ed": 1627,
      "est": 1628,
      "noch": 1629,
      "auch": 1630,
      "Ġdies": 1631,
      "ormal": 1632,
      "Ġeinem": 1633,
      "Ġgek": 1634,
      "ĠSHER": 1635,
      "Ġbestimmt": 1636,
      "Ġgibts": 1637,
      "ĠnÃ¤ch": 1638,
      "ĠSHERLOCK": 1639,
      "MM": 1640,
      "dee": 1641,
      "thimo": 1642,
      "abei": 1643,
      "Ġfast": 1644,
      "dert": 1645,
      "scha": 1646,
      "Ġtoll": 1647,
      "ĠĠĠĠĠĠĠ": 1648,
      "000": 1649,
      "Ġonline": 1650,
      "ahahahahahahahah": 1651,
      "ffffffffffffffffffffffffffffffffffffffffffffffffffffffffffffffffffffffffffffffffffffffffffffffffffffffffffffffffffffffffffffffff": 1652,
      "74": 1653,
      "Lisa": 1654,
      "ost": 1655,
      "pr": 1656,
      "Ġmag": 1657,
      "Ġbo": 1658,
      "Ġfall": 1659,
      "ehmen": 1660,
      "genau": 1661,
      "Ġtyp": 1662,
      "amen": 1663,
      "Ġ15": 1664,
      "]-.": 1665,
      "FFFF": 1666,
      "hihihihihihihihi": 1667,
      "Warum": 1668,
      "MOGUS": 1669,
      "Doch": 1670,
      "Kann": 1671,
      "geh": 1672,
      "Ġdabei": 1673,
      "Ġnein": 1674,
      "jaaaaa": 1675,
      "Ġletzt": 1676,
      "igrÃ¤": 1677,
      "Ġpassiert": 1678,
      "igrÃ¤ne": 1679,
      "gal": 1680,
      "oin": 1681,
      "ooooo": 1682,
      "rad": 1683,
      "Ġmeinst": 1684,
      "Ġbekommen": 1685,
      "haupt": 1686,
      "'([": 1687,
      "AN": 1688,
      "akt": 1689,
      "fall": 1690,
      "gr": 1691,
      "Ġor": 1692,
      "Ġnich": 1693,
      "Ġlaptop": 1694,
      "Ġtat": 1695,
      "Ġgeschickt": 1696,
      "wester": 1697,
      "Ġselbst": 1698,
      "ssssssss": 1699,
      "________________": 1700,
      "tttttttt": 1701,
      "Ġbilder": 1702,
      "cord": 1703,
      "fu": 1704,
      "morgen": 1705,
      "asch": 1706,
      "Ġget": 1707,
      "ðŁ¥": 1708,
      "Ġpixel": 1709,
      "olz": 1710,
      "âĺŃ[": 1711,
      "ĠðŁĲĮ": 1712,
      "Ach": 1713,
      "EIN": 1714,
      "TZ": 1715,
      "cool": 1716,
      "Ġdo": 1717,
      "oog": 1718,
      "Ġgute": 1719,
      "Ġkomisch": 1720,
      "Ã¼n": 1721,
      "Ġfeh": 1722,
      "ings": 1723,
      "//": 1724,
      "Ein": 1725,
      "]âĢ": 1726,
      "ak": 1727,
      "gessen": 1728,
      "ho": 1729,
      "wu": 1730,
      "Ġ^^[": 1731,
      "ĠfrÃ¼": 1732,
      "Ġange": 1733,
      "ragt": 1734,
      "ĠðŁĳ": 1735,
      "Ġmachst": 1736,
      "uuuuuuuuuuuuuuuuuuuuuuuuuuuuuuuu": 1737,
      "Ġeher": 1738,
      "Ġrum": 1739,
      "dr": 1740,
      "gibt": 1741,
      "lan": 1742,
      "wel": 1743,
      "Ã´": 1744,
      "Ġwohl": 1745,
      "unst": 1746,
      "Ã¤re": 1747,
      "schon": 1748,
      "itt": 1749,
      "etter": 1750,
      "utter": 1751,
      "ĠAMOGUS": 1752,
      "!!!![": 1753,
      "ĠÃ¼berhaupt": 1754,
      "Ġapp": 1755,
      "Ġahnung": 1756,
      "Ah": 1757,
      "ma": 1758,
      "zie": 1759,
      "ĠÃ¼b": 1760,
      "ĠhÃ¤": 1761,
      "Ġlink": 1762,
      "ische": 1763,
      "date": 1764,
      "âĢįðŁ": 1765,
      "Ġlustig": 1766,
      "ä¸Ģ": 1767,
      "lass": 1768,
      "¶[": 1769,
      "ause": 1770,
      "Ġfuck": 1771,
      "oche": 1772,
      "Ġeinmal": 1773,
      "Ġteil": 1774,
      "Ġneue": 1775,
      "oha": 1776,
      "Ġ----": 1777,
      "oooooooooooooooooooooooooooooooooooooooooooooooooooooooooooooooooooooooooooooooooooooooooooooooooooooooooooooooooooooooooooooooo": 1778,
      "]...": 1779,
      "57": 1780,
      "RR": 1781,
      "keit": 1782,
      "qu": 1783,
      "Ġme": 1784,
      "Ġkam": 1785,
      "ory": 1786,
      "ppen": 1787,
      "Ġgemein": 1788,
      "?!?!": 1789,
      "Ġlieber": 1790,
      "Ġblei": 1791,
      "Ġqu": 1792,
      "ĠscheiÃŁe": 1793,
      "by": 1794,
      "pls": 1795,
      "Ġgl": 1796,
      "mmen": 1797,
      "ache": 1798,
      "reens": 1799,
      "ÃŁen": 1800,
      "Ġstunden": 1801,
      "]ðŁĻĤ[": 1802,
      "ommen": 1803,
      "heute": 1804,
      "Ġanders": 1805,
      "dig": 1806,
      "jo": 1807,
      "ĠÃ¶": 1808,
      "Ġha": 1809,
      "Ã¤llt": 1810,
      "scht": 1811,
      "immer": 1812,
      "]-..": 1813,
      "Ġjeden": 1814,
      ",,,,": 1815,
      "dankedankedankedankedankedankedankedanke": 1816,
      "ðŁ¤¦âĢįâĻĤï¸ıðŁ¤¦âĢįâĻĤï¸ıðŁ¤¦âĢįâĻĤï¸ıðŁ¤¦âĢįâĻĤï¸ı": 1817,
      "ðŁ¤¦âĢįâĻĤðŁ¤¦âĢįâĻĤðŁ¤¦âĢįâĻĤðŁ¤¦âĢįâĻĤ": 1818,
      "17": 1819,
      "88": 1820,
      "weg": 1821,
      "Ġdrei": 1822,
      "Ġno": 1823,
      "anden": 1824,
      "Ġhoff": 1825,
      "rech": 1826,
      "Ġhabs": 1827,
      "immen": 1828,
      "Ġ30": 1829,
      "ady": 1830,
      "]ðŁ¥¶[": 1831,
      "zZzZzZzZzZzZzZzZzZzZzZzZzZzZzZzZ": 1832,
      "gabe": 1833,
      "Ġhitler": 1834,
      "oogle": 1835,
      "Hmm": 1836,
      "Wir": 1837,
      "bist": 1838,
      "dar": 1839,
      "eben": 1840,
      "ite": 1841,
      "wÃ¼r": 1842,
      "Ġdrin": 1843,
      "Ġgru": 1844,
      "..[": 1845,
      "Ġoff": 1846,
      "ahl": 1847,
      "Ġeben": 1848,
      "Ġegal": 1849,
      "ive": 1850,
      "ĠIn": 1851,
      "idk": 1852,
      "âĺŃâĺŃâĺŃâĺŃâĺŃâĺŃâĺŃâĺŃ": 1853,
      "Ã¤uft": 1854,
      "isser": 1855,
      "Ġfilm": 1856,
      "Ġtrotzdem": 1857,
      "IE": 1858,
      "WW": 1859,
      "bar": 1860,
      "dk": 1861,
      "gn": 1862,
      "tim": 1863,
      "ucht": 1864,
      "Ð¾": 1865,
      "áķ": 1866,
      "Ġbro": 1867,
      "jaaa": 1868,
      "Ġtun": 1869,
      "dass": 1870,
      "his": 1871,
      "Ġdavon": 1872,
      "Ġverl": 1873,
      "Ġca": 1874,
      "entlich": 1875,
      "Ġkomme": 1876,
      "Ġgehts": 1877,
      "Ġschreibt": 1878,
      "Ġwegen": 1879,
      "wwww": 1880,
      "Ġleid": 1881,
      "Ġdanach": 1882,
      "]***": 1883,
      "hre": 1884,
      "ts": 1885,
      "zÃ¤h": 1886,
      "Ġsk": 1887,
      "Ġsry": 1888,
      "Ġnormal": 1889,
      "Ġkack": 1890,
      "Ġfa": 1891,
      "Ġfar": 1892,
      "iger": 1893,
      "Ġstunde": 1894,
      "usste": 1895,
      "laden": 1896,
      "fekt": 1897,
      "Ġ-...": 1898,
      "Ġque": 1899,
      "Ġschicken": 1900,
      "unkte": 1901,
      "afft": 1902,
      "reenshot": 1903,
      "Wo": 1904,
      "eug": 1905,
      "form": 1906,
      "uer": 1907,
      "stens": 1908,
      "Ġgott": 1909,
      "oooooo": 1910,
      "Ġfrei": 1911,
      "Ġfalsch": 1912,
      "Ġpc": 1913,
      "Ġpasst": 1914,
      "ĠĠĠĠĠ": 1915,
      "Ġgegen": 1916,
      "Ġgehe": 1917,
      "ĠweiÃŁt": 1918,
      "Â¶Â¶Â¶Â¶": 1919,
      "Ġengl": 1920,
      "mmmmmmmmmmmmmmmmmmmmmmmmmmmmmmmm": 1921,
      "65": 1922,
      "hure": 1923,
      "jh": 1924,
      "ãĥ": 1925,
      "Ġmer": 1926,
      "jaa": 1927,
      "atei": 1928,
      "Ġli": 1929,
      "cker": 1930,
      "eln": 1931,
      "ĠspÃ¤t": 1932,
      "andom": 1933,
      "cccccccccccccccc": 1934,
      "ĠzurÃ¼ck": 1935,
      ".<": 1936,
      "kst": 1937,
      "los": 1938,
      "oje": 1939,
      "chill": 1940,
      "stag": 1941,
      "ase": 1942,
      "Ġaut": 1943,
      "Ġfor": 1944,
      "schw": 1945,
      "ĠðŁ¤": 1946,
      "Ġ-_-[": 1947,
      "ppt": 1948,
      "Ġabend": 1949,
      "ernt": 1950,
      "egal": 1951,
      "Ã¶ren": 1952,
      "Ġdeinen": 1953,
      "llllllll": 1954,
      "Ġdiscord": 1955,
      "18": 1956,
      ";[": 1957,
      "Na": 1958,
      "Sp": 1959,
      "]--": 1960,
      "fuck": 1961,
      "inter": 1962,
      "Ġsh": 1963,
      "sehen": 1964,
      "ark": 1965,
      "arbeit": 1966,
      "Ġrunter": 1967,
      "Ġdeiner": 1968,
      "Ġallem": 1969,
      "Ġdarf": 1970,
      "Ġweir": 1971,
      "âķĲ": 1972,
      "HHHH": 1973,
      "kkkkkkkkkkkkkkkk": 1974,
      "62": 1975,
      "ew": 1976,
      "fin": 1977,
      "huren": 1978,
      "mathe": 1979,
      "Ðµ": 1980,
      "Ġ*": 1981,
      "Ġ+": 1982,
      "alt": 1983,
      "achs": 1984,
      "Ġzei": 1985,
      "Ġoft": 1986,
      "___": 1987,
      "him": 1988,
      "stellt": 1989,
      "btw": 1990,
      "Ġgefragt": 1991,
      "indest": 1992,
      "ĠVer": 1993,
      "ĠmÃ¶chte": 1994,
      "krass": 1995,
      "Ġdieses": 1996,
      "iz": 1997,
      "Ð°": 1998,
      "Ĥ¬": 1999,
      "Ġnut": 2000,
      "Ġwoche": 2001,
      "Ġfol": 2002,
      "Ġtr": 2003,
      "hhh": 2004,
      "ĠdafÃ¼r": 2005,
      "indow": 2006,
      "ĠGo": 2007,
      "Ġganzen": 2008,
      "weilig": 2009,
      "Ġfragen": 2010,
      "xDxDxDxDxDxDxDxD": 2011,
      "Ġkomple": 2012,
      "schaft": 2013,
      "hst": 2014,
      "lk": 2015,
      "no": 2016,
      "yo": 2017,
      "ÙĪ": 2018,
      "ĠÃ¤n": 2019,
      "Ġâķı": 2020,
      "Ĥ[": 2021,
      "Ġsoo": 2022,
      "eim": 2023,
      "Ġbr": 2024,
      "ĠlÃ¤": 2025,
      "Ġtre": 2026,
      "ierst": 2027,
      "ĠerklÃ¤r": 2028,
      "stellen": 2029,
      "alles": 2030,
      "verst": 2031,
      "ï¸»": 2032,
      "inecraft": 2033,
      "Ġext": 2034,
      "ðŁ¤®ðŁ¤®ðŁ¤®ðŁ¤®": 2035,
      "Ġneuen": 2036,
      "ĠâĢ¸": 2037,
      "Ġseite": 2038,
      "áķķ": 2039,
      "âķĲâĶģ": 2040,
      ">.<": 2041,
      "bis": 2042,
      "if": 2043,
      "sst": 2044,
      "voll": 2045,
      "einfach": 2046,
      "Ġkopf": 2047,
      "Ġkunst": 2048,
      "under": 2049,
      "ĠlÃ¤n": 2050,
      "Ġtag": 2051,
      "Ġantwor": 2052,
      "Ġ:/[": 2053,
      "Ġbest": 2054,
      "ega": 2055,
      "Ġyt": 2056,
      "ĠUn": 2057,
      "44": 2058,
      "Josef": 2059,
      "UU": 2060,
      "_.": 2061,
      "gleich": 2062,
      "nach": 2063,
      "Ġmem": 2064,
      "ichte": 2065,
      "Ġvater": 2066,
      "oren": 2067,
      "ppe": 2068,
      "oment": 2069,
      "imme": 2070,
      "Â°[": 2071,
      "mittag": 2072,
      "schauen": 2073,
      "ablablablablablablablabl": 2074,
      "]âĺŃâĺŃâĺŃâĺŃâĺŃâĺŃâĺŃâĺŃ": 2075,
      "hin": 2076,
      "nst": 2077,
      "Ġbesch": 2078,
      "alle": 2079,
      "Ġfur": 2080,
      "Ġschn": 2081,
      "ĠlÃ¶": 2082,
      "Ġtrau": 2083,
      "habs": 2084,
      "Ġ-.-": 2085,
      "Ġ--.": 2086,
      "rÃ¼cke": 2087,
      "omputer": 2088,
      "olololol": 2089,
      "Ġbraucht": 2090,
      "jjjj": 2091,
      "sammen": 2092,
      "45": 2093,
      "hÃ¶": 2094,
      "nis": 2095,
      "uh": 2096,
      "uld": 2097,
      "viel": 2098,
      "Ġdc": 2099,
      "Ġweit": 2100,
      "Ġichs": 2101,
      "Ġeinz": 2102,
      "Ġtut": 2103,
      "ahh": 2104,
      "Ġangst": 2105,
      "Ġ12": 2106,
      "Ġ100": 2107,
      "âĢ¦[": 2108,
      "ĠgehÃ¶rt": 2109,
      "ĠAr": 2110,
      "Ġdaran": 2111,
      "Ġunterricht": 2112,
      "Ġhinter": 2113,
      "iiiiiiiiiiiiiiiiiiiiiiiiiiiiiiiiiiiiiiiiiiiiiiiiiiiiiiiiiiiiiiii": 2114,
      "âĪŀâĪŀâĪŀâĪŀâĪŀâĪŀâĪŀâĪŀâĪŀâĪŀâĪŀâĪŀâĪŀâĪŀâĪŀâĪŀâĪŀâĪŀâĪŀâĪŀâĪŀâĪŀâĪŀâĪŀâĪŀâĪŀâĪŀâĪŀâĪŀâĪŀâĪŀâĪŀâĪŀâĪŀâĪŀâĪŀâĪŀâĪŀâĪŀâĪŀâĪŀâĪŀâĪŀâĪŀâĪŀâĪŀâĪŀâĪŀâĪŀâĪŀâĪŀâĪŀâĪŀâĪŀâĪŀâĪŀâĪŀâĪŀâĪŀâĪŀâĪŀâĪŀâĪŀâĪŀ": 2115,
      "IR": 2116,
      "]....": 2117,
      "meine": 2118,
      "woll": 2119,
      "zeit": 2120,
      "Ġ_": 2121,
      "Ġel": 2122,
      "stfu": 2123,
      "Ġsachen": 2124,
      "alk": 2125,
      "Ġka": 2126,
      "Ã¤nd": 2127,
      "atz": 2128,
      "ĠlÃ¤uft": 2129,
      "Ġeins": 2130,
      "geb": 2131,
      "Ġof": 2132,
      "Ġzusammen": 2133,
      "ielt": 2134,
      "Ġ...[": 2135,
      "habe": 2136,
      "Ġanderes": 2137,
      "liste": 2138,
      "Ġyo": 2139,
      "ationen": 2140,
      "Ġlost": 2141,
      "Ġschlafen": 2142,
      "Í¡Â°": 2143,
      "Ã¤chlich": 2144,
      "indows": 2145,
      "ail": 2146,
      "jf": 2147,
      "mp": 2148,
      "passt": 2149,
      "sÃ¤chlich": 2150,
      "wohl": 2151,
      "witter": 2152,
      "ãģ": 2153,
      "Ġbau": 2154,
      "ĠXD": 2155,
      "aul": 2156,
      "Ġnot": 2157,
      "Ġhel": 2158,
      "Ġhil": 2159,
      "Ġidee": 2160,
      "Ġkn": 2161,
      "one": 2162,
      "Ġletz": 2163,
      "Ġaufm": 2164,
      "Ġwirst": 2165,
      "Ġricht": 2166,
      "hats": 2167,
      "ĠVide": 2168,
      "Ġleben": 2169,
      "geschaut": 2170,
      "Ġwelche": 2171,
      "hause": 2172,
      "Ġbenut": 2173,
      "!!!***[": 2174,
      "EI": 2175,
      "]||": 2176,
      "lie": 2177,
      "og": 2178,
      "sur": 2179,
      "ÑĤ": 2180,
      "Ġra": 2181,
      "Ġdanke": 2182,
      "schn": 2183,
      "urch": 2184,
      "gest": 2185,
      "Ġstr": 2186,
      "pppp": 2187,
      "Ġready": 2188,
      "ĠHolz": 2189,
      "weise": 2190,
      "Ġjeder": 2191,
      "gggg": 2192,
      "Ġverstehe": 2193,
      "hhhhhhhhhhhhhhhhhhhhhhhhhhhhhhhh": 2194,
      "Ġinteress": 2195,
      "Jetzt": 2196,
      "Tja": 2197,
      "^-": 2198,
      "hier": 2199,
      "mir": 2200,
      "erne": 2201,
      "Ġdi": 2202,
      "Ġdau": 2203,
      "Ġfin": 2204,
      "Ġfahr": 2205,
      "ĠzB": 2206,
      "iges": 2207,
      "rage": 2208,
      "Ġ..-.": 2209,
      "ĺŃðŁ": 2210,
      "Ġreg": 2211,
      "].--": 2212,
      "Ġgeschafft": 2213,
      "Ġ--..": 2214,
      "zeich": 2215,
      "Ġerstmal": 2216,
      "................................................................": 2217,
      "||[": 2218,
      "ÃĦÃĦ": 2219,
      "Thimo": 2220,
      "Xd": 2221,
      "pff": 2222,
      "sf": 2223,
      "³[": 2224,
      "âĤ¬": 2225,
      "Ġendlich": 2226,
      "icher": 2227,
      "inge": 2228,
      "Ġgra": 2229,
      "Ã¼h": 2230,
      "soll": 2231,
      "Ġjtzt": 2232,
      "ĠerzÃ¤h": 2233,
      "ragen": 2234,
      "Ġrandom": 2235,
      "Ġverb": 2236,
      "stell": 2237,
      "hren": 2238,
      "ionen": 2239,
      "lost": 2240,
      "Ġdarauf": 2241,
      "Ġdeutsch": 2242,
      "Ġleider": 2243,
      "========": 2244,
      "gaben": 2245,
      "----------------": 2246,
      "Ġkenne": 2247,
      "Ġmenschen": 2248,
      "glaube": 2249,
      "Ġkacke": 2250,
      "Ġkomplett": 2251,
      "38": 2252,
      "50": 2253,
      "sse": 2254,
      "chst": 2255,
      "Ġsehe": 2256,
      "ander": 2257,
      "ĠhÃ¶": 2258,
      "Ġfahren": 2259,
      "Ġschwester": 2260,
      "Ġvc": 2261,
      "ÃŁe": 2262,
      "Ġand": 2263,
      "]ðŁĺŃ[": 2264,
      "0000": 2265,
      "Ġmusste": 2266,
      "Ġliegt": 2267,
      "Ġschneller": 2268,
      "Ġvideos": 2269,
      "ĠmÃ¶glich": 2270,
      "Ġweniger": 2271,
      "Ġgedacht": 2272,
      "32": 2273,
      "An": 2274,
      "Wann": 2275,
      "ate": 2276,
      "kein": 2277,
      "katze": 2278,
      "rig": 2279,
      "Ġtest": 2280,
      "Ġsim": 2281,
      "Ġbot": 2282,
      "Ġbald": 2283,
      "ale": 2284,
      "ath": 2285,
      "Ġleute": 2286,
      "Ġsol": 2287,
      "Ġant": 2288,
      "Ġdenen": 2289,
      "Ġvergessen": 2290,
      "allen": 2291,
      "Ġvorher": 2292,
      "aaaaa": 2293,
      "moin": 2294,
      "uchen": 2295,
      "ĠâĢŀ": 2296,
      "80": 2297,
      "macht": 2298,
      "mand": 2299,
      "vÃ¶": 2300,
      "woher": 2301,
      "aum": 2302,
      "Ġsinn": 2303,
      "unge": 2304,
      "Ġzeug": 2305,
      "Ġphilipp": 2306,
      "Ġanf": 2307,
      "ĠðŁ¥": 2308,
      "ema": 2309,
      "rom": 2310,
      "Ġ-.[": 2311,
      "Ġwasser": 2312,
      "ish": 2313,
      "Ã¤Ã¤Ã¤Ã¤Ã¤Ã¤Ã¤Ã¤": 2314,
      "ÃŁerdem": 2315,
      "St": 2316,
      "vt": 2317,
      "yst": 2318,
      "µðŁ¥": 2319,
      "ðĿ": 2320,
      "Ġter": 2321,
      "Ħ[": 2322,
      "Ġseine": 2323,
      "Ġmei": 2324,
      "att": 2325,
      "Ġlassen": 2326,
      "schla": 2327,
      "Ġphysik": 2328,
      "Ġesse": 2329,
      "Ġbeg": 2330,
      "Ġnachher": 2331,
      "Ġunser": 2332,
      "Ġdeinem": 2333,
      "Ġende": 2334,
      "Ġgelernt": 2335,
      "AAAAAAAAAAAAAAAA": 2336,
      "Ġhoffe": 2337,
      "Ġtreffen": 2338,
      "NG": 2339,
      "Nur": 2340,
      "].[": 2341,
      "]Â°": 2342,
      "]???[": 2343,
      "gh": 2344,
      "oi": 2345,
      "wor": 2346,
      "Ġmega": 2347,
      "ood": 2348,
      "ette": 2349,
      "igt": 2350,
      "Ġstre": 2351,
      "Ġspiele": 2352,
      "ĠTraining": 2353,
      "ringen": 2354,
      "Ġprogrammieren": 2355,
      "Ġlangsam": 2356,
      "Ġ.--.": 2357,
      "dddddddd": 2358,
      "Ġdran": 2359,
      "ä¸Ģáķķ": 2360,
      "Ġletzte": 2361,
      "()": 2362,
      "25": 2363,
      "EH": 2364,
      "Hat": 2365,
      "LK": 2366,
      "Nicht": 2367,
      "hmmmm": 2368,
      "ml": 2369,
      "oa": 2370,
      "od": 2371,
      "uii": 2372,
      "Ð¸": 2373,
      "Ġ;)[": 2374,
      "chmal": 2375,
      "ook": 2376,
      "Ġwichtig": 2377,
      "ller": 2378,
      "ruch": 2379,
      "Ġ-[": 2380,
      "eeeee": 2381,
      "EEEEEEEE": 2382,
      "ĠĠĠĠĠĠĠĠĠĠĠĠĠĠĠĠĠĠĠĠĠĠĠĠĠĠĠĠĠĠĠĠĠĠĠĠĠĠĠĠĠĠĠĠĠĠĠĠĠĠĠĠĠĠĠĠĠĠĠĠĠĠĠĠ": 2383,
      "ĺŃðŁĺŃðŁ": 2384,
      "374": 2385,
      "ETZ": 2386,
      "NÃ¶": 2387,
      "ganz": 2388,
      "punkt": 2389,
      "sc": 2390,
      "ãĤ": 2391,
      "Ġ/": 2392,
      "Ġdatei": 2393,
      "ande": 2394,
      "Ġhol": 2395,
      "onder": 2396,
      "llig": 2397,
      "ehst": 2398,
      "Ġpunkt": 2399,
      "]ðŁĲ": 2400,
      "dukt": 2401,
      "Ġklingt": 2402,
      "Ġare": 2403,
      "?!?[": 2404,
      "ĠNacht": 2405,
      "Ġgener": 2406,
      "Ġwollen": 2407,
      "!!!!!!!!!!!!!!!!": 2408,
      "uiui": 2409,
      "++++": 2410,
      "((((": 2411,
      "yyyyyyyyyyyyyyyyyyyyyyyyyyyyyyyy": 2412,
      "ðŁ«ĥðŁ«ĥðŁ«ĥðŁ«ĥðŁ«ĥðŁ«ĥðŁ«ĥðŁ«ĥðŁ«ĥðŁ«ĥðŁ«ĥðŁ«ĥðŁ«ĥðŁ«ĥðŁ«ĥðŁ«ĥðŁ«ĥðŁ«ĥðŁ«ĥðŁ«ĥðŁ«ĥðŁ«ĥðŁ«ĥðŁ«ĥðŁ«ĥðŁ«ĥðŁ«ĥðŁ«ĥðŁ«ĥðŁ«ĥðŁ«ĥðŁ«ĥ": 2413,
      "kennst": 2414,
      "Ġâİ": 2415,
      "ĠnÃ¤chste": 2416,
      "]âĺŃâĺŃâĺŃâĺŃâĺŃâĺŃâĺŃâĺŃâĺŃ[": 2417,
      "ACH": 2418,
      "Wer": 2419,
      "^)[": 2420,
      "fh": 2421,
      "lÃ¶": 2422,
      "mem": 2423,
      "mehr": 2424,
      "sind": 2425,
      "wen": 2426,
      "Ġas": 2427,
      "ĠÃ¤": 2428,
      "ooh": 2429,
      "esse": 2430,
      "alten": 2431,
      "Ġauss": 2432,
      "urt": 2433,
      "Ġjem": 2434,
      "Ġrunde": 2435,
      "Ġ14": 2436,
      "Ġwarst": 2437,
      "Ġausge": 2438,
      "lagen": 2439,
      "Ġschreibe": 2440,
      "geln": 2441,
      "ĠJosef": 2442,
      "Ġneues": 2443,
      "halten": 2444,
      "Ġsagst": 2445,
      "ÃľÃľÃľÃľ": 2446,
      "Ã¶Ã¶Ã¶Ã¶Ã¶Ã¶Ã¶Ã¶Ã¶Ã¶Ã¶Ã¶Ã¶Ã¶Ã¶Ã¶": 2447,
      "schreib": 2448,
      "ĠtatsÃ¤chlich": 2449,
      "ystem": 2450,
      "75": 2451,
      "Aha": 2452,
      "Bei": 2453,
      "Man": 2454,
      "NN": 2455,
      "fte": 2456,
      "hÃ¶r": 2457,
      "mimim": 2458,
      "uwu": 2459,
      "Â´": 2460,
      "asd": 2461,
      "Ġnamen": 2462,
      "Ġmon": 2463,
      "ange": 2464,
      "ðŁ§": 2465,
      "Ġdieser": 2466,
      "rem": 2467,
      "ahlen": 2468,
      "liche": 2469,
      "ams": 2470,
      "âĢ¢[": 2471,
      "ĠTim": 2472,
      "¦âĢįâĻĤï¸ı[": 2473,
      "Ġmusik": 2474,
      "Ġkrank": 2475,
      "Ġheraus": 2476,
      "ĠSpaÃŁ": 2477,
      "Ġlog": 2478,
      "Ġfreund": 2479,
      "Ġflie": 2480,
      "Ġscreenshot": 2481,
      "XDXDXDXDXDXDXDXDXDXDXDXDXDXDXDXDXDXDXDXDXDXDXDXDXDXDXDXDXDXDXDXDXDXDXDXDXDXDXDXDXDXDXDXDXDXDXDXDXDXDXDXDXDXDXDXDXDXDXDXDXDXDXDXD": 2482,
      "Ġusw": 2483,
      "Ġfehler": 2484,
      "Ġenglisch": 2485,
      "Ġfurby": 2486,
      "ETZT": 2487,
      "42": 2488,
      "60": 2489,
      "69": 2490,
      "822": 2491,
      "Jaaaa": 2492,
      "beiten": 2493,
      "com": 2494,
      "feh": 2495,
      "np": 2496,
      "ph": 2497,
      "rd": 2498,
      "umm": 2499,
      "enz": 2500,
      "inder": 2501,
      "Ġmutter": 2502,
      "eig": 2503,
      "eile": 2504,
      "Ġkrie": 2505,
      "?????[": 2506,
      "Ġdirekt": 2507,
      "lausur": 2508,
      "Ġabge": 2509,
      "].-": 2510,
      "ĠHA": 2511,
      "Ã¤ndert": 2512,
      "ĠEr": 2513,
      "SSSS": 2514,
      "Ġinternet": 2515,
      "ICHT": 2516,
      "Ġupdate": 2517,
      "µðŁ¥µðŁ¥": 2518,
      "Mein": 2519,
      "];)[": 2520,
      "fil": 2521,
      "neee": 2522,
      "Ì·": 2523,
      "Ì¿": 2524,
      "Ķ[": 2525,
      "ĠsÃ¼": 2526,
      "Ġna": 2527,
      "Ġnow": 2528,
      "Ġwitz": 2529,
      "Ġgo": 2530,
      "able": 2531,
      "atur": 2532,
      "atzen": 2533,
      "ĠlÃ¼": 2534,
      "schade": 2535,
      "schule": 2536,
      "ore": 2537,
      "Ġthis": 2538,
      "Ġpr": 2539,
      "Ġpunkte": 2540,
      "Ġinst": 2541,
      "Ġcoo": 2542,
      "Ġausre": 2543,
      "Ġbesten": 2544,
      "ilder": 2545,
      "ischer": 2546,
      "ĠDe": 2547,
      "kommt": 2548,
      "ĠNach": 2549,
      "Ġschaue": 2550,
      "ĠmÃ¼de": 2551,
      "Ġbekomme": 2552,
      "eeeeeeeeeeeeeeeeeeeeeeeeeeeeeeee": 2553,
      "Ġlangweilig": 2554,
      "]âĺ": 2555,
      "âĶ»Ì¿": 2556,
      "Ġbock": 2557,
      "Achso": 2558,
      "wÃ¼rdig": 2559,
      "._.": 2560,
      "214": 2561,
      "63": 2562,
      "766": 2563,
      "ES": 2564,
      "Un": 2565,
      "bild": 2566,
      "jupp": 2567,
      "les": 2568,
      "ub": 2569,
      "wa": 2570,
      "ĠáµĶ": 2571,
      "auft": 2572,
      "ene": 2573,
      "Ġdru": 2574,
      "ins": 2575,
      "Ġseiten": 2576,
      "ieze": 2577,
      "ĠmigrÃ¤ne": 2578,
      "antwor": 2579,
      "Ġschein": 2580,
      "Ġtrain": 2581,
      "Ġtext": 2582,
      "iiiiii": 2583,
      "Ġgeg": 2584,
      "Ġangeschaut": 2585,
      "Ġernst": 2586,
      "Ġspr": 2587,
      "ktur": 2588,
      "utet": 2589,
      "]:'([": 2590,
      "Ġabi": 2591,
      "warte": 2592,
      "Ġvorbei": 2593,
      "ahrscheinlich": 2594,
      "ĠRe": 2595,
      "Ġsave": 2596,
      "haft": 2597,
      "Ġgespannt": 2598,
      "rrrrrrrr": 2599,
      "latz": 2600,
      "iao": 2601,
      "zeigt": 2602,
      "ĠgrÃ¶": 2603,
      "ĠfÃ¼h": 2604,
      "]-.-[": 2605,
      "Nice": 2606,
      "]<": 2607,
      "ial": 2608,
      "ps": 2609,
      "tsch": 2610,
      "ube": 2611,
      "va": 2612,
      "ĠÃ²": 2613,
      "str": 2614,
      "Ġnu": 2615,
      "ans": 2616,
      "Ġkap": 2617,
      "ðŁ¦": 2618,
      "Ġfaul": 2619,
      "Ġvo": 2620,
      "Ġtraining": 2621,
      "Ġprin": 2622,
      "ĠðŁİ": 2623,
      "hill": 2624,
      "Ġvert": 2625,
      "ĠMen": 2626,
      "ĠBild": 2627,
      "!!!!![": 2628,
      "ĠGe": 2629,
      "Ġglaub": 2630,
      "hnung": 2631,
      "Ġsondern": 2632,
      "sonst": 2633,
      "zwischen": 2634,
      "ï¸»Ì·": 2635,
      "âĶ»Ì¿âķĲâĶģ": 2636,
      "iezekatze": 2637,
      "ï¸»Ì·âĶ»Ì¿âķĲâĶģ": 2638,
      "ace": 2639,
      "dachte": 2640,
      "ey": 2641,
      "gehen": 2642,
      "miezekatze": 2643,
      "nte": 2644,
      "ree": 2645,
      "sste": 2646,
      "zwei": 2647,
      "ĥı": 2648,
      "Ġwor": 2649,
      "Ġwusste": 2650,
      "Ġbz": 2651,
      "arbei": 2652,
      "atik": 2653,
      "sche": 2654,
      "Ġti": 2655,
      "Ġoben": 2656,
      "amt": 2657,
      "Ġdavor": 2658,
      "ehrer": 2659,
      "Ġbede": 2660,
      "Ġ.-.[": 2661,
      "Ġchat": 2662,
      "Ġkommst": 2663,
      "Ġwirds": 2664,
      "ĠFre": 2665,
      "Ġkleine": 2666,
      "Ġarme": 2667,
      "Ġersten": 2668,
      "Ġwebs": 2669,
      "ups": 2670,
      "ĠblÃ¶": 2671,
      "7762": 2672,
      "Ġgespielt": 2673,
      "IIIIIIII": 2674,
      "40766": 2675,
      "Ġzwischen": 2676,
      "ostet": 2677,
      "hihihihihihihihihihihihihihihihi": 2678,
      "Ġletzten": 2679,
      "ĠglÃ¼ck": 2680,
      "Ġweird": 2681,
      "ĠlÃ¤nger": 2682,
      "37440766": 2683,
      "822214": 2684,
      "374407667762": 2685,
      "822214374407667762": 2686,
      "##": 2687,
      "*[": 2688,
      "Auf": 2689,
      "HI": 2690,
      "NEIN": 2691,
      "OR": 2692,
      "Thim": 2693,
      "][": 2694,
      "fre": 2695,
      "gs": 2696,
      "get": 2697,
      "ks": 2698,
      "lei": 2699,
      "nehmen": 2700,
      "udi": 2701,
      "weiÃŁt": 2702,
      "wÃ¤re": 2703,
      "Ñģ": 2704,
      "err": 2705,
      "baut": 2706,
      "Ġdont": 2707,
      "Ġseit": 2708,
      "Ġsup": 2709,
      "ies": 2710,
      "ielle": 2711,
      "eiden": 2712,
      "Ã¼ss": 2713,
      "arte": 2714,
      "schÃ¶n": 2715,
      "orre": 2716,
      "Ġpar": 2717,
      "Ġangef": 2718,
      "Ġzuhause": 2719,
      "Ġ13": 2720,
      "Ġwars": 2721,
      "Ġ..--": 2722,
      "Ġmeint": 2723,
      "ĠAuf": 2724,
      "ĠAhnung": 2725,
      "ĠHandy": 2726,
      "Ġhalb": 2727,
      "Ã¤ttest": 2728,
      "Ġschreibst": 2729,
      "9999": 2730,
      "thx": 2731,
      "DDDDDDDDDDDDDDDDDDDDDDDDDDDDDDDD": 2732,
      "Ġperfekt": 2733,
      "CCCC": 2734,
      "âĢľ[": 2735,
      "ahahahahahahahahahahahahahahahah": 2736,
      "ĠfrÃ¼h": 2737,
      "ĠÃ¶ff": 2738,
      "49": 2739,
      "68": 2740,
      "OCH": 2741,
      "Von": 2742,
      "ain": 2743,
      "durch": 2744,
      "fst": 2745,
      "fol": 2746,
      "hf": 2747,
      "tzen": 2748,
      "weiÃŁ": 2749,
      "yes": 2750,
      "chn": 2751,
      "inar": 2752,
      "Ġnenn": 2753,
      "...": 2754,
      "Ġkont": 2755,
      "ĠtÃ¶": 2756,
      "reck": 2757,
      "ĠĠĠĠĠĠ": 2758,
      "Ġgeben": 2759,
      "Ġerinn": 2760,
      "ĠðŁĥı": 2761,
      "umen": 2762,
      "Ġ11": 2763,
      "Ġ18": 2764,
      "Ġverk": 2765,
      "Ġalleine": 2766,
      "own": 2767,
      "Ġarbeit": 2768,
      "130": 2769,
      "jekt": 2770,
      "ĠschlÃ¤": 2771,
      "Ġbrauche": 2772,
      "rigen": 2773,
      "merzen": 2774,
      "]ðŁ¤¦âĢįâĻĤï¸ı[": 2775,
      "nnnnnnnn": 2776,
      "programm": 2777,
      "Ġbesonder": 2778,
      "ĠðŁĳĢ": 2779,
      "Ġapple": 2780,
      "ĠÃ¤ndern": 2781,
      "ĠðŁİ´": 2782,
      "ielleicht": 2783,
      "35": 2784,
      "67": 2785,
      "HÃ¤": 2786,
      "]Â": 2787,
      "af": 2788,
      "bzw": 2789,
      "damit": 2790,
      "gf": 2791,
      "hy": 2792,
      "mel": 2793,
      "oj": 2794,
      "ron": 2795,
      "sicht": 2796,
      "ziert": 2797,
      "£[": 2798,
      "Ð½": 2799,
      "äº": 2800,
      "Ġ?[": 2801,
      "Ġ***": 2802,
      "ches": 2803,
      "Ġmy": 2804,
      "oof": 2805,
      "jaaaa": 2806,
      "Ġfest": 2807,
      "orio": 2808,
      "oooooooooooo": 2809,
      "utt": 2810,
      "Ġaufge": 2811,
      "Ġalt": 2812,
      "ĠSo": 2813,
      "Ġmanchmal": 2814,
      "Ġverschie": 2815,
      "Ġreal": 2816,
      "ĠBei": 2817,
      "Ġseinen": 2818,
      "ltra": 2819,
      "rÃ¼ckt": 2820,
      "uche": 2821,
      "ĠLust": 2822,
      "ackt": 2823,
      "ĠUhr": 2824,
      "geschrieben": 2825,
      "ĠÍ¡Â°)(": 2826,
      "ĠÍ¡Â°)Â°": 2827,
      "ĠÍ¡Â°)Í¡Â°": 2828,
      "Ġwelt": 2829,
      "Ġetwa": 2830,
      "ÃŁÃŁÃŁÃŁÃŁÃŁÃŁÃŁ": 2831,
      "ĠðŁ¤®": 2832,
      "47": 2833,
      "48": 2834,
      "><:": 2835,
      "Hehe": 2836,
      "jd": 2837,
      "ogen": 2838,
      "ock": 2839,
      "pl": 2840,
      "que": 2841,
      "tte": 2842,
      "tml": 2843,
      "wig": 2844,
      "ya": 2845,
      "irgend": 2846,
      "Ġwochen": 2847,
      "Ġhand": 2848,
      "Ġbel": 2849,
      "alen": 2850,
      "Ġkaufen": 2851,
      "ehn": 2852,
      "Ġpisser": 2853,
      "iertel": 2854,
      "Ġdenkst": 2855,
      "Ġ:'([": 2856,
      "]ðŁĳ": 2857,
      "ĠMinecraft": 2858,
      "tent": 2859,
      "isst": 2860,
      "oto": 2861,
      "twort": 2862,
      "ĠLeute": 2863,
      "Ġfrag": 2864,
      "naja": 2865,
      "machen": 2866,
      "Ġetc": 2867,
      "Ġfindet": 2868,
      "ðŁ¤¦âĢįâĻĤðŁ¤¦âĢįâĻĤðŁ¤¦âĢįâĻĤðŁ¤¦âĢįâĻĤðŁ¤¦âĢįâĻĤðŁ¤¦âĢįâĻĤðŁ¤¦âĢįâĻĤðŁ¤¦âĢįâĻĤ": 2869,
      "Hmmm": 2870,
      "Ġtraurig": 2871,
      "%[": 2872,
      "28": 2873,
      "Kenn": 2874,
      "Mach": 2875,
      "Mit": 2876,
      "agen": 2877,
      "bung": 2878,
      "hoff": 2879,
      "Ġag": 2880,
      "erd": 2881,
      "enster": 2882,
      "steht": 2883,
      "Ġnehmen": 2884,
      "Ġmar": 2885,
      "ĠwÃ¶r": 2886,
      "Ġwetter": 2887,
      "Ġwindows": 2888,
      "Ġgoogle": 2889,
      "Ġbug": 2890,
      "ard": 2891,
      "Ġsound": 2892,
      "ight": 2893,
      "ĠðŁĩ": 2894,
      "eminar": 2895,
      "amil": 2896,
      "Ġstand": 2897,
      "Ġrefer": 2898,
      "raucht": 2899,
      "aaaaaa": 2900,
      "Ġgeschaut": 2901,
      "Ġnachricht": 2902,
      "Ġschreib": 2903,
      "]ðŁĺ¢[": 2904,
      "Ġentsch": 2905,
      "halt": 2906,
      "riff": 2907,
      "falls": 2908,
      "Ġorz": 2909,
      "ĠfrÃ¼her": 2910,
      "ĠÃ¼brigen": 2911,
      "oooooooooooooooooooooooooooooooooooooooooooooooooooooooooooooooooooooooooooooooooooooooooooooooooooooooooooooooooooooooooooooooooooooooooooooooooooooooooooooooooooooooooooooooooooooooooooooooooooooooooooooooooooooooooooooooooooooooooooooooooooooooooooooooo": 2912,
      "dankedankedankedankedankedankedankedankedankedankedankedankedankedankedankedanke": 2913,
      "ðŁ¤¦âĢįâĻĤï¸ıðŁ¤¦âĢįâĻĤï¸ıðŁ¤¦âĢįâĻĤï¸ıðŁ¤¦âĢįâĻĤï¸ıðŁ¤¦âĢįâĻĤï¸ıðŁ¤¦âĢįâĻĤï¸ıðŁ¤¦âĢįâĻĤï¸ıðŁ¤¦âĢįâĻĤï¸ı": 2914,
      "Ġdrinnen": 2915,
      "Ġverloren": 2916,
      "Ġregnet": 2917,
      "Ġsuper": 2918,
      "90": 2919,
      "Echt": 2920,
      "Hmmmm": 2921,
      "]/": 2922,
      "]âĺŃ[": 2923,
      "fort": 2924,
      "gor": 2925,
      "kwÃ¼rdig": 2926,
      "lÃ¼": 2927,
      "lul": 2928,
      "mÃ¶": 2929,
      "~~": 2930,
      "ï¹": 2931,
      "Ġ<": 2932,
      "ĠY": 2933,
      "Ġding": 2934,
      "Ġsee": 2935,
      "Ġsooo": 2936,
      "Ġwa": 2937,
      "Ġwert": 2938,
      "ĠheiÃŁ": 2939,
      "Ġform": 2940,
      "ehm": 2941,
      "Ġlin": 2942,
      "Ġlerne": 2943,
      "scheiÃŁ": 2944,
      "itiv": 2945,
      "ithm": 2946,
      "ÃŁt": 2947,
      "Ġ16": 2948,
      "Ġsport": 2949,
      "Ġez": 2950,
      "Ġunten": 2951,
      "Ġreden": 2952,
      "ismus": 2953,
      "ĠTag": 2954,
      "Ġgeschichte": 2955,
      "Ġad": 2956,
      "weir": 2957,
      "rÃ¼f": 2958,
      "acken": 2959,
      "ĠStunden": 2960,
      "ĠStunde": 2961,
      "Ġtheor": 2962,
      "Ġetwas": 2963,
      "Ġniemand": 2964,
      "Ġverstehen": 2965,
      "ĠdrauÃŁen": 2966,
      "OOOOOOOO": 2967,
      "Ġkleiner": 2968,
      "))))": 2969,
      "FFFFFFFF": 2970,
      "grund": 2971,
      ",,,,,,,,": 2972,
      "zZzZzZzZzZzZzZzZzZzZzZzZzZzZzZzZzZzZzZzZzZzZzZzZzZzZzZzZzZzZzZzZ": 2973,
      "Ġextra": 2974,
      "ĠVideo": 2975,
      "ðĿĶ": 2976,
      "oohoo": 2977,
      "Ġcoole": 2978,
      "._.)": 2979,
      "Ġangefangen": 2980,
      "äºº": 2981,
      "(>.<": 2982,
      "EG": 2983,
      "Gute": 2984,
      "Komm": 2985,
      "Muss": 2986,
      "Sie": 2987,
      "block": 2988,
      "ca": 2989,
      "go": 2990,
      "sy": 2991,
      "vv": 2992,
      "¢ðŁĺ": 2993,
      "º[": 2994,
      "»[": 2995,
      "Ġ#": 2996,
      "Ġ>": 2997,
      "ĠQ": 2998,
      "ĠÂ°": 2999
    },
    "merges": [
      "O M",
      ": [",
      "S OM",
      "E OM",
      "c h",
      "a u",
      "e r",
      "i r",
      "b au",
      "ir n",
      "b irn",
      "bau m",
      "birn baum",
      ". :[",
      "e n",
      "Ġ d",
      "i ch",
      "i n",
      "s t",
      "Ġ s",
      "i e",
      "i i",
      "a s",
      "Ġ n",
      "Ġ m",
      "o o",
      "a n",
      "Ġ w",
      "f f",
      "Ġ g",
      "t er",
      "e in",
      "Ġ h",
      "e i",
      "? [",
      ". .",
      "u n",
      "e x",
      "b er",
      "ter ex",
      "terex ii",
      "e s",
      "Ġ i",
      "Ġ b",
      "m m",
      "a l",
      "Ġ Ġ",
      "ich t",
      "Ġd as",
      "Ġ k",
      "ð Ł",
      "Ġ au",
      "s e",
      "j a",
      "o n",
      "x D",
      "oo oo",
      "Ã ¼",
      "t e",
      "a r",
      "č Ċ",
      "Ġ ich",
      "l l",
      "Ġd u",
      "a b",
      "a ch",
      "ff ff",
      "Ġn icht",
      "Ġi st",
      "Ġ f",
      "Ġs ch",
      "e h",
      "Ġ v",
      "un d",
      "Ã ¤",
      "an n",
      "o ch",
      "a t",
      "e e",
      "r u",
      "d er",
      "Ġ l",
      "Ã ¶",
      "s ch",
      "Ġd ie",
      "o r",
      "Ġ z",
      "u u",
      "i t",
      "d e",
      "ie se",
      "Ġ ein",
      "g ru",
      "ber iese",
      "gru beriese",
      "g en",
      "u r",
      "l e",
      "Ġs o",
      "e t",
      "Ġ t",
      "! !",
      "ii ii",
      "r e",
      "Ġ xD",
      "Ġ p",
      "a ber",
      "g e",
      "c k",
      "Ġau ch",
      "s s",
      "ĠĠ ĠĠ",
      "Ġg e",
      "Ġ o",
      "a h",
      "Ġh ab",
      "s o",
      "ffff ffff",
      "! [",
      "Ġ j",
      "oooo oooo",
      "a a",
      "Ġ in",
      "Ã Ł",
      "Ġ an",
      "o l",
      "â Ī",
      "i g",
      "u t",
      "âĪ ŀ",
      "âĪŀ âĪŀ",
      "h h",
      "- -",
      "X D",
      "Ġd er",
      "Ġ und",
      "l ich",
      "Ġn och",
      "Ġ .",
      "i er",
      "d as",
      "Ġz u",
      "Ġ er",
      "r a",
      "en n",
      "Ġ ðŁ",
      "e m",
      ".. ..",
      ". [",
      "r o",
      "Ġau f",
      "XD XD",
      "e l",
      "Ġb i",
      "Ġ ja",
      "Ġ es",
      "a st",
      "Ġw ir",
      "a m",
      "Ã¼ r",
      "Ġ al",
      "Ġw ie",
      "o k",
      "u m",
      "n e",
      "uu uu",
      "D D",
      "_ _",
      "Ġsch on",
      "z t",
      "Ġ -",
      "Ġd ann",
      "h i",
      "ein e",
      "Ġm it",
      "Ġ st",
      "a g",
      "Ġd a",
      "Ġh at",
      "d en",
      "Ġ S",
      "Ġ aber",
      "Ġd en",
      "y y",
      "ee ee",
      "Ġ r",
      "Ġ :",
      "ei t",
      "Ġn e",
      "b en",
      "] ðŁ",
      "Ġ 1",
      "Ġm an",
      "Ġg es",
      "o mm",
      ") [",
      "Ġv er",
      "Ġk ann",
      "Ġm ir",
      "mm mm",
      "ei l",
      "eh r",
      "Ġw as",
      "d u",
      "Ġw ar",
      "ie l",
      "Ġm ach",
      "et zt",
      "ch t",
      "iiii iiii",
      "â Ģ",
      "Ġn ur",
      "Ġs p",
      "i ll",
      "Ġ c",
      "un g",
      "k t",
      "ffffffff ffffffff",
      "w as",
      "Ġ ..",
      "u s",
      "Ġg eh",
      "Ġau s",
      "âĪŀâĪŀ âĪŀâĪŀ",
      "k e",
      "Ġm al",
      "in d",
      "Ġd och",
      "u te",
      "w ie",
      "o h",
      "Ġ M",
      "oooooooo oooooooo",
      "Ġb e",
      "Ġ e",
      "Ġdas s",
      "p p",
      "i m",
      "ĠðŁ ¦",
      "Ġ un",
      "t en",
      "b e",
      "ei ÃŁ",
      "« ĥ",
      "Ġm ein",
      "¶ ŀ",
      "à ¶ŀ",
      "st e",
      "ðŁ «ĥ",
      "ðŁ«ĥ ðŁ«ĥ",
      "o m",
      "ĠĠĠĠ ĠĠĠĠ",
      "as s",
      "h r",
      "ĺ Ń",
      "Ġ re",
      "? ?",
      "r ei",
      "i mm",
      "] :",
      "Ġ A",
      "Ġg er",
      "* *",
      "A A",
      "I ch",
      "hh hh",
      "b t",
      "l a",
      "XDXD XDXD",
      "i on",
      ".. .[",
      "Ġ. -",
      "Ġo der",
      "in g",
      "f t",
      "n n",
      "l ol",
      "i s",
      "Ġf Ã¼r",
      "Ġd ir",
      "c c",
      "Ġ 2",
      "Ã¶ Ã¶",
      "h e",
      "Ġj etzt",
      "Ġb in",
      "l au",
      "a de",
      "Ġh ast",
      "i l",
      "n d",
      "t t",
      "u ss",
      "es s",
      "Ġ ab",
      "Ġ ei",
      "Ġ Í",
      "Â °",
      "i sch",
      "Ġw enn",
      "o ll",
      "D as",
      "Ġb ei",
      "al l",
      "ach t",
      "er n",
      "Ġv on",
      "â ĺŃ",
      "J a",
      "Ġs ind",
      "m al",
      "Ġm ich",
      "k k",
      "an z",
      "i st",
      "Ġs ie",
      ".... ....",
      "DD DD",
      "an d",
      "i c",
      "ier t",
      "w ar",
      "f ach",
      "Ġwie der",
      "o p",
      "i ck",
      "Ġm ehr",
      "en t",
      "Ã¼ ber",
      "Ġ T",
      "Ġs ich",
      "uuuu uuuu",
      "z Z",
      "ðŁ ¤",
      "ah ah",
      "zZ zZ",
      "] .",
      "r au",
      "h ab",
      "Ġ B",
      "Ġ čĊ",
      "Ġv or",
      "!! !!",
      "Ã¼ Ã¼",
      "ll t",
      "Ġd em",
      "Ġg ut",
      "à¶ŀ à¶ŀ",
      "yy yy",
      "o t",
      "U nd",
      "an ke",
      "âĺŃ âĺŃ",
      "Ġger ade",
      "aa aa",
      "v er",
      "Ġein fach",
      "Ġ D",
      "Ġj z",
      "mm er",
      "Ġbi st",
      "ĠðŁ¦ ¦",
      "0 0",
      "e ute",
      "Ġ- .",
      "__ __",
      "Ġges ch",
      "Ġ G",
      "Ġi m",
      "Ġg anz",
      "Ġhab e",
      "d ie",
      "Ġ --",
      "Ġd ich",
      "o se",
      "d a",
      "Ġ 3",
      "Ġ ch",
      "f en",
      "or gen",
      "Ġk omm",
      "âĢ į",
      "Ġn ach",
      "Ġ Ã¼ber",
      "en d",
      "o s",
      "z e",
      "Ġwir d",
      "âĪŀâĪŀâĪŀâĪŀ âĪŀâĪŀâĪŀâĪŀ",
      "k omm",
      "er t",
      "e g",
      "Ġal l",
      "i bt",
      "ah r",
      "Ġ P",
      "Ļ Ĥ",
      "ffffffffffffffff ffffffffffffffff",
      "i k",
      "Ġm uss",
      "ĠÍ ¡",
      "_ .[",
      "s p",
      "Ġso ll",
      "Ġ K",
      "Ġ F",
      "eh en",
      "Ġ H",
      "al so",
      "eeee eeee",
      "Ġgeh t",
      "Ġ u",
      "oo l",
      "Ġmach en",
      "Ġ a",
      "Ġhab en",
      "Ġp ro",
      "ï ¸",
      "Ġ am",
      "Ã¶ r",
      "ic e",
      "Ġv iel",
      "ier en",
      "mmmm mmmm",
      "i x",
      "Ġi mmer",
      "d anke",
      "Ġ W",
      "hi hi",
      "E E",
      "u st",
      "n ein",
      "o w",
      "iiiiiiii iiiiiiii",
      "A ber",
      "C H",
      "m o",
      "Ġh al",
      "] -",
      "g t",
      "ose f",
      "Ã¤ t",
      "Ġal s",
      "Ġw ill",
      "Ġge m",
      "ðŁ«ĥðŁ«ĥ ðŁ«ĥðŁ«ĥ",
      "âĢį â",
      "Ġm in",
      "Ġh eute",
      "] #",
      "Ġs ein",
      "au s",
      "Ġg lau",
      "le ich",
      "- [",
      "Ġ um",
      "Ã¶ nn",
      "Ġw er",
      "Ġk l",
      "h n",
      "h t",
      "O O",
      "XDXDXDXD XDXDXDXD",
      "w e",
      "imm t",
      "z u",
      "oooooooooooooooo oooooooooooooooo",
      "( [",
      "Ġan der",
      "] ?[",
      "Ġ 5",
      "Ġk eine",
      "Ġg ibt",
      "Ã¤ Ã¤",
      "ag t",
      "âĢįâ ĻĤ",
      "? ![",
      "r ie",
      "d ann",
      "k l",
      "Ġw eiÃŁ",
      "Ã¤ n",
      "d d",
      "o der",
      "!! ![",
      "l t",
      "w eil",
      "Ġsch rei",
      "Ġge f",
      "Ġ 4",
      "Ġm orgen",
      "Ġ: )[",
      "r Ã¼",
      "u ch",
      "ĠÍ¡ Â°",
      "es ch",
      "Ġk ein",
      "te st",
      "ï¸ ı",
      "Ġ \"",
      "Ġn en",
      "un kt",
      "Ġk Ã¶nn",
      "l o",
      "Ġ ar",
      "¦ âĢįâĻĤ",
      "? !",
      "b in",
      "Ġ E",
      "und en",
      "h ast",
      "t w",
      "Ġei g",
      "Ġ L",
      "sch en",
      "ĠðŁ ĺ",
      "w ei",
      "Ġ N",
      "eh t",
      "u e",
      "Ġun s",
      "AA AA",
      "= =",
      "Ġer st",
      "war um",
      "Â ¶",
      "Ġd ein",
      "Ġdu mm",
      "i v",
      "hi mo",
      "Ġ.. .",
      "h mm",
      "l i",
      "t lich",
      "l d",
      "cc cc",
      "Ġ 8",
      "a d",
      "Ġ y",
      "h er",
      "hhhh hhhh",
      "ĠðŁ¦ Ĩ",
      "in de",
      "Ġg leich",
      "icht ig",
      "Ġein e",
      "ss en",
      "] *",
      "Ġg en",
      "Ġg ar",
      "Ġo k",
      "ess er",
      "gen d",
      "Ġall es",
      "f e",
      "ch e",
      "or t",
      "Ġhal t",
      "]. _.[",
      "Ġm us",
      "Ġw Ã¤",
      "Ġei gen",
      "r r",
      "Ã¶Ã¶ Ã¶Ã¶",
      "Ġglau be",
      "W ie",
      "ĠĠĠĠĠĠĠĠ ĠĠĠĠĠĠĠĠ",
      "Ġl an",
      "-- --",
      "Ġc ool",
      "Ġ (",
      "zZzZ zZzZ",
      "ðŁ¤ ¦âĢįâĻĤ",
      "danke danke",
      "i p",
      "t f",
      "Ġsp iel",
      "kk kk",
      "Ġbi s",
      "........ ........",
      "Ġgem acht",
      "p la",
      "Ġ 0",
      "ach so",
      "Ġ R",
      "n en",
      "Ġm eine",
      "Ġl ie",
      "z en",
      "W as",
      "Ġw eil",
      "T T",
      "n et",
      "ut en",
      "a ck",
      "Ġal le",
      "ch en",
      "?? ?[",
      "b ei",
      "w er",
      "Ġ I",
      "Ġs a",
      "à¶ŀà¶ŀ à¶ŀ",
      "Ġ 6",
      "Ġd ar",
      "Ġz eit",
      "a p",
      "Ġ 9",
      "en s",
      "DDDD DDDD",
      "Ġch ill",
      "I I",
      "Ġk r",
      "h at",
      "in e",
      "Ġe cht",
      "pla y",
      "b st",
      "h m",
      "1 1",
      "Ġd enn",
      "r y",
      "Ġw e",
      "it te",
      "m e",
      "Ġ à¶ŀà¶ŀà¶ŀ",
      "Ġs el",
      "Ġb esser",
      "i d",
      "w ir",
      "Ġ V",
      "Ġl ust",
      "Ġeigen tlich",
      "]: )[",
      "o u",
      "]ðŁ ĺ",
      "Ġs ehr",
      "Ġsch au",
      "D u",
      "Ġ Z",
      "ff le",
      "ab l",
      "- .",
      "Ġ on",
      "xD xD",
      "Ã¶ n",
      "]ðŁ ¥",
      "d och",
      "Ġf ra",
      "ur en",
      "g ra",
      "w o",
      "Ġbi ffle",
      "_ -[",
      "Ġ 7",
      "Ġ ir",
      "i de",
      "â Ķ",
      "ie le",
      "de m",
      "l s",
      "u g",
      "l er",
      "n icht",
      "Ġein en",
      "E R",
      "m c",
      "at ion",
      "Â¶ Â¶",
      "abl abl",
      "s er",
      "yyyy yyyy",
      "n Ã¶",
      "s en",
      "eh e",
      "Ġzu m",
      "Ã¼Ã¼ Ã¼Ã¼",
      "rie ben",
      "H A",
      "i en",
      "â ķ",
      "ÃŁ ÃŁ",
      "uuuuuuuu uuuuuuuu",
      "ĠĠ Ġ",
      "âĪŀâĪŀâĪŀâĪŀâĪŀâĪŀâĪŀâĪŀ âĪŀâĪŀâĪŀâĪŀâĪŀâĪŀâĪŀâĪŀ",
      "ss ss",
      "Ġun ter",
      "¦ [",
      "Ġo b",
      "Ġmach t",
      "ðŁ¤ ®",
      "unkt ion",
      "wie so",
      "O k",
      "Ġj e",
      "om p",
      "Ġn ix",
      "ahah ahah",
      "m lich",
      "Ġ U",
      "H ab",
      "g er",
      "k ann",
      "u l",
      "Ġn h",
      "Ġm Ã¼",
      "Ġgeh en",
      "1 3",
      "n a",
      "Ê ĸ",
      "st er",
      "ĠwÃ¤ re",
      "Ġw Ã¼r",
      "ge l",
      "ĠÍ ľ",
      "te t",
      "und e",
      "gra mm",
      "i ge",
      "w w",
      "Ġ \\",
      "Ġr ichtig",
      "m ach",
      "Ġdu r",
      "ĠS t",
      "Ġt he",
      "] (",
      "Ã ľ",
      "Ġ ....",
      "Ã¼ ck",
      "Ġl ol",
      "Ġ =",
      "ll e",
      "Ġv llt",
      "Ġl e",
      "ffffffffffffffffffffffffffffffff ffffffffffffffffffffffffffffffff",
      "k a",
      "r in",
      "Ġh in",
      "** *",
      "Ġj osef",
      "au f",
      "âĺŃâĺŃ âĺŃâĺŃ",
      "w enn",
      "Ġkann st",
      "eiÃŁ t",
      "1 0",
      "u ck",
      "w tf",
      "Ġ eh",
      "D ie",
      "h a",
      "Ġ en",
      "Ġn Ã¤",
      "a ÃŁ",
      "Ã¤ r",
      "Ġ- ..",
      "sch ein",
      "ĠS ch",
      "1 4",
      "Ġges agt",
      "? ?[",
      "ll en",
      "____ ____",
      "g esch",
      "Ġs on",
      "Ġi hn",
      "st en",
      "ðŁ«ĥðŁ«ĥðŁ«ĥðŁ«ĥ ðŁ«ĥðŁ«ĥðŁ«ĥðŁ«ĥ",
      "m it",
      "u p",
      "at he",
      "Ġdur ch",
      "S ch",
      "un gen",
      "ĠkÃ¶nn en",
      "Ġir gend",
      "st immt",
      "Ġb l",
      "sch au",
      "Ġ.- ..",
      "tt tt",
      "j e",
      "der n",
      "ja ja",
      "Ġwer den",
      "s d",
      "u ff",
      "Ã ³",
      "\" [",
      "Ġ et",
      "ll ll",
      "Ġsch ne",
      "ol ol",
      "ĠwÃ¼r de",
      "F F",
      "Ġ ex",
      "an k",
      "t z",
      "]ðŁ ¦",
      "ra ft",
      "XDXDXDXDXDXDXDXD XDXDXDXDXDXDXDXD",
      "n ice",
      "Ġn ice",
      "Ġh er",
      "hihi hihi",
      "Ġ q",
      "ðŁ ĺ",
      "Ġf inde",
      "Ġ.- .",
      "Ġgesch rieben",
      "1 5",
      "b le",
      "Ġsch l",
      "Ġkomm t",
      "m en",
      "au fen",
      "ðŁ¤® ðŁ¤®",
      "E N",
      "g ar",
      "Ġd e",
      "r Ã¤",
      "ah a",
      "y s",
      "a den",
      "g g",
      "h Ã¤",
      "Ġbe komm",
      "]- _-[",
      "u le",
      "Ġi hr",
      "Ġr aus",
      "as st",
      "Ġf unktion",
      "Ġl ei",
      "Ġre cht",
      "r icht",
      "Ġ ent",
      "Ġb rau",
      "Ġsie ht",
      "aa a",
      "N e",
      "Ġw oll",
      "k lich",
      "l en",
      "Ġn ie",
      "eit en",
      "1 2",
      "j j",
      "s k",
      "Ġ1 0",
      "Ġver st",
      "mmmmmmmm mmmmmmmm",
      "n ur",
      "Ġl ern",
      "Ġd eine",
      "se l",
      "ar t",
      "Ġschne ll",
      "w ann",
      "oo o",
      "ee e",
      "ge f",
      "ck e",
      "op e",
      "H H",
      "Ġkr ass",
      "6 6",
      "d i",
      "Ġsch le",
      "Ġ-. -.",
      "in n",
      "Ġv ide",
      "Ġmus st",
      "p t",
      "au t",
      "Ġs er",
      "Ġw ei",
      "Ġh ier",
      "oooooooooooooooooooooooooooooooo oooooooooooooooooooooooooooooooo",
      "v c",
      "Ġn em",
      "Ġw ur",
      "Ġge l",
      "iiiiiiiiiiiiiiii iiiiiiiiiiiiiiii",
      "ĠÍ¡Â° )",
      "f Ã¼r",
      "Ġk ur",
      "Ġv iele",
      "Ġspiel en",
      "v on",
      "in k",
      "Ġ ru",
      "Ġw ahr",
      "Ġ.. -",
      "c raft",
      "d s",
      "o ff",
      "Ã ²",
      "Ġ J",
      "Ġ te",
      "Ġschrei ben",
      "Ġne u",
      "!!!! !!!!",
      "schein lich",
      ", ,",
      "D er",
      "Ġ C",
      "Ġal so",
      "Ġu hr",
      "Ġsa gen",
      "Ġm c",
      "Ġbi ld",
      "eeeeeeee eeeeeeee",
      "m an",
      "Ġd rau",
      "Ġw el",
      "Ã¤ u",
      "Ġ-- -",
      "a ar",
      "f l",
      "Ġ âĢ",
      "O h",
      "s on",
      "v or",
      "Ġw o",
      "Ġw en",
      "h al",
      "i ssen",
      "am it",
      "EE EE",
      "g l",
      "Ġs ag",
      "Ġw eg",
      "ach te",
      "Ġsch Ã¶n",
      "Ġnoch mal",
      "Ã¤t te",
      "I N",
      "Ġn er",
      "on t",
      "ass en",
      "g ut",
      "Ġh uren",
      "ĠS p",
      "ðŁ¤¦âĢįâĻĤ ï¸ı",
      "1 9",
      "m ein",
      "s a",
      "Ġl o",
      "Ġz wei",
      "Ġge w",
      "cccc cccc",
      "^ [",
      "r i",
      "Ġge st",
      "Ġpro gramm",
      "h au",
      "Ġf re",
      "Ġdie se",
      "ra in",
      "ert ig",
      "Ġlan ge",
      "dankedanke dankedanke",
      "g es",
      "t ja",
      "v e",
      "Ġh eiÃŁt",
      "Ġi hm",
      "all o",
      "zZzZzZzZ zZzZzZzZ",
      "ðŁ¤¦âĢįâĻĤï¸ı ðŁ¤¦âĢįâĻĤï¸ı",
      "k en",
      "u i",
      "Ġm Ã¶",
      "Ġges ehen",
      "Ã¶r t",
      "ðŁ¤¦âĢįâĻĤ ðŁ¤¦âĢįâĻĤ",
      "S S",
      "Ġ O",
      "ro ÃŁ",
      "A U",
      "c e",
      "n t",
      "µ [",
      "an t",
      "Ġ2 0",
      "Ġgen au",
      "h en",
      "es en",
      "] ...[",
      "i o",
      "j z",
      "n ope",
      "Ġ: ([",
      "i ss",
      "z w",
      "ff en",
      "at Ã¼r",
      "Ġz ur",
      "Ġwir klich",
      "HA HA",
      "e ich",
      "at en",
      "sch l",
      "oh l",
      "kkkk kkkk",
      "Ġlern en",
      "Ġsch w",
      "and y",
      "Ã¤Ã¤ Ã¤Ã¤",
      "9 9",
      "A l",
      "g st",
      "j k",
      "j etzt",
      "ĠðŁĺ ¡",
      "atÃ¼r lich",
      "D a",
      "W ar",
      "] ..",
      "ch te",
      "Ġden ke",
      "Ġy ou",
      "Ġlan g",
      "y p",
      "or d",
      "ur e",
      "et t",
      "hhhhhhhh hhhhhhhh",
      "................ ................",
      "an g",
      "ach en",
      "Ġf l",
      "Ġv oll",
      "Ã¤ h",
      "Ġschau en",
      "7 7",
      "Ġ. _.[",
      "ess en",
      "ick t",
      "we gen",
      "== ==",
      "Ġschle cht",
      "+ +",
      "< :",
      "I st",
      "S CH",
      "á µ",
      "Ġso gar",
      "Ġt o",
      "im im",
      "AAAA AAAA",
      "Ġkur z",
      "Al so",
      "** [",
      "f er",
      "g ab",
      "Ġges p",
      "Ġsich er",
      "ahr en",
      "2 2",
      "m uss",
      "v llt",
      "Ġf ertig",
      "isch en",
      "Ġganz e",
      "Ġwen ig",
      "/ [",
      "b o",
      "Ġi s",
      "Ġz ie",
      "Ġin s",
      "end lich",
      "---- ----",
      "C K",
      "i b",
      "o tt",
      "Ġ. --",
      "xDxD xDxD",
      "Ġser ver",
      "1 6",
      "] **",
      "a ter",
      "m er",
      "Ġk omp",
      "Ġhat te",
      "Ġsoll te",
      "Ġs ehen",
      "Ġt im",
      "Ġp ass",
      "Ġin ter",
      "Ġst eht",
      "Ġr ein",
      "]ðŁ¥ µ[",
      "áµ Ķ",
      "S T",
      "b eit",
      "Ġd es",
      "an gen",
      "Ġo h",
      "Ġst immt",
      "Ãľ Ãľ",
      "Ġwur de",
      "] @",
      "b l",
      "Ã¤ ter",
      "âķ ı",
      "H ast",
      "Ġ |",
      "Ġ ro",
      "Ġn acht",
      "ÃŁ er",
      "Ã¶Ã¶Ã¶Ã¶ Ã¶Ã¶Ã¶Ã¶",
      "' s",
      "n er",
      "!! !",
      "Ġp aar",
      "Ġ. [",
      "am e",
      "ablabl ablabl",
      "e cht",
      "Ġh och",
      "hi li",
      "?! ?![",
      "ble m",
      "| |",
      "ch er",
      "dd dd",
      "Ġh Ã¤tte",
      "ge ben",
      "Ġmin uten",
      "Ġs ei",
      "Ġsch ick",
      "Ġein er",
      "Ġger ne",
      "rr rr",
      "âĪŀâĪŀâĪŀâĪŀâĪŀâĪŀâĪŀâĪŀâĪŀâĪŀâĪŀâĪŀâĪŀâĪŀâĪŀâĪŀ âĪŀâĪŀâĪŀâĪŀâĪŀâĪŀâĪŀâĪŀâĪŀâĪŀâĪŀâĪŀâĪŀâĪŀâĪŀâĪŀ",
      "Ġfunktion iert",
      "] \"",
      "f Ã¼",
      "er e",
      "Ġd r",
      "Ġm athe",
      "Ġg roÃŁ",
      "un k",
      "Ã¼ b",
      "or m",
      "ing t",
      "il d",
      "OO OO",
      "Ġwei ter",
      "E s",
      "l at",
      "Ġs agt",
      "Ġm a",
      "te l",
      "Ġander e",
      "Ġfra ge",
      "u f",
      "z z",
      "un ter",
      "ex t",
      "Ġf il",
      "Ġander en",
      "Ġbis schen",
      "Ġwahr scheinlich",
      "N ein",
      "] â",
      "d f",
      "n ung",
      "Ġl aufen",
      "de t",
      "ra g",
      "]ðŁ ¤",
      "3 0",
      "o b",
      "Ã Ħ",
      "ii i",
      "Ġsch eiÃŁ",
      "och en",
      "sch rei",
      "ĠĠĠĠĠĠĠĠĠĠĠĠĠĠĠĠ ĠĠĠĠĠĠĠĠĠĠĠĠĠĠĠĠ",
      "Ġvide o",
      "hili pp",
      "( (",
      "t zt",
      "Ġg eil",
      "Ġgef unden",
      "I n",
      "L O",
      "a ff",
      "c t",
      "l ine",
      "t h",
      "¢ [",
      "Ġk enn",
      "ck en",
      "Ġmein em",
      "hmm m",
      "II II",
      "Ġdrau f",
      "W enn",
      "d o",
      "z i",
      "Ġmach e",
      "sp iel",
      "ĠkÃ¶nn te",
      "d es",
      "om isch",
      "nn nn",
      "Ġkomm en",
      "Ġkl ein",
      "tw or",
      "DDDDDDDD DDDDDDDD",
      "sk ip",
      "b itte",
      "g eht",
      "Ġd amit",
      "Ġs c",
      "ðŁ ĳ",
      "ck t",
      "I CH",
      "M O",
      "p ro",
      "!! [",
      "Ġp er",
      "yyyyyyyy yyyyyyyy",
      "4 0",
      "s ry",
      "Ġge d",
      "Ġwar um",
      "]: ([",
      "âĶ »",
      "S o",
      "h ys",
      "k r",
      "t op",
      "Ġd is",
      "al s",
      "Ġst e",
      "D ann",
      "^ ^[",
      "r en",
      "Ġ x",
      "?? ??[",
      "Ġsel ber",
      "g ute",
      "i a",
      "Ġn atÃ¼rlich",
      "Ġsch ule",
      "op f",
      "ï¸ı [",
      "Wie so",
      "> [",
      "G U",
      "a y",
      "e k",
      "k eine",
      "o de",
      "s h",
      "z ei",
      "ter n",
      "at ze",
      "ung s",
      "ĠM in",
      "Ġmein en",
      "L L",
      "er st",
      "Ġb itte",
      "sch ick",
      "Ġge b",
      "Ġer ste",
      "ĠM al",
      "Ġmin e",
      "ĠnÃ¤ mlich",
      "Ġet w",
      "e kt",
      "g lich",
      "h allo",
      "n ee",
      "Ġb aden",
      "se hr",
      "ix el",
      "tz dem",
      "3 3",
      "a ge",
      "ã Ģ",
      "Ġ ber",
      "Ġ em",
      "Ġw issen",
      "Ġb es",
      "Ġt h",
      "Ġwie so",
      "Ġwer de",
      "Ġkein en",
      "]ðŁ¦ ¦[",
      "s ag",
      "Ġsch la",
      "Ġv om",
      "Ġwar en",
      "Ġmein te",
      "ĠP ro",
      "Ġgest ern",
      "A S",
      "u d",
      "w ill",
      "Í ¡",
      "Ġg r",
      "Ġnicht s",
      "Ġf Ã¼",
      "et z",
      "ier e",
      "Ġwill st",
      "ðŁ«ĥðŁ«ĥðŁ«ĥðŁ«ĥðŁ«ĥðŁ«ĥðŁ«ĥðŁ«ĥ ðŁ«ĥðŁ«ĥðŁ«ĥðŁ«ĥðŁ«ĥðŁ«ĥðŁ«ĥðŁ«ĥ",
      "O der",
      "k enn",
      "m in",
      "m us",
      "Ġb tw",
      "it z",
      "Ġt ro",
      "rain ing",
      ") )",
      "s am",
      "Ġ Ð",
      "Ġm en",
      "Ġh e",
      "Ġt himo",
      "ss l",
      "el t",
      "Ġirgend wie",
      "i gen",
      "t ag",
      "Ġw ann",
      "Ġbi l",
      "Ġda zu",
      "Ġver s",
      "Ġpro blem",
      "Ã¼Ã¼Ã¼Ã¼ Ã¼Ã¼Ã¼Ã¼",
      "ÃŁÃŁ ÃŁÃŁ",
      "; )[",
      "Ġh andy",
      "Ġb en",
      "Ġp ls",
      "ĠðŁ Ĳ",
      "Ġsp aÃŁ",
      "K L",
      "L ol",
      "h eit",
      "h ot",
      "s ie",
      "w ow",
      "Ã ĸ",
      "as se",
      "Ġdu s",
      "Ġes sen",
      "Ġkl ar",
      "ĠZ eit",
      "Ġson st",
      "XDXDXDXDXDXDXDXDXDXDXDXDXDXDXDXD XDXDXDXDXDXDXDXDXDXDXDXDXDXDXDXD",
      "Ġmine craft",
      "C C",
      "u ter",
      "Ġi t",
      "Ġl os",
      "oh er",
      "Ġbei m",
      "ĠT himo",
      "ĠðŁĺ «",
      "ap top",
      "ĠmÃ¼ ssen",
      "hys ik",
      "Ġd an",
      "al d",
      "al sch",
      "Ã¤ ch",
      "sch ie",
      "Ġso was",
      "ut sch",
      "Ġmein er",
      "ĺŃ [",
      "Ġzie mlich",
      "e ch",
      "p er",
      "ä ¸",
      "Ġd achte",
      "it ter",
      "Ġbi ssl",
      "lo ck",
      "âĶ ģ",
      "Ġoh ne",
      "2 0",
      "B in",
      "] <:",
      "b s",
      "j osef",
      "Ġ ah",
      "Ġ us",
      "Ġh it",
      "Ġsch wer",
      "Ã¤ hr",
      "ĠA n",
      "kann st",
      "Ġschl imm",
      "MO GU",
      "8 19",
      "E r",
      "b b",
      "g lau",
      "h ol",
      "Ġ â",
      "Ġf r",
      "ann t",
      "âĢ ľ",
      "ĻĤ [",
      "Ġu p",
      "kl Ã¤r",
      "SCH AU",
      "LO CK",
      "ĠMin uten",
      "H ER",
      "W eil",
      "p f",
      "u pp",
      "Ġk on",
      "Ġz w",
      "Ġsp Ã¤ter",
      "is a",
      "komm en",
      "Ġwoll te",
      "!!! ***",
      "e d",
      "e st",
      "n och",
      "au ch",
      "Ġdie s",
      "or mal",
      "Ġein em",
      "Ġge k",
      "ĠS HER",
      "Ġbe stimmt",
      "Ġgibt s",
      "ĠnÃ¤ ch",
      "ĠSHER LOCK",
      "M M",
      "d ee",
      "t himo",
      "ab ei",
      "Ġf ast",
      "der t",
      "sch a",
      "Ġt oll",
      "ĠĠĠĠ ĠĠĠ",
      "00 0",
      "Ġon line",
      "ahahahah ahahahah",
      "ffffffffffffffffffffffffffffffffffffffffffffffffffffffffffffffff ffffffffffffffffffffffffffffffffffffffffffffffffffffffffffffffff",
      "7 4",
      "L isa",
      "o st",
      "p r",
      "Ġm ag",
      "Ġb o",
      "Ġf all",
      "eh men",
      "gen au",
      "Ġt yp",
      "am en",
      "Ġ1 5",
      "]- .",
      "FF FF",
      "hihihihi hihihihi",
      "War um",
      "MOGU S",
      "D och",
      "K ann",
      "g eh",
      "Ġd abei",
      "Ġn ein",
      "ja aaaa",
      "Ġl etzt",
      "ig rÃ¤",
      "Ġpass iert",
      "igrÃ¤ ne",
      "g al",
      "o in",
      "oooo o",
      "ra d",
      "Ġmein st",
      "Ġbekomm en",
      "hau pt",
      "' ([",
      "A N",
      "a kt",
      "f all",
      "g r",
      "Ġ or",
      "Ġn ich",
      "Ġl aptop",
      "Ġt at",
      "Ġgesch ickt",
      "we ster",
      "Ġsel bst",
      "ssss ssss",
      "________ ________",
      "tttt tttt",
      "Ġbil der",
      "c ord",
      "f u",
      "m orgen",
      "as ch",
      "Ġg et",
      "ðŁ ¥",
      "Ġp ixel",
      "ol z",
      "âĺŃ [",
      "ĠðŁĲ Į",
      "A ch",
      "E IN",
      "T Z",
      "c ool",
      "Ġd o",
      "oo g",
      "Ġg ute",
      "Ġk omisch",
      "Ã¼ n",
      "Ġf eh",
      "ing s",
      "/ /",
      "E in",
      "] âĢ",
      "a k",
      "g essen",
      "h o",
      "w u",
      "Ġ ^^[",
      "Ġf rÃ¼",
      "Ġan ge",
      "ra gt",
      "ĠðŁ ĳ",
      "Ġmach st",
      "uuuuuuuuuuuuuuuu uuuuuuuuuuuuuuuu",
      "Ġeh er",
      "Ġru m",
      "d r",
      "g ibt",
      "l an",
      "w el",
      "Ã ´",
      "Ġw ohl",
      "un st",
      "Ã¤ re",
      "sch on",
      "it t",
      "et ter",
      "ut ter",
      "ĠA MOGUS",
      "!!!! [",
      "ĠÃ¼ber haupt",
      "Ġa pp",
      "Ġah nung",
      "A h",
      "m a",
      "z ie",
      "Ġ Ã¼b",
      "Ġh Ã¤",
      "Ġl ink",
      "isch e",
      "da te",
      "âĢį ðŁ",
      "Ġlust ig",
      "ä¸ Ģ",
      "l ass",
      "¶ [",
      "au se",
      "Ġf uck",
      "och e",
      "Ġein mal",
      "Ġt eil",
      "Ġne ue",
      "oh a",
      "Ġ-- --",
      "oooooooooooooooooooooooooooooooooooooooooooooooooooooooooooooooo oooooooooooooooooooooooooooooooooooooooooooooooooooooooooooooooo",
      "].. .",
      "5 7",
      "R R",
      "k eit",
      "q u",
      "Ġm e",
      "Ġk am",
      "or y",
      "pp en",
      "Ġgem ein",
      "?! ?!",
      "Ġlie ber",
      "Ġbl ei",
      "Ġq u",
      "ĠscheiÃŁ e",
      "b y",
      "p ls",
      "Ġg l",
      "mm en",
      "ach e",
      "re ens",
      "ÃŁ en",
      "Ġst unden",
      "]ðŁ ĻĤ[",
      "omm en",
      "he ute",
      "Ġander s",
      "d ig",
      "j o",
      "Ġ Ã¶",
      "Ġh a",
      "Ã¤ llt",
      "sch t",
      "imm er",
      "]- ..",
      "Ġje den",
      ",, ,,",
      "dankedankedankedanke dankedankedankedanke",
      "ðŁ¤¦âĢįâĻĤï¸ıðŁ¤¦âĢįâĻĤï¸ı ðŁ¤¦âĢįâĻĤï¸ıðŁ¤¦âĢįâĻĤï¸ı",
      "ðŁ¤¦âĢįâĻĤðŁ¤¦âĢįâĻĤ ðŁ¤¦âĢįâĻĤðŁ¤¦âĢįâĻĤ",
      "1 7",
      "8 8",
      "w eg",
      "Ġd rei",
      "Ġn o",
      "an den",
      "Ġh off",
      "re ch",
      "Ġhab s",
      "imm en",
      "Ġ3 0",
      "ad y",
      "]ðŁ¥ ¶[",
      "zZzZzZzZzZzZzZzZ zZzZzZzZzZzZzZzZ",
      "gab e",
      "Ġhit ler",
      "oog le",
      "H mm",
      "W ir",
      "b ist",
      "d ar",
      "e ben",
      "i te",
      "w Ã¼r",
      "Ġd rin",
      "Ġg ru",
      ".. [",
      "Ġo ff",
      "ah l",
      "Ġe ben",
      "Ġe gal",
      "iv e",
      "ĠI n",
      "id k",
      "âĺŃâĺŃâĺŃâĺŃ âĺŃâĺŃâĺŃâĺŃ",
      "Ã¤u ft",
      "iss er",
      "Ġfil m",
      "Ġtro tzdem",
      "I E",
      "W W",
      "b ar",
      "d k",
      "g n",
      "t im",
      "u cht",
      "Ð ¾",
      "á ķ",
      "Ġb ro",
      "ja aa",
      "Ġt un",
      "das s",
      "hi s",
      "Ġda von",
      "Ġver l",
      "Ġc a",
      "ent lich",
      "Ġkomm e",
      "Ġgeht s",
      "Ġschrei bt",
      "Ġwe gen",
      "ww ww",
      "Ġlei d",
      "Ġdan ach",
      "] ***",
      "h re",
      "t s",
      "z Ã¤h",
      "Ġs k",
      "Ġs ry",
      "Ġn ormal",
      "Ġk ack",
      "Ġf a",
      "Ġf ar",
      "ig er",
      "Ġst unde",
      "us ste",
      "la den",
      "fe kt",
      "Ġ-.. .",
      "Ġq ue",
      "Ġschick en",
      "unk te",
      "aff t",
      "reens hot",
      "W o",
      "e ug",
      "f orm",
      "u er",
      "st ens",
      "Ġg ott",
      "oooo oo",
      "Ġf rei",
      "Ġf alsch",
      "Ġp c",
      "Ġp asst",
      "ĠĠĠĠ Ġ",
      "Ġge gen",
      "Ġgeh e",
      "ĠweiÃŁ t",
      "Â¶Â¶ Â¶Â¶",
      "Ġen gl",
      "mmmmmmmmmmmmmmmm mmmmmmmmmmmmmmmm",
      "6 5",
      "h ure",
      "j h",
      "ã ĥ",
      "Ġm er",
      "ja a",
      "at ei",
      "Ġl i",
      "ck er",
      "el n",
      "Ġsp Ã¤t",
      "and om",
      "cccccccc cccccccc",
      "Ġzur Ã¼ck",
      ". <",
      "k st",
      "l os",
      "o je",
      "ch ill",
      "st ag",
      "as e",
      "Ġau t",
      "Ġf or",
      "sch w",
      "ĠðŁ ¤",
      "Ġ- _-[",
      "pp t",
      "Ġab end",
      "ern t",
      "eg al",
      "Ã¶r en",
      "Ġdein en",
      "llll llll",
      "Ġdis cord",
      "1 8",
      "; [",
      "N a",
      "S p",
      "] --",
      "f uck",
      "in ter",
      "Ġs h",
      "se hen",
      "ar k",
      "ar beit",
      "Ġr unter",
      "Ġdein er",
      "Ġalle m",
      "Ġdar f",
      "Ġwe ir",
      "âķ Ĳ",
      "HH HH",
      "kkkkkkkk kkkkkkkk",
      "6 2",
      "e w",
      "f in",
      "h uren",
      "m athe",
      "Ð µ",
      "Ġ *",
      "Ġ +",
      "al t",
      "ach s",
      "Ġz ei",
      "Ġo ft",
      "__ _",
      "hi m",
      "ste llt",
      "bt w",
      "Ġgef ragt",
      "inde st",
      "ĠV er",
      "ĠmÃ¶ chte",
      "kr ass",
      "Ġdies es",
      "i z",
      "Ð °",
      "Ĥ ¬",
      "Ġn ut",
      "Ġw oche",
      "Ġf ol",
      "Ġt r",
      "hh h",
      "Ġda fÃ¼r",
      "ind ow",
      "ĠG o",
      "Ġganz en",
      "weil ig",
      "Ġfra gen",
      "xDxDxDxD xDxDxDxD",
      "Ġkomp le",
      "scha ft",
      "h st",
      "l k",
      "n o",
      "y o",
      "Ù Ī",
      "Ġ Ã¤n",
      "Ġ âķı",
      "Ĥ [",
      "Ġs oo",
      "ei m",
      "Ġb r",
      "Ġl Ã¤",
      "Ġt re",
      "ier st",
      "Ġer klÃ¤r",
      "ste llen",
      "all es",
      "ver st",
      "ï¸ »",
      "ine craft",
      "Ġex t",
      "ðŁ¤®ðŁ¤® ðŁ¤®ðŁ¤®",
      "Ġneu en",
      "ĠâĢ ¸",
      "Ġsei te",
      "áķ ķ",
      "âķĲ âĶģ",
      "> .<",
      "b is",
      "i f",
      "s st",
      "v oll",
      "ein fach",
      "Ġk opf",
      "Ġk unst",
      "und er",
      "Ġl Ã¤n",
      "Ġt ag",
      "Ġan twor",
      "Ġ: /[",
      "Ġbe st",
      "eg a",
      "Ġy t",
      "ĠU n",
      "4 4",
      "J osef",
      "U U",
      "_ .",
      "g leich",
      "n ach",
      "Ġm em",
      "icht e",
      "Ġv ater",
      "or en",
      "pp e",
      "om ent",
      "imm e",
      "Â° [",
      "mit tag",
      "schau en",
      "ablablablabl ablablablabl",
      "] âĺŃâĺŃâĺŃâĺŃâĺŃâĺŃâĺŃâĺŃ",
      "h in",
      "n st",
      "Ġb esch",
      "al le",
      "Ġf ur",
      "Ġsch n",
      "Ġl Ã¶",
      "Ġt rau",
      "hab s",
      "Ġ-. -",
      "Ġ-- .",
      "rÃ¼ cke",
      "omp uter",
      "olol olol",
      "Ġbrau cht",
      "jj jj",
      "sa mmen",
      "4 5",
      "h Ã¶",
      "n is",
      "u h",
      "u ld",
      "v iel",
      "Ġd c",
      "Ġw eit",
      "Ġich s",
      "Ġein z",
      "Ġt ut",
      "ah h",
      "Ġan gst",
      "Ġ1 2",
      "Ġ1 00",
      "âĢ ¦[",
      "Ġgeh Ã¶rt",
      "ĠA r",
      "Ġdar an",
      "Ġunter richt",
      "Ġhin ter",
      "iiiiiiiiiiiiiiiiiiiiiiiiiiiiiiii iiiiiiiiiiiiiiiiiiiiiiiiiiiiiiii",
      "âĪŀâĪŀâĪŀâĪŀâĪŀâĪŀâĪŀâĪŀâĪŀâĪŀâĪŀâĪŀâĪŀâĪŀâĪŀâĪŀâĪŀâĪŀâĪŀâĪŀâĪŀâĪŀâĪŀâĪŀâĪŀâĪŀâĪŀâĪŀâĪŀâĪŀâĪŀâĪŀ âĪŀâĪŀâĪŀâĪŀâĪŀâĪŀâĪŀâĪŀâĪŀâĪŀâĪŀâĪŀâĪŀâĪŀâĪŀâĪŀâĪŀâĪŀâĪŀâĪŀâĪŀâĪŀâĪŀâĪŀâĪŀâĪŀâĪŀâĪŀâĪŀâĪŀâĪŀâĪŀ",
      "I R",
      "] ....",
      "m eine",
      "w oll",
      "z eit",
      "Ġ _",
      "Ġ el",
      "st fu",
      "Ġs achen",
      "al k",
      "Ġk a",
      "Ã¤ nd",
      "at z",
      "Ġl Ã¤uft",
      "Ġein s",
      "ge b",
      "Ġo f",
      "Ġzu sammen",
      "iel t",
      "Ġ.. .[",
      "hab e",
      "Ġander es",
      "li ste",
      "Ġy o",
      "ation en",
      "Ġlo st",
      "Ġschla fen",
      "Í¡ Â°",
      "Ã¤ch lich",
      "indow s",
      "a il",
      "j f",
      "m p",
      "p asst",
      "s Ã¤chlich",
      "w ohl",
      "w itter",
      "ã ģ",
      "Ġ bau",
      "Ġ XD",
      "au l",
      "Ġn ot",
      "Ġh el",
      "Ġh il",
      "Ġi dee",
      "Ġk n",
      "on e",
      "Ġl etz",
      "Ġauf m",
      "Ġwir st",
      "Ġr icht",
      "hat s",
      "ĠV ide",
      "Ġle ben",
      "gesch aut",
      "Ġwel che",
      "hau se",
      "Ġben ut",
      "!!!*** [",
      "E I",
      "] ||",
      "l ie",
      "o g",
      "s ur",
      "Ñ Ĥ",
      "Ġ ra",
      "Ġd anke",
      "sch n",
      "ur ch",
      "ge st",
      "Ġst r",
      "pp pp",
      "Ġre ady",
      "ĠH olz",
      "wei se",
      "Ġje der",
      "gg gg",
      "Ġverst ehe",
      "hhhhhhhhhhhhhhhh hhhhhhhhhhhhhhhh",
      "Ġinter ess",
      "J etzt",
      "T ja",
      "^ -",
      "h ier",
      "m ir",
      "er ne",
      "Ġd i",
      "Ġd au",
      "Ġf in",
      "Ġf ahr",
      "Ġz B",
      "ig es",
      "ra ge",
      "Ġ.. -.",
      "ĺŃ ðŁ",
      "Ġre g",
      "]. --",
      "Ġgesch afft",
      "Ġ-- ..",
      "ze ich",
      "Ġerst mal",
      "................................ ................................",
      "|| [",
      "ÃĦ ÃĦ",
      "T himo",
      "X d",
      "p ff",
      "s f",
      "³ [",
      "â Ĥ¬",
      "Ġ endlich",
      "ich er",
      "in ge",
      "Ġg ra",
      "Ã¼ h",
      "so ll",
      "Ġj tzt",
      "Ġer zÃ¤h",
      "ra gen",
      "Ġr andom",
      "Ġver b",
      "ste ll",
      "hr en",
      "ion en",
      "lo st",
      "Ġdar auf",
      "Ġde utsch",
      "Ġlei der",
      "==== ====",
      "gab en",
      "-------- --------",
      "Ġkenn e",
      "Ġmen schen",
      "glau be",
      "Ġkack e",
      "Ġkomple tt",
      "3 8",
      "5 0",
      "s se",
      "ch st",
      "Ġs ehe",
      "an der",
      "Ġh Ã¶",
      "Ġf ahren",
      "Ġsch wester",
      "Ġv c",
      "ÃŁ e",
      "Ġan d",
      "]ðŁ ĺŃ[",
      "00 00",
      "Ġmus ste",
      "Ġlie gt",
      "Ġschnell er",
      "Ġvide os",
      "ĠmÃ¶ glich",
      "Ġwenig er",
      "Ġged acht",
      "3 2",
      "A n",
      "W ann",
      "a te",
      "k ein",
      "k atze",
      "r ig",
      "Ġ test",
      "Ġs im",
      "Ġb ot",
      "Ġb ald",
      "al e",
      "at h",
      "Ġl eute",
      "Ġso l",
      "Ġan t",
      "Ġden en",
      "Ġver gessen",
      "all en",
      "Ġvor her",
      "aaaa a",
      "mo in",
      "uch en",
      "ĠâĢ ŀ",
      "8 0",
      "m acht",
      "m and",
      "v Ã¶",
      "w oher",
      "au m",
      "Ġs inn",
      "un ge",
      "Ġz eug",
      "Ġp hilipp",
      "Ġan f",
      "ĠðŁ ¥",
      "em a",
      "ro m",
      "Ġ- .[",
      "Ġwas ser",
      "is h",
      "Ã¤Ã¤Ã¤Ã¤ Ã¤Ã¤Ã¤Ã¤",
      "ÃŁer dem",
      "S t",
      "v t",
      "y st",
      "µ ðŁ¥",
      "ð Ŀ",
      "Ġ ter",
      "Ħ [",
      "Ġs eine",
      "Ġm ei",
      "at t",
      "Ġl assen",
      "sch la",
      "Ġp hysik",
      "Ġes se",
      "Ġbe g",
      "Ġnach her",
      "Ġuns er",
      "Ġdein em",
      "Ġen de",
      "Ġgel ernt",
      "AAAAAAAA AAAAAAAA",
      "Ġhoff e",
      "Ġtre ffen",
      "N G",
      "N ur",
      "] .[",
      "] Â°",
      "] ???[",
      "g h",
      "o i",
      "w or",
      "Ġm ega",
      "oo d",
      "et te",
      "ig t",
      "Ġst re",
      "Ġsp iele",
      "ĠT raining",
      "rin gen",
      "Ġprogramm ieren",
      "Ġlang sam",
      "Ġ.-- .",
      "dddd dddd",
      "Ġdr an",
      "ä¸Ģ áķķ",
      "Ġletz te",
      "( )",
      "2 5",
      "E H",
      "H at",
      "L K",
      "N icht",
      "h mmmm",
      "m l",
      "o a",
      "o d",
      "u ii",
      "Ð ¸",
      "Ġ ;)[",
      "ch mal",
      "oo k",
      "Ġw ichtig",
      "ll er",
      "ru ch",
      "Ġ- [",
      "eeee e",
      "EEEE EEEE",
      "ĠĠĠĠĠĠĠĠĠĠĠĠĠĠĠĠĠĠĠĠĠĠĠĠĠĠĠĠĠĠĠĠ ĠĠĠĠĠĠĠĠĠĠĠĠĠĠĠĠĠĠĠĠĠĠĠĠĠĠĠĠĠĠĠĠ",
      "ĺŃðŁ ĺŃðŁ",
      "3 74",
      "E TZ",
      "N Ã¶",
      "g anz",
      "p unkt",
      "s c",
      "ã Ĥ",
      "Ġ /",
      "Ġd atei",
      "an de",
      "Ġh ol",
      "on der",
      "ll ig",
      "eh st",
      "Ġp unkt",
      "]ðŁ Ĳ",
      "du kt",
      "Ġkl ingt",
      "Ġar e",
      "?! ?[",
      "ĠN acht",
      "Ġgen er",
      "Ġwoll en",
      "!!!!!!!! !!!!!!!!",
      "ui ui",
      "++ ++",
      "(( ((",
      "yyyyyyyyyyyyyyyy yyyyyyyyyyyyyyyy",
      "ðŁ«ĥðŁ«ĥðŁ«ĥðŁ«ĥðŁ«ĥðŁ«ĥðŁ«ĥðŁ«ĥðŁ«ĥðŁ«ĥðŁ«ĥðŁ«ĥðŁ«ĥðŁ«ĥðŁ«ĥðŁ«ĥ ðŁ«ĥðŁ«ĥðŁ«ĥðŁ«ĥðŁ«ĥðŁ«ĥðŁ«ĥðŁ«ĥðŁ«ĥðŁ«ĥðŁ«ĥðŁ«ĥðŁ«ĥðŁ«ĥðŁ«ĥðŁ«ĥ",
      "kenn st",
      "Ġâ İ",
      "ĠnÃ¤ch ste",
      "]âĺŃâĺŃâĺŃâĺŃâĺŃâĺŃâĺŃâĺŃ âĺŃ[",
      "A CH",
      "W er",
      "^ )[",
      "f h",
      "l Ã¶",
      "m em",
      "m ehr",
      "s ind",
      "w en",
      "Ġ as",
      "Ġ Ã¤",
      "oo h",
      "es se",
      "al ten",
      "Ġau ss",
      "ur t",
      "Ġj em",
      "Ġr unde",
      "Ġ1 4",
      "Ġwar st",
      "Ġaus ge",
      "la gen",
      "Ġschrei be",
      "gel n",
      "ĠJ osef",
      "Ġneu es",
      "hal ten",
      "Ġsag st",
      "ÃľÃľ ÃľÃľ",
      "Ã¶Ã¶Ã¶Ã¶Ã¶Ã¶Ã¶Ã¶ Ã¶Ã¶Ã¶Ã¶Ã¶Ã¶Ã¶Ã¶",
      "schrei b",
      "Ġtat sÃ¤chlich",
      "yst em",
      "7 5",
      "A ha",
      "B ei",
      "M an",
      "N N",
      "f te",
      "h Ã¶r",
      "m imim",
      "u wu",
      "Â ´",
      "as d",
      "Ġn amen",
      "Ġm on",
      "an ge",
      "ðŁ §",
      "Ġdie ser",
      "re m",
      "ah len",
      "lich e",
      "am s",
      "âĢ ¢[",
      "ĠT im",
      "¦âĢįâĻĤ ï¸ı[",
      "Ġmus ik",
      "Ġkr ank",
      "Ġher aus",
      "ĠSp aÃŁ",
      "Ġlo g",
      "Ġfre und",
      "Ġfl ie",
      "Ġsc reenshot",
      "XDXDXDXDXDXDXDXDXDXDXDXDXDXDXDXDXDXDXDXDXDXDXDXDXDXDXDXDXDXDXDXD XDXDXDXDXDXDXDXDXDXDXDXDXDXDXDXDXDXDXDXDXDXDXDXDXDXDXDXDXDXDXDXD",
      "Ġus w",
      "Ġfeh ler",
      "Ġengl isch",
      "Ġfur by",
      "ETZ T",
      "4 2",
      "6 0",
      "6 9",
      "8 22",
      "J aaaa",
      "b eiten",
      "c om",
      "f eh",
      "n p",
      "p h",
      "r d",
      "u mm",
      "en z",
      "in der",
      "Ġm utter",
      "ei g",
      "ei le",
      "Ġk rie",
      "?? ???[",
      "Ġdir ekt",
      "lau sur",
      "Ġab ge",
      "]. -",
      "ĠH A",
      "Ã¤n dert",
      "ĠE r",
      "SS SS",
      "Ġinter net",
      "ICH T",
      "Ġup date",
      "µðŁ¥ µðŁ¥",
      "M ein",
      "] ;)[",
      "f il",
      "n eee",
      "Ì ·",
      "Ì ¿",
      "Ķ [",
      "Ġs Ã¼",
      "Ġn a",
      "Ġn ow",
      "Ġw itz",
      "Ġg o",
      "ab le",
      "at ur",
      "at zen",
      "Ġl Ã¼",
      "sch ade",
      "sch ule",
      "or e",
      "Ġt his",
      "Ġp r",
      "Ġp unkte",
      "Ġin st",
      "Ġc oo",
      "Ġaus re",
      "Ġbe sten",
      "il der",
      "isch er",
      "ĠD e",
      "komm t",
      "ĠN ach",
      "Ġschau e",
      "ĠmÃ¼ de",
      "Ġbekomm e",
      "eeeeeeeeeeeeeeee eeeeeeeeeeeeeeee",
      "Ġlang weilig",
      "]â ĺ",
      "âĶ» Ì¿",
      "Ġbo ck",
      "Ach so",
      "wÃ¼r dig",
      ". _.",
      "2 14",
      "6 3",
      "7 66",
      "E S",
      "U n",
      "b ild",
      "j upp",
      "l es",
      "u b",
      "w a",
      "Ġ áµĶ",
      "au ft",
      "en e",
      "Ġd ru",
      "in s",
      "Ġs eiten",
      "ie ze",
      "Ġm igrÃ¤ne",
      "an twor",
      "Ġsch ein",
      "Ġt rain",
      "Ġt ext",
      "iiii ii",
      "Ġge g",
      "Ġan geschaut",
      "Ġer nst",
      "Ġsp r",
      "kt ur",
      "ute t",
      "]: '([",
      "Ġab i",
      "war te",
      "Ġvor bei",
      "ahr scheinlich",
      "ĠR e",
      "Ġsa ve",
      "ha ft",
      "Ġgesp annt",
      "rrrr rrrr",
      "lat z",
      "ia o",
      "zei gt",
      "Ġgr Ã¶",
      "ĠfÃ¼ h",
      "]-. -[",
      "N ice",
      "] <",
      "i al",
      "p s",
      "t sch",
      "u be",
      "v a",
      "Ġ Ã²",
      "st r",
      "Ġn u",
      "an s",
      "Ġk ap",
      "ðŁ ¦",
      "Ġf aul",
      "Ġv o",
      "Ġt raining",
      "Ġp rin",
      "ĠðŁ İ",
      "hi ll",
      "Ġver t",
      "ĠM en",
      "ĠB ild",
      "!!!! ![",
      "ĠG e",
      "Ġglau b",
      "hn ung",
      "Ġson dern",
      "son st",
      "zw ischen",
      "ï¸» Ì·",
      "âĶ»Ì¿ âķĲâĶģ",
      "ieze katze",
      "ï¸»Ì· âĶ»Ì¿âķĲâĶģ",
      "a ce",
      "d achte",
      "e y",
      "g ehen",
      "m iezekatze",
      "n te",
      "r ee",
      "s ste",
      "z wei",
      "ĥ ı",
      "Ġw or",
      "Ġw usste",
      "Ġb z",
      "ar bei",
      "at ik",
      "sch e",
      "Ġt i",
      "Ġo ben",
      "am t",
      "Ġda vor",
      "ehr er",
      "Ġbe de",
      "Ġ.- .[",
      "Ġch at",
      "Ġkomm st",
      "Ġwird s",
      "ĠF re",
      "Ġkl eine",
      "Ġar me",
      "Ġerst en",
      "Ġwe bs",
      "up s",
      "Ġbl Ã¶",
      "77 62",
      "Ġgesp ielt",
      "IIII IIII",
      "40 766",
      "Ġzw ischen",
      "ost et",
      "hihihihihihihihi hihihihihihihihi",
      "Ġletzt en",
      "Ġgl Ã¼ck",
      "Ġweir d",
      "ĠlÃ¤n ger",
      "374 40766",
      "822 214",
      "37440766 7762",
      "822214 374407667762",
      "# #",
      "* [",
      "A uf",
      "H I",
      "N EIN",
      "O R",
      "T him",
      "] [",
      "f re",
      "g s",
      "g et",
      "k s",
      "l ei",
      "n ehmen",
      "u di",
      "w eiÃŁt",
      "w Ã¤re",
      "Ñ ģ",
      "er r",
      "bau t",
      "Ġd ont",
      "Ġs eit",
      "Ġs up",
      "ie s",
      "ie lle",
      "ei den",
      "Ã¼ ss",
      "ar te",
      "sch Ã¶n",
      "or re",
      "Ġp ar",
      "Ġan gef",
      "Ġzu hause",
      "Ġ1 3",
      "Ġwar s",
      "Ġ.. --",
      "Ġmein t",
      "ĠA uf",
      "ĠA hnung",
      "ĠH andy",
      "Ġhal b",
      "Ã¤t test",
      "Ġschrei bst",
      "99 99",
      "th x",
      "DDDDDDDDDDDDDDDD DDDDDDDDDDDDDDDD",
      "Ġper fekt",
      "CC CC",
      "âĢľ [",
      "ahahahahahahahah ahahahahahahahah",
      "ĠfrÃ¼ h",
      "ĠÃ¶ ff",
      "4 9",
      "6 8",
      "O CH",
      "V on",
      "a in",
      "d urch",
      "f st",
      "f ol",
      "h f",
      "t zen",
      "w eiÃŁ",
      "y es",
      "ch n",
      "in ar",
      "Ġn enn",
      ".. .",
      "Ġk ont",
      "Ġt Ã¶",
      "re ck",
      "ĠĠĠĠ ĠĠ",
      "Ġge ben",
      "Ġer inn",
      "ĠðŁ ĥı",
      "um en",
      "Ġ1 1",
      "Ġ1 8",
      "Ġver k",
      "Ġall eine",
      "ow n",
      "Ġar beit",
      "13 0",
      "je kt",
      "Ġschl Ã¤",
      "Ġbrau che",
      "ri gen",
      "mer zen",
      "]ðŁ¤ ¦âĢįâĻĤï¸ı[",
      "nnnn nnnn",
      "pro gramm",
      "Ġbes onder",
      "ĠðŁĳ Ģ",
      "Ġapp le",
      "ĠÃ¤n dern",
      "ĠðŁİ ´",
      "ielle icht",
      "3 5",
      "6 7",
      "H Ã¤",
      "] Â",
      "a f",
      "b zw",
      "d amit",
      "g f",
      "h y",
      "m el",
      "o j",
      "r on",
      "s icht",
      "z iert",
      "£ [",
      "Ð ½",
      "ä º",
      "Ġ ?[",
      "Ġ ***",
      "ch es",
      "Ġm y",
      "oo f",
      "ja aaa",
      "Ġf est",
      "or io",
      "oooooooo oooo",
      "ut t",
      "Ġauf ge",
      "Ġal t",
      "ĠS o",
      "Ġman chmal",
      "Ġver schie",
      "Ġre al",
      "ĠB ei",
      "Ġsein en",
      "lt ra",
      "rÃ¼ ckt",
      "uch e",
      "ĠL ust",
      "ack t",
      "ĠU hr",
      "gesch rieben",
      "ĠÍ¡Â°) (",
      "ĠÍ¡Â°) Â°",
      "ĠÍ¡Â°) Í¡Â°",
      "Ġwel t",
      "Ġetw a",
      "ÃŁÃŁÃŁÃŁ ÃŁÃŁÃŁÃŁ",
      "ĠðŁ¤ ®",
      "4 7",
      "4 8",
      "> <:",
      "H ehe",
      "j d",
      "o gen",
      "o ck",
      "p l",
      "q ue",
      "t te",
      "t ml",
      "w ig",
      "y a",
      "ir gend",
      "Ġw ochen",
      "Ġh and",
      "Ġb el",
      "al en",
      "Ġk aufen",
      "eh n",
      "Ġp isser",
      "ier tel",
      "Ġden kst",
      "Ġ: '([",
      "]ðŁ ĳ",
      "ĠM inecraft",
      "ten t",
      "is st",
      "ot o",
      "tw ort",
      "ĠL eute",
      "Ġfra g",
      "na ja",
      "mach en",
      "Ġet c",
      "Ġfinde t",
      "ðŁ¤¦âĢįâĻĤðŁ¤¦âĢįâĻĤðŁ¤¦âĢįâĻĤðŁ¤¦âĢįâĻĤ ðŁ¤¦âĢįâĻĤðŁ¤¦âĢįâĻĤðŁ¤¦âĢįâĻĤðŁ¤¦âĢįâĻĤ",
      "Hmm m",
      "Ġtrau rig",
      "% [",
      "2 8",
      "K enn",
      "M ach",
      "M it",
      "a gen",
      "b ung",
      "h off",
      "Ġ ag",
      "er d",
      "en ster",
      "st eht",
      "Ġn ehmen",
      "Ġm ar",
      "Ġw Ã¶r",
      "Ġw etter",
      "Ġw indows",
      "Ġg oogle",
      "Ġb ug",
      "ar d",
      "Ġso und",
      "ig ht",
      "ĠðŁ ĩ",
      "em inar",
      "am il",
      "Ġst and",
      "Ġre fer",
      "rau cht",
      "aaaa aa",
      "Ġgesch aut",
      "Ġnach richt",
      "Ġschrei b",
      "]ðŁĺ ¢[",
      "Ġent sch",
      "hal t",
      "ri ff",
      "fall s",
      "Ġor z",
      "ĠfrÃ¼ her",
      "ĠÃ¼b rigen",
      "oooooooooooooooooooooooooooooooooooooooooooooooooooooooooooooooooooooooooooooooooooooooooooooooooooooooooooooooooooooooooooooooo oooooooooooooooooooooooooooooooooooooooooooooooooooooooooooooooooooooooooooooooooooooooooooooooooooooooooooooooooooooooooooooooo",
      "dankedankedankedankedankedankedankedanke dankedankedankedankedankedankedankedanke",
      "ðŁ¤¦âĢįâĻĤï¸ıðŁ¤¦âĢįâĻĤï¸ıðŁ¤¦âĢįâĻĤï¸ıðŁ¤¦âĢįâĻĤï¸ı ðŁ¤¦âĢįâĻĤï¸ıðŁ¤¦âĢįâĻĤï¸ıðŁ¤¦âĢįâĻĤï¸ıðŁ¤¦âĢįâĻĤï¸ı",
      "Ġdrin nen",
      "Ġverl oren",
      "Ġreg net",
      "Ġsup er",
      "9 0",
      "E cht",
      "H mmmm",
      "] /",
      "] âĺŃ[",
      "f ort",
      "g or",
      "k wÃ¼rdig",
      "l Ã¼",
      "l ul",
      "m Ã¶",
      "~ ~",
      "ï ¹",
      "Ġ <",
      "Ġ Y",
      "Ġd ing",
      "Ġs ee",
      "Ġs ooo",
      "Ġw a",
      "Ġw ert",
      "Ġh eiÃŁ",
      "Ġf orm",
      "eh m",
      "Ġl in",
      "Ġl erne",
      "sch eiÃŁ",
      "it iv",
      "it hm",
      "ÃŁ t",
      "Ġ1 6",
      "Ġsp ort",
      "Ġe z",
      "Ġun ten",
      "Ġre den",
      "is mus",
      "ĠT ag",
      "Ġgesch ichte",
      "Ġa d",
      "we ir",
      "rÃ¼ f",
      "ack en",
      "ĠSt unden",
      "ĠSt unde",
      "Ġthe or",
      "Ġet was",
      "Ġnie mand",
      "Ġverst ehen",
      "Ġdrau ÃŁen",
      "OOOO OOOO",
      "Ġklein er",
      ")) ))",
      "FFFF FFFF",
      "gr und",
      ",,,, ,,,,",
      "zZzZzZzZzZzZzZzZzZzZzZzZzZzZzZzZ zZzZzZzZzZzZzZzZzZzZzZzZzZzZzZzZ",
      "Ġext ra",
      "ĠVide o",
      "ðĿ Ķ",
      "ooh oo",
      "Ġcoo le",
      "._. )",
      "Ġangef angen",
      "äº º",
      "( >.<",
      "E G",
      "G ute",
      "K omm",
      "M uss",
      "S ie",
      "b lock",
      "c a",
      "g o",
      "s y",
      "v v",
      "¢ ðŁĺ",
      "º [",
      "» [",
      "Ġ #",
      "Ġ >",
      "Ġ Q",
      "Ġ Â°"
    ]
  }
}