{
  "version": "1.0",
  "truncation": null,
  "padding": null,
  "added_tokens": [
    {
      "id": 0,
      "content": "[SOM]",
      "single_word": false,
      "lstrip": false,
      "rstrip": false,
      "normalized": false,
      "special": false
    },
    {
      "id": 1,
      "content": "[EOM]",
      "single_word": false,
      "lstrip": false,
      "rstrip": false,
      "normalized": false,
      "special": false
    },
    {
      "id": 2,
      "content": "[PAD]",
      "single_word": false,
      "lstrip": false,
      "rstrip": false,
      "normalized": false,
      "special": false
    }
  ],
  "normalizer": null,
  "pre_tokenizer": {
    "type": "ByteLevel",
    "add_prefix_space": true,
    "trim_offsets": true,
    "use_regex": true
  },
  "post_processor": null,
  "decoder": {
    "type": "ByteLevel",
    "add_prefix_space": true,
    "trim_offsets": true,
    "use_regex": true
  },
  "model": {
    "type": "BPE",
    "dropout": null,
    "unk_token": null,
    "continuing_subword_prefix": null,
    "end_of_word_suffix": null,
    "fuse_unk": false,
    "byte_fallback": false,
    "vocab": {
      "[SOM]": 0,
      "[EOM]": 1,
      "[PAD]": 2,
      "!": 3,
      "\"": 4,
      "#": 5,
      "$": 6,
      "%": 7,
      "&": 8,
      "'": 9,
      "(": 10,
      ")": 11,
      "*": 12,
      "+": 13,
      ",": 14,
      "-": 15,
      ".": 16,
      "/": 17,
      "0": 18,
      "1": 19,
      "2": 20,
      "3": 21,
      "4": 22,
      "5": 23,
      "6": 24,
      "7": 25,
      "8": 26,
      "9": 27,
      ":": 28,
      ";": 29,
      "<": 30,
      "=": 31,
      ">": 32,
      "?": 33,
      "@": 34,
      "A": 35,
      "B": 36,
      "C": 37,
      "D": 38,
      "E": 39,
      "F": 40,
      "G": 41,
      "H": 42,
      "I": 43,
      "J": 44,
      "K": 45,
      "L": 46,
      "M": 47,
      "N": 48,
      "O": 49,
      "P": 50,
      "Q": 51,
      "R": 52,
      "S": 53,
      "T": 54,
      "U": 55,
      "V": 56,
      "W": 57,
      "X": 58,
      "Y": 59,
      "Z": 60,
      "[": 61,
      "\\": 62,
      "]": 63,
      "^": 64,
      "_": 65,
      "`": 66,
      "a": 67,
      "b": 68,
      "c": 69,
      "d": 70,
      "e": 71,
      "f": 72,
      "g": 73,
      "h": 74,
      "i": 75,
      "j": 76,
      "k": 77,
      "l": 78,
      "m": 79,
      "n": 80,
      "o": 81,
      "p": 82,
      "q": 83,
      "r": 84,
      "s": 85,
      "t": 86,
      "u": 87,
      "v": 88,
      "w": 89,
      "x": 90,
      "y": 91,
      "z": 92,
      "{": 93,
      "|": 94,
      "}": 95,
      "~": 96,
      "¡": 97,
      "¢": 98,
      "£": 99,
      "¤": 100,
      "¥": 101,
      "¦": 102,
      "§": 103,
      "¨": 104,
      "©": 105,
      "ª": 106,
      "«": 107,
      "¬": 108,
      "®": 109,
      "¯": 110,
      "°": 111,
      "±": 112,
      "²": 113,
      "³": 114,
      "´": 115,
      "µ": 116,
      "¶": 117,
      "·": 118,
      "¸": 119,
      "¹": 120,
      "º": 121,
      "»": 122,
      "¼": 123,
      "½": 124,
      "¾": 125,
      "¿": 126,
      "Â": 127,
      "Ã": 128,
      "Ä": 129,
      "Å": 130,
      "Æ": 131,
      "É": 132,
      "Ê": 133,
      "Ë": 134,
      "Ì": 135,
      "Í": 136,
      "Î": 137,
      "Ï": 138,
      "Ð": 139,
      "Ñ": 140,
      "Ø": 141,
      "Ù": 142,
      "à": 143,
      "á": 144,
      "â": 145,
      "ã": 146,
      "ä": 147,
      "å": 148,
      "æ": 149,
      "ç": 150,
      "è": 151,
      "é": 152,
      "ê": 153,
      "ë": 154,
      "ì": 155,
      "ï": 156,
      "ð": 157,
      "Ċ": 158,
      "č": 159,
      "Ġ": 160,
      "Ģ": 161,
      "ģ": 162,
      "Ĥ": 163,
      "ĥ": 164,
      "Ħ": 165,
      "ħ": 166,
      "Ĩ": 167,
      "ĩ": 168,
      "Ī": 169,
      "ī": 170,
      "Ĭ": 171,
      "ĭ": 172,
      "Į": 173,
      "į": 174,
      "İ": 175,
      "ı": 176,
      "Ĳ": 177,
      "ĳ": 178,
      "Ĵ": 179,
      "ĵ": 180,
      "Ķ": 181,
      "ķ": 182,
      "ĸ": 183,
      "Ĺ": 184,
      "ĺ": 185,
      "Ļ": 186,
      "ļ": 187,
      "Ľ": 188,
      "ľ": 189,
      "Ŀ": 190,
      "ŀ": 191,
      "Ł": 192,
      "ł": 193,
      "Ń": 194,
      "OM": 195,
      "ĺŃ": 196,
      "âĺŃ": 197,
      "âĺŃâĺŃ": 198,
      ":[": 199,
      "SOM": 200,
      "EOM": 201,
      "âĺŃâĺŃâĺŃâĺŃ": 202,
      "ch": 203,
      "âĸ": 204,
      "au": 205,
      "bi": 206,
      "er": 207,
      "âĸĳ": 208,
      "rn": 209,
      "bau": 210,
      "birn": 211,
      "baum": 212,
      "birnbaum": 213,
      "âĸĳâĸĳ": 214,
      ".:[": 215,
      "âĺŃâĺŃâĺŃâĺŃâĺŃâĺŃâĺŃâĺŃ": 216,
      "en": 217,
      "Ġd": 218,
      "¶ŀ": 219,
      "à¶ŀ": 220,
      "à¶ŀà¶ŀ": 221,
      "ich": 222,
      "st": 223,
      "ei": 224,
      "ie": 225,
      "Ġs": 226,
      "âĸĳâĸĳâĸĳâĸĳ": 227,
      "âĺŃâĺŃâĺŃâĺŃâĺŃâĺŃâĺŃâĺŃâĺŃâĺŃâĺŃâĺŃâĺŃâĺŃâĺŃâĺŃ": 228,
      "Ġ\\": 229,
      "ii": 230,
      "as": 231,
      "Ġm": 232,
      "Ġn": 233,
      "an": 234,
      "oo": 235,
      "aa": 236,
      "Ġw": 237,
      "ff": 238,
      "à¶ŀà¶ŀà¶ŀà¶ŀ": 239,
      "Ġg": 240,
      "ter": 241,
      "Ġi": 242,
      "âĸĪ": 243,
      "ein": 244,
      "Ġh": 245,
      "?[": 246,
      "..": 247,
      "ex": 248,
      "ber": 249,
      "mm": 250,
      "un": 251,
      "terex": 252,
      "terexii": 253,
      "es": 254,
      "čĊ": 255,
      "âĺŃâĺŃâĺŃâĺŃâĺŃâĺŃâĺŃâĺŃâĺŃâĺŃâĺŃâĺŃâĺŃâĺŃâĺŃâĺŃâĺŃâĺŃâĺŃâĺŃâĺŃâĺŃâĺŃâĺŃâĺŃâĺŃâĺŃâĺŃâĺŃâĺŃâĺŃâĺŃ": 256,
      "tt": 257,
      "al": 258,
      "âĸĪâĸĪ": 259,
      "ĠĠ": 260,
      "in": 261,
      "Ġich": 262,
      "se": 263,
      "Ġdu": 264,
      "UU": 265,
      "icht": 266,
      "Ġdas": 267,
      "Ġk": 268,
      "ut": 269,
      "âĸĳâĸĳâĸĳâĸĳâĸĳâĸĳâĸĳâĸĳ": 270,
      "at": 271,
      "on": 272,
      "ðŁ": 273,
      "Ġau": 274,
      "be": 275,
      "??": 276,
      "aaaa": 277,
      "xD": 278,
      "ach": 279,
      "à¶ŀà¶ŀà¶ŀà¶ŀà¶ŀà¶ŀà¶ŀà¶ŀ": 280,
      "ru": 281,
      "oooo": 282,
      "Ã¼": 283,
      "ll": 284,
      "ja": 285,
      "77": 286,
      "ffff": 287,
      "Ġsch": 288,
      "or": 289,
      "Ġist": 290,
      "Ġnicht": 291,
      "Ġf": 292,
      "ir": 293,
      "ar": 294,
      "und": 295,
      "Ġv": 296,
      "eh": 297,
      "ann": 298,
      "Ã¤": 299,
      "ab": 300,
      "ps": 301,
      "och": 302,
      "ee": 303,
      ":/": 304,
      "iese": 305,
      "der": 306,
      "://": 307,
      "ttps": 308,
      "sch": 309,
      "Ġl": 310,
      "Ã¶": 311,
      "gru": 312,
      "beriese": 313,
      "gruberiese": 314,
      "Ġbi": 315,
      "https": 316,
      "de": 317,
      "âĺŃâĺŃâĺŃâĺŃâĺŃâĺŃâĺŃâĺŃâĺŃâĺŃâĺŃâĺŃâĺŃâĺŃâĺŃâĺŃâĺŃâĺŃâĺŃâĺŃâĺŃâĺŃâĺŃâĺŃâĺŃâĺŃâĺŃâĺŃâĺŃâĺŃâĺŃâĺŃâĺŃâĺŃâĺŃâĺŃâĺŃâĺŃâĺŃâĺŃâĺŃâĺŃâĺŃâĺŃâĺŃâĺŃâĺŃâĺŃâĺŃâĺŃâĺŃâĺŃâĺŃâĺŃâĺŃâĺŃâĺŃâĺŃâĺŃâĺŃâĺŃâĺŃâĺŃâĺŃ": 318,
      "om": 319,
      "ww": 320,
      "Ġdie": 321,
      "Ġz": 322,
      "uu": 323,
      "Ġein": 324,
      "ur": 325,
      "gen": 326,
      "le": 327,
      "Ġb": 328,
      "it": 329,
      "Ġso": 330,
      "et": 331,
      "Ġt": 332,
      "UUUU": 333,
      "yo": 334,
      "re": 335,
      "ck": 336,
      "ge": 337,
      "!!": 338,
      "com": 339,
      "iiii": 340,
      "Ġa": 341,
      "ĠxD": 342,
      "Ġp": 343,
      "em": 344,
      "utu": 345,
      "youtu": 346,
      "ss": 347,
      "à¶ŀà¶ŀà¶ŀà¶ŀà¶ŀà¶ŀà¶ŀà¶ŀà¶ŀà¶ŀà¶ŀà¶ŀà¶ŀà¶ŀà¶ŀà¶ŀ": 348,
      "Ġauch": 349,
      "ĠĠĠĠ": 350,
      "Ġo": 351,
      "so": 352,
      "????": 353,
      "te": 354,
      "aaaaaaaa": 355,
      "![": 356,
      "ffffffff": 357,
      "Ġj": 358,
      "ah": 359,
      "oooooooo": 360,
      "7777": 361,
      "ig": 362,
      "el": 363,
      "ol": 364,
      "Ġin": 365,
      "ÃŁ": 366,
      "Ġan": 367,
      "âĪ": 368,
      "hh": 369,
      "âĪŀ": 370,
      "âĪŀâĪŀ": 371,
      "--": 372,
      "XD": 373,
      "Ġder": 374,
      "ra": 375,
      "Ġund": 376,
      "lich": 377,
      "Ġnoch": 378,
      "Ġ.": 379,
      "ĠA": 380,
      "das": 381,
      "Ġzu": 382,
      "âĸĪâĸĪâĸĪâĸĪ": 383,
      "ier": 384,
      "Ġer": 385,
      "enn": 386,
      "Ġbin": 387,
      "ĠðŁ": 388,
      "....": 389,
      ".[": 390,
      "âĸĳâĸĳâĸĳâĸĳâĸĳâĸĳâĸĳâĸĳâĸĳâĸĳâĸĳâĸĳâĸĳâĸĳâĸĳâĸĳ": 391,
      "Ġhab": 392,
      "ro": 393,
      "âĺŃâĺŃâĺŃâĺŃâĺŃâĺŃâĺŃâĺŃâĺŃâĺŃâĺŃâĺŃâĺŃâĺŃâĺŃâĺŃâĺŃâĺŃâĺŃâĺŃâĺŃâĺŃâĺŃâĺŃâĺŃâĺŃâĺŃâĺŃâĺŃâĺŃâĺŃâĺŃâĺŃâĺŃâĺŃâĺŃâĺŃâĺŃâĺŃâĺŃâĺŃâĺŃâĺŃâĺŃâĺŃâĺŃâĺŃâĺŃâĺŃâĺŃâĺŃâĺŃâĺŃâĺŃâĺŃâĺŃâĺŃâĺŃâĺŃâĺŃâĺŃâĺŃâĺŃâĺŃâĺŃâĺŃâĺŃâĺŃâĺŃâĺŃâĺŃâĺŃâĺŃâĺŃâĺŃâĺŃâĺŃâĺŃâĺŃâĺŃâĺŃâĺŃâĺŃâĺŃâĺŃâĺŃâĺŃâĺŃâĺŃâĺŃâĺŃâĺŃâĺŃâĺŃâĺŃâĺŃâĺŃâĺŃâĺŃâĺŃâĺŃâĺŃâĺŃâĺŃâĺŃâĺŃâĺŃâĺŃâĺŃâĺŃâĺŃâĺŃâĺŃâĺŃâĺŃâĺŃâĺŃâĺŃâĺŃâĺŃâĺŃâĺŃâĺŃâĺŃâĺŃâĺŃâĺŃâĺŃ": 394,
      "Ġauf": 395,
      "ten": 396,
      "XDXD": 397,
      "Ġja": 398,
      "www": 399,
      "Ġes": 400,
      "Ġha": 401,
      "Ġge": 402,
      "ok": 403,
      "Ġwir": 404,
      "ne": 405,
      "MO": 406,
      "Ġal": 407,
      "US": 408,
      "Ġwie": 409,
      "Ã¼r": 410,
      "im": 411,
      "tte": 412,
      "Ġda": 413,
      "MOG": 414,
      "MOGUS": 415,
      "DD": 416,
      "uuuu": 417,
      "__": 418,
      "Ġschon": 419,
      "youtube": 420,
      "Ġ-": 421,
      "ag": 422,
      "Ġdumm": 423,
      "Ġdann": 424,
      "UUUUUUUU": 425,
      "eine": 426,
      "Ġst": 427,
      "atch": 428,
      "zt": 429,
      "den": 430,
      "watch": 431,
      "ĠS": 432,
      "Ġaber": 433,
      "Ġmit": 434,
      "Ġden": 435,
      "yy": 436,
      "Â°": 437,
      "eeee": 438,
      "Ġr": 439,
      "Ġne": 440,
      "ben": 441,
      "]ðŁ": 442,
      "omm": 443,
      "pp": 444,
      "du": 445,
      "Ġ1": 446,
      "Ġhat": 447,
      "Ġ:": 448,
      "Ġman": 449,
      "Ġges": 450,
      ")[": 451,
      "Ġver": 452,
      "Ġkann": 453,
      "Ġmir": 454,
      "us": 455,
      "mmmm": 456,
      "eil": 457,
      "is": 458,
      "ill": 459,
      "acht": 460,
      "ehr": 461,
      "Ġwas": 462,
      "iel": 463,
      "ĠAMOGUS": 464,
      "aber": 465,
      "ute": 466,
      "eit": 467,
      "la": 468,
      "âĢ": 469,
      "Ġbe": 470,
      "ung": 471,
      "iiiiiiii": 472,
      "Ġnur": 473,
      "cht": 474,
      "Ġsp": 475,
      "77777777": 476,
      "kt": 477,
      "am": 478,
      "????????": 479,
      "was": 480,
      "etzt": 481,
      "ffffffffffffffff": 482,
      "Ġ..": 483,
      "ke": 484,
      "AA": 485,
      "Ġgeh": 486,
      "Ġaus": 487,
      "âĪŀâĪŀâĪŀâĪŀ": 488,
      "Ġc": 489,
      "Ġwar": 490,
      "um": 491,
      "Ġmal": 492,
      "ind": 493,
      "ing": 494,
      "oh": 495,
      "Ġdoch": 496,
      "wie": 497,
      "ste": 498,
      "ĠM": 499,
      "oooooooooooooooo": 500,
      "Ġdass": 501,
      "he": 502,
      "Ġe": 503,
      "gi": 504,
      "aaaaaaaaaaaaaaaa": 505,
      "ent": 506,
      "ĠðŁ¦": 507,
      "Ġun": 508,
      "ass": 509,
      "hi": 510,
      "eiÃŁ": 511,
      "Ġmein": 512,
      "«ĥ": 513,
      "à¶ŀà¶ŀà¶ŀà¶ŀà¶ŀà¶ŀà¶ŀà¶ŀà¶ŀà¶ŀà¶ŀà¶ŀà¶ŀà¶ŀà¶ŀà¶ŀà¶ŀà¶ŀà¶ŀà¶ŀà¶ŀà¶ŀà¶ŀà¶ŀà¶ŀà¶ŀà¶ŀà¶ŀà¶ŀà¶ŀà¶ŀà¶ŀ": 514,
      "ðŁ«ĥ": 515,
      "hr": 516,
      "ðŁ«ĥðŁ«ĥ": 517,
      "rei": 518,
      "Ġmach": 519,
      "ĠĠĠĠĠĠĠĠ": 520,
      "Ġre": 521,
      "ion": 522,
      "imm": 523,
      "ft": 524,
      "bitte": 525,
      "âĸĴ": 526,
      "bt": 527,
      "hhhh": 528,
      "Ġger": 529,
      "**": 530,
      "Ich": 531,
      "]:": 532,
      "XDXDXDXD": 533,
      "...[": 534,
      "ick": 535,
      "Ġ.-": 536,
      "Ġoder": 537,
      "lol": 538,
      "âĸĳâĸĳâĸĳ": 539,
      "nn": 540,
      "cc": 541,
      "Ġdir": 542,
      "âĶ": 543,
      "nd": 544,
      "Ġ2": 545,
      "ĠfÃ¼r": 546,
      "âĺŃâĺŃâĺŃâĺŃâĺŃâĺŃâĺŃâĺŃâĺŃâĺŃâĺŃâĺŃâĺŃâĺŃâĺŃâĺŃâĺŃâĺŃâĺŃâĺŃâĺŃâĺŃâĺŃâĺŃâĺŃâĺŃâĺŃâĺŃâĺŃâĺŃâĺŃâĺŃâĺŃâĺŃâĺŃâĺŃâĺŃâĺŃâĺŃâĺŃâĺŃâĺŃâĺŃâĺŃâĺŃâĺŃâĺŃâĺŃâĺŃâĺŃâĺŃâĺŃâĺŃâĺŃâĺŃâĺŃâĺŃâĺŃâĺŃâĺŃâĺŃâĺŃâĺŃâĺŃâĺŃâĺŃâĺŃâĺŃâĺŃâĺŃâĺŃâĺŃâĺŃâĺŃâĺŃâĺŃâĺŃâĺŃâĺŃâĺŃâĺŃâĺŃâĺŃâĺŃâĺŃâĺŃâĺŃâĺŃâĺŃâĺŃâĺŃâĺŃâĺŃâĺŃâĺŃâĺŃâĺŃâĺŃâĺŃâĺŃâĺŃâĺŃâĺŃâĺŃâĺŃâĺŃâĺŃâĺŃâĺŃâĺŃâĺŃâĺŃâĺŃâĺŃâĺŃâĺŃâĺŃâĺŃâĺŃâĺŃâĺŃâĺŃâĺŃâĺŃâĺŃâĺŃâĺŃâĺŃâĺŃâĺŃâĺŃâĺŃâĺŃâĺŃâĺŃâĺŃâĺŃâĺŃâĺŃâĺŃâĺŃâĺŃâĺŃâĺŃâĺŃâĺŃâĺŃâĺŃâĺŃâĺŃâĺŃâĺŃâĺŃâĺŃâĺŃâĺŃâĺŃâĺŃâĺŃâĺŃâĺŃâĺŃâĺŃâĺŃâĺŃâĺŃâĺŃâĺŃâĺŃâĺŃâĺŃâĺŃâĺŃâĺŃâĺŃâĺŃâĺŃâĺŃâĺŃâĺŃâĺŃâĺŃâĺŃâĺŃâĺŃâĺŃâĺŃâĺŃâĺŃâĺŃâĺŃâĺŃâĺŃâĺŃâĺŃâĺŃâĺŃâĺŃâĺŃâĺŃâĺŃâĺŃâĺŃâĺŃâĺŃâĺŃâĺŃâĺŃâĺŃâĺŃâĺŃâĺŃâĺŃâĺŃâĺŃâĺŃâĺŃâĺŃâĺŃâĺŃâĺŃâĺŃâĺŃâĺŃâĺŃâĺŃâĺŃâĺŃâĺŃâĺŃâĺŃâĺŃâĺŃâĺŃâĺŃâĺŃâĺŃâĺŃâĺŃâĺŃâĺŃâĺŃâĺŃâĺŃâĺŃâĺŃâĺŃâĺŃâĺŃâĺŃâĺŃâĺŃâĺŃâĺŃâĺŃâĺŃ": 547,
      "Ã¶Ã¶": 548,
      "lau": 549,
      "ade": 550,
      "ess": 551,
      "Ġjetzt": 552,
      "ic": 553,
      "bittebitte": 554,
      "all": 555,
      "Ġhast": 556,
      "uss": 557,
      "Ġei": 558,
      "da": 559,
      "rum": 560,
      "op": 561,
      "ĠčĊ": 562,
      "and": 563,
      "ast": 564,
      "oll": 565,
      "ĠÍ": 566,
      "Ġwenn": 567,
      "ern": 568,
      "00": 569,
      "Das": 570,
      "isch": 571,
      "mal": 572,
      "Ġbei": 573,
      "ĠG": 574,
      "il": 575,
      "Ja": 576,
      "kk": 577,
      "Ġvon": 578,
      "ot": 579,
      "Ġsind": 580,
      "Ġmich": 581,
      "anz": 582,
      "Ġab": 583,
      "ist": 584,
      "Ġsie": 585,
      "........": 586,
      "DDDD": 587,
      "UUUUUUUUUUUUUUUU": 588,
      "zZ": 589,
      "fach": 590,
      "Ġwieder": 591,
      "Ġmehr": 592,
      "Ã¼ber": 593,
      "iert": 594,
      "ĠT": 595,
      "Ġsich": 596,
      "ðŁ¤": 597,
      "].": 598,
      "uuuuuuuu": 599,
      "rau": 600,
      "zZzZ": 601,
      "ahah": 602,
      "ĠB": 603,
      "sp": 604,
      "ver": 605,
      "ik": 606,
      "gif": 607,
      "âĸĴâĸĴ": 608,
      "!!!!": 609,
      "Ã¼Ã¼": 610,
      "Ġvor": 611,
      "llt": 612,
      "Ġdem": 613,
      "Ġgut": 614,
      "yyyy": 615,
      "Und": 616,
      "anke": 617,
      "Ġgerade": 618,
      "]#": 619,
      "hab": 620,
      "Ġeinfach": 621,
      "ĠD": 622,
      "Ġjz": 623,
      "ose": 624,
      "Ġbist": 625,
      "mmer": 626,
      "ĠðŁ¦¦": 627,
      "die": 628,
      "lo": 629,
      "arum": 630,
      "eute": 631,
      "Ġ-.": 632,
      "____": 633,
      "Ġgesch": 634,
      "ert": 635,
      "âĸĪâĸĪâĸĪâĸĪâĸĪâĸĪâĸĪâĸĪ": 636,
      "Ġhabe": 637,
      "Ġim": 638,
      "Ġganz": 639,
      "Ġ--": 640,
      "ĠN": 641,
      "eg": 642,
      "fen": 643,
      "Ġdich": 644,
      "Ġ3": 645,
      "Ġch": 646,
      "7777777777777777": 647,
      "vie": 648,
      "tenor": 649,
      "ow": 650,
      "orgen": 651,
      "Ġkomm": 652,
      "âĢį": 653,
      "ĠÃ¼ber": 654,
      "Ġnach": 655,
      "ze": 656,
      "ht": 657,
      "end": 658,
      "Ġwird": 659,
      "âĪŀâĪŀâĪŀâĪŀâĪŀâĪŀâĪŀâĪŀ": 660,
      "komm": 661,
      "pla": 662,
      "hn": 663,
      "ĠP": 664,
      "Ġall": 665,
      "di": 666,
      "ĻĤ": 667,
      "????????????????": 668,
      "Ġmuss": 669,
      "ffffffffffffffffffffffffffffffff": 670,
      "ahr": 671,
      "ĠÍ¡": 672,
      "_.[": 673,
      "view": 674,
      "âĸĪâĸĪâĸĪ": 675,
      "11": 676,
      "ool": 677,
      "ehen": 678,
      "ĠF": 679,
      "ĠK": 680,
      "Ġsoll": 681,
      "âĶĢ": 682,
      "df": 683,
      "ĠH": 684,
      "also": 685,
      "Ġgeht": 686,
      "os": 687,
      "Ġu": 688,
      "Ġmachen": 689,
      "ice": 690,
      "eeeeeeee": 691,
      "ix": 692,
      "Ġhaben": 693,
      "ï¸": 694,
      "Ġpro": 695,
      "EE": 696,
      "Ġam": 697,
      "CH": 698,
      "ust": 699,
      "Ġviel": 700,
      "alt": 701,
      "Ġgi": 702,
      "mmmmmmmm": 703,
      "Ġimmer": 704,
      "Ã¶r": 705,
      "danke": 706,
      "nein": 707,
      "ĠW": 708,
      "hihi": 709,
      "osef": 710,
      "iiiiiiiiiiiiiiii": 711,
      "Aber": 712,
      "gt": 713,
      "play": 714,
      "ine": 715,
      "]-": 716,
      "ieren": 717,
      "Ġgem": 718,
      "ort": 719,
      "fe": 720,
      "ad": 721,
      "âķ": 722,
      "Ġals": 723,
      "him": 724,
      "15": 725,
      "Ġwill": 726,
      "ðŁ«ĥðŁ«ĥðŁ«ĥðŁ«ĥ": 727,
      "net": 728,
      "âĢįâ": 729,
      "aus": 730,
      "Ġheute": 731,
      "dd": 732,
      "tw": 733,
      "ul": 734,
      "leich": 735,
      "Ġsein": 736,
      "Ġglau": 737,
      "wei": 738,
      "-[": 739,
      "Ġum": 740,
      "Ã¶nn": 741,
      "Ġwer": 742,
      "me": 743,
      "we": 744,
      "20": 745,
      "âĸĳâĸĳâĸĳâĸĳâĸĳâĸĳâĸĳâĸĳâĸĳâĸĳâĸĳâĸĳ": 746,
      "XDXDXDXDXDXDXDXD": 747,
      "immt": 748,
      "oooooooooooooooooooooooooooooooo": 749,
      "([": 750,
      "zu": 751,
      "Ġander": 752,
      "oder": 753,
      "Ġkl": 754,
      "âĶĢâĶĢ": 755,
      "Ġgibt": 756,
      "Ġ5": 757,
      "]?[": 758,
      "Ġkeine": 759,
      "kl": 760,
      "rie": 761,
      "Ã¤Ã¤": 762,
      "agt": 763,
      "âĢįâĻĤ": 764,
      "37": 765,
      "?![": 766,
      "li": 767,
      "OO": 768,
      "dann": 769,
      "AAAA": 770,
      "ĠweiÃŁ": 771,
      "Ã¤n": 772,
      "AMOGUS": 773,
      "Ġschrei": 774,
      "!!![": 775,
      "weil": 776,
      "ha": 777,
      "Ġgef": 778,
      "che": 779,
      "Ġ4": 780,
      "Ġmorgen": 781,
      "Ġ:)[": 782,
      "rÃ¼": 783,
      "ĠAMOGUSAMOGUS": 784,
      "bin": 785,
      "Ġkein": 786,
      "ĠÍ¡Â°": 787,
      "14": 788,
      "ue": 789,
      "bittebittebittebitte": 790,
      "ges": 791,
      "Ġ\"": 792,
      "ï¸ı": 793,
      "Ġnen": 794,
      "sten": 795,
      "ĠkÃ¶nn": 796,
      "aaaaaaaaaaaaaaaaaaaaaaaaaaaaaaaa": 797,
      "33": 798,
      "Ġar": 799,
      "¦âĢįâĻĤ": 800,
      "unkt": 801,
      "?!": 802,
      "ĠE": 803,
      "chen": 804,
      "ser": 805,
      "unden": 806,
      "schen": 807,
      "eht": 808,
      "99": 809,
      "iv": 810,
      "Ġeig": 811,
      "lt": 812,
      "ĠL": 813,
      "16": 814,
      "ĠðŁĺ": 815,
      "her": 816,
      "cor": 817,
      "10": 818,
      "id": 819,
      "himo": 820,
      "warum": 821,
      "==": 822,
      "Ġdein": 823,
      "hast": 824,
      "ip": 825,
      "Â¶": 826,
      "hmm": 827,
      "inde": 828,
      "Ġ...": 829,
      "âĺŃâĺŃâĺŃâĺŃâĺŃâĺŃâĺŃâĺŃâĺŃâĺŃâĺŃâĺŃâĺŃâĺŃâĺŃâĺŃâĺŃâĺŃâĺŃâĺŃâĺŃâĺŃâĺŃâĺŃâĺŃâĺŃâĺŃâĺŃâĺŃâĺŃâĺŃâĺŃâĺŃâĺŃâĺŃâĺŃâĺŃâĺŃâĺŃâĺŃâĺŃâĺŃâĺŃâĺŃâĺŃâĺŃâĺŃâĺŃâĺŃâĺŃâĺŃâĺŃâĺŃâĺŃâĺŃâĺŃâĺŃâĺŃâĺŃâĺŃâĺŃâĺŃâĺŃâĺŃâĺŃâĺŃâĺŃâĺŃâĺŃâĺŃâĺŃâĺŃâĺŃâĺŃâĺŃâĺŃâĺŃâĺŃâĺŃâĺŃâĺŃâĺŃâĺŃâĺŃâĺŃâĺŃâĺŃâĺŃâĺŃâĺŃâĺŃâĺŃâĺŃâĺŃâĺŃâĺŃâĺŃâĺŃâĺŃâĺŃâĺŃâĺŃâĺŃâĺŃâĺŃâĺŃâĺŃâĺŃâĺŃâĺŃâĺŃâĺŃâĺŃâĺŃâĺŃâĺŃâĺŃâĺŃâĺŃâĺŃâĺŃâĺŃâĺŃâĺŃâĺŃâĺŃâĺŃâĺŃâĺŃâĺŃâĺŃâĺŃâĺŃâĺŃâĺŃâĺŃâĺŃâĺŃâĺŃâĺŃâĺŃâĺŃâĺŃâĺŃâĺŃâĺŃâĺŃâĺŃâĺŃâĺŃâĺŃâĺŃâĺŃâĺŃâĺŃâĺŃâĺŃâĺŃâĺŃâĺŃâĺŃâĺŃâĺŃâĺŃâĺŃâĺŃâĺŃâĺŃâĺŃâĺŃâĺŃâĺŃâĺŃâĺŃâĺŃâĺŃâĺŃâĺŃâĺŃâĺŃâĺŃâĺŃâĺŃâĺŃâĺŃâĺŃâĺŃâĺŃâĺŃâĺŃâĺŃâĺŃâĺŃâĺŃâĺŃâĺŃâĺŃâĺŃâĺŃâĺŃâĺŃâĺŃâĺŃâĺŃâĺŃâĺŃâĺŃâĺŃâĺŃâĺŃâĺŃâĺŃâĺŃâĺŃâĺŃâĺŃâĺŃâĺŃâĺŃâĺŃâĺŃâĺŃâĺŃâĺŃâĺŃâĺŃâĺŃâĺŃâĺŃâĺŃâĺŃâĺŃâĺŃâĺŃâĺŃâĺŃâĺŃâĺŃâĺŃâĺŃâĺŃâĺŃâĺŃâĺŃâĺŃâĺŃâĺŃâĺŃâĺŃâĺŃâĺŃâĺŃâĺŃâĺŃâĺŃâĺŃâĺŃâĺŃâĺŃâĺŃâĺŃâĺŃâĺŃâĺŃâĺŃâĺŃâĺŃâĺŃâĺŃâĺŃâĺŃâĺŃâĺŃâĺŃâĺŃâĺŃâĺŃâĺŃâĺŃâĺŃâĺŃâĺŃâĺŃâĺŃâĺŃâĺŃâĺŃâĺŃâĺŃâĺŃâĺŃâĺŃâĺŃâĺŃâĺŃâĺŃâĺŃâĺŃâĺŃâĺŃâĺŃâĺŃâĺŃâĺŃâĺŃâĺŃâĺŃâĺŃâĺŃâĺŃâĺŃâĺŃâĺŃâĺŃâĺŃâĺŃâĺŃâĺŃâĺŃâĺŃâĺŃâĺŃâĺŃâĺŃâĺŃâĺŃâĺŃâĺŃâĺŃâĺŃâĺŃâĺŃâĺŃâĺŃâĺŃâĺŃâĺŃâĺŃâĺŃâĺŃâĺŃâĺŃâĺŃâĺŃâĺŃâĺŃâĺŃâĺŃâĺŃâĺŃâĺŃâĺŃâĺŃâĺŃâĺŃâĺŃâĺŃâĺŃâĺŃâĺŃâĺŃâĺŃâĺŃâĺŃâĺŃâĺŃâĺŃâĺŃâĺŃâĺŃâĺŃâĺŃâĺŃâĺŃâĺŃâĺŃâĺŃâĺŃâĺŃâĺŃâĺŃâĺŃâĺŃâĺŃâĺŃâĺŃâĺŃâĺŃâĺŃâĺŃâĺŃâĺŃâĺŃâĺŃâĺŃâĺŃâĺŃâĺŃâĺŃâĺŃâĺŃâĺŃâĺŃâĺŃâĺŃâĺŃâĺŃâĺŃâĺŃâĺŃâĺŃâĺŃâĺŃâĺŃâĺŃâĺŃâĺŃâĺŃâĺŃâĺŃâĺŃâĺŃâĺŃâĺŃâĺŃâĺŃâĺŃâĺŃâĺŃâĺŃâĺŃâĺŃâĺŃâĺŃâĺŃâĺŃâĺŃâĺŃâĺŃâĺŃâĺŃâĺŃâĺŃâĺŃâĺŃâĺŃâĺŃâĺŃâĺŃâĺŃâĺŃâĺŃâĺŃâĺŃâĺŃâĺŃâĺŃâĺŃâĺŃâĺŃâĺŃâĺŃâĺŃâĺŃâĺŃâĺŃâĺŃâĺŃâĺŃâĺŃâĺŃâĺŃâĺŃâĺŃâĺŃâĺŃâĺŃâĺŃâĺŃâĺŃâĺŃâĺŃâĺŃâĺŃâĺŃâĺŃâĺŃâĺŃâĺŃâĺŃâĺŃâĺŃâĺŃâĺŃâĺŃâĺŃâĺŃâĺŃâĺŃâĺŃâĺŃâĺŃâĺŃâĺŃâĺŃâĺŃâĺŃâĺŃâĺŃâĺŃâĺŃâĺŃ": 830,
      "cccc": 831,
      "Ġ8": 832,
      "ide": 833,
      "ap": 834,
      "iscor": 835,
      "ssen": 836,
      "hhhhhhhh": 837,
      "ĠðŁ¦Ĩ": 838,
      "Ġgleich": 839,
      "ichtig": 840,
      "Ġeine": 841,
      "esser": 842,
      "]*": 843,
      "ry": 844,
      "âĸĳâĸĳâĸĳâĸĳâĸĳâĸĳâĸĳâĸĳâĸĳâĸĳâĸĳâĸĳâĸĳâĸĳâĸĳâĸĳâĸĳâĸĳâĸĳâĸĳâĸĳâĸĳâĸĳâĸĳâĸĳâĸĳâĸĳâĸĳâĸĳâĸĳâĸĳâĸĳ": 845,
      "Ġgen": 846,
      "Ġok": 847,
      "tlich": 848,
      "gend": 849,
      "Ġalles": 850,
      "19": 851,
      "rr": 852,
      "UUUUUUUUUUUUUUUUUUUUUUUUUUUUUUUU": 853,
      "Ġhalt": 854,
      "Ġmus": 855,
      "]._.[": 856,
      "ĠwÃ¤": 857,
      "Ġeigen": 858,
      "^Â°": 859,
      "sh": 860,
      "Ã¶Ã¶Ã¶Ã¶": 861,
      "Ġglaube": 862,
      "Wie": 863,
      "ĠĠĠĠĠĠĠĠĠĠĠĠĠĠĠĠ": 864,
      "ĠÂ°": 865,
      "war": 866,
      "ang": 867,
      "Ġcool": 868,
      "----": 869,
      "25": 870,
      "Ġ(": 871,
      "zZzZzZzZ": 872,
      "ðŁ¤¦âĢįâĻĤ": 873,
      "dankedanke": 874,
      "tf": 875,
      "Ġspiel": 876,
      "kkkk": 877,
      "Ġbis": 878,
      "................": 879,
      "Ġmin": 880,
      "Ġgar": 881,
      "Ġgemacht": 882,
      "bei": 883,
      "Ġ0": 884,
      "achso": 885,
      "ĠR": 886,
      "PA": 887,
      "zen": 888,
      "Ġlie": 889,
      "Ġerst": 890,
      "13": 891,
      "Ġmeine": 892,
      "ĠÂ°^Â°": 893,
      "TT": 894,
      "Was": 895,
      "Ġsa": 896,
      "uten": 897,
      "nen": 898,
      "Ġweil": 899,
      "ug": 900,
      "II": 901,
      "Ġalle": 902,
      "wer": 903,
      "ĠI": 904,
      "à¶ŀà¶ŀà¶ŀà¶ŀà¶ŀà¶ŀà¶ŀà¶ŀà¶ŀ": 905,
      "à¶ŀà¶ŀà¶ŀà¶ŀà¶ŀà¶ŀà¶ŀà¶ŀà¶ŀà¶ŀà¶ŀà¶ŀà¶ŀà¶ŀà¶ŀà¶ŀà¶ŀà¶ŀà¶ŀà¶ŀà¶ŀà¶ŀà¶ŀà¶ŀà¶ŀà¶ŀà¶ŀà¶ŀà¶ŀà¶ŀà¶ŀà¶ŀà¶ŀà¶ŀà¶ŀà¶ŀà¶ŀà¶ŀà¶ŀà¶ŀà¶ŀà¶ŀà¶ŀà¶ŀà¶ŀà¶ŀà¶ŀà¶ŀà¶ŀà¶ŀà¶ŀà¶ŀà¶ŀà¶ŀà¶ŀà¶ŀà¶ŀà¶ŀà¶ŀà¶ŀà¶ŀà¶ŀà¶ŀà¶ŀ": 906,
      "à¶ŀà¶ŀà¶ŀà¶ŀà¶ŀà¶ŀà¶ŀà¶ŀà¶ŀà¶ŀà¶ŀà¶ŀà¶ŀà¶ŀà¶ŀà¶ŀà¶ŀà¶ŀà¶ŀà¶ŀà¶ŀà¶ŀà¶ŀà¶ŀà¶ŀà¶ŀà¶ŀà¶ŀà¶ŀà¶ŀà¶ŀà¶ŀà¶ŀà¶ŀà¶ŀà¶ŀà¶ŀà¶ŀà¶ŀà¶ŀà¶ŀà¶ŀà¶ŀà¶ŀà¶ŀà¶ŀà¶ŀà¶ŀà¶ŀà¶ŀà¶ŀà¶ŀà¶ŀà¶ŀà¶ŀà¶ŀà¶ŀà¶ŀà¶ŀà¶ŀà¶ŀà¶ŀà¶ŀà¶ŀà¶ŀà¶ŀà¶ŀà¶ŀà¶ŀà¶ŀà¶ŀà¶ŀà¶ŀ": 907,
      "ld": 908,
      "Ġ6": 909,
      "âĸĪâĸĪâĸĳâĸĳâĸĳâĸĳâĸĳâĸĳâĸĳâĸĳâĸĳâĸĳâĸĳâĸĳâĸĳâĸĳâĸĳâĸĳ": 910,
      "âĸĳâĸĳâĸĳâĸĳâĸĳ": 911,
      "DDDDDDDD": 912,
      "Ġchill": 913,
      "hm": 914,
      "uch": 915,
      "gv": 916,
      "wir": 917,
      "Ġ9": 918,
      "Ġkr": 919,
      "uren": 920,
      "Ġecht": 921,
      "Ġdenn": 922,
      "bst": 923,
      "Ġà¶ŀà¶ŀà¶ŀà¶ŀà¶ŀà¶ŀà¶ŀà¶ŀà¶ŀà¶ŀà¶ŀà¶ŀà¶ŀà¶ŀà¶ŀà¶ŀà¶ŀà¶ŀà¶ŀà¶ŀà¶ŀà¶ŀà¶ŀà¶ŀà¶ŀà¶ŀà¶ŀà¶ŀà¶ŀà¶ŀà¶ŀà¶ŀà¶ŀà¶ŀà¶ŀà¶ŀà¶ŀà¶ŀà¶ŀà¶ŀà¶ŀà¶ŀà¶ŀà¶ŀà¶ŀà¶ŀà¶ŀà¶ŀà¶ŀà¶ŀà¶ŀà¶ŀà¶ŀà¶ŀà¶ŀà¶ŀà¶ŀà¶ŀà¶ŀà¶ŀà¶ŀà¶ŀà¶ŀà¶ŀà¶ŀà¶ŀà¶ŀà¶ŀà¶ŀà¶ŀà¶ŀà¶ŀà¶ŀ": 924,
      "Ġsel": 925,
      "Ġbesser": 926,
      "sen": 927,
      "gra": 928,
      "mk": 929,
      "ation": 930,
      "ĠV": 931,
      "Ġlust": 932,
      "Ġeigentlich": 933,
      "Du": 934,
      "hat": 935,
      "Ġsehr": 936,
      "]:)[": 937,
      "wo": 938,
      "ffle": 939,
      "Ġschau": 940,
      "]ðŁĺ": 941,
      "doch": 942,
      "ĠZ": 943,
      "ER": 944,
      "abl": 945,
      "Ġzeit": 946,
      "-.": 947,
      "âĸĳâĸĳâĸĳâĸĳâĸĳâĸĳ": 948,
      "att": 949,
      "ack": 950,
      "Ġon": 951,
      "xDxD": 952,
      "Ġfra": 953,
      "Ã¶n": 954,
      "dem": 955,
      "]ðŁ¥": 956,
      "66": 957,
      "ank": 958,
      "Ġbiffle": 959,
      "_-[": 960,
      "Ġ7": 961,
      "mc": 962,
      "Ġir": 963,
      "Ġuns": 964,
      "12": 965,
      "UPA": 966,
      "dfmk": 967,
      "gvUPA": 968,
      "gvUPAs": 969,
      "ler": 970,
      "discor": 971,
      "Ġdar": 972,
      "Ġeinen": 973,
      "HA": 974,
      "mit": 975,
      "ls": 976,
      "Â¶Â¶": 977,
      "ablabl": 978,
      "???[": 979,
      "yyyyyyyy": 980,
      "hy": 981,
      "nÃ¶": 982,
      "iele": 983,
      "Ġschick": 984,
      "Ġzum": 985,
      "77777777777777777777777777777777": 986,
      "Ok": 987,
      "90": 988,
      "ri": 989,
      "Ġma": 990,
      "Ã¼Ã¼Ã¼Ã¼": 991,
      "rieben": 992,
      "ster": 993,
      "ĠhÃ¤": 994,
      "ĠĠĠ": 995,
      "ÃŁÃŁ": 996,
      "80": 997,
      "ce": 998,
      "âĪŀâĪŀâĪŀâĪŀâĪŀâĪŀâĪŀâĪŀâĪŀâĪŀâĪŀâĪŀâĪŀâĪŀâĪŀâĪŀ": 999,
      "gg": 1000,
      "rin": 1001,
      "ssss": 1002,
      "uuuuuuuuuuuuuuuu": 1003,
      "art": 1004,
      "Ġob": 1005,
      "Ġunter": 1006,
      "¦[": 1007,
      "Ġmacht": 1008,
      "ðŁ¤®": 1009,
      "unktion": 1010,
      "na": 1011,
      "up": 1012,
      "Ġwei": 1013,
      "wieso": 1014,
      "Ġje": 1015,
      "cQ": 1016,
      "mlich": 1017,
      "Ġnix": 1018,
      "ehe": 1019,
      "kann": 1020,
      "ahahahah": 1021,
      "22": 1022,
      "Ġgel": 1023,
      "Ġkom": 1024,
      "Qw": 1025,
      "Ġwe": 1026,
      "gX": 1027,
      "ger": 1028,
      "ĠmÃ¼": 1029,
      "Ġnh": 1030,
      "gel": 1031,
      "Ġgehen": 1032,
      "????????????????????????????????": 1033,
      "Êĸ": 1034,
      "unde": 1035,
      "ĠwÃ¤re": 1036,
      "nicht": 1037,
      "ĠwÃ¼r": 1038,
      "ĠÍľ": 1039,
      "ka": 1040,
      "ĠSt": 1041,
      "gramm": 1042,
      "test": 1043,
      "uck": 1044,
      "ents": 1045,
      "mach": 1046,
      "Ġrichtig": 1047,
      "Ġdur": 1048,
      "lle": 1049,
      "WgX": 1050,
      "tz": 1051,
      "auf": 1052,
      "ange": 1053,
      "Ã¼ck": 1054,
      "WgXcQ": 1055,
      "](": 1056,
      "Ãľ": 1057,
      "ĠU": 1058,
      "Ġ....": 1059,
      "âĸĪâĸĳâĸĳâĸĳâĸĳâĸĳâĸĳâĸĳâĸĳâĸĳâĸĳâĸĳâĸĳâĸĳâĸĳâĸĳâĸĳ": 1060,
      "Ġlol": 1061,
      "Ġthe": 1062,
      "40": 1063,
      "Hab": 1064,
      "dQw": 1065,
      "wenn": 1066,
      "wtf": 1067,
      "Ġ=": 1068,
      "Ġvllt": 1069,
      "annel": 1070,
      "Ġle": 1071,
      "ffffffffffffffffffffffffffffffffffffffffffffffffffffffffffffffff": 1072,
      "hÃ¤": 1073,
      "uff": 1074,
      "Ġhin": 1075,
      "***": 1076,
      "gvUPAshttps": 1077,
      "Ġjosef": 1078,
      "raft": 1079,
      "ĠNacht": 1080,
      "th": 1081,
      "Ġkannst": 1082,
      "eiÃŁt": 1083,
      "Die": 1084,
      "Ġeh": 1085,
      "channel": 1086,
      "ĠnÃ¤": 1087,
      "je": 1088,
      "Ġen": 1089,
      "aaa": 1090,
      "ext": 1091,
      "ĠSch": 1092,
      "??[": 1093,
      "itt": 1094,
      "ungen": 1095,
      "achm": 1096,
      "schein": 1097,
      "Ġ-..": 1098,
      "llen": 1099,
      "Ġgesagt": 1100,
      "45": 1101,
      "Ã¤r": 1102,
      "ve": 1103,
      "________": 1104,
      "96": 1105,
      "FF": 1106,
      "Ġson": 1107,
      "Ġihn": 1108,
      "athe": 1109,
      "dapp": 1110,
      "discordapp": 1111,
      "ðŁ«ĥðŁ«ĥðŁ«ĥðŁ«ĥðŁ«ĥðŁ«ĥðŁ«ĥðŁ«ĥ": 1112,
      "30": 1113,
      "dn": 1114,
      "tttt": 1115,
      "Ã¤t": 1116,
      "ideo": 1117,
      "Ġirgend": 1118,
      "Ġdurch": 1119,
      "17": 1120,
      "Sch": 1121,
      "schau": 1122,
      "gesch": 1123,
      "ĠkÃ¶nnen": 1124,
      "stimmt": 1125,
      "Ġ.-..": 1126,
      "aufen": 1127,
      "dern": 1128,
      "âĸĴâĸĴâĸĴâĸĴ": 1129,
      "Ġwerden": 1130,
      "jaja": 1131,
      "aÃŁ": 1132,
      "Ã³": 1133,
      "\"[": 1134,
      "Ġet": 1135,
      "Ġschne": 1136,
      "olol": 1137,
      "ĠwÃ¼rde": 1138,
      "ble": 1139,
      "men": 1140,
      "sk": 1141,
      "llll": 1142,
      "Ġbl": 1143,
      "attachm": 1144,
      "attachments": 1145,
      "]ðŁ¦": 1146,
      "nice": 1147,
      "XDXDXDXDXDXDXDXDXDXDXDXDXDXDXDXD": 1148,
      "aden": 1149,
      "Ġq": 1150,
      "Ġnice": 1151,
      "Ġher": 1152,
      "ate": 1153,
      "hihihihi": 1154,
      "EN": 1155,
      "craft": 1156,
      "ðŁĺ": 1157,
      "Ġfinde": 1158,
      "Ġ.-.": 1159,
      "Ġgeschrieben": 1160,
      "18": 1161,
      "Ġkommt": 1162,
      "65": 1163,
      "ðŁ¤®ðŁ¤®": 1164,
      "Ne": 1165,
      "len": 1166,
      "Ġschl": 1167,
      "Ġte": 1168,
      "gar": 1169,
      "ien": 1170,
      "ige": 1171,
      "rÃ¤": 1172,
      "ule": 1173,
      "ay": 1174,
      "Ġde": 1175,
      "Ġbekomm": 1176,
      "Ġihr": 1177,
      "]-_-[": 1178,
      "richt": 1179,
      "asst": 1180,
      "you": 1181,
      "Ġraus": 1182,
      "ink": 1183,
      "Ġfunktion": 1184,
      "ure": 1185,
      "Ġbrau": 1186,
      "jj": 1187,
      "Ġhttps": 1188,
      "cke": 1189,
      "Ġsieht": 1190,
      "inecraft": 1191,
      "klich": 1192,
      "Ġwoll": 1193,
      "Ġlei": 1194,
      "HH": 1195,
      "Oh": 1196,
      "off": 1197,
      "pt": 1198,
      "Ġent": 1199,
      "Ġnie": 1200,
      "ooo": 1201,
      "ope": 1202,
      "Ġâĸĳâĸĳâĸĳ": 1203,
      "Ġ10": 1204,
      "Ġverst": 1205,
      "Ġrecht": 1206,
      "mmmmmmmmmmmmmmmm": 1207,
      "Ġlern": 1208,
      "bittebittebittebittebittebittebittebitte": 1209,
      "vc": 1210,
      "wann": 1211,
      "aut": 1212,
      "Ġdeine": 1213,
      "Ġhier": 1214,
      "ĠGute": 1215,
      "Ġschnell": 1216,
      "ds": 1217,
      "eee": 1218,
      "aha": 1219,
      "nur": 1220,
      "von": 1221,
      "ant": 1222,
      "sel": 1223,
      "gef": 1224,
      "age": 1225,
      "bo": 1226,
      "ont": 1227,
      "Ġkrass": 1228,
      "inn": 1229,
      "Ġschle": 1230,
      "Ġ-.-.": 1231,
      "Ġmusst": 1232,
      "/[": 1233,
      "etz": 1234,
      "28": 1235,
      "man": 1236,
      "Ġser": 1237,
      "Ġnem": 1238,
      "Ġzwei": 1239,
      "âĸĪâĸĪâĸĪâĸĪâĸĪâĸĪâĸĪâĸĪâĸĪâĸĪâĸĪâĸĪâĸĪâĸĪâĸĪâĸĪ": 1240,
      "oooooooooooooooooooooooooooooooooooooooooooooooooooooooooooooooo": 1241,
      "75": 1242,
      "fÃ¼r": 1243,
      "sa": 1244,
      "Ġwur": 1245,
      "iiiiiiiiiiiiiiiiiiiiiiiiiiiiiiii": 1246,
      "ĠÍ¡Â°)": 1247,
      "Ġkur": 1248,
      "Ġviele": 1249,
      "Ġspielen": 1250,
      "son": 1251,
      "ĠJ": 1252,
      "Der": 1253,
      "fl": 1254,
      "Ġhuren": 1255,
      "Ġ..-": 1256,
      "Ã²": 1257,
      "Ġwo": 1258,
      "Ġschreiben": 1259,
      "scheinlich": 1260,
      "60": 1261,
      "94": 1262,
      "gl": 1263,
      "mp": 1264,
      "Ġwahr": 1265,
      "Ġbild": 1266,
      "Ġneu": 1267,
      "!!!!!!!!": 1268,
      ",,": 1269,
      "do": 1270,
      "ĠC": 1271,
      "Ġsei": 1272,
      "Ġalso": 1273,
      "Ġuhr": 1274,
      "Ġsagen": 1275,
      "IN": 1276,
      "ui": 1277,
      "Ġmc": 1278,
      "Ġwel": 1279,
      "Ġbes": 1280,
      "dia": 1281,
      "eeeeeeeeeeeeeeee": 1282,
      "Ġdrau": 1283,
      "Ġ---": 1284,
      "beit": 1285,
      "issen": 1286,
      "ĠâĢ": 1287,
      "rain": 1288,
      "hau": 1289,
      "jk": 1290,
      "âĸĳâĸĳâĸĳâĸĳâĸĳâĸĳâĸĳ": 1291,
      "Ġwen": 1292,
      "ken": 1293,
      "mein": 1294,
      "vor": 1295,
      "Ġnochmal": 1296,
      "EEEE": 1297,
      "ost": 1298,
      "Ġsag": 1299,
      "Ġweg": 1300,
      "achte": 1301,
      "ĠschÃ¶n": 1302,
      "assen": 1303,
      "gut": 1304,
      "io": 1305,
      "Ġdiese": 1306,
      "Ġner": 1307,
      "sd": 1308,
      "ĠSp": 1309,
      "ðŁ¤¦âĢįâĻĤï¸ı": 1310,
      "34": 1311,
      "38": 1312,
      "Ġgew": 1313,
      "UUUUUUUUUUUUUUUUUUUUUUUUUUUUUUUUUUUUUUUUUUUUUUUUUUUUUUUUUUUUUUUU": 1314,
      "Al": 1315,
      "^[": 1316,
      "cccccccc": 1317,
      "ffen": 1318,
      "Ã¤u": 1319,
      "Ġgest": 1320,
      "ertig": 1321,
      "Ġprogramm": 1322,
      "âĶĢâĶĢâĶĢâĶĢ": 1323,
      "zw": 1324,
      "Ġlange": 1325,
      "dankedankedankedanke": 1326,
      "Ġihm": 1327,
      "ĠheiÃŁt": 1328,
      "Ġth": 1329,
      "Ġgesehen": 1330,
      "zZzZzZzZzZzZzZzZ": 1331,
      "ðŁ¤¦âĢįâĻĤï¸ıðŁ¤¦âĢįâĻĤï¸ı": 1332,
      "nope": 1333,
      "ĠmÃ¶": 1334,
      "itter": 1335,
      "Ã¶rt": 1336,
      "ðŁ¤¦âĢįâĻĤðŁ¤¦âĢįâĻĤ": 1337,
      "mo": 1338,
      "ĠO": 1339,
      "aten": 1340,
      "Ġfre": 1341,
      "schl": 1342,
      "roÃŁ": 1343,
      "andy": 1344,
      "ĠhÃ¤tte": 1345,
      "jz": 1346,
      "µ[": 1347,
      "esen": 1348,
      "Ġ20": 1349,
      "aaaaaaaaaaaaaaaaaaaaaaaaaaaaaaaaaaaaaaaaaaaaaaaaaaaaaaaaaaaaaaaa": 1350,
      "Ġgenau": 1351,
      "ST": 1352,
      "aar": 1353,
      "allo": 1354,
      "95": 1355,
      "AU": 1356,
      "]...[": 1357,
      "hen": 1358,
      "su": 1359,
      "tja": 1360,
      "Ġwirklich": 1361,
      "Ġ:([": 1362,
      "Ġzur": 1363,
      "HAHA": 1364,
      "Da": 1365,
      "ct": 1366,
      "eich": 1367,
      "Ġlang": 1368,
      "kkkkkkkk": 1369,
      "Ġlernen": 1370,
      "ed": 1371,
      "Ġschw": 1372,
      "Ã¼rlich": 1373,
      "ohl": 1374,
      "Ã¤Ã¤Ã¤Ã¤": 1375,
      "26": 1376,
      "35": 1377,
      "36": 1378,
      "bl": 1379,
      "jetzt": 1380,
      "Ġyou": 1381,
      "ĠðŁĺ¡": 1382,
      "mer": 1383,
      "chte": 1384,
      "atÃ¼rlich": 1385,
      "Ġhatte": 1386,
      "Ġdenke": 1387,
      "SS": 1388,
      "uf": 1389,
      "orm": 1390,
      "hhhhhhhhhhhhhhhh": 1391,
      "................................": 1392,
      "48": 1393,
      "yp": 1394,
      "cken": 1395,
      "essen": 1396,
      "]..": 1397,
      "gst": 1398,
      "achen": 1399,
      "Ġvoll": 1400,
      "Ã¤h": 1401,
      "Ġto": 1402,
      "wegen": 1403,
      "Ġschauen": 1404,
      "Ist": 1405,
      "ott": 1406,
      "Ġ._.[": 1407,
      "====": 1408,
      "++": 1409,
      "<:": 1410,
      "CK": 1411,
      "So": 1412,
      "áµ": 1413,
      "unk": 1414,
      "imim": 1415,
      "âķĲ": 1416,
      "AAAAAAAA": 1417,
      "Ġkurz": 1418,
      "Also": 1419,
      "70": 1420,
      "SCH": 1421,
      "nt": 1422,
      "Ġsogar": 1423,
      "**[": 1424,
      "ahren": 1425,
      "fer": 1426,
      "ho": 1427,
      "iss": 1428,
      "sc": 1429,
      "âĸĪâĸĪâĸĳâĸĳâĸĳâĸĳâĸĳ": 1430,
      "Ġgesp": 1431,
      "Ġsicher": 1432,
      "muss": 1433,
      "vllt": 1434,
      "Ġfl": 1435,
      "Ġfertig": 1436,
      "Ġins": 1437,
      "ame": 1438,
      "Ġganze": 1439,
      "Ġwenig": 1440,
      "Ġex": 1441,
      "Ġis": 1442,
      "Ġzie": 1443,
      "--------": 1444,
      "ater": 1445,
      "Ġ.--": 1446,
      "xDxDxDxD": 1447,
      "Ġkomp": 1448,
      "Ġschlecht": 1449,
      "Ġserver": 1450,
      "49": 1451,
      "]**": 1452,
      "Ġy": 1453,
      "angen": 1454,
      "Ġpass": 1455,
      "Ġinter": 1456,
      "Ġ.[": 1457,
      "endlich": 1458,
      "Ġsollte": 1459,
      "88": 1460,
      "Ġsehen": 1461,
      "Ġtim": 1462,
      "Ġsteht": 1463,
      "Ġrein": 1464,
      "ischen": 1465,
      "]ðŁ¥µ[": 1466,
      "áµĶ": 1467,
      "]@": 1468,
      "iz": 1469,
      "âĸĵ": 1470,
      "Ġdes": 1471,
      "Ã¤ter": 1472,
      "Ġoh": 1473,
      "Ġstimmt": 1474,
      "ÃľÃľ": 1475,
      "Ġwurde": 1476,
      "bs": 1477,
      "pro": 1478,
      "ickt": 1479,
      "âķı": 1480,
      "'s": 1481,
      "24": 1482,
      "Ġ|": 1483,
      "cher": 1484,
      "Ġpaar": 1485,
      "ÃŁer": 1486,
      "Ã¶Ã¶Ã¶Ã¶Ã¶Ã¶Ã¶Ã¶": 1487,
      "ga": 1488,
      "||": 1489,
      "Ġnacht": 1490,
      "tern": 1491,
      "!!!": 1492,
      "ingt": 1493,
      "hili": 1494,
      "ablablablabl": 1495,
      "blem": 1496,
      "Es": 1497,
      "Hast": 1498,
      "In": 1499,
      "hv": 1500,
      "Ġhoch": 1501,
      "?!?![": 1502,
      "eig": 1503,
      "hys": 1504,
      "LO": 1505,
      "Ġvideo": 1506,
      "Ġletz": 1507,
      "geben": 1508,
      "dddd": 1509,
      "Ġminuten": 1510,
      "7777777777777777777777777777777777777777777777777777777777777777": 1511,
      "alten": 1512,
      "Ġeiner": 1513,
      "Ġgerne": 1514,
      "hnung": 1515,
      "rrrr": 1516,
      "âĪŀâĪŀâĪŀâĪŀâĪŀâĪŀâĪŀâĪŀâĪŀâĪŀâĪŀâĪŀâĪŀâĪŀâĪŀâĪŀâĪŀâĪŀâĪŀâĪŀâĪŀâĪŀâĪŀâĪŀâĪŀâĪŀâĪŀâĪŀâĪŀâĪŀâĪŀâĪŀ": 1517,
      "Ġfunktioniert": 1518,
      "]\"": 1519,
      "echt": 1520,
      "fÃ¼": 1521,
      "gr": 1522,
      "âĸĳâĸĳâĸĪ": 1523,
      "Ġmathe": 1524,
      "ĠgroÃŁ": 1525,
      "det": 1526,
      "Ġfrage": 1527,
      "Ġweiter": 1528,
      "des": 1529,
      "line": 1530,
      "Ġsagt": 1531,
      "unter": 1532,
      "schrei": 1533,
      "Ġandere": 1534,
      "Ġwahrscheinlich": 1535,
      "27": 1536,
      "ia": 1537,
      "Ġro": 1538,
      "Ġfil": 1539,
      "ochen": 1540,
      "rag": 1541,
      "nnnn": 1542,
      "spiel": 1543,
      "Ġanderen": 1544,
      "Ġbisschen": 1545,
      "Nein": 1546,
      "cdn": 1547,
      "erst": 1548,
      "Ġlaufen": 1549,
      "]ðŁ¤": 1550,
      "Ġgefunden": 1551,
      "Wenn": 1552,
      "aff": 1553,
      "ob": 1554,
      "ÃĦ": 1555,
      "ĠscheiÃŁ": 1556,
      "ĠĠĠĠĠĠĠĠĠĠĠĠĠĠĠĠĠĠĠĠĠĠĠĠĠĠĠĠĠĠĠĠ": 1557,
      "((": 1558,
      "LL": 1559,
      "ek": 1560,
      "kr": 1561,
      "zz": 1562,
      "oog": 1563,
      "Ġgeil": 1564,
      "¢[": 1565,
      "Ġkenn": 1566,
      "ckt": 1567,
      "Ġmeinem": 1568,
      "OOOO": 1569,
      "hmmm": 1570,
      "IIII": 1571,
      "Ġdrauf": 1572,
      "97": 1573,
      "rd": 1574,
      "iii": 1575,
      "Ġmache": 1576,
      "ĠkÃ¶nnte": 1577,
      "????????????????????????????????????????????????????????????????": 1578,
      "]â": 1579,
      "ak": 1580,
      "gute": 1581,
      "geht": 1582,
      "atz": 1583,
      "Ġkommen": 1584,
      "Ġklein": 1585,
      "DDDDDDDDDDDDDDDD": 1586,
      "skip": 1587,
      "tzt": 1588,
      "Ġsc": 1589,
      "ðŁĳ": 1590,
      "Ġdamit": 1591,
      "ICH": 1592,
      "ekt": 1593,
      "jo": 1594,
      "sry": 1595,
      "!![": 1596,
      "Ġper": 1597,
      "yyyyyyyyyyyyyyyy": 1598,
      "Ġwarum": 1599,
      "reen": 1600,
      "elt": 1601,
      "]:([": 1602,
      "âĶ»": 1603,
      "44": 1604,
      "CC": 1605,
      "^^[": 1606,
      "nee": 1607,
      "top": 1608,
      "Ġor": 1609,
      "Ġdr": 1610,
      "Ġfe": 1611,
      "ĠfÃ¼": 1612,
      "Ġged": 1613,
      "Ġste": 1614,
      "Dann": 1615,
      "Ġx": 1616,
      "Ġschule": 1617,
      "ungs": 1618,
      "Ġselber": 1619,
      "min": 1620,
      "mem": 1621,
      "ĠnatÃ¼rlich": 1622,
      "atze": 1623,
      "are": 1624,
      "ssl": 1625,
      "opf": 1626,
      "ï¸ı[": 1627,
      "Wieso": 1628,
      ">[": 1629,
      "keine": 1630,
      "mus": 1631,
      "pu": 1632,
      "Ġfr": 1633,
      "ĠMin": 1634,
      "Ġmeinen": 1635,
      "ĠnÃ¤mlich": 1636,
      "hilipp": 1637,
      "67": 1638,
      "ock": 1639,
      "will": 1640,
      "Ġgr": 1641,
      "âĸĪâĸĪâĸĳâĸĳâĸĳ": 1642,
      "Ã¼b": 1643,
      "schick": 1644,
      "Ġbitte": 1645,
      "Ġerste": 1646,
      "ĠMal": 1647,
      "ixel": 1648,
      "Ġetw": 1649,
      "50": 1650,
      "98": 1651,
      "AS": 1652,
      "glich": 1653,
      "hallo": 1654,
      "josef": 1655,
      "sehr": 1656,
      "Ġschla": 1657,
      "Ġbaden": 1658,
      "itz": 1659,
      "tzdem": 1660,
      "oogle": 1661,
      "by": 1662,
      "per": 1663,
      "ãĢ": 1664,
      "Ġber": 1665,
      "Ġem": 1666,
      "Ġwissen": 1667,
      "utsch": 1668,
      "Ġwieso": 1669,
      "Ġwerde": 1670,
      "media": 1671,
      "Ġkeinen": 1672,
      "]ðŁ¦¦[": 1673,
      "if": 1674,
      "ode": 1675,
      "sag": 1676,
      "Ġnichts": 1677,
      "Ġvom": 1678,
      "Ġwaren": 1679,
      "Ġmeinte": 1680,
      "ĠPro": 1681,
      "raining": 1682,
      "Ġgestern": 1683,
      "ph": 1684,
      "Í¡": 1685,
      "Ġhandy": 1686,
      "Ġgeb": 1687,
      "Ġwillst": 1688,
      "ðŁ«ĥðŁ«ĥðŁ«ĥðŁ«ĥðŁ«ĥðŁ«ĥðŁ«ĥðŁ«ĥðŁ«ĥðŁ«ĥðŁ«ĥðŁ«ĥðŁ«ĥðŁ«ĥðŁ«ĥðŁ«ĥ": 1689,
      "Oder": 1690,
      "igen": 1691,
      "kenn": 1692,
      "asse": 1693,
      "Ġtro": 1694,
      "Ġirgendwie": 1695,
      "))": 1696,
      "dig": 1697,
      "ech": 1698,
      "sam": 1699,
      "ĠÐ": 1700,
      "Ġdo": 1701,
      "Ġmen": 1702,
      "Ġit": 1703,
      "tten": 1704,
      "Ġbtw": 1705,
      "Ġthimo": 1706,
      "âĸĪâĸĪâĸĪâĸĪâĸĪ": 1707,
      "lock": 1708,
      "hysik": 1709,
      "KL": 1710,
      "ere": 1711,
      "Ġwann": 1712,
      "als": 1713,
      "Ġbil": 1714,
      "Ġessen": 1715,
      "Ġdazu": 1716,
      "000": 1717,
      "Ġproblem": 1718,
      "âĺŃâĺŃâĺŃâĺŃâĺŃâĺŃâĺŃâĺŃâĺŃâĺŃâĺŃâĺŃâĺŃâĺŃâĺŃâĺŃâĺŃâĺŃâĺŃâĺŃâĺŃâĺŃâĺŃâĺŃâĺŃâĺŃâĺŃâĺŃâĺŃâĺŃâĺŃâĺŃâĺŃâĺŃâĺŃâĺŃâĺŃâĺŃâĺŃâĺŃâĺŃâĺŃâĺŃâĺŃâĺŃâĺŃâĺŃâĺŃâĺŃâĺŃâĺŃâĺŃâĺŃâĺŃâĺŃâĺŃâĺŃâĺŃâĺŃâĺŃâĺŃâĺŃâĺŃâĺŃâĺŃâĺŃâĺŃâĺŃâĺŃâĺŃâĺŃâĺŃâĺŃâĺŃâĺŃâĺŃâĺŃâĺŃâĺŃâĺŃâĺŃâĺŃâĺŃâĺŃâĺŃâĺŃâĺŃâĺŃâĺŃâĺŃâĺŃâĺŃâĺŃâĺŃâĺŃâĺŃâĺŃâĺŃâĺŃâĺŃâĺŃâĺŃâĺŃâĺŃâĺŃâĺŃâĺŃâĺŃâĺŃâĺŃâĺŃâĺŃâĺŃâĺŃâĺŃâĺŃâĺŃâĺŃâĺŃâĺŃâĺŃâĺŃâĺŃâĺŃâĺŃâĺŃâĺŃâĺŃâĺŃâĺŃâĺŃâĺŃâĺŃâĺŃâĺŃâĺŃâĺŃâĺŃâĺŃâĺŃâĺŃâĺŃâĺŃâĺŃâĺŃâĺŃâĺŃâĺŃâĺŃâĺŃâĺŃâĺŃâĺŃâĺŃâĺŃâĺŃâĺŃâĺŃâĺŃâĺŃâĺŃâĺŃâĺŃâĺŃâĺŃâĺŃâĺŃâĺŃâĺŃâĺŃâĺŃâĺŃâĺŃâĺŃâĺŃâĺŃâĺŃâĺŃâĺŃâĺŃâĺŃâĺŃâĺŃâĺŃâĺŃâĺŃâĺŃâĺŃâĺŃâĺŃâĺŃâĺŃâĺŃâĺŃâĺŃâĺŃâĺŃâĺŃâĺŃâĺŃâĺŃâĺŃâĺŃâĺŃâĺŃâĺŃâĺŃâĺŃâĺŃâĺŃâĺŃâĺŃâĺŃâĺŃâĺŃâĺŃâĺŃâĺŃâĺŃâĺŃâĺŃâĺŃâĺŃâĺŃâĺŃâĺŃâĺŃâĺŃâĺŃâĺŃâĺŃâĺŃâĺŃâĺŃâĺŃâĺŃâĺŃâĺŃâĺŃâĺŃâĺŃâĺŃâĺŃâĺŃâĺŃâĺŃâĺŃâĺŃâĺŃâĺŃâĺŃâĺŃâĺŃâĺŃâĺŃâĺŃâĺŃâĺŃâĺŃâĺŃâĺŃâĺŃâĺŃâĺŃâĺŃâĺŃâĺŃâĺŃâĺŃâĺŃâĺŃâĺŃâĺŃâĺŃâĺŃâĺŃâĺŃâĺŃâĺŃâĺŃâĺŃâĺŃâĺŃâĺŃâĺŃâĺŃâĺŃâĺŃâĺŃâĺŃâĺŃâĺŃâĺŃâĺŃâĺŃâĺŃâĺŃâĺŃâĺŃâĺŃâĺŃâĺŃâĺŃâĺŃâĺŃâĺŃâĺŃâĺŃâĺŃâĺŃâĺŃâĺŃâĺŃâĺŃâĺŃâĺŃâĺŃâĺŃâĺŃâĺŃâĺŃâĺŃâĺŃâĺŃâĺŃâĺŃâĺŃâĺŃâĺŃâĺŃâĺŃâĺŃâĺŃâĺŃâĺŃâĺŃâĺŃâĺŃâĺŃâĺŃâĺŃâĺŃâĺŃâĺŃâĺŃâĺŃâĺŃâĺŃâĺŃâĺŃâĺŃâĺŃâĺŃâĺŃâĺŃâĺŃâĺŃâĺŃâĺŃâĺŃâĺŃâĺŃâĺŃâĺŃâĺŃâĺŃâĺŃâĺŃâĺŃâĺŃâĺŃâĺŃâĺŃâĺŃâĺŃâĺŃâĺŃâĺŃâĺŃâĺŃâĺŃâĺŃâĺŃâĺŃâĺŃâĺŃâĺŃâĺŃâĺŃâĺŃâĺŃâĺŃâĺŃâĺŃâĺŃâĺŃâĺŃâĺŃâĺŃâĺŃâĺŃâĺŃâĺŃâĺŃâĺŃâĺŃâĺŃâĺŃâĺŃâĺŃâĺŃâĺŃâĺŃâĺŃâĺŃâĺŃâĺŃâĺŃâĺŃâĺŃâĺŃâĺŃâĺŃâĺŃâĺŃâĺŃâĺŃâĺŃâĺŃâĺŃâĺŃâĺŃâĺŃâĺŃâĺŃâĺŃâĺŃâĺŃâĺŃâĺŃâĺŃâĺŃâĺŃâĺŃâĺŃâĺŃâĺŃâĺŃâĺŃâĺŃâĺŃâĺŃâĺŃâĺŃâĺŃâĺŃâĺŃâĺŃâĺŃâĺŃâĺŃâĺŃâĺŃâĺŃâĺŃâĺŃâĺŃâĺŃâĺŃâĺŃâĺŃâĺŃâĺŃâĺŃâĺŃâĺŃâĺŃâĺŃâĺŃâĺŃâĺŃâĺŃâĺŃâĺŃâĺŃâĺŃâĺŃâĺŃâĺŃâĺŃâĺŃâĺŃâĺŃâĺŃâĺŃâĺŃâĺŃâĺŃâĺŃâĺŃâĺŃâĺŃâĺŃâĺŃâĺŃâĺŃâĺŃâĺŃâĺŃâĺŃâĺŃâĺŃâĺŃâĺŃâĺŃâĺŃâĺŃâĺŃâĺŃâĺŃâĺŃâĺŃâĺŃâĺŃâĺŃâĺŃâĺŃâĺŃâĺŃâĺŃâĺŃâĺŃâĺŃâĺŃâĺŃâĺŃâĺŃâĺŃâĺŃâĺŃâĺŃâĺŃâĺŃâĺŃâĺŃâĺŃâĺŃâĺŃâĺŃâĺŃâĺŃâĺŃâĺŃâĺŃâĺŃâĺŃâĺŃâĺŃâĺŃâĺŃâĺŃâĺŃâĺŃâĺŃâĺŃâĺŃâĺŃâĺŃâĺŃâĺŃâĺŃâĺŃâĺŃâĺŃâĺŃâĺŃâĺŃâĺŃâĺŃâĺŃâĺŃâĺŃâĺŃâĺŃâĺŃâĺŃâĺŃâĺŃâĺŃâĺŃâĺŃâĺŃâĺŃâĺŃâĺŃâĺŃâĺŃâĺŃâĺŃâĺŃâĺŃâĺŃâĺŃâĺŃâĺŃâĺŃâĺŃâĺŃâĺŃâĺŃâĺŃâĺŃâĺŃâĺŃâĺŃâĺŃâĺŃâĺŃâĺŃâĺŃâĺŃâĺŃâĺŃâĺŃâĺŃâĺŃâĺŃâĺŃâĺŃâĺŃâĺŃâĺŃâĺŃâĺŃâĺŃâĺŃâĺŃâĺŃâĺŃâĺŃâĺŃâĺŃâĺŃâĺŃâĺŃâĺŃâĺŃâĺŃâĺŃâĺŃâĺŃâĺŃâĺŃâĺŃâĺŃâĺŃâĺŃâĺŃâĺŃâĺŃâĺŃâĺŃâĺŃâĺŃâĺŃâĺŃâĺŃâĺŃâĺŃâĺŃâĺŃâĺŃâĺŃâĺŃâĺŃâĺŃâĺŃâĺŃâĺŃâĺŃâĺŃâĺŃâĺŃâĺŃâĺŃâĺŃâĺŃâĺŃâĺŃâĺŃâĺŃâĺŃâĺŃâĺŃâĺŃâĺŃâĺŃâĺŃâĺŃâĺŃâĺŃâĺŃâĺŃâĺŃâĺŃâĺŃâĺŃâĺŃâĺŃâĺŃâĺŃâĺŃâĺŃâĺŃâĺŃâĺŃâĺŃâĺŃâĺŃâĺŃâĺŃâĺŃâĺŃâĺŃâĺŃâĺŃâĺŃâĺŃâĺŃâĺŃâĺŃâĺŃâĺŃâĺŃâĺŃâĺŃâĺŃâĺŃâĺŃâĺŃâĺŃâĺŃâĺŃâĺŃâĺŃâĺŃâĺŃâĺŃâĺŃâĺŃâĺŃâĺŃâĺŃâĺŃâĺŃâĺŃâĺŃâĺŃâĺŃâĺŃâĺŃâĺŃâĺŃâĺŃâĺŃâĺŃâĺŃâĺŃâĺŃâĺŃâĺŃâĺŃâĺŃâĺŃâĺŃâĺŃâĺŃâĺŃâĺŃâĺŃâĺŃâĺŃâĺŃâĺŃâĺŃâĺŃâĺŃâĺŃâĺŃâĺŃâĺŃâĺŃâĺŃâĺŃâĺŃâĺŃâĺŃâĺŃâĺŃâĺŃâĺŃâĺŃâĺŃâĺŃâĺŃâĺŃâĺŃâĺŃâĺŃâĺŃâĺŃâĺŃâĺŃâĺŃâĺŃâĺŃâĺŃâĺŃâĺŃâĺŃâĺŃâĺŃâĺŃâĺŃâĺŃâĺŃâĺŃâĺŃâĺŃâĺŃâĺŃâĺŃâĺŃâĺŃâĺŃâĺŃâĺŃâĺŃâĺŃâĺŃâĺŃâĺŃâĺŃâĺŃâĺŃâĺŃâĺŃâĺŃâĺŃâĺŃâĺŃâĺŃâĺŃâĺŃâĺŃâĺŃâĺŃâĺŃâĺŃâĺŃâĺŃâĺŃâĺŃâĺŃâĺŃâĺŃâĺŃâĺŃâĺŃâĺŃâĺŃâĺŃâĺŃâĺŃâĺŃâĺŃâĺŃâĺŃâĺŃâĺŃâĺŃâĺŃâĺŃâĺŃâĺŃâĺŃâĺŃâĺŃâĺŃâĺŃâĺŃâĺŃâĺŃâĺŃâĺŃâĺŃâĺŃâĺŃâĺŃâĺŃâĺŃâĺŃâĺŃâĺŃâĺŃâĺŃâĺŃâĺŃâĺŃâĺŃâĺŃâĺŃâĺŃâĺŃâĺŃâĺŃâĺŃâĺŃâĺŃâĺŃâĺŃâĺŃâĺŃâĺŃâĺŃâĺŃâĺŃâĺŃâĺŃâĺŃâĺŃâĺŃâĺŃâĺŃâĺŃâĺŃâĺŃâĺŃâĺŃâĺŃâĺŃâĺŃâĺŃâĺŃâĺŃâĺŃâĺŃâĺŃâĺŃâĺŃâĺŃâĺŃâĺŃâĺŃâĺŃâĺŃâĺŃâĺŃâĺŃâĺŃâĺŃâĺŃâĺŃâĺŃâĺŃâĺŃâĺŃâĺŃâĺŃâĺŃâĺŃâĺŃâĺŃâĺŃâĺŃâĺŃâĺŃâĺŃâĺŃâĺŃâĺŃâĺŃâĺŃâĺŃâĺŃâĺŃâĺŃâĺŃâĺŃâĺŃâĺŃâĺŃâĺŃâĺŃâĺŃâĺŃâĺŃâĺŃâĺŃâĺŃâĺŃâĺŃâĺŃâĺŃâĺŃâĺŃâĺŃâĺŃâĺŃâĺŃâĺŃâĺŃâĺŃâĺŃâĺŃâĺŃâĺŃâĺŃâĺŃâĺŃâĺŃâĺŃâĺŃâĺŃ": 1719,
      "Ã¼Ã¼Ã¼Ã¼Ã¼Ã¼Ã¼Ã¼": 1720,
      "ÃŁÃŁÃŁÃŁ": 1721,
      "47": 1722,
      ";)[": 1723,
      "MM": 1724,
      "heit": 1725,
      "sie": 1726,
      "wow": 1727,
      "âĸĳâĸĪ": 1728,
      "ald": 1729,
      "âĸĳâĸĳâĸĳâĸĳâĸĳâĸĳâĸĳâĸĳâĸĳâĸĳ": 1730,
      "Ġben": 1731,
      "Ġpls": 1732,
      "iere": 1733,
      "ĠðŁĲ": 1734,
      "ĠspaÃŁ": 1735,
      "ĠZeit": 1736,
      "Lol": 1737,
      "St": 1738,
      "bb": 1739,
      "Ãĸ": 1740,
      "Ġminecraft": 1741,
      "Ġhe": 1742,
      "Ġdus": 1743,
      "Ġsonst": 1744,
      "XDXDXDXDXDXDXDXDXDXDXDXDXDXDXDXDXDXDXDXDXDXDXDXDXDXDXDXDXDXDXDXD": 1745,
      "57": 1746,
      "fall": 1747,
      "hol": 1748,
      "wu": 1749,
      "alsch": 1750,
      "ormal": 1751,
      "Ã¤ch": 1752,
      "Ġlos": 1753,
      "ĠAn": 1754,
      "âĸĪâĸĪâĸĪâĸĪâĸĪâĸĪâĸĪ": 1755,
      "oher": 1756,
      "Ġbeim": 1757,
      "ĠThimo": 1758,
      "Ġklar": 1759,
      "ĠðŁĺ«": 1760,
      "ĠmÃ¼ssen": 1761,
      "819": 1762,
      "ma": 1763,
      "no": 1764,
      "pl": 1765,
      "the": 1766,
      "ĺŃ[": 1767,
      "Ġdachte": 1768,
      "scha": 1769,
      "schie": 1770,
      "Ġsowas": 1771,
      "isa": 1772,
      "Ġmeiner": 1773,
      "ische": 1774,
      "Ġziemlich": 1775,
      "fu": 1776,
      "ren": 1777,
      "ä¸": 1778,
      "arbeit": 1779,
      "dert": 1780,
      "Ġbissl": 1781,
      "âĶģ": 1782,
      "Ġohne": 1783,
      "62": 1784,
      "Bin": 1785,
      "]<:": 1786,
      "ner": 1787,
      "qu": 1788,
      "tim": 1789,
      "thimo": 1790,
      "Ġus": 1791,
      "Ġdan": 1792,
      "Ġhit": 1793,
      "Ġschwer": 1794,
      "Ã¤hr": 1795,
      "kannst": 1796,
      "Ġschlimm": 1797,
      "Ah": 1798,
      "glau": 1799,
      "pr": 1800,
      "Ġâ": 1801,
      "Ġhal": 1802,
      "ark": 1803,
      "annt": 1804,
      "âĢľ": 1805,
      "ĠspÃ¤ter": 1806,
      "ĻĤ[": 1807,
      "klÃ¤r": 1808,
      "ive": 1809,
      "aptop": 1810,
      "SCHAU": 1811,
      "LOCK": 1812,
      "ĠMinuten": 1813,
      "AN": 1814,
      "HER": 1815,
      "Weil": 1816,
      "dee": 1817,
      "noch": 1818,
      "auch": 1819,
      "eiten": 1820,
      "Ġget": 1821,
      "Ġkon": 1822,
      "Ġwollte": 1823,
      "!!!***": 1824,
      "Er": 1825,
      "aaaaaa": 1826,
      "Ġdies": 1827,
      "Ġeinem": 1828,
      "Ġgek": 1829,
      "ĠSHER": 1830,
      "Ġbestimmt": 1831,
      "amen": 1832,
      "kommen": 1833,
      "Ġgibts": 1834,
      "ĠnÃ¤ch": 1835,
      "ĠSHERLOCK": 1836,
      "geh": 1837,
      "pf": 1838,
      "ud": 1839,
      "upp": 1840,
      "abei": 1841,
      "Ġtoll": 1842,
      "ĠĠĠĠĠĠĠ": 1843,
      "Ġonline": 1844,
      "ahahahahahahahah": 1845,
      "ffffffffffffffffffffffffffffffffffffffffffffffffffffffffffffffffffffffffffffffffffffffffffffffffffffffffffffffffffffffffffffffff": 1846,
      "haupt": 1847,
      "Lisa": 1848,
      "TZ": 1849,
      "Warum": 1850,
      "ca": 1851,
      "cool": 1852,
      "si": 1853,
      "wik": 1854,
      "Ġmag": 1855,
      "Ġfall": 1856,
      "Ġfast": 1857,
      "ehmen": 1858,
      "genau": 1859,
      "rad": 1860,
      "]-.": 1861,
      "FFFF": 1862,
      "hihihihihihihihi": 1863,
      "bittebittebittebittebittebittebittebittebittebittebittebittebittebittebittebitte": 1864,
      "Ġpassiert": 1865,
      "32": 1866,
      "68": 1867,
      "Doch": 1868,
      "Kann": 1869,
      "oin": 1870,
      "Ġdabei": 1871,
      "Ġnein": 1872,
      "esch": 1873,
      "bel": 1874,
      "ooooo": 1875,
      "Ġtyp": 1876,
      "Ġpl": 1877,
      "igrÃ¤": 1878,
      "ings": 1879,
      "Ġmeinst": 1880,
      "Ġup": 1881,
      "igrÃ¤ne": 1882,
      "akt": 1883,
      "gal": 1884,
      "pn": 1885,
      "âĸĢ": 1886,
      "Ġnich": 1887,
      "ats": 1888,
      ":/[": 1889,
      "ittag": 1890,
      "Ġbekommen": 1891,
      "'([": 1892,
      "Ein": 1893,
      "Ġru": 1894,
      "âĸĦ": 1895,
      "âĸĳâĸĪâĸĪâĸĪ": 1896,
      "ath": 1897,
      "ppen": 1898,
      "Ġgeschickt": 1899,
      "wester": 1900,
      "Ġselbst": 1901,
      "ssssssss": 1902,
      "________________": 1903,
      "Ġbilder": 1904,
      "morgen": 1905,
      "âĺŃ[": 1906,
      "asch": 1907,
      "one": 1908,
      "ðŁ¥": 1909,
      "org": 1910,
      "ory": 1911,
      "olz": 1912,
      "Ġantw": 1913,
      "tttttttt": 1914,
      "ĠðŁĲĮ": 1915,
      "Ach": 1916,
      "EIN": 1917,
      "dr": 1918,
      "Ġ^^[": 1919,
      "Ġgute": 1920,
      "unst": 1921,
      "????[": 1922,
      "ache": 1923,
      "Ã¼n": 1924,
      "Ġfeh": 1925,
      "Ġpixel": 1926,
      "âĸĪâĸĪâĸĪâĸĪâĸĪâĸĳâĸĳâĸĳâĸĳâĸĳâĸĳâĸĳâĸĳâĸĳâĸĳâĸĳâĸĳâĸĳâĸĳâĸĳâĸĳ": 1927,
      "Ġ15": 1928,
      "Ġunser": 1929,
      "RR": 1930,
      "Yhttps": 1931,
      "]âĢ": 1932,
      "gessen": 1933,
      "Ġâĸĳâĸĳâĸĳâĸĳ": 1934,
      "Ġrum": 1935,
      "âĸĪâĸĪâĸĳâĸĳâĸĳâĸĳâĸĳâĸĳâĸĳâĸĳâĸĳâĸĳâĸĳâĸĳ": 1936,
      "ĠfrÃ¼": 1937,
      "Ġlink": 1938,
      "Ġange": 1939,
      "ragt": 1940,
      "ĠðŁĳ": 1941,
      "Ġmachst": 1942,
      "ideos": 1943,
      "âĸĳâĸĳâĸĳâĸĳâĸĳâĸĳâĸĳâĸĳâĸĳâĸĳâĸĳâĸĳâĸĳâĸĳâĸĳâĸĳâĸĳâĸĳâĸĳâĸĳâĸĳâĸĳâĸĳâĸĳâĸĳâĸĳâĸĳâĸĳâĸĳâĸĳâĸĳâĸĳâĸĳâĸĳâĸĳâĸĳâĸĳâĸĳâĸĳâĸĳâĸĳâĸĳâĸĳâĸĳâĸĳâĸĳâĸĳâĸĳ": 1944,
      "uuuuuuuuuuuuuuuuuuuuuuuuuuuuuuuu": 1945,
      "Ġeher": 1946,
      "//": 1947,
      "date": 1948,
      "ial": 1949,
      "lass": 1950,
      "phy": 1951,
      "to": 1952,
      "wel": 1953,
      "Ã´": 1954,
      "Ġme": 1955,
      "Ġwohl": 1956,
      "utter": 1957,
      "Ã¤re": 1958,
      "schon": 1959,
      "Ġlaptop": 1960,
      "ite": 1961,
      "Ġapp": 1962,
      "Ġahnung": 1963,
      "ight": 1964,
      "gibt": 1965,
      "!!!![": 1966,
      "ĠÃ¼berhaupt": 1967,
      "âĸĪâĸĪâĸĪâĸĳâĸĳâĸĳâĸĳâĸĳâĸĳâĸĳâĸĳâĸĳâĸĳâĸĳâĸĳâĸĳâĸĳâĸĳâĸĳ": 1968,
      "23": 1969,
      "46": 1970,
      "irn": 1971,
      "âĢįðŁ": 1972,
      "Ġlustig": 1973,
      "reensh": 1974,
      "ä¸Ģ": 1975,
      "dk": 1976,
      "form": 1977,
      "¶[": 1978,
      "ause": 1979,
      "Ġdrei": 1980,
      "Ġfuck": 1981,
      "oche": 1982,
      "Ġeinmal": 1983,
      "Ġteil": 1984,
      "Ġneue": 1985,
      "oha": 1986,
      "ild": 1987,
      "Ġ----": 1988,
      "stens": 1989,
      "oooooooooooooooooooooooooooooooooooooooooooooooooooooooooooooooooooooooooooooooooooooooooooooooooooooooooooooooooooooooooooooooo": 1990,
      "]...": 1991,
      "WW": 1992,
      "ml": 1993,
      "anden": 1994,
      "mmen": 1995,
      "Ġkam": 1996,
      "Ġlo": 1997,
      "ommen": 1998,
      "Ġgemein": 1999,
      "âĸĳâĸĳâĸĳâĸĳâĸĳâĸĳâĸĳâĸĳâĸĳâĸĳâĸĳâĸĳâĸĳâĸĳâĸĳ": 2000,
      "?!?!": 2001,
      "Ġlieber": 2002,
      "Ġblei": 2003,
      "Ġqu": 2004,
      "ĠscheiÃŁe": 2005,
      "78": 2006,
      "Sp": 2007,
      "hin": 2008,
      "nter": 2009,
      "pls": 2010,
      "ub": 2011,
      "Ġgl": 2012,
      "etter": 2013,
      "ÃŁen": 2014,
      "Ġstunden": 2015,
      "]ðŁĻĤ[": 2016,
      "heute": 2017,
      "immer": 2018,
      "Ġanders": 2019,
      "iscord": 2020,
      "unkte": 2021,
      "EA": 2022,
      "ef": 2023,
      "go": 2024,
      "keit": 2025,
      "ĠÃ¶": 2026,
      "ase": 2027,
      "Ġno": 2028,
      "unn": 2029,
      "Ġfa": 2030,
      "Ã¤llt": 2031,
      "aben": 2032,
      "Ġca": 2033,
      "immen": 2034,
      "]-..": 2035,
      "ady": 2036,
      "Ġjeden": 2037,
      ",,,,": 2038,
      "UUUUUUUUUUUUUUUUUUUUUUUUUUUUUUUUUUUUUUUUUUUUUUUUUUUUUUUUUUUUUUUUUUUUUUUUUUUUUUUUUUUUUUUUUUUUUUUUUUUUUUUUUUUUUUUUUUUUUUUUUUUUUUUU": 2039,
      "dankedankedankedankedankedankedankedanke": 2040,
      "ðŁ¤¦âĢįâĻĤï¸ıðŁ¤¦âĢįâĻĤï¸ıðŁ¤¦âĢįâĻĤï¸ıðŁ¤¦âĢįâĻĤï¸ı": 2041,
      "ðŁ¤¦âĢįâĻĤðŁ¤¦âĢįâĻĤðŁ¤¦âĢįâĻĤðŁ¤¦âĢįâĻĤ": 2042,
      "Wo": 2043,
      "Wir": 2044,
      "eben": 2045,
      "lk": 2046,
      "pe": 2047,
      "weg": 2048,
      "bist": 2049,
      "Ġhoff": 2050,
      "Ġzw": 2051,
      "rech": 2052,
      "Ġhabs": 2053,
      "Ġstr": 2054,
      "Ġverl": 2055,
      "Ġ30": 2056,
      "]ðŁ¥¶[": 2057,
      "zZzZzZzZzZzZzZzZzZzZzZzZzZzZzZzZ": 2058,
      "isser": 2059,
      "gabe": 2060,
      "Ġhitler": 2061,
      "reenshot": 2062,
      "Hmm": 2063,
      "fa": 2064,
      "wÃ¼r": 2065,
      "âĺŃâĺŃâĺŃâĺŃâĺŃâĺŃâĺŃâĺŃâĺŃâĺŃâĺŃâĺŃ": 2066,
      "Ġdrin": 2067,
      "eigt": 2068,
      "Ġsk": 2069,
      "Ġgru": 2070,
      "..[": 2071,
      "atus": 2072,
      "Ġfrei": 2073,
      "Ġdavon": 2074,
      "Ġeben": 2075,
      "Ġegal": 2076,
      "Ġschreibt": 2077,
      "idk": 2078,
      "WgXcQhttps": 2079,
      "Ã¤uft": 2080,
      "Ġtrotzdem": 2081,
      "73": 2082,
      "IE": 2083,
      "gn": 2084,
      "hre": 2085,
      "sion": 2086,
      "uer": 2087,
      "wor": 2088,
      "Ð¾": 2089,
      "áķ": 2090,
      "chill": 2091,
      "Ġbro": 2092,
      "ahl": 2093,
      "iger": 2094,
      "eln": 2095,
      "dass": 2096,
      "entlich": 2097,
      "Ġkomme": 2098,
      "Ġgehts": 2099,
      "Ġwegen": 2100,
      "Ġque": 2101,
      "Ġleid": 2102,
      "Ġfilm": 2103,
      "Ġdanach": 2104,
      "]***": 2105,
      "eug": 2106,
      "fd": 2107,
      "gs": 2108,
      "zÃ¤h": 2109,
      "Ġsry": 2110,
      "Ġnormal": 2111,
      "Ġkack": 2112,
      "scht": 2113,
      "Ġli": 2114,
      "Ġpasst": 2115,
      "rage": 2116,
      "Ġstunde": 2117,
      "ppt": 2118,
      "usste": 2119,
      "andom": 2120,
      "own": 2121,
      "Ġschicken": 2122,
      "Ġ-...": 2123,
      "afft": 2124,
      "schaft": 2125,
      "82": 2126,
      "hure": 2127,
      "jh": 2128,
      "jaaa": 2129,
      "wq": 2130,
      "Ġsh": 2131,
      "Ġgott": 2132,
      "atei": 2133,
      "oooooo": 2134,
      "Ġfor": 2135,
      "Ġfalsch": 2136,
      "schw": 2137,
      "Ġpc": 2138,
      "ĠĠĠĠĠ": 2139,
      "Ġgegen": 2140,
      "Ġgehe": 2141,
      "giphy": 2142,
      "fekt": 2143,
      "ĠweiÃŁt": 2144,
      "Â¶Â¶Â¶Â¶": 2145,
      "Ġengl": 2146,
      "mmmmmmmmmmmmmmmmmmmmmmmmmmmmmmmm": 2147,
      "ĠzurÃ¼ck": 2148,
      "An": 2149,
      "Na": 2150,
      "br": 2151,
      "dan": 2152,
      "jp": 2153,
      "od": 2154,
      "oje": 2155,
      "ãĥ": 2156,
      "Ġmer": 2157,
      "Ġfar": 2158,
      "ernt": 2159,
      "egal": 2160,
      "cccccccccccccccc": 2161,
      ".<": 2162,
      "21": 2163,
      "55": 2164,
      "EI": 2165,
      "fuck": 2166,
      "huren": 2167,
      "sst": 2168,
      "Ġdiscord": 2169,
      "alle": 2170,
      "ome": 2171,
      "Ġoff": 2172,
      "ĠðŁ¤": 2173,
      "Ġ-_-[": 2174,
      "ĠspÃ¤t": 2175,
      "indow": 2176,
      "stellen": 2177,
      "btw": 2178,
      "Ġabend": 2179,
      "Ã¶ren": 2180,
      "Ġdeinen": 2181,
      "Ġkomisch": 2182,
      "llllllll": 2183,
      "08": 2184,
      "93": 2185,
      ";[": 2186,
      "]--": 2187,
      "kst": 2188,
      "mathe": 2189,
      "zie": 2190,
      "ood": 2191,
      "inter": 2192,
      "sehen": 2193,
      "deut": 2194,
      "Ġtun": 2195,
      "Ġrunter": 2196,
      "0000": 2197,
      "Ġdeiner": 2198,
      "Ġallem": 2199,
      "Ġdarf": 2200,
      "HHHH": 2201,
      "kkkkkkkkkkkkkkkk": 2202,
      "Ġletzten": 2203,
      "=&": 2204,
      "ba": 2205,
      "hst": 2206,
      "sor": 2207,
      "ts": 2208,
      "uh": 2209,
      "Ðµ": 2210,
      "Ġ*": 2211,
      "Ġ+": 2212,
      "Ġoft": 2213,
      "___": 2214,
      "stellt": 2215,
      "Ġgefragt": 2216,
      "indest": 2217,
      "ĠVer": 2218,
      "9680": 2219,
      "ĠmÃ¶chte": 2220,
      "âĸĵâĸĵ": 2221,
      "krass": 2222,
      "puter": 2223,
      "Ġdieses": 2224,
      "IR": 2225,
      "_.": 2226,
      "jf": 2227,
      "zeit": 2228,
      "Ð°": 2229,
      "Ġext": 2230,
      "Ĥ¬": 2231,
      "Ġnut": 2232,
      "Ġwoche": 2233,
      "achs": 2234,
      "Ġfol": 2235,
      "Ġbr": 2236,
      "Ġtr": 2237,
      "hhh": 2238,
      "ĠdafÃ¼r": 2239,
      "Ġganzen": 2240,
      "ega": 2241,
      "weilig": 2242,
      "Ġfragen": 2243,
      "xDxDxDxDxDxDxDxD": 2244,
      "Ġkomple": 2245,
      "EB": 2246,
      "hÃ¶": 2247,
      "sur": 2248,
      "vt": 2249,
      "ÙĪ": 2250,
      "ĠÃ¤n": 2251,
      "Ġâķı": 2252,
      "Ĥ[": 2253,
      "bis": 2254,
      "âĸĳâĸĪâĸĪ": 2255,
      "Ġsoo": 2256,
      "Ġkunst": 2257,
      "ĠlÃ¤": 2258,
      "wwww": 2259,
      "Ġtre": 2260,
      "ĠerklÃ¤r": 2261,
      "ppe": 2262,
      "laden": 2263,
      "alles": 2264,
      "verst": 2265,
      "ï¸»": 2266,
      "ðŁ¤®ðŁ¤®ðŁ¤®ðŁ¤®": 2267,
      "Ġneuen": 2268,
      "Ġseite": 2269,
      "ĠâĢ¸": 2270,
      "âķĲâĶģ": 2271,
      "áķķ": 2272,
      "69": 2273,
      ">.<": 2274,
      "EF": 2275,
      "Josef": 2276,
      "bar": 2277,
      "gh": 2278,
      "lei": 2279,
      "udi": 2280,
      "voll": 2281,
      "Ġ:/[": 2282,
      "einfach": 2283,
      "alk": 2284,
      "Ġkopf": 2285,
      "under": 2286,
      "ĠlÃ¤n": 2287,
      "oment": 2288,
      "Ġtag": 2289,
      "cker": 2290,
      "ierst": 2291,
      "image": 2292,
      "Ġbest": 2293,
      "hats": 2294,
      "schauen": 2295,
      "Ġyt": 2296,
      "42": 2297,
      "gleich": 2298,
      "viel": 2299,
      "witter": 2300,
      "ys": 2301,
      "ĠÃ¼b": 2302,
      "stag": 2303,
      "Ġmem": 2304,
      "ichte": 2305,
      "Ġvater": 2306,
      "Ġsol": 2307,
      "imme": 2308,
      "habe": 2309,
      "Ġbraucht": 2310,
      "aaaaaaaaaaaaaaaaaaaaaaaaaaaaaaaaaaaaaaaaaaaaaaaaaaaaaaaaaaaaaaaaaaaaaaaaaaaaaaaaaaaaaaaaaaaaaaaaaaaaaaaaaaaaaaaaaaaaaaaaaaaaaaaa": 2311,
      "ablablablablablablablabl": 2312,
      "indows": 2313,
      "AB": 2314,
      "ail": 2315,
      "dam": 2316,
      "fin": 2317,
      "jaa": 2318,
      "nis": 2319,
      "Ġweit": 2320,
      "atik": 2321,
      "aaaaa": 2322,
      "Ġschn": 2323,
      "Ġfur": 2324,
      "ĠlÃ¶": 2325,
      "Ġeinz": 2326,
      "Ġtrau": 2327,
      "ĠGo": 2328,
      "habs": 2329,
      "Ġ-.-": 2330,
      "Ġ--.": 2331,
      "rÃ¼cke": 2332,
      "olololol": 2333,
      "jjjj": 2334,
      "sammen": 2335,
      "âĸĪâĸĪâĸĳâĸĳâĸĳâĸĳâĸĳâĸĪâĸĪ": 2336,
      "âĸĳâĸĳâĸĪâĸĳâĸĳâĸĳâĸĳâĸĳâĸĳ": 2337,
      "86": 2338,
      "arn": 2339,
      "cat": 2340,
      "lie": 2341,
      "list": 2342,
      "Ġdc": 2343,
      "ale": 2344,
      "Ġichs": 2345,
      "ativ": 2346,
      "urch": 2347,
      "Ġtut": 2348,
      "Ġof": 2349,
      "ahh": 2350,
      "Ġangst": 2351,
      "ĠAr": 2352,
      "âĢ¦[": 2353,
      "ĠgehÃ¶rt": 2354,
      "âĸĪâĸĪâĸĪâĸĳâĸĳâĸĳâĸĳâĸĳâĸĳâĸĳâĸĳâĸĳâĸĳâĸĳâĸĳ": 2355,
      "ationen": 2356,
      "Ġdaran": 2357,
      "Ġunterricht": 2358,
      "Ġhinter": 2359,
      "ĠâĸĳâĸĳâĸĳâĸĪ": 2360,
      "ĠâĸĳâĸĳâĸĳâĸĪâĸĳâĸĳâĸĳâĸĳâĸĳâĸĳâĸĳâĸĳâĸĳâĸĳâĸĳâĸĳâĸĳâĸĳâĸĳâĸĳ": 2361,
      "iiiiiiiiiiiiiiiiiiiiiiiiiiiiiiiiiiiiiiiiiiiiiiiiiiiiiiiiiiiiiiii": 2362,
      "77777777777777777777777777777777777777777777777777777777777777777777777777777777777777777777777777777777777777777777777777777777": 2363,
      "âĪŀâĪŀâĪŀâĪŀâĪŀâĪŀâĪŀâĪŀâĪŀâĪŀâĪŀâĪŀâĪŀâĪŀâĪŀâĪŀâĪŀâĪŀâĪŀâĪŀâĪŀâĪŀâĪŀâĪŀâĪŀâĪŀâĪŀâĪŀâĪŀâĪŀâĪŀâĪŀâĪŀâĪŀâĪŀâĪŀâĪŀâĪŀâĪŀâĪŀâĪŀâĪŀâĪŀâĪŀâĪŀâĪŀâĪŀâĪŀâĪŀâĪŀâĪŀâĪŀâĪŀâĪŀâĪŀâĪŀâĪŀâĪŀâĪŀâĪŀâĪŀâĪŀâĪŀâĪŀ": 2364,
      "jpg": 2365,
      "Cr": 2366,
      "Xd": 2367,
      "]....": 2368,
      "mir": 2369,
      "meine": 2370,
      "woll": 2371,
      "Ġ_": 2372,
      "Ġel": 2373,
      "stfu": 2374,
      "Ġsachen": 2375,
      "Ã¤nd": 2376,
      "Ġlost": 2377,
      "ĠlÃ¤uft": 2378,
      "Ġzusammen": 2379,
      "ish": 2380,
      "ielt": 2381,
      "Ġ...[": 2382,
      "twitter": 2383,
      "Ġanderes": 2384,
      "liste": 2385,
      "âĺŃâĺŃâĺŃâĺŃâĺŃâĺŃâĺŃâĺŃâĺŃâĺŃâĺŃâĺŃâĺŃâĺŃâĺŃâĺŃâĺŃâĺŃâĺŃâĺŃâĺŃâĺŃâĺŃâĺŃâĺŃâĺŃâĺŃâĺŃâĺŃâĺŃâĺŃâĺŃâĺŃâĺŃâĺŃâĺŃâĺŃâĺŃâĺŃâĺŃâĺŃâĺŃâĺŃâĺŃâĺŃâĺŃâĺŃâĺŃâĺŃâĺŃâĺŃâĺŃâĺŃâĺŃâĺŃâĺŃâĺŃâĺŃâĺŃâĺŃâĺŃâĺŃâĺŃâĺŃâĺŃâĺŃâĺŃâĺŃâĺŃâĺŃâĺŃâĺŃâĺŃâĺŃâĺŃâĺŃâĺŃâĺŃâĺŃâĺŃâĺŃâĺŃâĺŃâĺŃâĺŃâĺŃâĺŃâĺŃâĺŃâĺŃâĺŃâĺŃâĺŃâĺŃâĺŃâĺŃâĺŃâĺŃâĺŃâĺŃâĺŃâĺŃâĺŃâĺŃâĺŃâĺŃâĺŃâĺŃâĺŃâĺŃâĺŃâĺŃâĺŃâĺŃâĺŃâĺŃâĺŃâĺŃâĺŃâĺŃâĺŃâĺŃâĺŃâĺŃâĺŃâĺŃâĺŃâĺŃâĺŃâĺŃâĺŃâĺŃâĺŃâĺŃâĺŃâĺŃâĺŃâĺŃâĺŃâĺŃâĺŃâĺŃâĺŃâĺŃâĺŃâĺŃâĺŃâĺŃâĺŃâĺŃâĺŃâĺŃâĺŃâĺŃâĺŃâĺŃâĺŃâĺŃâĺŃâĺŃâĺŃâĺŃâĺŃâĺŃâĺŃâĺŃâĺŃâĺŃâĺŃâĺŃâĺŃâĺŃâĺŃâĺŃâĺŃâĺŃâĺŃâĺŃâĺŃâĺŃâĺŃâĺŃâĺŃâĺŃâĺŃâĺŃâĺŃâĺŃâĺŃâĺŃâĺŃâĺŃâĺŃâĺŃâĺŃâĺŃâĺŃâĺŃâĺŃâĺŃâĺŃâĺŃâĺŃâĺŃâĺŃâĺŃâĺŃâĺŃâĺŃâĺŃâĺŃâĺŃâĺŃâĺŃâĺŃâĺŃâĺŃâĺŃâĺŃâĺŃâĺŃâĺŃâĺŃâĺŃâĺŃâĺŃâĺŃâĺŃâĺŃâĺŃâĺŃâĺŃâĺŃâĺŃâĺŃâĺŃâĺŃâĺŃâĺŃâĺŃâĺŃâĺŃâĺŃâĺŃâĺŃâĺŃâĺŃâĺŃâĺŃâĺŃâĺŃâĺŃâĺŃâĺŃâĺŃâĺŃâĺŃâĺŃâĺŃâĺŃâĺŃâĺŃâĺŃâĺŃâĺŃâĺŃâĺŃâĺŃâĺŃâĺŃâĺŃâĺŃâĺŃâĺŃâĺŃâĺŃâĺŃâĺŃâĺŃâĺŃâĺŃâĺŃâĺŃâĺŃâĺŃâĺŃâĺŃâĺŃâĺŃâĺŃâĺŃâĺŃâĺŃâĺŃâĺŃâĺŃâĺŃâĺŃâĺŃâĺŃâĺŃâĺŃâĺŃâĺŃâĺŃâĺŃâĺŃâĺŃâĺŃâĺŃâĺŃâĺŃâĺŃâĺŃâĺŃâĺŃâĺŃâĺŃâĺŃâĺŃâĺŃâĺŃâĺŃâĺŃâĺŃâĺŃâĺŃâĺŃâĺŃâĺŃâĺŃâĺŃâĺŃâĺŃâĺŃâĺŃâĺŃâĺŃâĺŃâĺŃâĺŃâĺŃâĺŃâĺŃâĺŃâĺŃâĺŃâĺŃâĺŃâĺŃâĺŃâĺŃâĺŃâĺŃâĺŃâĺŃâĺŃâĺŃâĺŃâĺŃâĺŃâĺŃâĺŃâĺŃâĺŃâĺŃâĺŃâĺŃâĺŃâĺŃâĺŃâĺŃâĺŃâĺŃâĺŃâĺŃâĺŃâĺŃâĺŃâĺŃâĺŃâĺŃâĺŃâĺŃâĺŃâĺŃâĺŃâĺŃâĺŃâĺŃâĺŃâĺŃâĺŃâĺŃâĺŃâĺŃâĺŃâĺŃâĺŃâĺŃâĺŃâĺŃâĺŃâĺŃâĺŃâĺŃâĺŃâĺŃâĺŃâĺŃâĺŃâĺŃâĺŃâĺŃâĺŃâĺŃâĺŃâĺŃâĺŃâĺŃâĺŃâĺŃâĺŃâĺŃâĺŃâĺŃâĺŃâĺŃâĺŃâĺŃâĺŃâĺŃâĺŃâĺŃâĺŃâĺŃâĺŃâĺŃâĺŃâĺŃâĺŃâĺŃâĺŃâĺŃâĺŃâĺŃâĺŃâĺŃâĺŃâĺŃâĺŃâĺŃâĺŃâĺŃâĺŃâĺŃâĺŃâĺŃâĺŃâĺŃâĺŃâĺŃâĺŃâĺŃâĺŃâĺŃâĺŃâĺŃâĺŃâĺŃâĺŃâĺŃâĺŃâĺŃâĺŃâĺŃâĺŃâĺŃâĺŃâĺŃâĺŃâĺŃâĺŃâĺŃâĺŃâĺŃâĺŃâĺŃâĺŃâĺŃâĺŃâĺŃâĺŃâĺŃâĺŃâĺŃâĺŃâĺŃâĺŃâĺŃâĺŃâĺŃâĺŃâĺŃâĺŃâĺŃâĺŃâĺŃâĺŃâĺŃâĺŃâĺŃâĺŃâĺŃâĺŃâĺŃâĺŃâĺŃâĺŃâĺŃâĺŃâĺŃâĺŃâĺŃâĺŃâĺŃâĺŃâĺŃâĺŃâĺŃâĺŃâĺŃâĺŃâĺŃâĺŃâĺŃâĺŃâĺŃâĺŃâĺŃâĺŃâĺŃâĺŃâĺŃâĺŃâĺŃâĺŃâĺŃâĺŃâĺŃâĺŃâĺŃâĺŃâĺŃâĺŃâĺŃâĺŃâĺŃâĺŃâĺŃâĺŃâĺŃâĺŃâĺŃâĺŃâĺŃâĺŃâĺŃâĺŃâĺŃâĺŃâĺŃâĺŃâĺŃâĺŃâĺŃâĺŃâĺŃâĺŃâĺŃâĺŃâĺŃâĺŃâĺŃâĺŃâĺŃâĺŃâĺŃâĺŃâĺŃâĺŃâĺŃâĺŃâĺŃâĺŃâĺŃâĺŃâĺŃâĺŃâĺŃâĺŃâĺŃâĺŃâĺŃâĺŃâĺŃâĺŃâĺŃâĺŃâĺŃâĺŃâĺŃâĺŃâĺŃâĺŃâĺŃâĺŃâĺŃâĺŃâĺŃâĺŃâĺŃâĺŃâĺŃâĺŃâĺŃâĺŃâĺŃâĺŃâĺŃâĺŃâĺŃâĺŃâĺŃâĺŃâĺŃâĺŃâĺŃâĺŃâĺŃâĺŃâĺŃâĺŃâĺŃâĺŃâĺŃâĺŃâĺŃâĺŃâĺŃâĺŃâĺŃâĺŃâĺŃâĺŃâĺŃâĺŃâĺŃâĺŃâĺŃâĺŃâĺŃâĺŃâĺŃâĺŃâĺŃâĺŃâĺŃâĺŃâĺŃâĺŃâĺŃâĺŃâĺŃâĺŃâĺŃâĺŃâĺŃâĺŃâĺŃâĺŃâĺŃâĺŃâĺŃâĺŃâĺŃâĺŃâĺŃâĺŃâĺŃâĺŃâĺŃâĺŃâĺŃâĺŃâĺŃâĺŃâĺŃâĺŃâĺŃâĺŃâĺŃâĺŃâĺŃâĺŃâĺŃâĺŃâĺŃâĺŃâĺŃâĺŃâĺŃâĺŃâĺŃâĺŃâĺŃâĺŃâĺŃâĺŃâĺŃâĺŃâĺŃâĺŃâĺŃâĺŃâĺŃâĺŃâĺŃâĺŃâĺŃâĺŃâĺŃâĺŃâĺŃâĺŃâĺŃâĺŃâĺŃâĺŃâĺŃâĺŃâĺŃâĺŃâĺŃâĺŃâĺŃâĺŃâĺŃâĺŃâĺŃâĺŃâĺŃâĺŃâĺŃâĺŃâĺŃâĺŃâĺŃâĺŃâĺŃâĺŃâĺŃâĺŃâĺŃâĺŃâĺŃâĺŃâĺŃ": 2386,
      "Ġwelche": 2387,
      "Ġschlafen": 2388,
      "Í¡Â°": 2389,
      "Ã¤chlich": 2390,
      "png": 2391,
      "120": 2392,
      "]||": 2393,
      "az": 2394,
      "passt": 2395,
      "sse": 2396,
      "tra": 2397,
      "wohl": 2398,
      "ãģ": 2399,
      "Ġbau": 2400,
      "ĠXD": 2401,
      "aul": 2402,
      "eim": 2403,
      "Ġnot": 2404,
      "Ġidee": 2405,
      "Ġhel": 2406,
      "Ġhil": 2407,
      "ith": 2408,
      "Ġabi": 2409,
      "ierte": 2410,
      "Ġaufm": 2411,
      "Ġwirst": 2412,
      "los": 2413,
      "gggg": 2414,
      "Ġleben": 2415,
      "geschaut": 2416,
      "hause": 2417,
      "Ġinteress": 2418,
      "Ġbenut": 2419,
      "!!!***[": 2420,
      "EH": 2421,
      "Thimo": 2422,
      "kein": 2423,
      "nst": 2424,
      "ÑĤ": 2425,
      "Ġra": 2426,
      "Ġdanke": 2427,
      "icher": 2428,
      "Ġka": 2429,
      "oren": 2430,
      "schn": 2431,
      "Ġeins": 2432,
      "gest": 2433,
      "ÃŁe": 2434,
      "Ġricht": 2435,
      "pppp": 2436,
      "Ġready": 2437,
      "ĠGe": 2438,
      "ĠHolz": 2439,
      "weise": 2440,
      "Ġjeder": 2441,
      "Ġverstehe": 2442,
      "hhhhhhhhhhhhhhhhhhhhhhhhhhhhhhhh": 2443,
      "||[": 2444,
      "unny": 2445,
      "Jetzt": 2446,
      "Xk": 2447,
      "^-": 2448,
      "hal": 2449,
      "hier": 2450,
      "nach": 2451,
      "vv": 2452,
      "Ġendlich": 2453,
      "ĺŃðŁ": 2454,
      "erne": 2455,
      "Ġdau": 2456,
      "status": 2457,
      "Ġsu": 2458,
      "Ġgra": 2459,
      "Ġkn": 2460,
      "ller": 2461,
      "Ġschul": 2462,
      "Ġfin": 2463,
      "schla": 2464,
      "schul": 2465,
      "ĠzB": 2466,
      "urt": 2467,
      "iges": 2468,
      "Ġ..-.": 2469,
      "hren": 2470,
      "].--": 2471,
      "Ġgeschafft": 2472,
      "Ġ--..": 2473,
      "zeich": 2474,
      "Ġerstmal": 2475,
      "................................................................": 2476,
      "ÃĦÃĦ": 2477,
      "41": 2478,
      "433": 2479,
      "72": 2480,
      "Tja": 2481,
      "ks": 2482,
      "pff": 2483,
      "yst": 2484,
      "³[": 2485,
      "âĤ¬": 2486,
      "eigen": 2487,
      "ĠhÃ¶": 2488,
      "inge": 2489,
      "Ã¼h": 2490,
      "Ġfahr": 2491,
      "del": 2492,
      "soll": 2493,
      "Ġjtzt": 2494,
      "Ġand": 2495,
      "ĠerzÃ¤h": 2496,
      "Ġrandom": 2497,
      "Ġ12": 2498,
      "lost": 2499,
      "Ġdarauf": 2500,
      "Ġdeutsch": 2501,
      "Ġleider": 2502,
      "========": 2503,
      "----------------": 2504,
      "Ġkenne": 2505,
      "Ġmenschen": 2506,
      "glaube": 2507,
      "Ġkacke": 2508,
      "Ġkomplett": 2509,
      "HÃ¤": 2510,
      "NG": 2511,
      "fs": 2512,
      "google": 2513,
      "gaben": 2514,
      "uwu": 2515,
      "chst": 2516,
      "Ġsehe": 2517,
      "Ġschwester": 2518,
      "Ġfahren": 2519,
      "Ġvc": 2520,
      "Ġant": 2521,
      "]ðŁĺŃ[": 2522,
      "Ġ100": 2523,
      "stell": 2524,
      "Ġreg": 2525,
      "Ġmusste": 2526,
      "Ġliegt": 2527,
      "âĸĴâĸĴâĸĴâĸĴâĸĴâĸĴâĸĴâĸĴ": 2528,
      "Ġschneller": 2529,
      "ĠmÃ¶glich": 2530,
      "Ġweniger": 2531,
      "????????????????????????????????????????????????????????????????????????????????????????????????????????????????????????????????": 2532,
      "Ġgedacht": 2533,
      "Ahttps": 2534,
      "DA": 2535,
      "LK": 2536,
      "War": 2537,
      "Wann": 2538,
      "app": 2539,
      "co": 2540,
      "ey": 2541,
      "fr": 2542,
      "katze": 2543,
      "mand": 2544,
      "oa": 2545,
      "oi": 2546,
      "vi": 2547,
      "Ġcom": 2548,
      "rnt": 2549,
      "Ġsim": 2550,
      "âĸĳâĸĳâĸĳâĸĳâĸĳâĸĳâĸĳâĸĳâĸĳâĸĳâĸĳ": 2551,
      "ore": 2552,
      "Ġvo": 2553,
      "Ġleute": 2554,
      "Ġbot": 2555,
      "Ġbald": 2556,
      "ema": 2557,
      "Ġdenen": 2558,
      "Ġvergessen": 2559,
      "allen": 2560,
      "Ġvorher": 2561,
      "Ġarbei": 2562,
      "407": 2563,
      "ĠâĢŀ": 2564,
      "moin": 2565,
      "atsÃ¤chlich": 2566,
      "âĸĦâĸĦ": 2567,
      "58": 2568,
      "64": 2569,
      "halten": 2570,
      "macht": 2571,
      "prnt": 2572,
      "rig": 2573,
      "sw": 2574,
      "woher": 2575,
      "aum": 2576,
      "Ġdi": 2577,
      "Ġsinn": 2578,
      "unge": 2579,
      "llig": 2580,
      "Ġvideos": 2581,
      "Ġzeug": 2582,
      "Ġanf": 2583,
      "ĠðŁ¥": 2584,
      "Ġ-.[": 2585,
      "Ġstre": 2586,
      "Ġwasser": 2587,
      "ĠBe": 2588,
      "374": 2589,
      "ĠRe": 2590,
      "Ġbesch": 2591,
      "Ã¤Ã¤Ã¤Ã¤Ã¤Ã¤Ã¤Ã¤": 2592,
      "ÃŁerdem": 2593,
      "31": 2594,
      "92": 2595,
      "abi": 2596,
      "fil": 2597,
      "halt": 2598,
      "va": 2599,
      "ya": 2600,
      "µðŁ¥": 2601,
      "ðĿ": 2602,
      "Ġter": 2603,
      "Ġâĸĳâĸĳâĸĳâĸĳâĸĳâĸĳâĸĳâĸĳâĸĳâĸĳâĸĳâĸĳâĸĳâĸĳâĸĳâĸĳ": 2604,
      "Ħ[": 2605,
      "eile": 2606,
      "Ġseine": 2607,
      "Ġmei": 2608,
      "ook": 2609,
      "Ġlassen": 2610,
      "Ġphysik": 2611,
      "Ġesse": 2612,
      "Ġversu": 2613,
      "Ġnachher": 2614,
      "Ġdeinem": 2615,
      "Ġgelernt": 2616,
      "Ġende": 2617,
      "AAAAAAAAAAAAAAAA": 2618,
      "Ġhoffe": 2619,
      "Ġtreffen": 2620,
      "822": 2621,
      "NN": 2622,
      "Nur": 2623,
      "].[": 2624,
      "]Â°": 2625,
      "af": 2626,
      "hmmmm": 2627,
      "lf": 2628,
      "nf": 2629,
      "sm": 2630,
      "vÃ¶": 2631,
      "eren": 2632,
      "str": 2633,
      "Ġmega": 2634,
      "Ġnu": 2635,
      "ander": 2636,
      "esse": 2637,
      "able": 2638,
      "sche": 2639,
      "Â°[": 2640,
      "Ġspiele": 2641,
      "mals": 2642,
      "ĠTraining": 2643,
      "spank": 2644,
      "ringen": 2645,
      "Ġprogrammieren": 2646,
      "Ġlangsam": 2647,
      "Ġ.--.": 2648,
      "dddddddd": 2649,
      "ä¸Ģáķķ": 2650,
      "ystem": 2651,
      "()": 2652,
      "63": 2653,
      "Ha": 2654,
      "Nicht": 2655,
      "]???[": 2656,
      "]âĺŃâĺŃâĺŃâĺŃâĺŃâĺŃâĺŃâĺŃâĺŃâĺŃâĺŃâĺŃâĺŃâĺŃâĺŃâĺŃâĺŃâĺŃâĺŃâĺŃâĺŃâĺŃâĺŃâĺŃâĺŃâĺŃâĺŃâĺŃâĺŃâĺŃâĺŃâĺŃâĺŃâĺŃâĺŃâĺŃâĺŃâĺŃâĺŃâĺŃâĺŃâĺŃâĺŃâĺŃâĺŃâĺŃâĺŃâĺŃâĺŃâĺŃâĺŃâĺŃâĺŃâĺŃâĺŃâĺŃâĺŃâĺŃâĺŃâĺŃâĺŃâĺŃâĺŃâĺŃâĺŃâĺŃâĺŃâĺŃâĺŃâĺŃâĺŃâĺŃâĺŃâĺŃâĺŃâĺŃâĺŃâĺŃâĺŃâĺŃâĺŃâĺŃâĺŃâĺŃâĺŃâĺŃâĺŃâĺŃâĺŃâĺŃâĺŃâĺŃâĺŃâĺŃâĺŃâĺŃâĺŃâĺŃâĺŃâĺŃâĺŃâĺŃâĺŃâĺŃâĺŃâĺŃâĺŃâĺŃâĺŃâĺŃâĺŃâĺŃâĺŃâĺŃâĺŃâĺŃâĺŃâĺŃâĺŃâĺŃâĺŃâĺŃâĺŃâĺŃâĺŃâĺŃâĺŃâĺŃâĺŃâĺŃâĺŃâĺŃâĺŃâĺŃâĺŃâĺŃâĺŃâĺŃâĺŃâĺŃâĺŃâĺŃâĺŃâĺŃâĺŃâĺŃâĺŃâĺŃâĺŃâĺŃâĺŃâĺŃâĺŃâĺŃâĺŃâĺŃâĺŃâĺŃâĺŃâĺŃâĺŃâĺŃâĺŃâĺŃâĺŃâĺŃâĺŃâĺŃâĺŃâĺŃâĺŃâĺŃâĺŃâĺŃâĺŃâĺŃâĺŃâĺŃâĺŃâĺŃâĺŃâĺŃâĺŃâĺŃâĺŃâĺŃâĺŃâĺŃâĺŃâĺŃâĺŃâĺŃâĺŃâĺŃâĺŃâĺŃâĺŃâĺŃâĺŃâĺŃâĺŃâĺŃâĺŃâĺŃâĺŃâĺŃâĺŃâĺŃâĺŃâĺŃâĺŃâĺŃâĺŃâĺŃâĺŃâĺŃâĺŃâĺŃâĺŃâĺŃâĺŃâĺŃâĺŃâĺŃâĺŃâĺŃâĺŃâĺŃâĺŃâĺŃâĺŃâĺŃâĺŃâĺŃâĺŃâĺŃâĺŃâĺŃâĺŃâĺŃâĺŃâĺŃâĺŃâĺŃâĺŃâĺŃâĺŃâĺŃâĺŃâĺŃâĺŃâĺŃâĺŃâĺŃâĺŃâĺŃâĺŃâĺŃâĺŃâĺŃâĺŃâĺŃâĺŃâĺŃâĺŃâĺŃâĺŃâĺŃâĺŃâĺŃâĺŃâĺŃâĺŃâĺŃâĺŃâĺŃâĺŃâĺŃâĺŃâĺŃâĺŃâĺŃâĺŃâĺŃâĺŃâĺŃâĺŃâĺŃâĺŃâĺŃâĺŃâĺŃâĺŃâĺŃâĺŃâĺŃâĺŃâĺŃâĺŃâĺŃâĺŃâĺŃâĺŃâĺŃâĺŃâĺŃâĺŃâĺŃâĺŃâĺŃâĺŃâĺŃâĺŃâĺŃâĺŃâĺŃâĺŃâĺŃâĺŃâĺŃâĺŃâĺŃâĺŃâĺŃâĺŃâĺŃâĺŃâĺŃâĺŃâĺŃâĺŃâĺŃâĺŃâĺŃâĺŃâĺŃâĺŃâĺŃâĺŃâĺŃâĺŃâĺŃâĺŃâĺŃâĺŃâĺŃâĺŃâĺŃâĺŃâĺŃâĺŃâĺŃâĺŃâĺŃâĺŃâĺŃâĺŃâĺŃâĺŃâĺŃâĺŃâĺŃâĺŃâĺŃâĺŃâĺŃâĺŃâĺŃâĺŃâĺŃâĺŃâĺŃâĺŃâĺŃâĺŃâĺŃâĺŃâĺŃâĺŃâĺŃâĺŃâĺŃâĺŃâĺŃâĺŃâĺŃâĺŃâĺŃâĺŃâĺŃâĺŃâĺŃâĺŃâĺŃâĺŃâĺŃâĺŃâĺŃâĺŃâĺŃâĺŃâĺŃâĺŃâĺŃâĺŃâĺŃâĺŃâĺŃâĺŃâĺŃâĺŃâĺŃâĺŃâĺŃâĺŃâĺŃâĺŃâĺŃâĺŃâĺŃâĺŃâĺŃâĺŃâĺŃâĺŃâĺŃâĺŃâĺŃâĺŃâĺŃâĺŃâĺŃâĺŃâĺŃâĺŃâĺŃâĺŃâĺŃâĺŃâĺŃâĺŃâĺŃâĺŃâĺŃâĺŃâĺŃâĺŃâĺŃâĺŃâĺŃâĺŃâĺŃâĺŃâĺŃâĺŃâĺŃâĺŃâĺŃâĺŃâĺŃâĺŃâĺŃâĺŃâĺŃâĺŃâĺŃâĺŃâĺŃâĺŃâĺŃâĺŃâĺŃâĺŃâĺŃâĺŃâĺŃâĺŃâĺŃâĺŃâĺŃâĺŃâĺŃâĺŃâĺŃâĺŃâĺŃâĺŃâĺŃâĺŃâĺŃâĺŃâĺŃâĺŃâĺŃâĺŃâĺŃâĺŃâĺŃâĺŃâĺŃâĺŃâĺŃâĺŃâĺŃâĺŃâĺŃâĺŃâĺŃâĺŃâĺŃâĺŃâĺŃâĺŃâĺŃâĺŃâĺŃâĺŃâĺŃâĺŃâĺŃâĺŃâĺŃâĺŃâĺŃâĺŃâĺŃâĺŃâĺŃâĺŃâĺŃâĺŃâĺŃâĺŃâĺŃâĺŃâĺŃâĺŃâĺŃâĺŃâĺŃâĺŃâĺŃâĺŃâĺŃâĺŃâĺŃâĺŃâĺŃâĺŃâĺŃâĺŃâĺŃâĺŃâĺŃâĺŃâĺŃâĺŃâĺŃâĺŃâĺŃâĺŃâĺŃâĺŃâĺŃâĺŃâĺŃâĺŃâĺŃâĺŃâĺŃâĺŃâĺŃâĺŃâĺŃâĺŃâĺŃâĺŃâĺŃâĺŃâĺŃâĺŃâĺŃâĺŃâĺŃâĺŃâĺŃâĺŃâĺŃâĺŃâĺŃâĺŃâĺŃâĺŃâĺŃâĺŃâĺŃâĺŃâĺŃâĺŃâĺŃâĺŃâĺŃâĺŃâĺŃâĺŃâĺŃâĺŃâĺŃâĺŃâĺŃâĺŃâĺŃâĺŃâĺŃâĺŃâĺŃâĺŃâĺŃâĺŃâĺŃâĺŃâĺŃâĺŃâĺŃâĺŃâĺŃâĺŃâĺŃâĺŃâĺŃâĺŃâĺŃâĺŃâĺŃâĺŃâĺŃâĺŃâĺŃâĺŃâĺŃâĺŃâĺŃâĺŃâĺŃâĺŃâĺŃâĺŃâĺŃâĺŃâĺŃâĺŃâĺŃâĺŃâĺŃâĺŃâĺŃâĺŃâĺŃâĺŃâĺŃâĺŃâĺŃâĺŃâĺŃâĺŃâĺŃâĺŃâĺŃâĺŃâĺŃâĺŃâĺŃâĺŃâĺŃâĺŃâĺŃâĺŃâĺŃâĺŃâĺŃâĺŃâĺŃâĺŃâĺŃâĺŃâĺŃâĺŃâĺŃâĺŃâĺŃâĺŃâĺŃâĺŃâĺŃâĺŃâĺŃâĺŃâĺŃâĺŃâĺŃâĺŃâĺŃâĺŃâĺŃâĺŃâĺŃâĺŃâĺŃâĺŃâĺŃâĺŃâĺŃâĺŃâĺŃâĺŃâĺŃâĺŃâĺŃâĺŃâĺŃâĺŃâĺŃâĺŃâĺŃâĺŃâĺŃâĺŃâĺŃâĺŃâĺŃâĺŃâĺŃâĺŃâĺŃâĺŃâĺŃâĺŃâĺŃâĺŃâĺŃâĺŃâĺŃâĺŃâĺŃâĺŃâĺŃâĺŃâĺŃâĺŃâĺŃâĺŃâĺŃâĺŃâĺŃâĺŃâĺŃâĺŃâĺŃâĺŃâĺŃâĺŃâĺŃâĺŃâĺŃâĺŃâĺŃâĺŃâĺŃâĺŃâĺŃâĺŃâĺŃâĺŃâĺŃâĺŃâĺŃâĺŃâĺŃâĺŃâĺŃâĺŃâĺŃâĺŃâĺŃâĺŃâĺŃâĺŃâĺŃâĺŃâĺŃâĺŃâĺŃâĺŃâĺŃâĺŃâĺŃâĺŃâĺŃâĺŃâĺŃâĺŃâĺŃâĺŃâĺŃâĺŃâĺŃâĺŃâĺŃâĺŃâĺŃâĺŃâĺŃâĺŃâĺŃâĺŃâĺŃâĺŃâĺŃâĺŃâĺŃâĺŃâĺŃâĺŃâĺŃâĺŃâĺŃâĺŃâĺŃâĺŃâĺŃâĺŃâĺŃâĺŃâĺŃâĺŃâĺŃâĺŃâĺŃâĺŃâĺŃâĺŃâĺŃâĺŃâĺŃâĺŃâĺŃâĺŃâĺŃâĺŃâĺŃâĺŃâĺŃâĺŃâĺŃâĺŃâĺŃâĺŃâĺŃâĺŃâĺŃâĺŃâĺŃâĺŃâĺŃâĺŃâĺŃâĺŃâĺŃâĺŃâĺŃâĺŃâĺŃâĺŃâĺŃâĺŃâĺŃâĺŃâĺŃâĺŃâĺŃâĺŃâĺŃâĺŃâĺŃâĺŃâĺŃâĺŃâĺŃâĺŃâĺŃâĺŃâĺŃâĺŃâĺŃâĺŃâĺŃâĺŃâĺŃâĺŃâĺŃâĺŃâĺŃâĺŃâĺŃâĺŃâĺŃâĺŃâĺŃâĺŃâĺŃâĺŃâĺŃâĺŃâĺŃâĺŃâĺŃâĺŃâĺŃâĺŃâĺŃâĺŃâĺŃâĺŃâĺŃâĺŃâĺŃâĺŃâĺŃâĺŃâĺŃâĺŃâĺŃâĺŃâĺŃâĺŃâĺŃâĺŃâĺŃâĺŃâĺŃâĺŃâĺŃâĺŃâĺŃâĺŃâĺŃâĺŃâĺŃâĺŃâĺŃâĺŃâĺŃâĺŃâĺŃâĺŃâĺŃâĺŃâĺŃâĺŃâĺŃâĺŃâĺŃâĺŃâĺŃâĺŃâĺŃâĺŃâĺŃâĺŃâĺŃâĺŃâĺŃâĺŃâĺŃâĺŃâĺŃâĺŃâĺŃâĺŃâĺŃâĺŃâĺŃâĺŃâĺŃâĺŃâĺŃâĺŃâĺŃâĺŃâĺŃâĺŃâĺŃâĺŃâĺŃâĺŃâĺŃâĺŃâĺŃâĺŃâĺŃâĺŃâĺŃâĺŃâĺŃâĺŃâĺŃâĺŃâĺŃâĺŃâĺŃâĺŃâĺŃâĺŃâĺŃâĺŃâĺŃâĺŃâĺŃâĺŃâĺŃâĺŃâĺŃâĺŃâĺŃ": 2657,
      "ogen": 2658,
      "tet": 2659,
      "wen": 2660,
      "yes": 2661,
      "Ð¸": 2662,
      "Ġ;)[": 2663,
      "chmal": 2664,
      "Ġwichtig": 2665,
      "âĸĳâĸĳâĸĳâĸĳâĸĳâĸĳâĸĳâĸĳâĸĳâĸĪ": 2666,
      "atur": 2667,
      "ruch": 2668,
      "âĺŃâĺŃâĺŃâĺŃâĺŃâĺŃâĺŃâĺŃâĺŃâĺŃâĺŃâĺŃâĺŃâĺŃâĺŃâĺŃâĺŃâĺŃâĺŃâĺŃâĺŃâĺŃâĺŃâĺŃâĺŃâĺŃâĺŃâĺŃâĺŃâĺŃâĺŃâĺŃâĺŃâĺŃâĺŃâĺŃâĺŃâĺŃâĺŃâĺŃâĺŃâĺŃâĺŃâĺŃâĺŃâĺŃâĺŃâĺŃâĺŃâĺŃâĺŃâĺŃâĺŃâĺŃâĺŃâĺŃâĺŃâĺŃâĺŃâĺŃâĺŃâĺŃâĺŃâĺŃâĺŃâĺŃâĺŃâĺŃâĺŃâĺŃâĺŃâĺŃâĺŃâĺŃâĺŃâĺŃ": 2669,
      "Ġpunkte": 2670,
      "ahlen": 2671,
      "liche": 2672,
      "Ġ-[": 2673,
      "Ġabge": 2674,
      "EEEEEEEE": 2675,
      "ĠĠĠĠĠĠĠĠĠĠĠĠĠĠĠĠĠĠĠĠĠĠĠĠĠĠĠĠĠĠĠĠĠĠĠĠĠĠĠĠĠĠĠĠĠĠĠĠĠĠĠĠĠĠĠĠĠĠĠĠĠĠĠĠ": 2676,
      "âĺŃâĺŃâĺŃâĺŃâĺŃâĺŃâĺŃâĺŃâĺŃâĺŃâĺŃâĺŃâĺŃâĺŃâĺŃâĺŃâĺŃâĺŃâĺŃâĺŃâĺŃâĺŃâĺŃâĺŃâĺŃâĺŃâĺŃâĺŃâĺŃâĺŃâĺŃâĺŃâĺŃâĺŃâĺŃâĺŃâĺŃâĺŃâĺŃâĺŃâĺŃâĺŃâĺŃâĺŃâĺŃâĺŃâĺŃâĺŃâĺŃâĺŃâĺŃâĺŃâĺŃâĺŃâĺŃâĺŃâĺŃâĺŃâĺŃâĺŃâĺŃâĺŃâĺŃâĺŃâĺŃâĺŃâĺŃâĺŃâĺŃâĺŃâĺŃâĺŃâĺŃâĺŃâĺŃâĺŃâĺŃâĺŃâĺŃâĺŃâĺŃâĺŃâĺŃâĺŃâĺŃâĺŃâĺŃâĺŃâĺŃâĺŃâĺŃâĺŃâĺŃâĺŃâĺŃâĺŃâĺŃâĺŃâĺŃâĺŃâĺŃâĺŃâĺŃâĺŃâĺŃâĺŃâĺŃâĺŃâĺŃâĺŃâĺŃâĺŃâĺŃâĺŃâĺŃâĺŃâĺŃâĺŃâĺŃâĺŃâĺŃâĺŃâĺŃâĺŃâĺŃâĺŃâĺŃâĺŃâĺŃâĺŃâĺŃâĺŃâĺŃâĺŃâĺŃâĺŃâĺŃâĺŃâĺŃâĺŃâĺŃâĺŃâĺŃâĺŃâĺŃâĺŃâĺŃâĺŃâĺŃâĺŃâĺŃâĺŃâĺŃâĺŃâĺŃâĺŃâĺŃâĺŃâĺŃâĺŃâĺŃâĺŃâĺŃâĺŃâĺŃâĺŃâĺŃâĺŃâĺŃâĺŃâĺŃâĺŃâĺŃâĺŃâĺŃâĺŃâĺŃâĺŃâĺŃâĺŃâĺŃâĺŃâĺŃâĺŃâĺŃâĺŃâĺŃâĺŃâĺŃâĺŃâĺŃâĺŃâĺŃâĺŃâĺŃâĺŃâĺŃâĺŃâĺŃâĺŃâĺŃâĺŃâĺŃâĺŃâĺŃâĺŃâĺŃâĺŃâĺŃâĺŃâĺŃâĺŃâĺŃâĺŃâĺŃâĺŃâĺŃâĺŃâĺŃâĺŃâĺŃâĺŃâĺŃâĺŃâĺŃâĺŃâĺŃâĺŃâĺŃâĺŃâĺŃâĺŃâĺŃâĺŃâĺŃâĺŃâĺŃâĺŃâĺŃâĺŃâĺŃâĺŃâĺŃâĺŃâĺŃâĺŃâĺŃâĺŃâĺŃâĺŃâĺŃâĺŃâĺŃâĺŃâĺŃâĺŃâĺŃâĺŃâĺŃâĺŃâĺŃâĺŃâĺŃâĺŃâĺŃâĺŃâĺŃâĺŃâĺŃâĺŃâĺŃâĺŃâĺŃâĺŃâĺŃâĺŃâĺŃâĺŃâĺŃâĺŃâĺŃâĺŃâĺŃâĺŃâĺŃâĺŃâĺŃâĺŃâĺŃâĺŃâĺŃâĺŃâĺŃâĺŃâĺŃâĺŃâĺŃâĺŃâĺŃâĺŃâĺŃâĺŃâĺŃâĺŃâĺŃâĺŃâĺŃâĺŃâĺŃâĺŃâĺŃâĺŃâĺŃâĺŃâĺŃâĺŃâĺŃâĺŃâĺŃâĺŃâĺŃâĺŃâĺŃâĺŃâĺŃâĺŃâĺŃâĺŃâĺŃâĺŃâĺŃâĺŃâĺŃâĺŃâĺŃâĺŃâĺŃâĺŃâĺŃâĺŃâĺŃâĺŃâĺŃâĺŃâĺŃâĺŃâĺŃâĺŃâĺŃâĺŃâĺŃâĺŃâĺŃâĺŃâĺŃâĺŃâĺŃâĺŃâĺŃâĺŃâĺŃâĺŃâĺŃâĺŃâĺŃâĺŃâĺŃâĺŃâĺŃâĺŃâĺŃâĺŃâĺŃâĺŃâĺŃâĺŃâĺŃâĺŃâĺŃâĺŃâĺŃâĺŃâĺŃâĺŃâĺŃâĺŃâĺŃâĺŃâĺŃâĺŃâĺŃâĺŃâĺŃâĺŃâĺŃâĺŃâĺŃâĺŃâĺŃâĺŃâĺŃâĺŃâĺŃâĺŃâĺŃâĺŃâĺŃâĺŃâĺŃâĺŃâĺŃâĺŃâĺŃâĺŃâĺŃâĺŃâĺŃâĺŃâĺŃâĺŃâĺŃâĺŃâĺŃâĺŃâĺŃâĺŃâĺŃâĺŃâĺŃâĺŃâĺŃâĺŃâĺŃâĺŃâĺŃâĺŃâĺŃâĺŃâĺŃâĺŃâĺŃâĺŃâĺŃâĺŃâĺŃâĺŃâĺŃâĺŃâĺŃâĺŃâĺŃâĺŃâĺŃâĺŃâĺŃâĺŃâĺŃâĺŃâĺŃâĺŃâĺŃâĺŃâĺŃâĺŃâĺŃâĺŃâĺŃâĺŃâĺŃâĺŃâĺŃâĺŃâĺŃâĺŃâĺŃâĺŃâĺŃâĺŃâĺŃâĺŃâĺŃâĺŃâĺŃâĺŃâĺŃâĺŃâĺŃâĺŃâĺŃâĺŃâĺŃâĺŃâĺŃâĺŃâĺŃâĺŃâĺŃâĺŃâĺŃâĺŃâĺŃâĺŃâĺŃâĺŃâĺŃâĺŃâĺŃâĺŃâĺŃâĺŃâĺŃâĺŃâĺŃâĺŃâĺŃâĺŃâĺŃâĺŃâĺŃâĺŃâĺŃâĺŃâĺŃâĺŃâĺŃâĺŃâĺŃâĺŃâĺŃâĺŃâĺŃâĺŃâĺŃâĺŃâĺŃâĺŃâĺŃâĺŃâĺŃâĺŃâĺŃâĺŃâĺŃâĺŃâĺŃâĺŃâĺŃâĺŃâĺŃâĺŃâĺŃâĺŃâĺŃâĺŃâĺŃâĺŃâĺŃâĺŃâĺŃâĺŃâĺŃâĺŃâĺŃâĺŃâĺŃâĺŃâĺŃâĺŃâĺŃâĺŃâĺŃâĺŃâĺŃâĺŃâĺŃâĺŃâĺŃâĺŃâĺŃâĺŃâĺŃâĺŃâĺŃâĺŃâĺŃâĺŃâĺŃâĺŃâĺŃâĺŃâĺŃâĺŃâĺŃâĺŃâĺŃâĺŃâĺŃâĺŃâĺŃâĺŃâĺŃâĺŃâĺŃâĺŃâĺŃâĺŃâĺŃâĺŃâĺŃâĺŃâĺŃâĺŃâĺŃâĺŃâĺŃâĺŃâĺŃâĺŃâĺŃâĺŃâĺŃâĺŃâĺŃâĺŃâĺŃâĺŃâĺŃâĺŃâĺŃâĺŃâĺŃâĺŃâĺŃâĺŃâĺŃâĺŃâĺŃâĺŃâĺŃâĺŃâĺŃâĺŃâĺŃâĺŃâĺŃâĺŃâĺŃâĺŃâĺŃâĺŃâĺŃâĺŃâĺŃâĺŃâĺŃâĺŃâĺŃâĺŃâĺŃâĺŃâĺŃâĺŃâĺŃâĺŃâĺŃâĺŃâĺŃâĺŃâĺŃâĺŃâĺŃâĺŃâĺŃâĺŃâĺŃâĺŃâĺŃâĺŃâĺŃâĺŃâĺŃâĺŃâĺŃâĺŃâĺŃâĺŃâĺŃâĺŃâĺŃâĺŃâĺŃâĺŃâĺŃâĺŃâĺŃâĺŃâĺŃâĺŃâĺŃâĺŃâĺŃâĺŃâĺŃâĺŃâĺŃâĺŃâĺŃâĺŃâĺŃâĺŃâĺŃâĺŃâĺŃâĺŃâĺŃâĺŃâĺŃâĺŃâĺŃâĺŃâĺŃâĺŃâĺŃâĺŃâĺŃâĺŃâĺŃâĺŃâĺŃâĺŃâĺŃâĺŃâĺŃâĺŃâĺŃâĺŃâĺŃâĺŃâĺŃâĺŃâĺŃâĺŃâĺŃâĺŃâĺŃâĺŃâĺŃâĺŃâĺŃâĺŃâĺŃâĺŃâĺŃâĺŃâĺŃâĺŃâĺŃâĺŃâĺŃâĺŃâĺŃâĺŃâĺŃâĺŃâĺŃâĺŃâĺŃâĺŃâĺŃâĺŃâĺŃâĺŃâĺŃâĺŃâĺŃâĺŃâĺŃâĺŃâĺŃâĺŃâĺŃâĺŃâĺŃâĺŃâĺŃâĺŃâĺŃâĺŃâĺŃâĺŃâĺŃâĺŃâĺŃâĺŃâĺŃâĺŃâĺŃâĺŃâĺŃâĺŃâĺŃâĺŃâĺŃâĺŃâĺŃâĺŃâĺŃâĺŃâĺŃâĺŃâĺŃâĺŃâĺŃâĺŃâĺŃâĺŃâĺŃâĺŃâĺŃâĺŃâĺŃâĺŃâĺŃâĺŃâĺŃâĺŃâĺŃâĺŃâĺŃâĺŃâĺŃâĺŃâĺŃâĺŃâĺŃâĺŃâĺŃâĺŃâĺŃâĺŃâĺŃâĺŃâĺŃâĺŃ": 2677,
      "ĺŃðŁĺŃðŁ": 2678,
      "]âĺŃâĺŃâĺŃâĺŃâĺŃâĺŃâĺŃâĺŃâĺŃâĺŃâĺŃâĺŃâĺŃâĺŃâĺŃâĺŃâĺŃâĺŃâĺŃâĺŃâĺŃâĺŃâĺŃâĺŃâĺŃâĺŃâĺŃâĺŃâĺŃâĺŃâĺŃâĺŃâĺŃâĺŃâĺŃâĺŃâĺŃâĺŃâĺŃâĺŃâĺŃâĺŃâĺŃâĺŃâĺŃâĺŃâĺŃâĺŃâĺŃâĺŃâĺŃâĺŃâĺŃâĺŃâĺŃâĺŃâĺŃâĺŃâĺŃâĺŃâĺŃâĺŃâĺŃâĺŃâĺŃâĺŃâĺŃâĺŃâĺŃâĺŃâĺŃâĺŃâĺŃâĺŃâĺŃâĺŃâĺŃâĺŃâĺŃâĺŃâĺŃâĺŃâĺŃâĺŃâĺŃâĺŃâĺŃâĺŃâĺŃâĺŃâĺŃâĺŃâĺŃâĺŃâĺŃâĺŃâĺŃâĺŃâĺŃâĺŃâĺŃâĺŃâĺŃâĺŃâĺŃâĺŃâĺŃâĺŃâĺŃâĺŃâĺŃâĺŃâĺŃâĺŃâĺŃâĺŃâĺŃâĺŃâĺŃâĺŃâĺŃâĺŃâĺŃâĺŃâĺŃâĺŃâĺŃâĺŃâĺŃâĺŃâĺŃâĺŃâĺŃâĺŃâĺŃâĺŃâĺŃâĺŃâĺŃâĺŃâĺŃâĺŃâĺŃâĺŃâĺŃâĺŃâĺŃâĺŃâĺŃâĺŃâĺŃâĺŃâĺŃâĺŃâĺŃâĺŃâĺŃâĺŃâĺŃâĺŃâĺŃâĺŃâĺŃâĺŃâĺŃâĺŃâĺŃâĺŃâĺŃâĺŃâĺŃâĺŃâĺŃâĺŃâĺŃâĺŃâĺŃâĺŃâĺŃâĺŃâĺŃâĺŃâĺŃâĺŃâĺŃâĺŃâĺŃâĺŃâĺŃâĺŃâĺŃâĺŃâĺŃâĺŃâĺŃâĺŃâĺŃâĺŃâĺŃâĺŃâĺŃâĺŃâĺŃâĺŃâĺŃâĺŃâĺŃâĺŃâĺŃâĺŃâĺŃâĺŃâĺŃâĺŃâĺŃâĺŃâĺŃâĺŃâĺŃâĺŃâĺŃâĺŃâĺŃâĺŃâĺŃâĺŃâĺŃâĺŃâĺŃâĺŃâĺŃâĺŃâĺŃâĺŃâĺŃâĺŃâĺŃâĺŃâĺŃâĺŃâĺŃâĺŃâĺŃâĺŃâĺŃâĺŃâĺŃâĺŃâĺŃâĺŃâĺŃâĺŃâĺŃâĺŃâĺŃâĺŃâĺŃâĺŃâĺŃâĺŃâĺŃâĺŃâĺŃâĺŃâĺŃâĺŃâĺŃâĺŃâĺŃâĺŃâĺŃâĺŃâĺŃâĺŃâĺŃâĺŃâĺŃâĺŃâĺŃâĺŃâĺŃâĺŃâĺŃâĺŃâĺŃâĺŃâĺŃâĺŃâĺŃâĺŃâĺŃâĺŃâĺŃâĺŃâĺŃâĺŃâĺŃâĺŃâĺŃâĺŃâĺŃâĺŃâĺŃâĺŃâĺŃâĺŃâĺŃâĺŃâĺŃâĺŃâĺŃâĺŃâĺŃâĺŃâĺŃâĺŃâĺŃâĺŃâĺŃâĺŃâĺŃâĺŃâĺŃâĺŃâĺŃâĺŃâĺŃâĺŃâĺŃâĺŃâĺŃâĺŃâĺŃâĺŃâĺŃâĺŃâĺŃâĺŃâĺŃâĺŃâĺŃâĺŃâĺŃâĺŃâĺŃâĺŃâĺŃâĺŃâĺŃâĺŃâĺŃâĺŃâĺŃâĺŃâĺŃâĺŃâĺŃâĺŃâĺŃâĺŃâĺŃâĺŃâĺŃâĺŃâĺŃâĺŃâĺŃâĺŃâĺŃâĺŃâĺŃâĺŃâĺŃâĺŃâĺŃâĺŃâĺŃâĺŃâĺŃâĺŃâĺŃâĺŃâĺŃâĺŃâĺŃâĺŃâĺŃâĺŃâĺŃâĺŃâĺŃâĺŃâĺŃâĺŃâĺŃâĺŃâĺŃâĺŃâĺŃâĺŃâĺŃâĺŃâĺŃâĺŃâĺŃâĺŃâĺŃâĺŃâĺŃâĺŃâĺŃâĺŃâĺŃâĺŃâĺŃâĺŃâĺŃâĺŃâĺŃâĺŃâĺŃâĺŃâĺŃâĺŃâĺŃâĺŃâĺŃâĺŃâĺŃâĺŃâĺŃâĺŃâĺŃâĺŃâĺŃâĺŃâĺŃâĺŃâĺŃâĺŃâĺŃâĺŃâĺŃâĺŃâĺŃâĺŃâĺŃâĺŃâĺŃâĺŃâĺŃâĺŃâĺŃâĺŃâĺŃâĺŃâĺŃâĺŃâĺŃâĺŃâĺŃâĺŃâĺŃâĺŃâĺŃâĺŃâĺŃâĺŃâĺŃâĺŃâĺŃâĺŃâĺŃâĺŃâĺŃâĺŃâĺŃâĺŃâĺŃâĺŃâĺŃâĺŃâĺŃâĺŃâĺŃâĺŃâĺŃâĺŃâĺŃâĺŃâĺŃâĺŃâĺŃâĺŃâĺŃâĺŃâĺŃâĺŃâĺŃâĺŃâĺŃâĺŃâĺŃâĺŃâĺŃâĺŃâĺŃâĺŃâĺŃâĺŃâĺŃâĺŃâĺŃâĺŃâĺŃâĺŃâĺŃâĺŃâĺŃâĺŃâĺŃâĺŃâĺŃâĺŃâĺŃâĺŃâĺŃâĺŃâĺŃâĺŃâĺŃâĺŃâĺŃâĺŃâĺŃâĺŃâĺŃâĺŃâĺŃâĺŃâĺŃâĺŃâĺŃâĺŃâĺŃâĺŃâĺŃâĺŃâĺŃâĺŃâĺŃâĺŃâĺŃâĺŃâĺŃâĺŃâĺŃâĺŃâĺŃâĺŃâĺŃâĺŃâĺŃâĺŃâĺŃâĺŃâĺŃâĺŃâĺŃâĺŃâĺŃâĺŃâĺŃâĺŃâĺŃâĺŃâĺŃâĺŃâĺŃâĺŃâĺŃâĺŃâĺŃâĺŃâĺŃâĺŃâĺŃâĺŃâĺŃâĺŃâĺŃâĺŃâĺŃâĺŃâĺŃâĺŃâĺŃâĺŃâĺŃâĺŃâĺŃâĺŃâĺŃâĺŃâĺŃâĺŃâĺŃâĺŃâĺŃâĺŃâĺŃâĺŃâĺŃâĺŃâĺŃâĺŃâĺŃâĺŃâĺŃâĺŃâĺŃâĺŃâĺŃâĺŃâĺŃâĺŃâĺŃâĺŃâĺŃâĺŃâĺŃâĺŃâĺŃâĺŃâĺŃâĺŃâĺŃâĺŃâĺŃâĺŃâĺŃâĺŃâĺŃâĺŃâĺŃâĺŃâĺŃâĺŃâĺŃâĺŃâĺŃâĺŃâĺŃâĺŃâĺŃâĺŃâĺŃâĺŃâĺŃâĺŃâĺŃâĺŃâĺŃâĺŃâĺŃâĺŃâĺŃâĺŃâĺŃâĺŃâĺŃâĺŃâĺŃâĺŃâĺŃâĺŃâĺŃâĺŃâĺŃâĺŃâĺŃâĺŃâĺŃâĺŃâĺŃâĺŃâĺŃâĺŃâĺŃâĺŃâĺŃâĺŃâĺŃâĺŃâĺŃâĺŃâĺŃâĺŃâĺŃâĺŃâĺŃâĺŃâĺŃâĺŃâĺŃâĺŃâĺŃâĺŃâĺŃâĺŃâĺŃâĺŃâĺŃâĺŃâĺŃâĺŃâĺŃâĺŃâĺŃâĺŃâĺŃâĺŃâĺŃâĺŃâĺŃâĺŃâĺŃâĺŃâĺŃâĺŃâĺŃâĺŃâĺŃâĺŃâĺŃâĺŃâĺŃâĺŃâĺŃâĺŃâĺŃâĺŃâĺŃâĺŃâĺŃâĺŃâĺŃâĺŃâĺŃâĺŃâĺŃâĺŃâĺŃâĺŃâĺŃâĺŃâĺŃâĺŃâĺŃâĺŃâĺŃâĺŃâĺŃâĺŃâĺŃâĺŃâĺŃâĺŃâĺŃâĺŃâĺŃâĺŃâĺŃâĺŃâĺŃâĺŃâĺŃâĺŃâĺŃâĺŃâĺŃâĺŃâĺŃâĺŃâĺŃâĺŃâĺŃâĺŃâĺŃâĺŃâĺŃâĺŃâĺŃâĺŃâĺŃâĺŃâĺŃâĺŃâĺŃâĺŃâĺŃâĺŃâĺŃâĺŃâĺŃâĺŃâĺŃâĺŃâĺŃâĺŃâĺŃâĺŃâĺŃâĺŃâĺŃâĺŃâĺŃâĺŃâĺŃâĺŃâĺŃâĺŃâĺŃâĺŃâĺŃâĺŃâĺŃâĺŃâĺŃâĺŃâĺŃâĺŃâĺŃâĺŃâĺŃâĺŃâĺŃâĺŃâĺŃâĺŃâĺŃâĺŃâĺŃâĺŃâĺŃâĺŃâĺŃâĺŃâĺŃâĺŃâĺŃâĺŃâĺŃâĺŃâĺŃâĺŃâĺŃâĺŃâĺŃâĺŃâĺŃâĺŃâĺŃâĺŃâĺŃâĺŃâĺŃâĺŃâĺŃâĺŃâĺŃâĺŃâĺŃâĺŃâĺŃâĺŃâĺŃâĺŃâĺŃâĺŃâĺŃâĺŃâĺŃâĺŃâĺŃâĺŃâĺŃâĺŃâĺŃâĺŃâĺŃâĺŃâĺŃâĺŃâĺŃâĺŃâĺŃâĺŃâĺŃâĺŃâĺŃâĺŃâĺŃâĺŃâĺŃâĺŃâĺŃâĺŃâĺŃâĺŃâĺŃâĺŃâĺŃâĺŃâĺŃâĺŃâĺŃâĺŃâĺŃâĺŃâĺŃâĺŃâĺŃâĺŃâĺŃâĺŃâĺŃâĺŃâĺŃâĺŃâĺŃâĺŃâĺŃâĺŃâĺŃâĺŃâĺŃâĺŃâĺŃâĺŃâĺŃâĺŃâĺŃâĺŃâĺŃâĺŃâĺŃâĺŃâĺŃâĺŃâĺŃâĺŃâĺŃâĺŃâĺŃâĺŃâĺŃâĺŃâĺŃâĺŃâĺŃâĺŃâĺŃâĺŃâĺŃâĺŃâĺŃâĺŃâĺŃâĺŃâĺŃâĺŃâĺŃâĺŃâĺŃâĺŃâĺŃâĺŃâĺŃâĺŃâĺŃâĺŃâĺŃâĺŃâĺŃâĺŃâĺŃâĺŃâĺŃâĺŃâĺŃâĺŃâĺŃâĺŃâĺŃâĺŃâĺŃâĺŃâĺŃâĺŃâĺŃâĺŃâĺŃâĺŃâĺŃâĺŃâĺŃâĺŃâĺŃâĺŃâĺŃâĺŃâĺŃâĺŃâĺŃâĺŃâĺŃâĺŃâĺŃâĺŃâĺŃâĺŃâĺŃâĺŃâĺŃâĺŃâĺŃâĺŃâĺŃâĺŃâĺŃâĺŃâĺŃâĺŃâĺŃâĺŃâĺŃâĺŃâĺŃâĺŃâĺŃâĺŃâĺŃâĺŃâĺŃâĺŃâĺŃâĺŃâĺŃâĺŃâĺŃâĺŃâĺŃâĺŃâĺŃâĺŃâĺŃâĺŃâĺŃâĺŃâĺŃâĺŃâĺŃâĺŃâĺŃâĺŃâĺŃâĺŃâĺŃâĺŃâĺŃâĺŃâĺŃâĺŃâĺŃâĺŃâĺŃâĺŃâĺŃâĺŃâĺŃâĺŃâĺŃâĺŃâĺŃâĺŃâĺŃâĺŃâĺŃâĺŃâĺŃâĺŃâĺŃâĺŃâĺŃâĺŃâĺŃâĺŃâĺŃâĺŃâĺŃâĺŃâĺŃâĺŃâĺŃâĺŃâĺŃâĺŃâĺŃâĺŃâĺŃâĺŃâĺŃâĺŃâĺŃâĺŃâĺŃâĺŃâĺŃâĺŃâĺŃâĺŃâĺŃâĺŃâĺŃâĺŃâĺŃâĺŃâĺŃâĺŃâĺŃâĺŃâĺŃâĺŃâĺŃâĺŃâĺŃâĺŃâĺŃâĺŃâĺŃâĺŃâĺŃâĺŃâĺŃâĺŃâĺŃâĺŃâĺŃâĺŃâĺŃâĺŃâĺŃâĺŃâĺŃâĺŃâĺŃâĺŃâĺŃâĺŃâĺŃâĺŃâĺŃâĺŃâĺŃâĺŃâĺŃâĺŃâĺŃâĺŃâĺŃâĺŃâĺŃâĺŃâĺŃâĺŃâĺŃâĺŃâĺŃâĺŃâĺŃâĺŃâĺŃâĺŃâĺŃâĺŃâĺŃâĺŃâĺŃâĺŃâĺŃâĺŃâĺŃâĺŃâĺŃâĺŃâĺŃâĺŃâĺŃâĺŃâĺŃâĺŃâĺŃâĺŃâĺŃâĺŃâĺŃâĺŃâĺŃâĺŃâĺŃâĺŃâĺŃâĺŃâĺŃâĺŃâĺŃâĺŃâĺŃâĺŃâĺŃâĺŃâĺŃâĺŃâĺŃâĺŃâĺŃâĺŃâĺŃâĺŃâĺŃâĺŃâĺŃâĺŃâĺŃâĺŃâĺŃâĺŃâĺŃâĺŃâĺŃâĺŃâĺŃâĺŃâĺŃâĺŃâĺŃâĺŃâĺŃâĺŃâĺŃâĺŃâĺŃâĺŃâĺŃâĺŃâĺŃâĺŃâĺŃâĺŃâĺŃâĺŃâĺŃâĺŃâĺŃâĺŃâĺŃâĺŃâĺŃâĺŃâĺŃâĺŃâĺŃâĺŃâĺŃâĺŃâĺŃâĺŃâĺŃâĺŃâĺŃâĺŃâĺŃâĺŃâĺŃâĺŃâĺŃâĺŃâĺŃâĺŃâĺŃâĺŃâĺŃâĺŃâĺŃâĺŃâĺŃâĺŃâĺŃâĺŃâĺŃâĺŃâĺŃâĺŃâĺŃâĺŃâĺŃâĺŃâĺŃâĺŃâĺŃâĺŃâĺŃâĺŃâĺŃâĺŃâĺŃâĺŃâĺŃâĺŃâĺŃâĺŃâĺŃâĺŃâĺŃâĺŃâĺŃâĺŃâĺŃâĺŃâĺŃâĺŃâĺŃâĺŃâĺŃâĺŃâĺŃâĺŃâĺŃâĺŃâĺŃâĺŃâĺŃâĺŃâĺŃâĺŃâĺŃâĺŃâĺŃâĺŃâĺŃâĺŃâĺŃâĺŃâĺŃâĺŃâĺŃâĺŃâĺŃâĺŃâĺŃâĺŃâĺŃâĺŃâĺŃâĺŃâĺŃâĺŃâĺŃâĺŃâĺŃâĺŃâĺŃâĺŃâĺŃâĺŃâĺŃâĺŃâĺŃâĺŃâĺŃâĺŃâĺŃâĺŃâĺŃâĺŃâĺŃâĺŃâĺŃâĺŃâĺŃâĺŃâĺŃâĺŃâĺŃâĺŃâĺŃâĺŃâĺŃâĺŃâĺŃâĺŃâĺŃâĺŃâĺŃâĺŃâĺŃâĺŃâĺŃâĺŃâĺŃâĺŃâĺŃâĺŃâĺŃâĺŃâĺŃâĺŃâĺŃâĺŃâĺŃâĺŃâĺŃâĺŃâĺŃâĺŃâĺŃâĺŃâĺŃâĺŃâĺŃâĺŃâĺŃâĺŃâĺŃâĺŃâĺŃâĺŃâĺŃâĺŃâĺŃâĺŃâĺŃâĺŃâĺŃâĺŃâĺŃâĺŃâĺŃâĺŃâĺŃâĺŃâĺŃâĺŃâĺŃâĺŃâĺŃâĺŃâĺŃâĺŃâĺŃâĺŃâĺŃâĺŃâĺŃâĺŃâĺŃâĺŃâĺŃâĺŃâĺŃâĺŃâĺŃâĺŃâĺŃâĺŃâĺŃâĺŃâĺŃâĺŃâĺŃâĺŃâĺŃâĺŃâĺŃâĺŃâĺŃâĺŃâĺŃâĺŃâĺŃâĺŃâĺŃâĺŃâĺŃâĺŃâĺŃâĺŃâĺŃâĺŃâĺŃâĺŃâĺŃâĺŃâĺŃâĺŃâĺŃâĺŃâĺŃâĺŃâĺŃâĺŃâĺŃâĺŃâĺŃâĺŃâĺŃâĺŃâĺŃâĺŃâĺŃâĺŃâĺŃâĺŃâĺŃâĺŃâĺŃâĺŃâĺŃâĺŃâĺŃâĺŃâĺŃâĺŃâĺŃâĺŃâĺŃâĺŃâĺŃâĺŃâĺŃâĺŃâĺŃâĺŃâĺŃâĺŃâĺŃâĺŃâĺŃâĺŃâĺŃâĺŃâĺŃâĺŃâĺŃâĺŃâĺŃâĺŃâĺŃâĺŃâĺŃâĺŃâĺŃâĺŃâĺŃâĺŃâĺŃâĺŃâĺŃâĺŃâĺŃâĺŃâĺŃâĺŃâĺŃâĺŃâĺŃâĺŃâĺŃâĺŃâĺŃâĺŃâĺŃâĺŃâĺŃâĺŃâĺŃâĺŃâĺŃâĺŃâĺŃâĺŃâĺŃâĺŃâĺŃâĺŃâĺŃâĺŃâĺŃâĺŃâĺŃâĺŃâĺŃâĺŃâĺŃâĺŃâĺŃâĺŃâĺŃâĺŃâĺŃâĺŃâĺŃâĺŃâĺŃâĺŃâĺŃâĺŃâĺŃâĺŃâĺŃâĺŃâĺŃâĺŃâĺŃâĺŃâĺŃâĺŃâĺŃâĺŃâĺŃâĺŃâĺŃâĺŃâĺŃâĺŃâĺŃâĺŃâĺŃâĺŃâĺŃâĺŃâĺŃâĺŃâĺŃâĺŃâĺŃâĺŃâĺŃâĺŃâĺŃâĺŃâĺŃâĺŃâĺŃâĺŃâĺŃâĺŃâĺŃâĺŃâĺŃâĺŃâĺŃâĺŃâĺŃâĺŃâĺŃâĺŃâĺŃâĺŃâĺŃâĺŃâĺŃâĺŃâĺŃâĺŃâĺŃâĺŃâĺŃâĺŃâĺŃâĺŃâĺŃâĺŃâĺŃâĺŃâĺŃâĺŃâĺŃâĺŃâĺŃâĺŃâĺŃâĺŃâĺŃâĺŃâĺŃâĺŃâĺŃâĺŃâĺŃâĺŃâĺŃâĺŃâĺŃâĺŃâĺŃâĺŃâĺŃâĺŃâĺŃâĺŃâĺŃâĺŃâĺŃâĺŃâĺŃâĺŃâĺŃâĺŃâĺŃâĺŃâĺŃâĺŃâĺŃâĺŃâĺŃâĺŃâĺŃâĺŃâĺŃâĺŃâĺŃâĺŃâĺŃâĺŃâĺŃâĺŃâĺŃâĺŃâĺŃâĺŃâĺŃâĺŃâĺŃâĺŃâĺŃâĺŃâĺŃâĺŃâĺŃâĺŃâĺŃâĺŃâĺŃâĺŃâĺŃâĺŃâĺŃâĺŃâĺŃâĺŃâĺŃâĺŃâĺŃâĺŃâĺŃâĺŃâĺŃâĺŃâĺŃâĺŃâĺŃâĺŃâĺŃâĺŃâĺŃâĺŃâĺŃâĺŃâĺŃâĺŃâĺŃâĺŃâĺŃâĺŃâĺŃâĺŃâĺŃâĺŃâĺŃâĺŃâĺŃâĺŃâĺŃâĺŃâĺŃâĺŃâĺŃâĺŃâĺŃâĺŃâĺŃâĺŃâĺŃâĺŃâĺŃâĺŃâĺŃâĺŃâĺŃâĺŃâĺŃâĺŃâĺŃâĺŃâĺŃâĺŃâĺŃâĺŃâĺŃâĺŃâĺŃâĺŃâĺŃâĺŃâĺŃâĺŃâĺŃâĺŃâĺŃâĺŃâĺŃâĺŃâĺŃâĺŃâĺŃâĺŃâĺŃâĺŃâĺŃâĺŃâĺŃâĺŃâĺŃâĺŃâĺŃâĺŃâĺŃâĺŃâĺŃâĺŃâĺŃâĺŃâĺŃâĺŃâĺŃâĺŃâĺŃâĺŃâĺŃâĺŃâĺŃâĺŃâĺŃâĺŃâĺŃâĺŃ": 2679,
      "ACH": 2680,
      "ETZ": 2681,
      "Man": 2682,
      "NÃ¶": 2683,
      "gj": 2684,
      "get": 2685,
      "ganz": 2686,
      "jaaaaaaaa": 2687,
      "kom": 2688,
      "np": 2689,
      "sicht": 2690,
      "uii": 2691,
      "ãĤ": 2692,
      "Ġ/": 2693,
      "ĠÃ¤": 2694,
      "Ġdatei": 2695,
      "Ġnamen": 2696,
      "ans": 2697,
      "antw": 2698,
      "ooh": 2699,
      "Ġhol": 2700,
      "atzen": 2701,
      "onder": 2702,
      "ehst": 2703,
      "emp": 2704,
      "]ðŁĲ": 2705,
      "lagen": 2706,
      "Ġausge": 2707,
      "Ġklingt": 2708,
      "haft": 2709,
      "Ġare": 2710,
      "?!?[": 2711,
      "Ġgener": 2712,
      "Ġwollen": 2713,
      "âĸĪâĸĪâĸĪâĸĪâĸĪâĸĪâĸĪâĸĪâĸĪâĸĪâĸĪâĸĪâĸĪâĸĪâĸĪâĸĪâĸĪâĸĪâĸĪâĸĪâĸĪâĸĪâĸĪâĸĪ": 2714,
      "!!!!!!!!!!!!!!!!": 2715,
      "uiui": 2716,
      "âĶĢâĶĢâĶĢâĶĢâĶĢâĶĢâĶĢâĶĢ": 2717,
      "++++": 2718,
      "Ġletzte": 2719,
      "((((": 2720,
      "yyyyyyyyyyyyyyyyyyyyyyyyyyyyyyyy": 2721,
      "Ġdran": 2722,
      "ðŁ«ĥðŁ«ĥðŁ«ĥðŁ«ĥðŁ«ĥðŁ«ĥðŁ«ĥðŁ«ĥðŁ«ĥðŁ«ĥðŁ«ĥðŁ«ĥðŁ«ĥðŁ«ĥðŁ«ĥðŁ«ĥðŁ«ĥðŁ«ĥðŁ«ĥðŁ«ĥðŁ«ĥðŁ«ĥðŁ«ĥðŁ«ĥðŁ«ĥðŁ«ĥðŁ«ĥðŁ«ĥðŁ«ĥðŁ«ĥðŁ«ĥðŁ«ĥ": 2723,
      "kennst": 2724,
      "Ġâİ": 2725,
      "ĠnÃ¤chste": 2726,
      "Ġfurby": 2727,
      "]âĺŃâĺŃâĺŃâĺŃâĺŃâĺŃâĺŃâĺŃâĺŃâĺŃâĺŃâĺŃâĺŃâĺŃâĺŃâĺŃâĺŃâĺŃâĺŃâĺŃâĺŃâĺŃâĺŃâĺŃâĺŃâĺŃâĺŃâĺŃâĺŃâĺŃâĺŃâĺŃâĺŃâĺŃâĺŃâĺŃâĺŃâĺŃâĺŃâĺŃâĺŃâĺŃâĺŃâĺŃâĺŃâĺŃâĺŃâĺŃâĺŃâĺŃâĺŃâĺŃâĺŃâĺŃâĺŃâĺŃâĺŃâĺŃâĺŃâĺŃâĺŃâĺŃâĺŃâĺŃâĺŃâĺŃâĺŃâĺŃâĺŃâĺŃâĺŃâĺŃâĺŃâĺŃâĺŃâĺŃâĺŃâĺŃâĺŃâĺŃâĺŃâĺŃâĺŃâĺŃâĺŃâĺŃâĺŃâĺŃâĺŃâĺŃâĺŃâĺŃâĺŃâĺŃâĺŃâĺŃâĺŃâĺŃâĺŃâĺŃâĺŃâĺŃâĺŃâĺŃâĺŃâĺŃâĺŃâĺŃâĺŃâĺŃâĺŃâĺŃâĺŃâĺŃâĺŃâĺŃâĺŃâĺŃâĺŃâĺŃâĺŃâĺŃâĺŃâĺŃâĺŃâĺŃâĺŃâĺŃâĺŃâĺŃâĺŃâĺŃâĺŃâĺŃâĺŃâĺŃâĺŃâĺŃâĺŃâĺŃâĺŃâĺŃâĺŃâĺŃâĺŃâĺŃâĺŃâĺŃâĺŃâĺŃâĺŃâĺŃâĺŃâĺŃâĺŃâĺŃâĺŃâĺŃâĺŃâĺŃâĺŃâĺŃâĺŃâĺŃâĺŃâĺŃâĺŃâĺŃâĺŃâĺŃâĺŃâĺŃâĺŃâĺŃâĺŃâĺŃâĺŃâĺŃâĺŃâĺŃâĺŃâĺŃâĺŃâĺŃâĺŃâĺŃâĺŃâĺŃâĺŃâĺŃâĺŃâĺŃâĺŃâĺŃâĺŃâĺŃâĺŃâĺŃâĺŃâĺŃâĺŃâĺŃâĺŃâĺŃâĺŃâĺŃâĺŃâĺŃâĺŃâĺŃâĺŃâĺŃâĺŃâĺŃâĺŃâĺŃâĺŃâĺŃâĺŃâĺŃâĺŃâĺŃâĺŃâĺŃâĺŃâĺŃâĺŃâĺŃâĺŃâĺŃâĺŃâĺŃâĺŃâĺŃâĺŃâĺŃâĺŃâĺŃâĺŃâĺŃâĺŃâĺŃâĺŃâĺŃâĺŃâĺŃâĺŃâĺŃâĺŃâĺŃâĺŃâĺŃâĺŃâĺŃâĺŃâĺŃâĺŃâĺŃâĺŃâĺŃâĺŃâĺŃâĺŃâĺŃâĺŃâĺŃâĺŃâĺŃâĺŃâĺŃâĺŃâĺŃâĺŃâĺŃâĺŃâĺŃâĺŃâĺŃâĺŃâĺŃâĺŃâĺŃâĺŃâĺŃâĺŃâĺŃâĺŃâĺŃâĺŃâĺŃâĺŃâĺŃâĺŃâĺŃâĺŃâĺŃâĺŃâĺŃâĺŃâĺŃâĺŃâĺŃâĺŃâĺŃâĺŃâĺŃâĺŃâĺŃâĺŃâĺŃâĺŃâĺŃâĺŃâĺŃâĺŃâĺŃâĺŃâĺŃâĺŃâĺŃâĺŃâĺŃâĺŃâĺŃâĺŃâĺŃâĺŃâĺŃâĺŃâĺŃâĺŃâĺŃâĺŃâĺŃâĺŃâĺŃâĺŃâĺŃâĺŃâĺŃâĺŃâĺŃâĺŃâĺŃâĺŃâĺŃâĺŃâĺŃâĺŃâĺŃâĺŃâĺŃâĺŃâĺŃâĺŃâĺŃâĺŃâĺŃâĺŃâĺŃâĺŃâĺŃâĺŃâĺŃâĺŃâĺŃâĺŃâĺŃâĺŃâĺŃâĺŃâĺŃâĺŃâĺŃâĺŃâĺŃâĺŃâĺŃâĺŃâĺŃâĺŃâĺŃâĺŃâĺŃâĺŃâĺŃâĺŃâĺŃâĺŃâĺŃâĺŃâĺŃâĺŃâĺŃâĺŃâĺŃâĺŃâĺŃâĺŃâĺŃâĺŃâĺŃâĺŃâĺŃâĺŃâĺŃâĺŃâĺŃâĺŃâĺŃâĺŃâĺŃâĺŃâĺŃâĺŃâĺŃâĺŃâĺŃâĺŃâĺŃâĺŃâĺŃâĺŃâĺŃâĺŃâĺŃâĺŃâĺŃâĺŃâĺŃâĺŃâĺŃâĺŃâĺŃâĺŃâĺŃâĺŃâĺŃâĺŃâĺŃâĺŃâĺŃâĺŃâĺŃâĺŃâĺŃâĺŃâĺŃâĺŃâĺŃâĺŃâĺŃâĺŃâĺŃâĺŃâĺŃâĺŃâĺŃâĺŃâĺŃâĺŃâĺŃâĺŃâĺŃâĺŃâĺŃâĺŃâĺŃâĺŃâĺŃâĺŃâĺŃâĺŃâĺŃâĺŃâĺŃâĺŃâĺŃâĺŃâĺŃâĺŃâĺŃâĺŃâĺŃâĺŃâĺŃâĺŃâĺŃâĺŃâĺŃâĺŃâĺŃâĺŃâĺŃâĺŃâĺŃâĺŃâĺŃâĺŃâĺŃâĺŃâĺŃâĺŃâĺŃâĺŃâĺŃâĺŃâĺŃâĺŃâĺŃâĺŃâĺŃâĺŃâĺŃâĺŃâĺŃâĺŃâĺŃâĺŃâĺŃâĺŃâĺŃâĺŃâĺŃâĺŃâĺŃâĺŃâĺŃâĺŃâĺŃâĺŃâĺŃâĺŃâĺŃâĺŃâĺŃâĺŃâĺŃâĺŃâĺŃâĺŃâĺŃâĺŃâĺŃâĺŃâĺŃâĺŃâĺŃâĺŃâĺŃâĺŃâĺŃâĺŃâĺŃâĺŃâĺŃâĺŃâĺŃâĺŃâĺŃâĺŃâĺŃâĺŃâĺŃâĺŃâĺŃâĺŃâĺŃâĺŃâĺŃâĺŃâĺŃâĺŃâĺŃâĺŃâĺŃâĺŃâĺŃâĺŃâĺŃâĺŃâĺŃâĺŃâĺŃâĺŃâĺŃâĺŃâĺŃâĺŃâĺŃâĺŃâĺŃâĺŃâĺŃâĺŃâĺŃâĺŃâĺŃâĺŃâĺŃâĺŃâĺŃâĺŃâĺŃâĺŃâĺŃâĺŃâĺŃâĺŃâĺŃâĺŃâĺŃâĺŃâĺŃâĺŃâĺŃâĺŃâĺŃâĺŃâĺŃâĺŃâĺŃâĺŃâĺŃâĺŃâĺŃâĺŃâĺŃâĺŃâĺŃâĺŃâĺŃâĺŃâĺŃâĺŃâĺŃâĺŃâĺŃâĺŃâĺŃâĺŃâĺŃâĺŃâĺŃâĺŃâĺŃâĺŃâĺŃâĺŃâĺŃâĺŃâĺŃâĺŃâĺŃâĺŃâĺŃâĺŃâĺŃâĺŃâĺŃâĺŃâĺŃâĺŃâĺŃâĺŃâĺŃâĺŃâĺŃâĺŃâĺŃâĺŃâĺŃâĺŃâĺŃâĺŃâĺŃâĺŃâĺŃâĺŃâĺŃâĺŃâĺŃâĺŃâĺŃâĺŃâĺŃâĺŃâĺŃâĺŃâĺŃâĺŃâĺŃâĺŃâĺŃâĺŃâĺŃâĺŃâĺŃâĺŃâĺŃâĺŃâĺŃâĺŃâĺŃâĺŃâĺŃâĺŃâĺŃâĺŃâĺŃâĺŃâĺŃâĺŃâĺŃâĺŃâĺŃâĺŃâĺŃâĺŃâĺŃâĺŃâĺŃâĺŃâĺŃâĺŃâĺŃâĺŃâĺŃâĺŃâĺŃâĺŃâĺŃâĺŃâĺŃâĺŃâĺŃâĺŃâĺŃâĺŃâĺŃâĺŃâĺŃâĺŃâĺŃâĺŃâĺŃâĺŃâĺŃâĺŃâĺŃâĺŃâĺŃâĺŃâĺŃâĺŃâĺŃâĺŃâĺŃâĺŃâĺŃâĺŃâĺŃâĺŃâĺŃâĺŃâĺŃâĺŃâĺŃâĺŃâĺŃâĺŃâĺŃâĺŃâĺŃâĺŃâĺŃâĺŃâĺŃâĺŃâĺŃâĺŃâĺŃâĺŃâĺŃâĺŃâĺŃâĺŃâĺŃâĺŃâĺŃâĺŃâĺŃâĺŃâĺŃâĺŃâĺŃâĺŃâĺŃâĺŃâĺŃâĺŃâĺŃâĺŃâĺŃâĺŃâĺŃâĺŃâĺŃâĺŃâĺŃâĺŃâĺŃâĺŃâĺŃâĺŃâĺŃâĺŃâĺŃâĺŃâĺŃâĺŃâĺŃâĺŃâĺŃâĺŃâĺŃâĺŃâĺŃâĺŃâĺŃâĺŃâĺŃâĺŃâĺŃâĺŃâĺŃâĺŃâĺŃâĺŃâĺŃâĺŃâĺŃâĺŃâĺŃâĺŃâĺŃâĺŃâĺŃâĺŃâĺŃâĺŃâĺŃâĺŃâĺŃâĺŃâĺŃâĺŃâĺŃâĺŃâĺŃâĺŃâĺŃâĺŃâĺŃâĺŃâĺŃâĺŃâĺŃâĺŃâĺŃâĺŃâĺŃâĺŃâĺŃâĺŃâĺŃâĺŃâĺŃâĺŃâĺŃâĺŃâĺŃâĺŃâĺŃâĺŃâĺŃâĺŃâĺŃâĺŃâĺŃâĺŃâĺŃâĺŃâĺŃâĺŃâĺŃâĺŃâĺŃâĺŃâĺŃâĺŃâĺŃâĺŃâĺŃâĺŃâĺŃâĺŃâĺŃâĺŃâĺŃâĺŃâĺŃâĺŃâĺŃâĺŃâĺŃâĺŃâĺŃâĺŃâĺŃâĺŃâĺŃâĺŃâĺŃâĺŃâĺŃâĺŃâĺŃâĺŃâĺŃâĺŃâĺŃâĺŃâĺŃâĺŃâĺŃâĺŃâĺŃâĺŃâĺŃâĺŃâĺŃâĺŃâĺŃâĺŃâĺŃâĺŃâĺŃâĺŃâĺŃâĺŃâĺŃâĺŃâĺŃâĺŃâĺŃâĺŃâĺŃâĺŃâĺŃâĺŃâĺŃâĺŃâĺŃâĺŃâĺŃâĺŃâĺŃâĺŃâĺŃâĺŃâĺŃâĺŃâĺŃâĺŃâĺŃâĺŃâĺŃâĺŃâĺŃâĺŃâĺŃâĺŃâĺŃâĺŃâĺŃâĺŃâĺŃâĺŃâĺŃâĺŃâĺŃâĺŃâĺŃâĺŃâĺŃâĺŃâĺŃâĺŃâĺŃâĺŃâĺŃâĺŃâĺŃâĺŃâĺŃâĺŃâĺŃâĺŃâĺŃâĺŃâĺŃâĺŃâĺŃâĺŃâĺŃâĺŃâĺŃâĺŃâĺŃâĺŃâĺŃâĺŃâĺŃâĺŃâĺŃâĺŃâĺŃâĺŃâĺŃâĺŃâĺŃâĺŃâĺŃâĺŃâĺŃâĺŃâĺŃâĺŃâĺŃâĺŃâĺŃâĺŃâĺŃâĺŃâĺŃâĺŃâĺŃâĺŃâĺŃâĺŃâĺŃâĺŃâĺŃâĺŃâĺŃâĺŃâĺŃâĺŃâĺŃâĺŃâĺŃâĺŃâĺŃâĺŃâĺŃâĺŃâĺŃâĺŃâĺŃâĺŃâĺŃâĺŃâĺŃâĺŃâĺŃâĺŃâĺŃâĺŃâĺŃâĺŃâĺŃâĺŃâĺŃâĺŃâĺŃâĺŃâĺŃâĺŃâĺŃâĺŃâĺŃâĺŃâĺŃâĺŃâĺŃâĺŃâĺŃâĺŃâĺŃâĺŃâĺŃâĺŃâĺŃâĺŃâĺŃâĺŃâĺŃâĺŃâĺŃâĺŃâĺŃâĺŃâĺŃâĺŃâĺŃâĺŃâĺŃâĺŃâĺŃâĺŃâĺŃâĺŃâĺŃâĺŃâĺŃâĺŃâĺŃâĺŃâĺŃâĺŃâĺŃâĺŃâĺŃâĺŃâĺŃâĺŃâĺŃâĺŃâĺŃâĺŃâĺŃâĺŃâĺŃâĺŃâĺŃâĺŃâĺŃâĺŃâĺŃâĺŃâĺŃâĺŃâĺŃâĺŃâĺŃâĺŃâĺŃâĺŃâĺŃâĺŃâĺŃâĺŃâĺŃâĺŃâĺŃâĺŃâĺŃâĺŃâĺŃâĺŃâĺŃâĺŃâĺŃâĺŃâĺŃâĺŃâĺŃâĺŃâĺŃâĺŃâĺŃâĺŃâĺŃâĺŃâĺŃâĺŃâĺŃâĺŃâĺŃâĺŃâĺŃâĺŃâĺŃâĺŃâĺŃâĺŃâĺŃâĺŃâĺŃâĺŃâĺŃâĺŃâĺŃâĺŃâĺŃâĺŃâĺŃâĺŃâĺŃâĺŃâĺŃâĺŃâĺŃâĺŃâĺŃâĺŃâĺŃâĺŃâĺŃâĺŃâĺŃâĺŃâĺŃâĺŃâĺŃâĺŃâĺŃâĺŃâĺŃâĺŃâĺŃâĺŃâĺŃâĺŃâĺŃâĺŃâĺŃâĺŃâĺŃâĺŃâĺŃâĺŃâĺŃâĺŃâĺŃâĺŃâĺŃâĺŃâĺŃâĺŃâĺŃâĺŃâĺŃâĺŃâĺŃâĺŃâĺŃâĺŃâĺŃâĺŃâĺŃâĺŃâĺŃâĺŃâĺŃâĺŃâĺŃâĺŃâĺŃâĺŃâĺŃâĺŃâĺŃâĺŃâĺŃâĺŃâĺŃâĺŃâĺŃâĺŃâĺŃâĺŃâĺŃâĺŃâĺŃâĺŃâĺŃâĺŃâĺŃâĺŃâĺŃâĺŃâĺŃâĺŃâĺŃâĺŃâĺŃâĺŃâĺŃâĺŃâĺŃâĺŃâĺŃâĺŃâĺŃâĺŃâĺŃâĺŃâĺŃâĺŃâĺŃâĺŃâĺŃâĺŃâĺŃâĺŃâĺŃâĺŃâĺŃâĺŃâĺŃâĺŃâĺŃâĺŃâĺŃâĺŃâĺŃâĺŃâĺŃâĺŃâĺŃâĺŃâĺŃâĺŃâĺŃâĺŃâĺŃâĺŃâĺŃâĺŃâĺŃâĺŃâĺŃâĺŃâĺŃâĺŃâĺŃâĺŃâĺŃâĺŃâĺŃâĺŃâĺŃâĺŃâĺŃâĺŃâĺŃâĺŃâĺŃâĺŃâĺŃâĺŃâĺŃâĺŃâĺŃâĺŃâĺŃâĺŃâĺŃâĺŃâĺŃâĺŃâĺŃâĺŃâĺŃâĺŃâĺŃâĺŃâĺŃâĺŃâĺŃâĺŃâĺŃâĺŃâĺŃâĺŃâĺŃâĺŃâĺŃâĺŃâĺŃâĺŃâĺŃâĺŃâĺŃâĺŃâĺŃâĺŃâĺŃâĺŃâĺŃâĺŃâĺŃâĺŃâĺŃâĺŃâĺŃâĺŃâĺŃâĺŃâĺŃâĺŃâĺŃâĺŃâĺŃâĺŃâĺŃâĺŃâĺŃâĺŃâĺŃâĺŃâĺŃâĺŃâĺŃâĺŃâĺŃâĺŃâĺŃâĺŃâĺŃâĺŃâĺŃâĺŃâĺŃâĺŃâĺŃâĺŃâĺŃâĺŃâĺŃâĺŃâĺŃâĺŃâĺŃâĺŃâĺŃâĺŃâĺŃâĺŃâĺŃâĺŃâĺŃâĺŃâĺŃâĺŃâĺŃâĺŃâĺŃâĺŃâĺŃâĺŃâĺŃâĺŃâĺŃâĺŃâĺŃâĺŃâĺŃâĺŃâĺŃâĺŃâĺŃâĺŃâĺŃâĺŃâĺŃâĺŃâĺŃâĺŃâĺŃâĺŃâĺŃâĺŃâĺŃâĺŃâĺŃâĺŃâĺŃâĺŃâĺŃâĺŃâĺŃâĺŃâĺŃâĺŃâĺŃâĺŃâĺŃâĺŃâĺŃâĺŃâĺŃâĺŃâĺŃâĺŃâĺŃâĺŃâĺŃâĺŃâĺŃâĺŃâĺŃâĺŃâĺŃâĺŃâĺŃâĺŃâĺŃâĺŃâĺŃâĺŃâĺŃâĺŃâĺŃâĺŃâĺŃâĺŃâĺŃâĺŃâĺŃâĺŃâĺŃâĺŃâĺŃâĺŃâĺŃâĺŃâĺŃâĺŃâĺŃâĺŃâĺŃâĺŃâĺŃâĺŃâĺŃâĺŃâĺŃâĺŃâĺŃâĺŃâĺŃâĺŃâĺŃâĺŃâĺŃâĺŃâĺŃâĺŃâĺŃâĺŃâĺŃâĺŃâĺŃâĺŃâĺŃâĺŃâĺŃâĺŃâĺŃâĺŃâĺŃâĺŃâĺŃâĺŃâĺŃâĺŃâĺŃâĺŃâĺŃâĺŃâĺŃâĺŃâĺŃâĺŃâĺŃâĺŃâĺŃâĺŃâĺŃâĺŃâĺŃâĺŃâĺŃâĺŃâĺŃâĺŃâĺŃâĺŃâĺŃâĺŃâĺŃâĺŃâĺŃâĺŃâĺŃâĺŃâĺŃâĺŃâĺŃâĺŃâĺŃâĺŃâĺŃâĺŃâĺŃâĺŃâĺŃâĺŃâĺŃâĺŃâĺŃâĺŃâĺŃâĺŃâĺŃâĺŃâĺŃâĺŃâĺŃâĺŃâĺŃâĺŃâĺŃâĺŃâĺŃâĺŃâĺŃâĺŃâĺŃâĺŃâĺŃâĺŃâĺŃâĺŃâĺŃâĺŃâĺŃâĺŃâĺŃâĺŃâĺŃâĺŃâĺŃâĺŃâĺŃâĺŃâĺŃâĺŃâĺŃâĺŃâĺŃâĺŃâĺŃâĺŃâĺŃâĺŃâĺŃâĺŃâĺŃâĺŃâĺŃâĺŃâĺŃâĺŃâĺŃâĺŃâĺŃâĺŃâĺŃâĺŃâĺŃâĺŃâĺŃâĺŃâĺŃâĺŃâĺŃâĺŃâĺŃâĺŃâĺŃâĺŃâĺŃâĺŃâĺŃâĺŃâĺŃâĺŃâĺŃâĺŃâĺŃâĺŃâĺŃâĺŃâĺŃâĺŃâĺŃâĺŃâĺŃâĺŃâĺŃâĺŃâĺŃâĺŃâĺŃâĺŃâĺŃâĺŃâĺŃâĺŃâĺŃâĺŃâĺŃâĺŃâĺŃâĺŃâĺŃâĺŃâĺŃâĺŃâĺŃâĺŃâĺŃâĺŃâĺŃâĺŃâĺŃâĺŃâĺŃâĺŃâĺŃâĺŃâĺŃâĺŃâĺŃâĺŃâĺŃâĺŃâĺŃâĺŃâĺŃâĺŃâĺŃâĺŃâĺŃâĺŃâĺŃâĺŃâĺŃâĺŃâĺŃâĺŃâĺŃâĺŃâĺŃâĺŃâĺŃâĺŃâĺŃâĺŃâĺŃâĺŃâĺŃâĺŃâĺŃâĺŃâĺŃâĺŃâĺŃâĺŃâĺŃâĺŃâĺŃâĺŃâĺŃâĺŃâĺŃâĺŃâĺŃâĺŃâĺŃâĺŃâĺŃâĺŃâĺŃâĺŃâĺŃâĺŃâĺŃâĺŃâĺŃâĺŃâĺŃâĺŃâĺŃâĺŃâĺŃâĺŃâĺŃâĺŃâĺŃâĺŃâĺŃâĺŃâĺŃâĺŃâĺŃâĺŃâĺŃâĺŃâĺŃâĺŃâĺŃâĺŃâĺŃâĺŃâĺŃâĺŃâĺŃâĺŃâĺŃâĺŃâĺŃâĺŃâĺŃâĺŃâĺŃâĺŃâĺŃâĺŃâĺŃâĺŃâĺŃâĺŃâĺŃâĺŃâĺŃâĺŃâĺŃâĺŃâĺŃâĺŃâĺŃâĺŃâĺŃâĺŃâĺŃâĺŃâĺŃâĺŃâĺŃâĺŃâĺŃâĺŃâĺŃâĺŃ[": 2728,
      "214": 2729,
      "43": 2730,
      "FE": 2731,
      "Wer": 2732,
      "^)[": 2733,
      "edia": 2734,
      "fh": 2735,
      "mehr": 2736,
      "sind": 2737,
      "Ġas": 2738,
      "Ġgo": 2739,
      "âĸĪâĸĪâĸĳâĸĳâĸĳâĸĳ": 2740,
      "âĸĪâĸĪâķ": 2741,
      "Ġauss": 2742,
      "ĠtatsÃ¤chlich": 2743,
      "rem": 2744,
      "iiiiii": 2745,
      "Ġjem": 2746,
      "Ġrunde": 2747,
      "Ġbeg": 2748,
      "ams": 2749,
      "Ġwarst": 2750,
      "gifs": 2751,
      "Ġschreibe": 2752,
      "idth": 2753,
      "discord": 2754,
      "geln": 2755,
      "ĠJosef": 2756,
      "Ġneues": 2757,
      "Ġsagst": 2758,
      "ÃľÃľÃľÃľ": 2759,
      "Ã¶Ã¶Ã¶Ã¶Ã¶Ã¶Ã¶Ã¶Ã¶Ã¶Ã¶Ã¶Ã¶Ã¶Ã¶Ã¶": 2760,
      "schreib": 2761,
      "CrS": 2762,
      "100": 2763,
      "Aha": 2764,
      "Bei": 2765,
      "ES": 2766,
      "JYhttps": 2767,
      "JCrS": 2768,
      "dar": 2769,
      "gp": 2770,
      "gu": 2771,
      "mimim": 2772,
      "oj": 2773,
      "punkt": 2774,
      "ree": 2775,
      "Â´": 2776,
      "ers": 2777,
      "ene": 2778,
      "Ġmon": 2779,
      "ðŁ§": 2780,
      "ard": 2781,
      "Ġdieser": 2782,
      "Ġpunkt": 2783,
      "eeeee": 2784,
      "duck": 2785,
      "dukt": 2786,
      "âĢ¢[": 2787,
      "ionen": 2788,
      "ĠTim": 2789,
      "ortet": 2790,
      "¦âĢįâĻĤï¸ı[": 2791,
      "Ġmusik": 2792,
      "Ġkrank": 2793,
      "Ġheraus": 2794,
      "ĠSpaÃŁ": 2795,
      "Ġfreund": 2796,
      "âķĲâķĲ": 2797,
      "Ġflie": 2798,
      "eight": 2799,
      "XDXDXDXDXDXDXDXDXDXDXDXDXDXDXDXDXDXDXDXDXDXDXDXDXDXDXDXDXDXDXDXDXDXDXDXDXDXDXDXDXDXDXDXDXDXDXDXDXDXDXDXDXDXDXDXDXDXDXDXDXDXDXDXD": 2800,
      "Ġusw": 2801,
      "Ġfehler": 2802,
      "Ġenglisch": 2803,
      "XkJYhttps": 2804,
      "ETZT": 2805,
      "JCrSXkJYhttps": 2806,
      "56": 2807,
      "DE": 2808,
      "Mein": 2809,
      "Un": 2810,
      "con": 2811,
      "gie": 2812,
      "hÃ¶r": 2813,
      "ile": 2814,
      "mittag": 2815,
      "way": 2816,
      "bild": 2817,
      "enz": 2818,
      "Ġmutter": 2819,
      "Ġkrie": 2820,
      "ars": 2821,
      "schule": 2822,
      "igt": 2823,
      "Ġ14": 2824,
      "Ġbesten": 2825,
      "Ġrel": 2826,
      "Ġdirekt": 2827,
      "lausur": 2828,
      "oto": 2829,
      "].-": 2830,
      "kommt": 2831,
      "Ã¤ndert": 2832,
      "Ġarbeit": 2833,
      "Ġinternet": 2834,
      "Ġscreenshot": 2835,
      "ICHT": 2836,
      "wiki": 2837,
      "Ġupdate": 2838,
      "Ġantwor": 2839,
      "µðŁ¥µðŁ¥": 2840,
      "];)[": 2841,
      "frage": 2842,
      "ms": 2843,
      "minecraft": 2844,
      "ron": 2845,
      "such": 2846,
      "width": 2847,
      "Ì·": 2848,
      "Ì¿": 2849,
      "Ķ[": 2850,
      "ĠsÃ¼": 2851,
      "asd": 2852,
      "Ġnow": 2853,
      "Ġwitz": 2854,
      "âĸĪâĸĳâĸĳâĸĳâĸĳâĸĳ": 2855,
      "schade": 2856,
      "ĠlÃ¼": 2857,
      "Ġbock": 2858,
      "Ġtext": 2859,
      "Ġinst": 2860,
      "Ġgez": 2861,
      "Ġverb": 2862,
      "Ġspr": 2863,
      "Ġausre": 2864,
      "Ġcoo": 2865,
      "ipedia": 2866,
      "130": 2867,
      "Ġschaue": 2868,
      "uper": 2869,
      "ĠmÃ¼de": 2870,
      "Ġbekomme": 2871,
      "eeeeeeeeeeeeeeeeeeeeeeeeeeeeeeee": 2872,
      "Ġthis": 2873,
      "Ġlangweilig": 2874,
      "SSSS": 2875,
      "]âĺ": 2876,
      "âĶ»Ì¿": 2877,
      "Achso": 2878,
      "wÃ¼rdig": 2879,
      "._.": 2880,
      "87": 2881,
      "89": 2882,
      "HI": 2883,
      "XR": 2884,
      "ac": 2885,
      "fre": 2886,
      "itte": 2887,
      "jupp": 2888,
      "que": 2889,
      "ĠáµĶ": 2890,
      "auft": 2891,
      "ies": 2892,
      "ieze": 2893,
      "Ġmo": 2894,
      "ĠmigrÃ¤ne": 2895,
      "Ġwor": 2896,
      "inder": 2897,
      "ature": 2898,
      "Ġschein": 2899,
      "Ġtrain": 2900,
      "Ġpr": 2901,
      "Ġphilipp": 2902,
      "olo": 2903,
      "Ġangeschaut": 2904,
      "âĸĪâĸĪâĸĪâĸĪâĸĪâĸĪ": 2905,
      "Ġernst": 2906,
      "]:'([": 2907,
      "Ġvorbei": 2908,
      "orts": 2909,
      "ĠEr": 2910,
      "Ġsave": 2911,
      "Ġseiten": 2912,
      "Ġgespannt": 2913,
      "rrrrrrrr": 2914,
      "iao": 2915,
      "ĠfÃ¼h": 2916,
      "ĠgrÃ¶": 2917,
      "]-.-[": 2918,
      "âĸĢâĸĢ": 2919,
      "âĸĳâĸĳâĸĳâĸĳâĸĳâĸĳâĸĳâĸĳâĸĳâĸĳâĸĳâĸĳâĸĳâĸĳâĸĳâĸĳâĸĳâĸĳâĸĳâĸĳâĸĳâĸĳâĸĳâĸĳâĸĳâĸĳâĸĳâĸĳâĸĳâĸĳâĸĳâĸĳâĸĳâĸĳâĸĳâĸĳâĸĳâĸĳâĸĳâĸĳâĸĳâĸĳâĸĳâĸĳâĸĳâĸĳâĸĳâĸĳâĸĳâĸĳâĸĳâĸĳâĸĳâĸĳâĸĳâĸĳâĸĳâĸĳâĸĳâĸĳ": 2920,
      "85": 2921,
      "Im": 2922,
      "Nice": 2923,
      "UN": 2924,
      "Yo": 2925,
      "]<": 2926,
      "feh": 2927,
      "fol": 2928,
      "gehen": 2929,
      "hill": 2930,
      "height": 2931,
      "jd": 2932,
      "md": 2933,
      "neee": 2934,
      "ohttps": 2935,
      "rt": 2936,
      "sste": 2937,
      "uk": 2938,
      "ups": 2939,
      "ws": 2940,
      "zwei": 2941,
      "ĠÃ²": 2942,
      "chn": 2943,
      "ins": 2944,
      "Ġkap": 2945,
      "ðŁ¦": 2946,
      "orre": 2947,
      "Ġfaul": 2948,
      "arch": 2949,
      "arte": 2950,
      "Ġtraining": 2951,
      "Ġprin": 2952,
      "ĠðŁİ": 2953,
      "tent": 2954,
      "Ġvert": 2955,
      "amt": 2956,
      "ĠMen": 2957,
      "ĠBild": 2958,
      "!!!!![": 2959,
      "ahrscheinlich": 2960,
      "Ġglaub": 2961,
      "warte": 2962,
      "Ġwebs": 2963,
      "Ġsondern": 2964,
      "sonst": 2965,
      "zwischen": 2966,
      "ï¸»Ì·": 2967,
      "âĶ»Ì¿âķĲâĶģ": 2968,
      "iezekatze": 2969,
      "ï¸»Ì·âĶ»Ì¿âķĲâĶģ": 2970,
      "OR": 2971,
      "Thim": 2972,
      "ace": 2973,
      "bung": 2974,
      "dachte": 2975,
      "hs": 2976,
      "miezekatze": 2977,
      "nte": 2978,
      "po": 2979,
      "utt": 2980,
      "ĥı": 2981,
      "baut": 2982,
      "âĸĳâĸĳâĸĪâĸĪâĸĪ": 2983,
      "Ġwusste": 2984,
      "mmern": 2985,
      "7762": 2986,
      "Ġeinge": 2987,
      "Ġbz": 2988,
      "Ġtra": 2989,
      "Ġoben": 2990,
      "Ġersten": 2991,
      "Ġaufge": 2992,
      "Ġdavor": 2993,
      "ehrer": 2994,
      "Ġ.-.[": 2995,
      "Ġkommst": 2996,
      "Ġwirds": 2997,
      "ĠFre": 2998,
      "Ġkleine": 2999
    },
    "merges": [
      "O M",
      "ĺ Ń",
      "â ĺŃ",
      "âĺŃ âĺŃ",
      ": [",
      "S OM",
      "E OM",
      "âĺŃâĺŃ âĺŃâĺŃ",
      "c h",
      "â ĸ",
      "a u",
      "b i",
      "e r",
      "âĸ ĳ",
      "r n",
      "b au",
      "bi rn",
      "bau m",
      "birn baum",
      "âĸĳ âĸĳ",
      ". :[",
      "âĺŃâĺŃâĺŃâĺŃ âĺŃâĺŃâĺŃâĺŃ",
      "e n",
      "Ġ d",
      "¶ ŀ",
      "à ¶ŀ",
      "à¶ŀ à¶ŀ",
      "i ch",
      "s t",
      "e i",
      "i e",
      "Ġ s",
      "âĸĳâĸĳ âĸĳâĸĳ",
      "âĺŃâĺŃâĺŃâĺŃâĺŃâĺŃâĺŃâĺŃ âĺŃâĺŃâĺŃâĺŃâĺŃâĺŃâĺŃâĺŃ",
      "Ġ \\",
      "i i",
      "a s",
      "Ġ m",
      "Ġ n",
      "a n",
      "o o",
      "a a",
      "Ġ w",
      "f f",
      "à¶ŀà¶ŀ à¶ŀà¶ŀ",
      "Ġ g",
      "t er",
      "Ġ i",
      "âĸ Ī",
      "ei n",
      "Ġ h",
      "? [",
      ". .",
      "e x",
      "b er",
      "m m",
      "u n",
      "ter ex",
      "terex ii",
      "e s",
      "č Ċ",
      "âĺŃâĺŃâĺŃâĺŃâĺŃâĺŃâĺŃâĺŃâĺŃâĺŃâĺŃâĺŃâĺŃâĺŃâĺŃâĺŃ âĺŃâĺŃâĺŃâĺŃâĺŃâĺŃâĺŃâĺŃâĺŃâĺŃâĺŃâĺŃâĺŃâĺŃâĺŃâĺŃ",
      "t t",
      "a l",
      "âĸĪ âĸĪ",
      "Ġ Ġ",
      "i n",
      "Ġ ich",
      "s e",
      "Ġd u",
      "U U",
      "ich t",
      "Ġd as",
      "Ġ k",
      "u t",
      "âĸĳâĸĳâĸĳâĸĳ âĸĳâĸĳâĸĳâĸĳ",
      "a t",
      "o n",
      "ð Ł",
      "Ġ au",
      "b e",
      "? ?",
      "aa aa",
      "x D",
      "a ch",
      "à¶ŀà¶ŀà¶ŀà¶ŀ à¶ŀà¶ŀà¶ŀà¶ŀ",
      "r u",
      "oo oo",
      "Ã ¼",
      "l l",
      "j a",
      "7 7",
      "ff ff",
      "Ġs ch",
      "o r",
      "Ġi st",
      "Ġn icht",
      "Ġ f",
      "i r",
      "a r",
      "un d",
      "Ġ v",
      "e h",
      "an n",
      "Ã ¤",
      "a b",
      "p s",
      "o ch",
      "e e",
      ": /",
      "ie se",
      "d er",
      ":/ /",
      "tt ps",
      "s ch",
      "Ġ l",
      "Ã ¶",
      "g ru",
      "ber iese",
      "gru beriese",
      "Ġ bi",
      "h ttps",
      "d e",
      "âĺŃâĺŃâĺŃâĺŃâĺŃâĺŃâĺŃâĺŃâĺŃâĺŃâĺŃâĺŃâĺŃâĺŃâĺŃâĺŃâĺŃâĺŃâĺŃâĺŃâĺŃâĺŃâĺŃâĺŃâĺŃâĺŃâĺŃâĺŃâĺŃâĺŃâĺŃâĺŃ âĺŃâĺŃâĺŃâĺŃâĺŃâĺŃâĺŃâĺŃâĺŃâĺŃâĺŃâĺŃâĺŃâĺŃâĺŃâĺŃâĺŃâĺŃâĺŃâĺŃâĺŃâĺŃâĺŃâĺŃâĺŃâĺŃâĺŃâĺŃâĺŃâĺŃâĺŃâĺŃ",
      "o m",
      "w w",
      "Ġd ie",
      "Ġ z",
      "u u",
      "Ġ ein",
      "u r",
      "g en",
      "l e",
      "Ġ b",
      "i t",
      "Ġs o",
      "e t",
      "Ġ t",
      "UU UU",
      "y o",
      "r e",
      "c k",
      "g e",
      "! !",
      "c om",
      "ii ii",
      "Ġ a",
      "Ġ xD",
      "Ġ p",
      "e m",
      "ut u",
      "yo utu",
      "s s",
      "à¶ŀà¶ŀà¶ŀà¶ŀà¶ŀà¶ŀà¶ŀà¶ŀ à¶ŀà¶ŀà¶ŀà¶ŀà¶ŀà¶ŀà¶ŀà¶ŀ",
      "Ġau ch",
      "ĠĠ ĠĠ",
      "Ġ o",
      "s o",
      "?? ??",
      "t e",
      "aaaa aaaa",
      "! [",
      "ffff ffff",
      "Ġ j",
      "a h",
      "oooo oooo",
      "77 77",
      "i g",
      "e l",
      "o l",
      "Ġi n",
      "Ã Ł",
      "Ġ an",
      "â Ī",
      "h h",
      "âĪ ŀ",
      "âĪŀ âĪŀ",
      "- -",
      "X D",
      "Ġd er",
      "r a",
      "Ġ und",
      "l ich",
      "Ġn och",
      "Ġ .",
      "Ġ A",
      "d as",
      "Ġz u",
      "âĸĪâĸĪ âĸĪâĸĪ",
      "i er",
      "Ġ er",
      "en n",
      "Ġbi n",
      "Ġ ðŁ",
      ".. ..",
      ". [",
      "âĸĳâĸĳâĸĳâĸĳâĸĳâĸĳâĸĳâĸĳ âĸĳâĸĳâĸĳâĸĳâĸĳâĸĳâĸĳâĸĳ",
      "Ġh ab",
      "r o",
      "âĺŃâĺŃâĺŃâĺŃâĺŃâĺŃâĺŃâĺŃâĺŃâĺŃâĺŃâĺŃâĺŃâĺŃâĺŃâĺŃâĺŃâĺŃâĺŃâĺŃâĺŃâĺŃâĺŃâĺŃâĺŃâĺŃâĺŃâĺŃâĺŃâĺŃâĺŃâĺŃâĺŃâĺŃâĺŃâĺŃâĺŃâĺŃâĺŃâĺŃâĺŃâĺŃâĺŃâĺŃâĺŃâĺŃâĺŃâĺŃâĺŃâĺŃâĺŃâĺŃâĺŃâĺŃâĺŃâĺŃâĺŃâĺŃâĺŃâĺŃâĺŃâĺŃâĺŃâĺŃ âĺŃâĺŃâĺŃâĺŃâĺŃâĺŃâĺŃâĺŃâĺŃâĺŃâĺŃâĺŃâĺŃâĺŃâĺŃâĺŃâĺŃâĺŃâĺŃâĺŃâĺŃâĺŃâĺŃâĺŃâĺŃâĺŃâĺŃâĺŃâĺŃâĺŃâĺŃâĺŃâĺŃâĺŃâĺŃâĺŃâĺŃâĺŃâĺŃâĺŃâĺŃâĺŃâĺŃâĺŃâĺŃâĺŃâĺŃâĺŃâĺŃâĺŃâĺŃâĺŃâĺŃâĺŃâĺŃâĺŃâĺŃâĺŃâĺŃâĺŃâĺŃâĺŃâĺŃâĺŃ",
      "Ġau f",
      "t en",
      "XD XD",
      "Ġ ja",
      "ww w",
      "Ġ es",
      "Ġh a",
      "Ġg e",
      "o k",
      "Ġw ir",
      "n e",
      "M O",
      "Ġ al",
      "U S",
      "Ġw ie",
      "Ã¼ r",
      "i m",
      "tt e",
      "Ġd a",
      "MO G",
      "MOG US",
      "D D",
      "uu uu",
      "_ _",
      "Ġsch on",
      "youtu be",
      "Ġ -",
      "a g",
      "Ġdu mm",
      "Ġd ann",
      "UUUU UUUU",
      "ein e",
      "Ġ st",
      "at ch",
      "z t",
      "d en",
      "w atch",
      "Ġ S",
      "Ġa ber",
      "Ġm it",
      "Ġd en",
      "y y",
      "Â °",
      "ee ee",
      "Ġ r",
      "Ġn e",
      "b en",
      "] ðŁ",
      "o mm",
      "p p",
      "d u",
      "Ġ 1",
      "Ġh at",
      "Ġ :",
      "Ġm an",
      "Ġg es",
      ") [",
      "Ġv er",
      "Ġk ann",
      "Ġm ir",
      "u s",
      "mm mm",
      "ei l",
      "i s",
      "i ll",
      "ach t",
      "eh r",
      "Ġw as",
      "ie l",
      "ĠA MOGUS",
      "a ber",
      "ut e",
      "ei t",
      "l a",
      "â Ģ",
      "Ġ be",
      "un g",
      "iiii iiii",
      "Ġn ur",
      "ch t",
      "Ġs p",
      "7777 7777",
      "k t",
      "a m",
      "???? ????",
      "w as",
      "et zt",
      "ffffffff ffffffff",
      "Ġ ..",
      "k e",
      "A A",
      "Ġg eh",
      "Ġau s",
      "âĪŀâĪŀ âĪŀâĪŀ",
      "Ġ c",
      "Ġw ar",
      "u m",
      "Ġm al",
      "in d",
      "in g",
      "o h",
      "Ġd och",
      "w ie",
      "st e",
      "Ġ M",
      "oooooooo oooooooo",
      "Ġdas s",
      "h e",
      "Ġ e",
      "g i",
      "aaaaaaaa aaaaaaaa",
      "en t",
      "ĠðŁ ¦",
      "Ġ un",
      "as s",
      "h i",
      "ei ÃŁ",
      "Ġm ein",
      "« ĥ",
      "à¶ŀà¶ŀà¶ŀà¶ŀà¶ŀà¶ŀà¶ŀà¶ŀà¶ŀà¶ŀà¶ŀà¶ŀà¶ŀà¶ŀà¶ŀà¶ŀ à¶ŀà¶ŀà¶ŀà¶ŀà¶ŀà¶ŀà¶ŀà¶ŀà¶ŀà¶ŀà¶ŀà¶ŀà¶ŀà¶ŀà¶ŀà¶ŀ",
      "ðŁ «ĥ",
      "h r",
      "ðŁ«ĥ ðŁ«ĥ",
      "r ei",
      "Ġm ach",
      "ĠĠĠĠ ĠĠĠĠ",
      "Ġ re",
      "i on",
      "i mm",
      "f t",
      "bi tte",
      "âĸ Ĵ",
      "b t",
      "hh hh",
      "Ġg er",
      "* *",
      "I ch",
      "] :",
      "XDXD XDXD",
      ".. .[",
      "i ck",
      "Ġ. -",
      "Ġo der",
      "l ol",
      "âĸĳâĸĳ âĸĳ",
      "n n",
      "c c",
      "Ġd ir",
      "â Ķ",
      "n d",
      "Ġ 2",
      "Ġf Ã¼r",
      "âĺŃâĺŃâĺŃâĺŃâĺŃâĺŃâĺŃâĺŃâĺŃâĺŃâĺŃâĺŃâĺŃâĺŃâĺŃâĺŃâĺŃâĺŃâĺŃâĺŃâĺŃâĺŃâĺŃâĺŃâĺŃâĺŃâĺŃâĺŃâĺŃâĺŃâĺŃâĺŃâĺŃâĺŃâĺŃâĺŃâĺŃâĺŃâĺŃâĺŃâĺŃâĺŃâĺŃâĺŃâĺŃâĺŃâĺŃâĺŃâĺŃâĺŃâĺŃâĺŃâĺŃâĺŃâĺŃâĺŃâĺŃâĺŃâĺŃâĺŃâĺŃâĺŃâĺŃâĺŃâĺŃâĺŃâĺŃâĺŃâĺŃâĺŃâĺŃâĺŃâĺŃâĺŃâĺŃâĺŃâĺŃâĺŃâĺŃâĺŃâĺŃâĺŃâĺŃâĺŃâĺŃâĺŃâĺŃâĺŃâĺŃâĺŃâĺŃâĺŃâĺŃâĺŃâĺŃâĺŃâĺŃâĺŃâĺŃâĺŃâĺŃâĺŃâĺŃâĺŃâĺŃâĺŃâĺŃâĺŃâĺŃâĺŃâĺŃâĺŃâĺŃâĺŃâĺŃâĺŃâĺŃâĺŃâĺŃâĺŃâĺŃâĺŃâĺŃâĺŃâĺŃâĺŃâĺŃâĺŃ âĺŃâĺŃâĺŃâĺŃâĺŃâĺŃâĺŃâĺŃâĺŃâĺŃâĺŃâĺŃâĺŃâĺŃâĺŃâĺŃâĺŃâĺŃâĺŃâĺŃâĺŃâĺŃâĺŃâĺŃâĺŃâĺŃâĺŃâĺŃâĺŃâĺŃâĺŃâĺŃâĺŃâĺŃâĺŃâĺŃâĺŃâĺŃâĺŃâĺŃâĺŃâĺŃâĺŃâĺŃâĺŃâĺŃâĺŃâĺŃâĺŃâĺŃâĺŃâĺŃâĺŃâĺŃâĺŃâĺŃâĺŃâĺŃâĺŃâĺŃâĺŃâĺŃâĺŃâĺŃâĺŃâĺŃâĺŃâĺŃâĺŃâĺŃâĺŃâĺŃâĺŃâĺŃâĺŃâĺŃâĺŃâĺŃâĺŃâĺŃâĺŃâĺŃâĺŃâĺŃâĺŃâĺŃâĺŃâĺŃâĺŃâĺŃâĺŃâĺŃâĺŃâĺŃâĺŃâĺŃâĺŃâĺŃâĺŃâĺŃâĺŃâĺŃâĺŃâĺŃâĺŃâĺŃâĺŃâĺŃâĺŃâĺŃâĺŃâĺŃâĺŃâĺŃâĺŃâĺŃâĺŃâĺŃâĺŃâĺŃâĺŃâĺŃâĺŃâĺŃâĺŃâĺŃâĺŃâĺŃ",
      "Ã¶ Ã¶",
      "l au",
      "a de",
      "es s",
      "Ġj etzt",
      "i c",
      "bitte bitte",
      "al l",
      "Ġha st",
      "u ss",
      "Ġ ei",
      "d a",
      "ru m",
      "o p",
      "Ġ čĊ",
      "an d",
      "a st",
      "o ll",
      "Ġ Í",
      "Ġw enn",
      "er n",
      "0 0",
      "D as",
      "i sch",
      "m al",
      "Ġb ei",
      "Ġ G",
      "i l",
      "J a",
      "k k",
      "Ġv on",
      "o t",
      "Ġs ind",
      "Ġm ich",
      "an z",
      "Ġ ab",
      "i st",
      "Ġs ie",
      ".... ....",
      "DD DD",
      "UUUUUUUU UUUUUUUU",
      "z Z",
      "f ach",
      "Ġwie der",
      "Ġm ehr",
      "Ã¼ ber",
      "ier t",
      "Ġ T",
      "Ġs ich",
      "ðŁ ¤",
      "] .",
      "uuuu uuuu",
      "r au",
      "zZ zZ",
      "ah ah",
      "Ġ B",
      "s p",
      "v er",
      "i k",
      "gi f",
      "âĸĴ âĸĴ",
      "!! !!",
      "Ã¼ Ã¼",
      "Ġv or",
      "ll t",
      "Ġd em",
      "Ġg ut",
      "yy yy",
      "U nd",
      "an ke",
      "Ġger ade",
      "] #",
      "h ab",
      "Ġein fach",
      "Ġ D",
      "Ġj z",
      "o se",
      "Ġbi st",
      "mm er",
      "ĠðŁ¦ ¦",
      "d ie",
      "l o",
      "a rum",
      "e ute",
      "Ġ- .",
      "__ __",
      "Ġges ch",
      "er t",
      "âĸĪâĸĪâĸĪâĸĪ âĸĪâĸĪâĸĪâĸĪ",
      "Ġha be",
      "Ġi m",
      "Ġg anz",
      "Ġ --",
      "Ġ N",
      "e g",
      "f en",
      "Ġd ich",
      "Ġ 3",
      "Ġ ch",
      "77777777 77777777",
      "v ie",
      "ten or",
      "o w",
      "or gen",
      "Ġk omm",
      "âĢ į",
      "Ġ Ã¼ber",
      "Ġn ach",
      "z e",
      "h t",
      "en d",
      "Ġwir d",
      "âĪŀâĪŀâĪŀâĪŀ âĪŀâĪŀâĪŀâĪŀ",
      "k omm",
      "p la",
      "h n",
      "Ġ P",
      "Ġal l",
      "d i",
      "Ļ Ĥ",
      "???????? ????????",
      "Ġm uss",
      "ffffffffffffffff ffffffffffffffff",
      "ah r",
      "ĠÍ ¡",
      "_ .[",
      "vie w",
      "âĸĪâĸĪ âĸĪ",
      "1 1",
      "oo l",
      "eh en",
      "Ġ F",
      "Ġ K",
      "Ġso ll",
      "âĶ Ģ",
      "d f",
      "Ġ H",
      "al so",
      "Ġgeh t",
      "o s",
      "Ġ u",
      "Ġmach en",
      "ic e",
      "eeee eeee",
      "i x",
      "Ġhab en",
      "ï ¸",
      "Ġp ro",
      "E E",
      "Ġa m",
      "C H",
      "u st",
      "Ġv iel",
      "al t",
      "Ġg i",
      "mmmm mmmm",
      "Ġi mmer",
      "Ã¶ r",
      "d anke",
      "n ein",
      "Ġ W",
      "hi hi",
      "ose f",
      "iiiiiiii iiiiiiii",
      "A ber",
      "g t",
      "pla y",
      "in e",
      "] -",
      "ier en",
      "Ġg em",
      "or t",
      "f e",
      "a d",
      "â ķ",
      "Ġal s",
      "h im",
      "1 5",
      "Ġw ill",
      "ðŁ«ĥðŁ«ĥ ðŁ«ĥðŁ«ĥ",
      "n et",
      "âĢį â",
      "au s",
      "Ġh eute",
      "d d",
      "t w",
      "u l",
      "le ich",
      "Ġs ein",
      "Ġg lau",
      "w ei",
      "- [",
      "Ġ um",
      "Ã¶ nn",
      "Ġw er",
      "m e",
      "w e",
      "2 0",
      "âĸĳâĸĳâĸĳâĸĳâĸĳâĸĳâĸĳâĸĳ âĸĳâĸĳâĸĳâĸĳ",
      "XDXDXDXD XDXDXDXD",
      "imm t",
      "oooooooooooooooo oooooooooooooooo",
      "( [",
      "z u",
      "Ġan der",
      "o der",
      "Ġk l",
      "âĶĢ âĶĢ",
      "Ġgi bt",
      "Ġ 5",
      "] ?[",
      "Ġk eine",
      "k l",
      "r ie",
      "Ã¤ Ã¤",
      "ag t",
      "âĢįâ ĻĤ",
      "3 7",
      "? ![",
      "l i",
      "O O",
      "d ann",
      "AA AA",
      "Ġw eiÃŁ",
      "Ã¤ n",
      "A MOGUS",
      "Ġsch rei",
      "!! ![",
      "w eil",
      "h a",
      "Ġge f",
      "ch e",
      "Ġ 4",
      "Ġm orgen",
      "Ġ: )[",
      "r Ã¼",
      "ĠAMOGUS AMOGUS",
      "bi n",
      "Ġk ein",
      "ĠÍ¡ Â°",
      "1 4",
      "u e",
      "bittebitte bittebitte",
      "g es",
      "Ġ \"",
      "ï¸ ı",
      "Ġn en",
      "st en",
      "Ġk Ã¶nn",
      "aaaaaaaaaaaaaaaa aaaaaaaaaaaaaaaa",
      "3 3",
      "Ġ ar",
      "¦ âĢįâĻĤ",
      "un kt",
      "? !",
      "Ġ E",
      "ch en",
      "s er",
      "und en",
      "sch en",
      "eh t",
      "9 9",
      "i v",
      "Ġei g",
      "l t",
      "Ġ L",
      "1 6",
      "ĠðŁ ĺ",
      "h er",
      "c or",
      "1 0",
      "i d",
      "him o",
      "w arum",
      "= =",
      "Ġd ein",
      "h ast",
      "i p",
      "Â ¶",
      "h mm",
      "in de",
      "Ġ.. .",
      "âĺŃâĺŃâĺŃâĺŃâĺŃâĺŃâĺŃâĺŃâĺŃâĺŃâĺŃâĺŃâĺŃâĺŃâĺŃâĺŃâĺŃâĺŃâĺŃâĺŃâĺŃâĺŃâĺŃâĺŃâĺŃâĺŃâĺŃâĺŃâĺŃâĺŃâĺŃâĺŃâĺŃâĺŃâĺŃâĺŃâĺŃâĺŃâĺŃâĺŃâĺŃâĺŃâĺŃâĺŃâĺŃâĺŃâĺŃâĺŃâĺŃâĺŃâĺŃâĺŃâĺŃâĺŃâĺŃâĺŃâĺŃâĺŃâĺŃâĺŃâĺŃâĺŃâĺŃâĺŃâĺŃâĺŃâĺŃâĺŃâĺŃâĺŃâĺŃâĺŃâĺŃâĺŃâĺŃâĺŃâĺŃâĺŃâĺŃâĺŃâĺŃâĺŃâĺŃâĺŃâĺŃâĺŃâĺŃâĺŃâĺŃâĺŃâĺŃâĺŃâĺŃâĺŃâĺŃâĺŃâĺŃâĺŃâĺŃâĺŃâĺŃâĺŃâĺŃâĺŃâĺŃâĺŃâĺŃâĺŃâĺŃâĺŃâĺŃâĺŃâĺŃâĺŃâĺŃâĺŃâĺŃâĺŃâĺŃâĺŃâĺŃâĺŃâĺŃâĺŃâĺŃâĺŃâĺŃâĺŃâĺŃâĺŃâĺŃâĺŃâĺŃâĺŃâĺŃâĺŃâĺŃâĺŃâĺŃâĺŃâĺŃâĺŃâĺŃâĺŃâĺŃâĺŃâĺŃâĺŃâĺŃâĺŃâĺŃâĺŃâĺŃâĺŃâĺŃâĺŃâĺŃâĺŃâĺŃâĺŃâĺŃâĺŃâĺŃâĺŃâĺŃâĺŃâĺŃâĺŃâĺŃâĺŃâĺŃâĺŃâĺŃâĺŃâĺŃâĺŃâĺŃâĺŃâĺŃâĺŃâĺŃâĺŃâĺŃâĺŃâĺŃâĺŃâĺŃâĺŃâĺŃâĺŃâĺŃâĺŃâĺŃâĺŃâĺŃâĺŃâĺŃâĺŃâĺŃâĺŃâĺŃâĺŃâĺŃâĺŃâĺŃâĺŃâĺŃâĺŃâĺŃâĺŃâĺŃâĺŃâĺŃâĺŃâĺŃâĺŃâĺŃâĺŃâĺŃâĺŃâĺŃâĺŃâĺŃâĺŃâĺŃâĺŃâĺŃâĺŃâĺŃâĺŃâĺŃâĺŃâĺŃâĺŃâĺŃâĺŃâĺŃâĺŃâĺŃâĺŃâĺŃâĺŃâĺŃâĺŃâĺŃâĺŃâĺŃâĺŃâĺŃâĺŃâĺŃâĺŃâĺŃâĺŃâĺŃâĺŃ âĺŃâĺŃâĺŃâĺŃâĺŃâĺŃâĺŃâĺŃâĺŃâĺŃâĺŃâĺŃâĺŃâĺŃâĺŃâĺŃâĺŃâĺŃâĺŃâĺŃâĺŃâĺŃâĺŃâĺŃâĺŃâĺŃâĺŃâĺŃâĺŃâĺŃâĺŃâĺŃâĺŃâĺŃâĺŃâĺŃâĺŃâĺŃâĺŃâĺŃâĺŃâĺŃâĺŃâĺŃâĺŃâĺŃâĺŃâĺŃâĺŃâĺŃâĺŃâĺŃâĺŃâĺŃâĺŃâĺŃâĺŃâĺŃâĺŃâĺŃâĺŃâĺŃâĺŃâĺŃâĺŃâĺŃâĺŃâĺŃâĺŃâĺŃâĺŃâĺŃâĺŃâĺŃâĺŃâĺŃâĺŃâĺŃâĺŃâĺŃâĺŃâĺŃâĺŃâĺŃâĺŃâĺŃâĺŃâĺŃâĺŃâĺŃâĺŃâĺŃâĺŃâĺŃâĺŃâĺŃâĺŃâĺŃâĺŃâĺŃâĺŃâĺŃâĺŃâĺŃâĺŃâĺŃâĺŃâĺŃâĺŃâĺŃâĺŃâĺŃâĺŃâĺŃâĺŃâĺŃâĺŃâĺŃâĺŃâĺŃâĺŃâĺŃâĺŃâĺŃâĺŃâĺŃâĺŃâĺŃâĺŃâĺŃâĺŃâĺŃâĺŃâĺŃâĺŃâĺŃâĺŃâĺŃâĺŃâĺŃâĺŃâĺŃâĺŃâĺŃâĺŃâĺŃâĺŃâĺŃâĺŃâĺŃâĺŃâĺŃâĺŃâĺŃâĺŃâĺŃâĺŃâĺŃâĺŃâĺŃâĺŃâĺŃâĺŃâĺŃâĺŃâĺŃâĺŃâĺŃâĺŃâĺŃâĺŃâĺŃâĺŃâĺŃâĺŃâĺŃâĺŃâĺŃâĺŃâĺŃâĺŃâĺŃâĺŃâĺŃâĺŃâĺŃâĺŃâĺŃâĺŃâĺŃâĺŃâĺŃâĺŃâĺŃâĺŃâĺŃâĺŃâĺŃâĺŃâĺŃâĺŃâĺŃâĺŃâĺŃâĺŃâĺŃâĺŃâĺŃâĺŃâĺŃâĺŃâĺŃâĺŃâĺŃâĺŃâĺŃâĺŃâĺŃâĺŃâĺŃâĺŃâĺŃâĺŃâĺŃâĺŃâĺŃâĺŃâĺŃâĺŃâĺŃâĺŃâĺŃâĺŃâĺŃâĺŃâĺŃâĺŃâĺŃâĺŃâĺŃâĺŃâĺŃâĺŃâĺŃâĺŃâĺŃâĺŃâĺŃâĺŃâĺŃâĺŃâĺŃâĺŃâĺŃâĺŃâĺŃ",
      "cc cc",
      "Ġ 8",
      "i de",
      "a p",
      "is cor",
      "ss en",
      "hhhh hhhh",
      "ĠðŁ¦ Ĩ",
      "Ġg leich",
      "icht ig",
      "Ġein e",
      "ess er",
      "] *",
      "r y",
      "âĸĳâĸĳâĸĳâĸĳâĸĳâĸĳâĸĳâĸĳâĸĳâĸĳâĸĳâĸĳâĸĳâĸĳâĸĳâĸĳ âĸĳâĸĳâĸĳâĸĳâĸĳâĸĳâĸĳâĸĳâĸĳâĸĳâĸĳâĸĳâĸĳâĸĳâĸĳâĸĳ",
      "Ġg en",
      "Ġo k",
      "t lich",
      "gen d",
      "Ġall es",
      "1 9",
      "r r",
      "UUUUUUUUUUUUUUUU UUUUUUUUUUUUUUUU",
      "Ġh alt",
      "Ġm us",
      "]. _.[",
      "Ġw Ã¤",
      "Ġei gen",
      "^ Â°",
      "s h",
      "Ã¶Ã¶ Ã¶Ã¶",
      "Ġglau be",
      "W ie",
      "ĠĠĠĠĠĠĠĠ ĠĠĠĠĠĠĠĠ",
      "Ġ Â°",
      "w ar",
      "an g",
      "Ġc ool",
      "-- --",
      "2 5",
      "Ġ (",
      "zZzZ zZzZ",
      "ðŁ¤ ¦âĢįâĻĤ",
      "danke danke",
      "t f",
      "Ġsp iel",
      "kk kk",
      "Ġbi s",
      "........ ........",
      "Ġm in",
      "Ġg ar",
      "Ġgem acht",
      "b ei",
      "Ġ 0",
      "ach so",
      "Ġ R",
      "P A",
      "z en",
      "Ġl ie",
      "Ġer st",
      "1 3",
      "Ġm eine",
      "ĠÂ° ^Â°",
      "T T",
      "W as",
      "Ġs a",
      "ut en",
      "n en",
      "Ġw eil",
      "u g",
      "I I",
      "Ġal le",
      "w er",
      "Ġ I",
      "à¶ŀà¶ŀà¶ŀà¶ŀà¶ŀà¶ŀà¶ŀà¶ŀ à¶ŀ",
      "à¶ŀà¶ŀà¶ŀà¶ŀà¶ŀà¶ŀà¶ŀà¶ŀà¶ŀà¶ŀà¶ŀà¶ŀà¶ŀà¶ŀà¶ŀà¶ŀà¶ŀà¶ŀà¶ŀà¶ŀà¶ŀà¶ŀà¶ŀà¶ŀà¶ŀà¶ŀà¶ŀà¶ŀà¶ŀà¶ŀà¶ŀà¶ŀ à¶ŀà¶ŀà¶ŀà¶ŀà¶ŀà¶ŀà¶ŀà¶ŀà¶ŀà¶ŀà¶ŀà¶ŀà¶ŀà¶ŀà¶ŀà¶ŀà¶ŀà¶ŀà¶ŀà¶ŀà¶ŀà¶ŀà¶ŀà¶ŀà¶ŀà¶ŀà¶ŀà¶ŀà¶ŀà¶ŀà¶ŀà¶ŀ",
      "à¶ŀà¶ŀà¶ŀà¶ŀà¶ŀà¶ŀà¶ŀà¶ŀà¶ŀà¶ŀà¶ŀà¶ŀà¶ŀà¶ŀà¶ŀà¶ŀà¶ŀà¶ŀà¶ŀà¶ŀà¶ŀà¶ŀà¶ŀà¶ŀà¶ŀà¶ŀà¶ŀà¶ŀà¶ŀà¶ŀà¶ŀà¶ŀà¶ŀà¶ŀà¶ŀà¶ŀà¶ŀà¶ŀà¶ŀà¶ŀà¶ŀà¶ŀà¶ŀà¶ŀà¶ŀà¶ŀà¶ŀà¶ŀà¶ŀà¶ŀà¶ŀà¶ŀà¶ŀà¶ŀà¶ŀà¶ŀà¶ŀà¶ŀà¶ŀà¶ŀà¶ŀà¶ŀà¶ŀà¶ŀ à¶ŀà¶ŀà¶ŀà¶ŀà¶ŀà¶ŀà¶ŀà¶ŀà¶ŀ",
      "l d",
      "Ġ 6",
      "âĸĪâĸĪ âĸĳâĸĳâĸĳâĸĳâĸĳâĸĳâĸĳâĸĳâĸĳâĸĳâĸĳâĸĳâĸĳâĸĳâĸĳâĸĳ",
      "âĸĳâĸĳâĸĳâĸĳ âĸĳ",
      "DDDD DDDD",
      "Ġch ill",
      "h m",
      "u ch",
      "g v",
      "w ir",
      "Ġ 9",
      "Ġk r",
      "ur en",
      "Ġe cht",
      "Ġd enn",
      "b st",
      "Ġ à¶ŀà¶ŀà¶ŀà¶ŀà¶ŀà¶ŀà¶ŀà¶ŀà¶ŀà¶ŀà¶ŀà¶ŀà¶ŀà¶ŀà¶ŀà¶ŀà¶ŀà¶ŀà¶ŀà¶ŀà¶ŀà¶ŀà¶ŀà¶ŀà¶ŀà¶ŀà¶ŀà¶ŀà¶ŀà¶ŀà¶ŀà¶ŀà¶ŀà¶ŀà¶ŀà¶ŀà¶ŀà¶ŀà¶ŀà¶ŀà¶ŀà¶ŀà¶ŀà¶ŀà¶ŀà¶ŀà¶ŀà¶ŀà¶ŀà¶ŀà¶ŀà¶ŀà¶ŀà¶ŀà¶ŀà¶ŀà¶ŀà¶ŀà¶ŀà¶ŀà¶ŀà¶ŀà¶ŀà¶ŀà¶ŀà¶ŀà¶ŀà¶ŀà¶ŀà¶ŀà¶ŀà¶ŀà¶ŀ",
      "Ġs el",
      "Ġb esser",
      "s en",
      "g ra",
      "m k",
      "at ion",
      "Ġ V",
      "Ġl ust",
      "Ġeigen tlich",
      "D u",
      "h at",
      "Ġs ehr",
      "]: )[",
      "w o",
      "ff le",
      "Ġsch au",
      "]ðŁ ĺ",
      "d och",
      "Ġ Z",
      "E R",
      "ab l",
      "Ġz eit",
      "- .",
      "âĸĳâĸĳâĸĳâĸĳ âĸĳâĸĳ",
      "a tt",
      "a ck",
      "Ġ on",
      "xD xD",
      "Ġf ra",
      "Ã¶ n",
      "de m",
      "]ðŁ ¥",
      "6 6",
      "an k",
      "Ġbi ffle",
      "_ -[",
      "Ġ 7",
      "m c",
      "Ġi r",
      "Ġun s",
      "1 2",
      "U PA",
      "df mk",
      "gv UPA",
      "gvUPA s",
      "l er",
      "d iscor",
      "Ġd ar",
      "Ġein en",
      "H A",
      "m it",
      "l s",
      "Â¶ Â¶",
      "abl abl",
      "?? ?[",
      "yyyy yyyy",
      "h y",
      "n Ã¶",
      "ie le",
      "Ġsch ick",
      "Ġzu m",
      "7777777777777777 7777777777777777",
      "O k",
      "9 0",
      "r i",
      "Ġm a",
      "Ã¼Ã¼ Ã¼Ã¼",
      "rie ben",
      "st er",
      "Ġh Ã¤",
      "ĠĠ Ġ",
      "ÃŁ ÃŁ",
      "8 0",
      "c e",
      "âĪŀâĪŀâĪŀâĪŀâĪŀâĪŀâĪŀâĪŀ âĪŀâĪŀâĪŀâĪŀâĪŀâĪŀâĪŀâĪŀ",
      "g g",
      "r in",
      "ss ss",
      "uuuuuuuu uuuuuuuu",
      "ar t",
      "Ġo b",
      "Ġun ter",
      "¦ [",
      "Ġm acht",
      "ðŁ¤ ®",
      "unkt ion",
      "n a",
      "u p",
      "Ġw ei",
      "wie so",
      "Ġj e",
      "c Q",
      "m lich",
      "Ġn ix",
      "eh e",
      "k ann",
      "ahah ahah",
      "2 2",
      "Ġg el",
      "Ġk om",
      "Q w",
      "Ġw e",
      "g X",
      "g er",
      "Ġm Ã¼",
      "Ġn h",
      "ge l",
      "Ġgeh en",
      "???????????????? ????????????????",
      "Ê ĸ",
      "und e",
      "ĠwÃ¤ re",
      "n icht",
      "Ġw Ã¼r",
      "ĠÍ ľ",
      "k a",
      "ĠS t",
      "gra mm",
      "te st",
      "u ck",
      "ent s",
      "m ach",
      "Ġr ichtig",
      "Ġdu r",
      "ll e",
      "W gX",
      "t z",
      "au f",
      "an ge",
      "Ã¼ ck",
      "WgX cQ",
      "] (",
      "Ã ľ",
      "Ġ U",
      "Ġ ....",
      "âĸĪ âĸĳâĸĳâĸĳâĸĳâĸĳâĸĳâĸĳâĸĳâĸĳâĸĳâĸĳâĸĳâĸĳâĸĳâĸĳâĸĳ",
      "Ġl ol",
      "Ġt he",
      "4 0",
      "H ab",
      "d Qw",
      "w enn",
      "w tf",
      "Ġ =",
      "Ġv llt",
      "ann el",
      "Ġl e",
      "ffffffffffffffffffffffffffffffff ffffffffffffffffffffffffffffffff",
      "h Ã¤",
      "u ff",
      "Ġh in",
      "** *",
      "gvUPAs https",
      "Ġj osef",
      "ra ft",
      "ĠN acht",
      "t h",
      "Ġkann st",
      "eiÃŁ t",
      "D ie",
      "Ġ eh",
      "ch annel",
      "Ġn Ã¤",
      "j e",
      "Ġ en",
      "aa a",
      "ex t",
      "ĠS ch",
      "? ?[",
      "i tt",
      "un gen",
      "ach m",
      "sch ein",
      "Ġ- ..",
      "ll en",
      "Ġges agt",
      "4 5",
      "Ã¤ r",
      "v e",
      "____ ____",
      "9 6",
      "F F",
      "Ġs on",
      "Ġi hn",
      "at he",
      "da pp",
      "discor dapp",
      "ðŁ«ĥðŁ«ĥðŁ«ĥðŁ«ĥ ðŁ«ĥðŁ«ĥðŁ«ĥðŁ«ĥ",
      "3 0",
      "d n",
      "tt tt",
      "Ã¤ t",
      "ide o",
      "Ġir gend",
      "Ġdur ch",
      "1 7",
      "S ch",
      "sch au",
      "ges ch",
      "ĠkÃ¶nn en",
      "st immt",
      "Ġ.- ..",
      "au fen",
      "der n",
      "âĸĴâĸĴ âĸĴâĸĴ",
      "Ġwer den",
      "ja ja",
      "a ÃŁ",
      "Ã ³",
      "\" [",
      "Ġ et",
      "Ġsch ne",
      "ol ol",
      "ĠwÃ¼r de",
      "b le",
      "m en",
      "s k",
      "ll ll",
      "Ġb l",
      "att achm",
      "attachm ents",
      "]ðŁ ¦",
      "n ice",
      "XDXDXDXDXDXDXDXD XDXDXDXDXDXDXDXD",
      "a den",
      "Ġ q",
      "Ġn ice",
      "Ġh er",
      "at e",
      "hihi hihi",
      "E N",
      "c raft",
      "ðŁ ĺ",
      "Ġf inde",
      "Ġ.- .",
      "Ġgesch rieben",
      "1 8",
      "Ġkomm t",
      "6 5",
      "ðŁ¤® ðŁ¤®",
      "N e",
      "l en",
      "Ġsch l",
      "Ġt e",
      "g ar",
      "i en",
      "i ge",
      "r Ã¤",
      "u le",
      "a y",
      "Ġd e",
      "Ġbe komm",
      "Ġi hr",
      "]- _-[",
      "r icht",
      "as st",
      "yo u",
      "Ġr aus",
      "in k",
      "Ġf unktion",
      "ur e",
      "Ġb rau",
      "j j",
      "Ġh ttps",
      "ck e",
      "Ġsie ht",
      "ine craft",
      "k lich",
      "Ġw oll",
      "Ġl ei",
      "H H",
      "O h",
      "o ff",
      "p t",
      "Ġ ent",
      "Ġn ie",
      "oo o",
      "op e",
      "Ġ âĸĳâĸĳâĸĳ",
      "Ġ1 0",
      "Ġver st",
      "Ġre cht",
      "mmmmmmmm mmmmmmmm",
      "Ġl ern",
      "bittebittebittebitte bittebittebittebitte",
      "v c",
      "w ann",
      "au t",
      "Ġd eine",
      "Ġh ier",
      "ĠG ute",
      "Ġschne ll",
      "d s",
      "ee e",
      "ah a",
      "n ur",
      "v on",
      "an t",
      "se l",
      "ge f",
      "a ge",
      "b o",
      "on t",
      "Ġkr ass",
      "in n",
      "Ġsch le",
      "Ġ-. -.",
      "Ġmus st",
      "/ [",
      "et z",
      "2 8",
      "m an",
      "Ġs er",
      "Ġn em",
      "Ġz wei",
      "âĸĪâĸĪâĸĪâĸĪâĸĪâĸĪâĸĪâĸĪ âĸĪâĸĪâĸĪâĸĪâĸĪâĸĪâĸĪâĸĪ",
      "oooooooooooooooooooooooooooooooo oooooooooooooooooooooooooooooooo",
      "7 5",
      "f Ã¼r",
      "s a",
      "Ġw ur",
      "iiiiiiiiiiiiiiii iiiiiiiiiiiiiiii",
      "ĠÍ¡Â° )",
      "Ġk ur",
      "Ġv iele",
      "Ġspiel en",
      "s on",
      "Ġ J",
      "D er",
      "f l",
      "Ġh uren",
      "Ġ.. -",
      "Ã ²",
      "Ġw o",
      "Ġschrei ben",
      "schein lich",
      "6 0",
      "9 4",
      "g l",
      "m p",
      "Ġw ahr",
      "Ġbi ld",
      "Ġne u",
      "!!!! !!!!",
      ", ,",
      "d o",
      "Ġ C",
      "Ġs ei",
      "Ġal so",
      "Ġu hr",
      "Ġsa gen",
      "I N",
      "u i",
      "Ġm c",
      "Ġw el",
      "Ġb es",
      "di a",
      "eeeeeeee eeeeeeee",
      "Ġd rau",
      "Ġ-- -",
      "b eit",
      "i ssen",
      "Ġ âĢ",
      "ra in",
      "h au",
      "j k",
      "âĸĳâĸĳâĸĳâĸĳ âĸĳâĸĳâĸĳ",
      "Ġw en",
      "k en",
      "m ein",
      "v or",
      "Ġnoch mal",
      "EE EE",
      "o st",
      "Ġs ag",
      "Ġw eg",
      "ach te",
      "Ġsch Ã¶n",
      "ass en",
      "g ut",
      "i o",
      "Ġd iese",
      "Ġn er",
      "s d",
      "ĠS p",
      "ðŁ¤¦âĢįâĻĤ ï¸ı",
      "3 4",
      "3 8",
      "Ġge w",
      "UUUUUUUUUUUUUUUUUUUUUUUUUUUUUUUU UUUUUUUUUUUUUUUUUUUUUUUUUUUUUUUU",
      "A l",
      "^ [",
      "cccc cccc",
      "ff en",
      "Ã¤ u",
      "Ġge st",
      "ert ig",
      "Ġpro gramm",
      "âĶĢâĶĢ âĶĢâĶĢ",
      "z w",
      "Ġl ange",
      "dankedanke dankedanke",
      "Ġi hm",
      "Ġh eiÃŁt",
      "Ġt h",
      "Ġges ehen",
      "zZzZzZzZ zZzZzZzZ",
      "ðŁ¤¦âĢįâĻĤï¸ı ðŁ¤¦âĢįâĻĤï¸ı",
      "n ope",
      "Ġm Ã¶",
      "it ter",
      "Ã¶r t",
      "ðŁ¤¦âĢįâĻĤ ðŁ¤¦âĢįâĻĤ",
      "m o",
      "Ġ O",
      "at en",
      "Ġf re",
      "sch l",
      "ro ÃŁ",
      "and y",
      "ĠhÃ¤ tte",
      "j z",
      "µ [",
      "es en",
      "Ġ2 0",
      "aaaaaaaaaaaaaaaaaaaaaaaaaaaaaaaa aaaaaaaaaaaaaaaaaaaaaaaaaaaaaaaa",
      "Ġgen au",
      "S T",
      "aa r",
      "all o",
      "9 5",
      "A U",
      "] ...[",
      "h en",
      "s u",
      "t ja",
      "Ġwir klich",
      "Ġ: ([",
      "Ġz ur",
      "HA HA",
      "D a",
      "c t",
      "e ich",
      "Ġl ang",
      "kkkk kkkk",
      "Ġlern en",
      "e d",
      "Ġsch w",
      "Ã¼r lich",
      "oh l",
      "Ã¤Ã¤ Ã¤Ã¤",
      "2 6",
      "3 5",
      "3 6",
      "b l",
      "j etzt",
      "Ġ you",
      "ĠðŁĺ ¡",
      "m er",
      "ch te",
      "at Ã¼rlich",
      "Ġha tte",
      "Ġden ke",
      "S S",
      "u f",
      "or m",
      "hhhhhhhh hhhhhhhh",
      "................ ................",
      "4 8",
      "y p",
      "ck en",
      "ess en",
      "] ..",
      "g st",
      "ach en",
      "Ġv oll",
      "Ã¤ h",
      "Ġt o",
      "we gen",
      "Ġschau en",
      "I st",
      "o tt",
      "Ġ. _.[",
      "== ==",
      "+ +",
      "< :",
      "C K",
      "S o",
      "á µ",
      "un k",
      "im im",
      "âķ Ĳ",
      "AAAA AAAA",
      "Ġkur z",
      "Al so",
      "7 0",
      "S CH",
      "n t",
      "Ġso gar",
      "** [",
      "ahr en",
      "f er",
      "h o",
      "i ss",
      "s c",
      "âĸĪâĸĪ âĸĳâĸĳâĸĳâĸĳâĸĳ",
      "Ġges p",
      "Ġsich er",
      "m uss",
      "v llt",
      "Ġf l",
      "Ġf ertig",
      "Ġin s",
      "am e",
      "Ġganz e",
      "Ġwen ig",
      "Ġ ex",
      "Ġi s",
      "Ġz ie",
      "---- ----",
      "a ter",
      "Ġ. --",
      "xDxD xDxD",
      "Ġkom p",
      "Ġschle cht",
      "Ġser ver",
      "4 9",
      "] **",
      "Ġ y",
      "an gen",
      "Ġp ass",
      "Ġin ter",
      "Ġ. [",
      "end lich",
      "Ġsoll te",
      "8 8",
      "Ġs ehen",
      "Ġt im",
      "Ġst eht",
      "Ġr ein",
      "isch en",
      "]ðŁ¥ µ[",
      "áµ Ķ",
      "] @",
      "i z",
      "âĸ ĵ",
      "Ġd es",
      "Ã¤ ter",
      "Ġo h",
      "Ġst immt",
      "Ãľ Ãľ",
      "Ġwur de",
      "b s",
      "p ro",
      "ick t",
      "âķ ı",
      "' s",
      "2 4",
      "Ġ |",
      "ch er",
      "Ġp aar",
      "ÃŁ er",
      "Ã¶Ã¶Ã¶Ã¶ Ã¶Ã¶Ã¶Ã¶",
      "g a",
      "| |",
      "Ġn acht",
      "ter n",
      "!! !",
      "ing t",
      "hi li",
      "ablabl ablabl",
      "ble m",
      "E s",
      "H ast",
      "I n",
      "h v",
      "Ġh och",
      "?! ?![",
      "ei g",
      "hy s",
      "L O",
      "Ġv ideo",
      "Ġl etz",
      "ge ben",
      "dd dd",
      "Ġmin uten",
      "77777777777777777777777777777777 77777777777777777777777777777777",
      "al ten",
      "Ġein er",
      "Ġger ne",
      "hn ung",
      "rr rr",
      "âĪŀâĪŀâĪŀâĪŀâĪŀâĪŀâĪŀâĪŀâĪŀâĪŀâĪŀâĪŀâĪŀâĪŀâĪŀâĪŀ âĪŀâĪŀâĪŀâĪŀâĪŀâĪŀâĪŀâĪŀâĪŀâĪŀâĪŀâĪŀâĪŀâĪŀâĪŀâĪŀ",
      "Ġfunktion iert",
      "] \"",
      "e cht",
      "f Ã¼",
      "g r",
      "âĸĳâĸĳ âĸĪ",
      "Ġm athe",
      "Ġg roÃŁ",
      "de t",
      "Ġfra ge",
      "Ġwei ter",
      "d es",
      "l ine",
      "Ġs agt",
      "un ter",
      "sch rei",
      "Ġander e",
      "Ġwahr scheinlich",
      "2 7",
      "i a",
      "Ġ ro",
      "Ġf il",
      "och en",
      "ra g",
      "nn nn",
      "sp iel",
      "Ġander en",
      "Ġbis schen",
      "N ein",
      "c dn",
      "er st",
      "Ġl aufen",
      "]ðŁ ¤",
      "Ġgef unden",
      "W enn",
      "a ff",
      "o b",
      "Ã Ħ",
      "Ġsch eiÃŁ",
      "ĠĠĠĠĠĠĠĠĠĠĠĠĠĠĠĠ ĠĠĠĠĠĠĠĠĠĠĠĠĠĠĠĠ",
      "( (",
      "L L",
      "e k",
      "k r",
      "z z",
      "oo g",
      "Ġg eil",
      "¢ [",
      "Ġk enn",
      "ck t",
      "Ġmein em",
      "OO OO",
      "hmm m",
      "II II",
      "Ġdrau f",
      "9 7",
      "r d",
      "ii i",
      "Ġmach e",
      "ĠkÃ¶nn te",
      "???????????????????????????????? ????????????????????????????????",
      "] â",
      "a k",
      "g ute",
      "g eht",
      "at z",
      "Ġkomm en",
      "Ġkl ein",
      "DDDDDDDD DDDDDDDD",
      "sk ip",
      "t zt",
      "Ġs c",
      "ðŁ ĳ",
      "Ġda mit",
      "I CH",
      "e kt",
      "j o",
      "s ry",
      "!! [",
      "Ġp er",
      "yyyyyyyy yyyyyyyy",
      "Ġw arum",
      "re en",
      "el t",
      "]: ([",
      "âĶ »",
      "4 4",
      "C C",
      "^ ^[",
      "n ee",
      "t op",
      "Ġ or",
      "Ġd r",
      "Ġf e",
      "Ġf Ã¼",
      "Ġge d",
      "Ġst e",
      "D ann",
      "Ġ x",
      "Ġsch ule",
      "ung s",
      "Ġsel ber",
      "m in",
      "m em",
      "Ġn atÃ¼rlich",
      "at ze",
      "ar e",
      "ss l",
      "op f",
      "ï¸ı [",
      "Wie so",
      "> [",
      "k eine",
      "m us",
      "p u",
      "Ġf r",
      "ĠM in",
      "Ġmein en",
      "ĠnÃ¤ mlich",
      "hili pp",
      "6 7",
      "o ck",
      "w ill",
      "Ġg r",
      "âĸĪâĸĪ âĸĳâĸĳâĸĳ",
      "Ã¼ b",
      "sch ick",
      "Ġbi tte",
      "Ġer ste",
      "ĠM al",
      "ix el",
      "Ġet w",
      "5 0",
      "9 8",
      "A S",
      "g lich",
      "h allo",
      "j osef",
      "se hr",
      "Ġsch la",
      "Ġb aden",
      "it z",
      "tz dem",
      "oog le",
      "b y",
      "p er",
      "ã Ģ",
      "Ġ ber",
      "Ġ em",
      "Ġw issen",
      "ut sch",
      "Ġwie so",
      "Ġwer de",
      "me dia",
      "Ġkein en",
      "]ðŁ¦ ¦[",
      "i f",
      "o de",
      "s ag",
      "Ġnicht s",
      "Ġv om",
      "Ġwar en",
      "Ġmein te",
      "ĠP ro",
      "rain ing",
      "Ġgest ern",
      "p h",
      "Í ¡",
      "Ġh andy",
      "Ġge b",
      "Ġwill st",
      "ðŁ«ĥðŁ«ĥðŁ«ĥðŁ«ĥðŁ«ĥðŁ«ĥðŁ«ĥðŁ«ĥ ðŁ«ĥðŁ«ĥðŁ«ĥðŁ«ĥðŁ«ĥðŁ«ĥðŁ«ĥðŁ«ĥ",
      "O der",
      "i gen",
      "k enn",
      "as se",
      "Ġt ro",
      "Ġirgend wie",
      ") )",
      "d ig",
      "e ch",
      "s am",
      "Ġ Ð",
      "Ġd o",
      "Ġm en",
      "Ġi t",
      "tt en",
      "Ġb tw",
      "Ġt himo",
      "âĸĪâĸĪâĸĪâĸĪ âĸĪ",
      "lo ck",
      "hys ik",
      "K L",
      "er e",
      "Ġw ann",
      "al s",
      "Ġbi l",
      "Ġes sen",
      "Ġda zu",
      "00 0",
      "Ġpro blem",
      "âĺŃâĺŃâĺŃâĺŃâĺŃâĺŃâĺŃâĺŃâĺŃâĺŃâĺŃâĺŃâĺŃâĺŃâĺŃâĺŃâĺŃâĺŃâĺŃâĺŃâĺŃâĺŃâĺŃâĺŃâĺŃâĺŃâĺŃâĺŃâĺŃâĺŃâĺŃâĺŃâĺŃâĺŃâĺŃâĺŃâĺŃâĺŃâĺŃâĺŃâĺŃâĺŃâĺŃâĺŃâĺŃâĺŃâĺŃâĺŃâĺŃâĺŃâĺŃâĺŃâĺŃâĺŃâĺŃâĺŃâĺŃâĺŃâĺŃâĺŃâĺŃâĺŃâĺŃâĺŃâĺŃâĺŃâĺŃâĺŃâĺŃâĺŃâĺŃâĺŃâĺŃâĺŃâĺŃâĺŃâĺŃâĺŃâĺŃâĺŃâĺŃâĺŃâĺŃâĺŃâĺŃâĺŃâĺŃâĺŃâĺŃâĺŃâĺŃâĺŃâĺŃâĺŃâĺŃâĺŃâĺŃâĺŃâĺŃâĺŃâĺŃâĺŃâĺŃâĺŃâĺŃâĺŃâĺŃâĺŃâĺŃâĺŃâĺŃâĺŃâĺŃâĺŃâĺŃâĺŃâĺŃâĺŃâĺŃâĺŃâĺŃâĺŃâĺŃâĺŃâĺŃâĺŃâĺŃâĺŃâĺŃâĺŃâĺŃâĺŃâĺŃâĺŃâĺŃâĺŃâĺŃâĺŃâĺŃâĺŃâĺŃâĺŃâĺŃâĺŃâĺŃâĺŃâĺŃâĺŃâĺŃâĺŃâĺŃâĺŃâĺŃâĺŃâĺŃâĺŃâĺŃâĺŃâĺŃâĺŃâĺŃâĺŃâĺŃâĺŃâĺŃâĺŃâĺŃâĺŃâĺŃâĺŃâĺŃâĺŃâĺŃâĺŃâĺŃâĺŃâĺŃâĺŃâĺŃâĺŃâĺŃâĺŃâĺŃâĺŃâĺŃâĺŃâĺŃâĺŃâĺŃâĺŃâĺŃâĺŃâĺŃâĺŃâĺŃâĺŃâĺŃâĺŃâĺŃâĺŃâĺŃâĺŃâĺŃâĺŃâĺŃâĺŃâĺŃâĺŃâĺŃâĺŃâĺŃâĺŃâĺŃâĺŃâĺŃâĺŃâĺŃâĺŃâĺŃâĺŃâĺŃâĺŃâĺŃâĺŃâĺŃâĺŃâĺŃâĺŃâĺŃâĺŃâĺŃâĺŃâĺŃâĺŃâĺŃâĺŃâĺŃâĺŃâĺŃâĺŃâĺŃâĺŃâĺŃâĺŃâĺŃâĺŃâĺŃâĺŃâĺŃâĺŃâĺŃâĺŃâĺŃâĺŃâĺŃâĺŃâĺŃâĺŃâĺŃâĺŃâĺŃâĺŃâĺŃâĺŃâĺŃâĺŃâĺŃâĺŃâĺŃâĺŃâĺŃâĺŃâĺŃâĺŃâĺŃâĺŃâĺŃâĺŃâĺŃâĺŃâĺŃâĺŃâĺŃâĺŃâĺŃâĺŃâĺŃâĺŃâĺŃâĺŃâĺŃâĺŃâĺŃâĺŃâĺŃâĺŃâĺŃâĺŃâĺŃâĺŃâĺŃâĺŃâĺŃâĺŃâĺŃâĺŃâĺŃâĺŃâĺŃâĺŃâĺŃâĺŃâĺŃâĺŃâĺŃâĺŃâĺŃâĺŃâĺŃâĺŃâĺŃâĺŃâĺŃâĺŃâĺŃâĺŃâĺŃâĺŃâĺŃâĺŃâĺŃâĺŃâĺŃâĺŃâĺŃâĺŃâĺŃâĺŃâĺŃâĺŃâĺŃâĺŃâĺŃâĺŃâĺŃâĺŃâĺŃâĺŃâĺŃâĺŃâĺŃâĺŃâĺŃâĺŃâĺŃâĺŃâĺŃâĺŃâĺŃâĺŃâĺŃâĺŃâĺŃâĺŃâĺŃâĺŃâĺŃâĺŃâĺŃâĺŃâĺŃâĺŃâĺŃâĺŃâĺŃâĺŃâĺŃâĺŃâĺŃâĺŃâĺŃâĺŃâĺŃâĺŃâĺŃâĺŃâĺŃâĺŃâĺŃâĺŃâĺŃâĺŃâĺŃâĺŃâĺŃâĺŃâĺŃâĺŃâĺŃâĺŃâĺŃâĺŃâĺŃâĺŃâĺŃâĺŃâĺŃâĺŃâĺŃâĺŃâĺŃâĺŃâĺŃâĺŃâĺŃâĺŃâĺŃâĺŃâĺŃâĺŃâĺŃâĺŃâĺŃâĺŃâĺŃâĺŃâĺŃâĺŃâĺŃâĺŃâĺŃâĺŃâĺŃâĺŃâĺŃâĺŃâĺŃâĺŃâĺŃâĺŃâĺŃâĺŃâĺŃâĺŃâĺŃâĺŃâĺŃâĺŃâĺŃâĺŃâĺŃâĺŃâĺŃâĺŃâĺŃâĺŃâĺŃâĺŃâĺŃâĺŃâĺŃâĺŃâĺŃâĺŃâĺŃâĺŃâĺŃâĺŃâĺŃâĺŃâĺŃâĺŃâĺŃâĺŃâĺŃâĺŃâĺŃâĺŃâĺŃâĺŃâĺŃâĺŃâĺŃâĺŃâĺŃâĺŃâĺŃâĺŃâĺŃâĺŃâĺŃâĺŃâĺŃâĺŃâĺŃâĺŃâĺŃâĺŃâĺŃâĺŃâĺŃâĺŃâĺŃâĺŃâĺŃâĺŃâĺŃâĺŃâĺŃâĺŃâĺŃâĺŃ âĺŃâĺŃâĺŃâĺŃâĺŃâĺŃâĺŃâĺŃâĺŃâĺŃâĺŃâĺŃâĺŃâĺŃâĺŃâĺŃâĺŃâĺŃâĺŃâĺŃâĺŃâĺŃâĺŃâĺŃâĺŃâĺŃâĺŃâĺŃâĺŃâĺŃâĺŃâĺŃâĺŃâĺŃâĺŃâĺŃâĺŃâĺŃâĺŃâĺŃâĺŃâĺŃâĺŃâĺŃâĺŃâĺŃâĺŃâĺŃâĺŃâĺŃâĺŃâĺŃâĺŃâĺŃâĺŃâĺŃâĺŃâĺŃâĺŃâĺŃâĺŃâĺŃâĺŃâĺŃâĺŃâĺŃâĺŃâĺŃâĺŃâĺŃâĺŃâĺŃâĺŃâĺŃâĺŃâĺŃâĺŃâĺŃâĺŃâĺŃâĺŃâĺŃâĺŃâĺŃâĺŃâĺŃâĺŃâĺŃâĺŃâĺŃâĺŃâĺŃâĺŃâĺŃâĺŃâĺŃâĺŃâĺŃâĺŃâĺŃâĺŃâĺŃâĺŃâĺŃâĺŃâĺŃâĺŃâĺŃâĺŃâĺŃâĺŃâĺŃâĺŃâĺŃâĺŃâĺŃâĺŃâĺŃâĺŃâĺŃâĺŃâĺŃâĺŃâĺŃâĺŃâĺŃâĺŃâĺŃâĺŃâĺŃâĺŃâĺŃâĺŃâĺŃâĺŃâĺŃâĺŃâĺŃâĺŃâĺŃâĺŃâĺŃâĺŃâĺŃâĺŃâĺŃâĺŃâĺŃâĺŃâĺŃâĺŃâĺŃâĺŃâĺŃâĺŃâĺŃâĺŃâĺŃâĺŃâĺŃâĺŃâĺŃâĺŃâĺŃâĺŃâĺŃâĺŃâĺŃâĺŃâĺŃâĺŃâĺŃâĺŃâĺŃâĺŃâĺŃâĺŃâĺŃâĺŃâĺŃâĺŃâĺŃâĺŃâĺŃâĺŃâĺŃâĺŃâĺŃâĺŃâĺŃâĺŃâĺŃâĺŃâĺŃâĺŃâĺŃâĺŃâĺŃâĺŃâĺŃâĺŃâĺŃâĺŃâĺŃâĺŃâĺŃâĺŃâĺŃâĺŃâĺŃâĺŃâĺŃâĺŃâĺŃâĺŃâĺŃâĺŃâĺŃâĺŃâĺŃâĺŃâĺŃâĺŃâĺŃâĺŃâĺŃâĺŃâĺŃâĺŃâĺŃâĺŃâĺŃâĺŃâĺŃâĺŃâĺŃâĺŃâĺŃâĺŃâĺŃâĺŃâĺŃâĺŃâĺŃâĺŃâĺŃâĺŃâĺŃâĺŃâĺŃâĺŃâĺŃâĺŃâĺŃâĺŃâĺŃâĺŃâĺŃâĺŃâĺŃâĺŃâĺŃâĺŃâĺŃâĺŃâĺŃâĺŃâĺŃâĺŃâĺŃâĺŃâĺŃâĺŃâĺŃâĺŃâĺŃâĺŃâĺŃâĺŃâĺŃâĺŃâĺŃâĺŃâĺŃâĺŃâĺŃâĺŃâĺŃâĺŃâĺŃâĺŃâĺŃâĺŃâĺŃâĺŃâĺŃâĺŃâĺŃâĺŃâĺŃâĺŃâĺŃâĺŃâĺŃâĺŃâĺŃâĺŃâĺŃâĺŃâĺŃâĺŃâĺŃâĺŃâĺŃâĺŃâĺŃâĺŃâĺŃâĺŃâĺŃâĺŃâĺŃâĺŃâĺŃâĺŃâĺŃâĺŃâĺŃâĺŃâĺŃâĺŃâĺŃâĺŃâĺŃâĺŃâĺŃâĺŃâĺŃâĺŃâĺŃâĺŃâĺŃâĺŃâĺŃâĺŃâĺŃâĺŃâĺŃâĺŃâĺŃâĺŃâĺŃâĺŃâĺŃâĺŃâĺŃâĺŃâĺŃâĺŃâĺŃâĺŃâĺŃâĺŃâĺŃâĺŃâĺŃâĺŃâĺŃâĺŃâĺŃâĺŃâĺŃâĺŃâĺŃâĺŃâĺŃâĺŃâĺŃâĺŃâĺŃâĺŃâĺŃâĺŃâĺŃâĺŃâĺŃâĺŃâĺŃâĺŃâĺŃâĺŃâĺŃâĺŃâĺŃâĺŃâĺŃâĺŃâĺŃâĺŃâĺŃâĺŃâĺŃâĺŃâĺŃâĺŃâĺŃâĺŃâĺŃâĺŃâĺŃâĺŃâĺŃâĺŃâĺŃâĺŃâĺŃâĺŃâĺŃâĺŃâĺŃâĺŃâĺŃâĺŃâĺŃâĺŃâĺŃâĺŃâĺŃâĺŃâĺŃâĺŃâĺŃâĺŃâĺŃâĺŃâĺŃâĺŃâĺŃâĺŃâĺŃâĺŃâĺŃâĺŃâĺŃâĺŃâĺŃâĺŃâĺŃâĺŃâĺŃâĺŃâĺŃâĺŃâĺŃâĺŃâĺŃâĺŃâĺŃâĺŃâĺŃâĺŃâĺŃâĺŃâĺŃâĺŃâĺŃâĺŃâĺŃâĺŃâĺŃâĺŃâĺŃâĺŃâĺŃâĺŃâĺŃâĺŃâĺŃâĺŃâĺŃâĺŃâĺŃâĺŃâĺŃâĺŃâĺŃâĺŃâĺŃâĺŃâĺŃâĺŃâĺŃâĺŃâĺŃâĺŃâĺŃâĺŃâĺŃâĺŃâĺŃâĺŃâĺŃâĺŃâĺŃâĺŃâĺŃâĺŃâĺŃâĺŃâĺŃâĺŃâĺŃ",
      "Ã¼Ã¼Ã¼Ã¼ Ã¼Ã¼Ã¼Ã¼",
      "ÃŁÃŁ ÃŁÃŁ",
      "4 7",
      "; )[",
      "M M",
      "h eit",
      "s ie",
      "w ow",
      "âĸĳ âĸĪ",
      "al d",
      "âĸĳâĸĳâĸĳâĸĳâĸĳâĸĳâĸĳâĸĳ âĸĳâĸĳ",
      "Ġb en",
      "Ġp ls",
      "ier e",
      "ĠðŁ Ĳ",
      "Ġsp aÃŁ",
      "ĠZ eit",
      "L ol",
      "S t",
      "b b",
      "Ã ĸ",
      "Ġm inecraft",
      "Ġh e",
      "Ġdu s",
      "Ġson st",
      "XDXDXDXDXDXDXDXDXDXDXDXDXDXDXDXD XDXDXDXDXDXDXDXDXDXDXDXDXDXDXDXD",
      "5 7",
      "f all",
      "h ol",
      "w u",
      "al sch",
      "or mal",
      "Ã¤ ch",
      "Ġl os",
      "ĠA n",
      "âĸĪâĸĪâĸĪâĸĪ âĸĪâĸĪâĸĪ",
      "oh er",
      "Ġbei m",
      "ĠT himo",
      "Ġkl ar",
      "ĠðŁĺ «",
      "ĠmÃ¼ ssen",
      "8 19",
      "m a",
      "n o",
      "p l",
      "t he",
      "ĺŃ [",
      "Ġd achte",
      "sch a",
      "sch ie",
      "Ġso was",
      "is a",
      "Ġmein er",
      "isch e",
      "Ġzie mlich",
      "f u",
      "r en",
      "ä ¸",
      "ar beit",
      "der t",
      "Ġbi ssl",
      "âĶ ģ",
      "Ġoh ne",
      "6 2",
      "B in",
      "] <:",
      "n er",
      "q u",
      "t im",
      "t himo",
      "Ġ us",
      "Ġd an",
      "Ġh it",
      "Ġsch wer",
      "Ã¤ hr",
      "kann st",
      "Ġschl imm",
      "A h",
      "g lau",
      "p r",
      "Ġ â",
      "Ġh al",
      "ar k",
      "ann t",
      "âĢ ľ",
      "Ġsp Ã¤ter",
      "ĻĤ [",
      "kl Ã¤r",
      "iv e",
      "ap top",
      "SCH AU",
      "LO CK",
      "ĠMin uten",
      "A N",
      "H ER",
      "W eil",
      "d ee",
      "n och",
      "au ch",
      "ei ten",
      "Ġg et",
      "Ġk on",
      "Ġwoll te",
      "!!! ***",
      "E r",
      "aaaa aa",
      "Ġdie s",
      "Ġein em",
      "Ġge k",
      "ĠS HER",
      "Ġbe stimmt",
      "am en",
      "komm en",
      "Ġgibt s",
      "ĠnÃ¤ ch",
      "ĠSHER LOCK",
      "g eh",
      "p f",
      "u d",
      "u pp",
      "ab ei",
      "Ġt oll",
      "ĠĠĠĠ ĠĠĠ",
      "Ġon line",
      "ahahahah ahahahah",
      "ffffffffffffffffffffffffffffffffffffffffffffffffffffffffffffffff ffffffffffffffffffffffffffffffffffffffffffffffffffffffffffffffff",
      "hau pt",
      "L isa",
      "T Z",
      "W arum",
      "c a",
      "c ool",
      "s i",
      "w ik",
      "Ġm ag",
      "Ġf all",
      "Ġf ast",
      "eh men",
      "gen au",
      "ra d",
      "]- .",
      "FF FF",
      "hihihihi hihihihi",
      "bittebittebittebittebittebittebittebitte bittebittebittebittebittebittebittebitte",
      "Ġpass iert",
      "3 2",
      "6 8",
      "D och",
      "K ann",
      "o in",
      "Ġd abei",
      "Ġn ein",
      "es ch",
      "be l",
      "oooo o",
      "Ġt yp",
      "Ġp l",
      "ig rÃ¤",
      "ing s",
      "Ġmein st",
      "Ġu p",
      "igrÃ¤ ne",
      "a kt",
      "g al",
      "p n",
      "âĸ Ģ",
      "Ġn ich",
      "at s",
      ":/ [",
      "itt ag",
      "Ġbekomm en",
      "' ([",
      "E in",
      "Ġ ru",
      "âĸ Ħ",
      "âĸĳ âĸĪâĸĪâĸĪ",
      "at h",
      "pp en",
      "Ġgesch ickt",
      "we ster",
      "Ġsel bst",
      "ssss ssss",
      "________ ________",
      "Ġbil der",
      "m orgen",
      "âĺŃ [",
      "as ch",
      "on e",
      "ðŁ ¥",
      "or g",
      "or y",
      "ol z",
      "Ġan tw",
      "tttt tttt",
      "ĠðŁĲ Į",
      "A ch",
      "E IN",
      "d r",
      "Ġ ^^[",
      "Ġg ute",
      "un st",
      "?? ??[",
      "ach e",
      "Ã¼ n",
      "Ġf eh",
      "Ġp ixel",
      "âĸĪâĸĪâĸĪâĸĪ âĸĪâĸĳâĸĳâĸĳâĸĳâĸĳâĸĳâĸĳâĸĳâĸĳâĸĳâĸĳâĸĳâĸĳâĸĳâĸĳâĸĳ",
      "Ġ1 5",
      "Ġun ser",
      "R R",
      "Y https",
      "] âĢ",
      "g essen",
      "Ġ âĸĳâĸĳâĸĳâĸĳ",
      "Ġ rum",
      "âĸĪâĸĪ âĸĳâĸĳâĸĳâĸĳâĸĳâĸĳâĸĳâĸĳâĸĳâĸĳâĸĳâĸĳ",
      "Ġf rÃ¼",
      "Ġl ink",
      "Ġan ge",
      "ra gt",
      "ĠðŁ ĳ",
      "Ġmach st",
      "ide os",
      "âĸĳâĸĳâĸĳâĸĳâĸĳâĸĳâĸĳâĸĳâĸĳâĸĳâĸĳâĸĳâĸĳâĸĳâĸĳâĸĳâĸĳâĸĳâĸĳâĸĳâĸĳâĸĳâĸĳâĸĳâĸĳâĸĳâĸĳâĸĳâĸĳâĸĳâĸĳâĸĳ âĸĳâĸĳâĸĳâĸĳâĸĳâĸĳâĸĳâĸĳâĸĳâĸĳâĸĳâĸĳâĸĳâĸĳâĸĳâĸĳ",
      "uuuuuuuuuuuuuuuu uuuuuuuuuuuuuuuu",
      "Ġeh er",
      "/ /",
      "d ate",
      "i al",
      "l ass",
      "p hy",
      "t o",
      "w el",
      "Ã ´",
      "Ġm e",
      "Ġw ohl",
      "ut ter",
      "Ã¤ re",
      "sch on",
      "Ġl aptop",
      "it e",
      "Ġa pp",
      "Ġa hnung",
      "ig ht",
      "gi bt",
      "!!!! [",
      "ĠÃ¼ber haupt",
      "âĸĪâĸĪâĸĪ âĸĳâĸĳâĸĳâĸĳâĸĳâĸĳâĸĳâĸĳâĸĳâĸĳâĸĳâĸĳâĸĳâĸĳâĸĳâĸĳ",
      "2 3",
      "4 6",
      "i rn",
      "âĢį ðŁ",
      "Ġlust ig",
      "reen sh",
      "ä¸ Ģ",
      "d k",
      "f orm",
      "¶ [",
      "au se",
      "Ġd rei",
      "Ġf uck",
      "och e",
      "Ġein mal",
      "Ġt eil",
      "Ġne ue",
      "oh a",
      "il d",
      "Ġ-- --",
      "sten s",
      "oooooooooooooooooooooooooooooooooooooooooooooooooooooooooooooooo oooooooooooooooooooooooooooooooooooooooooooooooooooooooooooooooo",
      "].. .",
      "W W",
      "m l",
      "an den",
      "mm en",
      "Ġk am",
      "Ġl o",
      "omm en",
      "Ġgem ein",
      "âĸĳâĸĳâĸĳâĸĳâĸĳâĸĳâĸĳâĸĳâĸĳâĸĳâĸĳâĸĳ âĸĳâĸĳâĸĳ",
      "?! ?!",
      "Ġlie ber",
      "Ġbl ei",
      "Ġq u",
      "ĠscheiÃŁ e",
      "7 8",
      "S p",
      "h in",
      "n ter",
      "p ls",
      "u b",
      "Ġg l",
      "et ter",
      "ÃŁ en",
      "Ġst unden",
      "]ðŁ ĻĤ[",
      "he ute",
      "imm er",
      "Ġander s",
      "iscor d",
      "unk te",
      "E A",
      "e f",
      "g o",
      "k eit",
      "Ġ Ã¶",
      "as e",
      "Ġn o",
      "un n",
      "Ġf a",
      "Ã¤ llt",
      "ab en",
      "Ġc a",
      "imm en",
      "]- ..",
      "ad y",
      "Ġje den",
      ",, ,,",
      "UUUUUUUUUUUUUUUUUUUUUUUUUUUUUUUUUUUUUUUUUUUUUUUUUUUUUUUUUUUUUUUU UUUUUUUUUUUUUUUUUUUUUUUUUUUUUUUUUUUUUUUUUUUUUUUUUUUUUUUUUUUUUUUU",
      "dankedankedankedanke dankedankedankedanke",
      "ðŁ¤¦âĢįâĻĤï¸ıðŁ¤¦âĢįâĻĤï¸ı ðŁ¤¦âĢįâĻĤï¸ıðŁ¤¦âĢįâĻĤï¸ı",
      "ðŁ¤¦âĢįâĻĤðŁ¤¦âĢįâĻĤ ðŁ¤¦âĢįâĻĤðŁ¤¦âĢįâĻĤ",
      "W o",
      "W ir",
      "e ben",
      "l k",
      "p e",
      "w eg",
      "bi st",
      "Ġh off",
      "Ġz w",
      "re ch",
      "Ġhab s",
      "Ġst r",
      "Ġver l",
      "Ġ3 0",
      "]ðŁ¥ ¶[",
      "zZzZzZzZzZzZzZzZ zZzZzZzZzZzZzZzZ",
      "iss er",
      "ga be",
      "Ġhit ler",
      "reensh ot",
      "H mm",
      "f a",
      "w Ã¼r",
      "âĺŃâĺŃâĺŃâĺŃâĺŃâĺŃâĺŃâĺŃ âĺŃâĺŃâĺŃâĺŃ",
      "Ġd rin",
      "ei gt",
      "Ġs k",
      "Ġg ru",
      ".. [",
      "at us",
      "Ġf rei",
      "Ġda von",
      "Ġe ben",
      "Ġe gal",
      "Ġschrei bt",
      "id k",
      "WgXcQ https",
      "Ã¤u ft",
      "Ġtro tzdem",
      "7 3",
      "I E",
      "g n",
      "h re",
      "s ion",
      "u er",
      "w or",
      "Ð ¾",
      "á ķ",
      "ch ill",
      "Ġb ro",
      "ah l",
      "ig er",
      "el n",
      "das s",
      "ent lich",
      "Ġkomm e",
      "Ġgeht s",
      "Ġwe gen",
      "Ġq ue",
      "Ġlei d",
      "Ġfil m",
      "Ġdan ach",
      "] ***",
      "e ug",
      "f d",
      "g s",
      "z Ã¤h",
      "Ġs ry",
      "Ġn ormal",
      "Ġk ack",
      "sch t",
      "Ġl i",
      "Ġp asst",
      "ra ge",
      "Ġst unde",
      "pp t",
      "us ste",
      "and om",
      "ow n",
      "Ġschick en",
      "Ġ-.. .",
      "aff t",
      "scha ft",
      "8 2",
      "h ure",
      "j h",
      "j aaa",
      "w q",
      "Ġs h",
      "Ġg ott",
      "at ei",
      "oooo oo",
      "Ġf or",
      "Ġf alsch",
      "sch w",
      "Ġp c",
      "ĠĠĠĠ Ġ",
      "Ġge gen",
      "Ġgeh e",
      "gi phy",
      "fe kt",
      "ĠweiÃŁ t",
      "Â¶Â¶ Â¶Â¶",
      "Ġen gl",
      "mmmmmmmmmmmmmmmm mmmmmmmmmmmmmmmm",
      "Ġzur Ã¼ck",
      "A n",
      "N a",
      "b r",
      "d an",
      "j p",
      "o d",
      "o je",
      "ã ĥ",
      "Ġm er",
      "Ġf ar",
      "ern t",
      "eg al",
      "cccccccc cccccccc",
      ". <",
      "2 1",
      "5 5",
      "E I",
      "f uck",
      "h uren",
      "s st",
      "Ġd iscord",
      "al le",
      "om e",
      "Ġo ff",
      "ĠðŁ ¤",
      "Ġ- _-[",
      "Ġsp Ã¤t",
      "ind ow",
      "ste llen",
      "bt w",
      "Ġab end",
      "Ã¶r en",
      "Ġdein en",
      "Ġkom isch",
      "llll llll",
      "0 8",
      "9 3",
      "; [",
      "] --",
      "k st",
      "m athe",
      "z ie",
      "oo d",
      "in ter",
      "se hen",
      "de ut",
      "Ġt un",
      "Ġr unter",
      "00 00",
      "Ġdein er",
      "Ġalle m",
      "Ġdar f",
      "HH HH",
      "kkkkkkkk kkkkkkkk",
      "Ġletz ten",
      "= &",
      "b a",
      "h st",
      "s or",
      "t s",
      "u h",
      "Ð µ",
      "Ġ *",
      "Ġ +",
      "Ġo ft",
      "__ _",
      "ste llt",
      "Ġgef ragt",
      "inde st",
      "ĠV er",
      "96 80",
      "ĠmÃ¶ chte",
      "âĸĵ âĸĵ",
      "kr ass",
      "pu ter",
      "Ġdies es",
      "I R",
      "_ .",
      "j f",
      "z eit",
      "Ð °",
      "Ġ ext",
      "Ĥ ¬",
      "Ġn ut",
      "Ġw oche",
      "ach s",
      "Ġf ol",
      "Ġb r",
      "Ġt r",
      "hh h",
      "Ġda fÃ¼r",
      "Ġganz en",
      "eg a",
      "weil ig",
      "Ġfra gen",
      "xDxDxDxD xDxDxDxD",
      "Ġkomp le",
      "E B",
      "h Ã¶",
      "s ur",
      "v t",
      "Ù Ī",
      "Ġ Ã¤n",
      "Ġ âķı",
      "Ĥ [",
      "bi s",
      "âĸĳ âĸĪâĸĪ",
      "Ġs oo",
      "Ġk unst",
      "Ġl Ã¤",
      "ww ww",
      "Ġt re",
      "Ġer klÃ¤r",
      "pp e",
      "la den",
      "all es",
      "ver st",
      "ï¸ »",
      "ðŁ¤®ðŁ¤® ðŁ¤®ðŁ¤®",
      "Ġneu en",
      "Ġsei te",
      "ĠâĢ ¸",
      "âķĲ âĶģ",
      "áķ ķ",
      "6 9",
      "> .<",
      "E F",
      "J osef",
      "b ar",
      "g h",
      "l ei",
      "u di",
      "v oll",
      "Ġ :/[",
      "ein fach",
      "al k",
      "Ġk opf",
      "und er",
      "Ġl Ã¤n",
      "om ent",
      "Ġt ag",
      "ck er",
      "ier st",
      "im age",
      "Ġbe st",
      "hat s",
      "schau en",
      "Ġy t",
      "4 2",
      "g leich",
      "v iel",
      "w itter",
      "y s",
      "Ġ Ã¼b",
      "st ag",
      "Ġm em",
      "icht e",
      "Ġv ater",
      "Ġso l",
      "imm e",
      "ha be",
      "Ġbrau cht",
      "aaaaaaaaaaaaaaaaaaaaaaaaaaaaaaaaaaaaaaaaaaaaaaaaaaaaaaaaaaaaaaaa aaaaaaaaaaaaaaaaaaaaaaaaaaaaaaaaaaaaaaaaaaaaaaaaaaaaaaaaaaaaaaaa",
      "ablablablabl ablablablabl",
      "indow s",
      "A B",
      "a il",
      "d am",
      "f in",
      "j aa",
      "n is",
      "Ġw eit",
      "at ik",
      "aaaa a",
      "Ġsch n",
      "Ġf ur",
      "Ġl Ã¶",
      "Ġein z",
      "Ġt rau",
      "ĠG o",
      "hab s",
      "Ġ-. -",
      "Ġ-- .",
      "rÃ¼ cke",
      "olol olol",
      "jj jj",
      "sa mmen",
      "âĸĪâĸĪâĸĳâĸĳâĸĳâĸĳâĸĳ âĸĪâĸĪ",
      "âĸĳâĸĳâĸĪ âĸĳâĸĳâĸĳâĸĳâĸĳâĸĳ",
      "8 6",
      "a rn",
      "c at",
      "l ie",
      "l ist",
      "Ġd c",
      "al e",
      "Ġich s",
      "at iv",
      "ur ch",
      "Ġt ut",
      "Ġo f",
      "ah h",
      "Ġan gst",
      "ĠA r",
      "âĢ ¦[",
      "Ġgeh Ã¶rt",
      "âĸĪâĸĪâĸĪ âĸĳâĸĳâĸĳâĸĳâĸĳâĸĳâĸĳâĸĳâĸĳâĸĳâĸĳâĸĳ",
      "ation en",
      "Ġdar an",
      "Ġunter richt",
      "Ġhin ter",
      "Ġâĸĳâĸĳâĸĳ âĸĪ",
      "Ġâĸĳâĸĳâĸĳ âĸĪâĸĳâĸĳâĸĳâĸĳâĸĳâĸĳâĸĳâĸĳâĸĳâĸĳâĸĳâĸĳâĸĳâĸĳâĸĳâĸĳ",
      "iiiiiiiiiiiiiiiiiiiiiiiiiiiiiiii iiiiiiiiiiiiiiiiiiiiiiiiiiiiiiii",
      "7777777777777777777777777777777777777777777777777777777777777777 7777777777777777777777777777777777777777777777777777777777777777",
      "âĪŀâĪŀâĪŀâĪŀâĪŀâĪŀâĪŀâĪŀâĪŀâĪŀâĪŀâĪŀâĪŀâĪŀâĪŀâĪŀâĪŀâĪŀâĪŀâĪŀâĪŀâĪŀâĪŀâĪŀâĪŀâĪŀâĪŀâĪŀâĪŀâĪŀâĪŀâĪŀ âĪŀâĪŀâĪŀâĪŀâĪŀâĪŀâĪŀâĪŀâĪŀâĪŀâĪŀâĪŀâĪŀâĪŀâĪŀâĪŀâĪŀâĪŀâĪŀâĪŀâĪŀâĪŀâĪŀâĪŀâĪŀâĪŀâĪŀâĪŀâĪŀâĪŀâĪŀâĪŀ",
      "jp g",
      "C r",
      "X d",
      "] ....",
      "m ir",
      "m eine",
      "w oll",
      "Ġ _",
      "Ġ el",
      "st fu",
      "Ġs achen",
      "Ã¤ nd",
      "Ġl ost",
      "Ġl Ã¤uft",
      "Ġzu sammen",
      "is h",
      "iel t",
      "Ġ.. .[",
      "tw itter",
      "Ġander es",
      "li ste",
      "âĺŃâĺŃâĺŃâĺŃâĺŃâĺŃâĺŃâĺŃâĺŃâĺŃâĺŃâĺŃâĺŃâĺŃâĺŃâĺŃâĺŃâĺŃâĺŃâĺŃâĺŃâĺŃâĺŃâĺŃâĺŃâĺŃâĺŃâĺŃâĺŃâĺŃâĺŃâĺŃâĺŃâĺŃâĺŃâĺŃâĺŃâĺŃâĺŃâĺŃâĺŃâĺŃâĺŃâĺŃâĺŃâĺŃâĺŃâĺŃâĺŃâĺŃâĺŃâĺŃâĺŃâĺŃâĺŃâĺŃâĺŃâĺŃâĺŃâĺŃâĺŃâĺŃâĺŃâĺŃâĺŃâĺŃâĺŃâĺŃâĺŃâĺŃâĺŃâĺŃâĺŃâĺŃâĺŃâĺŃâĺŃâĺŃâĺŃâĺŃâĺŃâĺŃâĺŃâĺŃâĺŃâĺŃâĺŃâĺŃâĺŃâĺŃâĺŃâĺŃâĺŃâĺŃâĺŃâĺŃâĺŃâĺŃâĺŃâĺŃâĺŃâĺŃâĺŃâĺŃâĺŃâĺŃâĺŃâĺŃâĺŃâĺŃâĺŃâĺŃâĺŃâĺŃâĺŃâĺŃâĺŃâĺŃâĺŃâĺŃâĺŃâĺŃâĺŃâĺŃâĺŃâĺŃâĺŃâĺŃâĺŃâĺŃâĺŃâĺŃâĺŃâĺŃâĺŃâĺŃâĺŃâĺŃâĺŃâĺŃâĺŃâĺŃâĺŃâĺŃâĺŃâĺŃâĺŃâĺŃâĺŃâĺŃâĺŃâĺŃâĺŃâĺŃâĺŃâĺŃâĺŃâĺŃâĺŃâĺŃâĺŃâĺŃâĺŃâĺŃâĺŃâĺŃâĺŃâĺŃâĺŃâĺŃâĺŃâĺŃâĺŃâĺŃâĺŃâĺŃâĺŃâĺŃâĺŃâĺŃâĺŃâĺŃâĺŃâĺŃâĺŃâĺŃâĺŃâĺŃâĺŃâĺŃâĺŃâĺŃâĺŃâĺŃâĺŃâĺŃâĺŃâĺŃâĺŃâĺŃâĺŃâĺŃâĺŃâĺŃâĺŃâĺŃâĺŃâĺŃâĺŃâĺŃâĺŃâĺŃâĺŃâĺŃâĺŃâĺŃâĺŃâĺŃâĺŃâĺŃâĺŃâĺŃâĺŃâĺŃâĺŃâĺŃâĺŃâĺŃâĺŃâĺŃâĺŃâĺŃâĺŃâĺŃâĺŃâĺŃâĺŃâĺŃâĺŃâĺŃâĺŃâĺŃâĺŃâĺŃâĺŃâĺŃâĺŃâĺŃâĺŃâĺŃâĺŃâĺŃâĺŃâĺŃâĺŃâĺŃâĺŃâĺŃâĺŃâĺŃâĺŃâĺŃâĺŃâĺŃâĺŃâĺŃâĺŃâĺŃâĺŃâĺŃâĺŃâĺŃâĺŃâĺŃâĺŃâĺŃâĺŃâĺŃâĺŃâĺŃâĺŃâĺŃâĺŃâĺŃâĺŃâĺŃâĺŃâĺŃâĺŃâĺŃâĺŃâĺŃâĺŃâĺŃâĺŃâĺŃâĺŃâĺŃâĺŃâĺŃâĺŃâĺŃâĺŃâĺŃâĺŃâĺŃâĺŃâĺŃâĺŃâĺŃâĺŃâĺŃâĺŃâĺŃâĺŃâĺŃâĺŃâĺŃâĺŃâĺŃâĺŃâĺŃâĺŃâĺŃâĺŃâĺŃâĺŃâĺŃâĺŃâĺŃâĺŃâĺŃâĺŃâĺŃâĺŃâĺŃâĺŃâĺŃâĺŃâĺŃâĺŃâĺŃâĺŃâĺŃâĺŃâĺŃâĺŃâĺŃâĺŃâĺŃâĺŃâĺŃâĺŃâĺŃâĺŃâĺŃâĺŃâĺŃâĺŃâĺŃâĺŃâĺŃâĺŃâĺŃâĺŃâĺŃâĺŃâĺŃâĺŃâĺŃâĺŃâĺŃâĺŃâĺŃâĺŃâĺŃâĺŃâĺŃâĺŃâĺŃâĺŃâĺŃâĺŃâĺŃâĺŃâĺŃâĺŃâĺŃâĺŃâĺŃâĺŃâĺŃâĺŃâĺŃâĺŃâĺŃâĺŃâĺŃâĺŃâĺŃâĺŃâĺŃâĺŃâĺŃâĺŃâĺŃâĺŃâĺŃâĺŃâĺŃâĺŃâĺŃâĺŃâĺŃâĺŃâĺŃâĺŃâĺŃâĺŃâĺŃâĺŃâĺŃâĺŃâĺŃâĺŃâĺŃâĺŃâĺŃâĺŃâĺŃâĺŃâĺŃâĺŃâĺŃâĺŃâĺŃâĺŃâĺŃâĺŃâĺŃâĺŃâĺŃâĺŃâĺŃâĺŃâĺŃâĺŃâĺŃâĺŃâĺŃâĺŃâĺŃâĺŃâĺŃâĺŃâĺŃâĺŃâĺŃâĺŃâĺŃâĺŃâĺŃâĺŃâĺŃâĺŃâĺŃâĺŃâĺŃâĺŃâĺŃâĺŃâĺŃâĺŃâĺŃâĺŃâĺŃâĺŃâĺŃâĺŃâĺŃâĺŃâĺŃâĺŃâĺŃâĺŃâĺŃâĺŃâĺŃâĺŃâĺŃâĺŃâĺŃâĺŃâĺŃâĺŃâĺŃâĺŃâĺŃâĺŃâĺŃâĺŃâĺŃâĺŃâĺŃâĺŃâĺŃâĺŃâĺŃâĺŃâĺŃâĺŃâĺŃ âĺŃâĺŃâĺŃâĺŃâĺŃâĺŃâĺŃâĺŃâĺŃâĺŃâĺŃâĺŃâĺŃâĺŃâĺŃâĺŃâĺŃâĺŃâĺŃâĺŃâĺŃâĺŃâĺŃâĺŃâĺŃâĺŃâĺŃâĺŃâĺŃâĺŃâĺŃâĺŃâĺŃâĺŃâĺŃâĺŃâĺŃâĺŃâĺŃâĺŃâĺŃâĺŃâĺŃâĺŃâĺŃâĺŃâĺŃâĺŃâĺŃâĺŃâĺŃâĺŃâĺŃâĺŃâĺŃâĺŃâĺŃâĺŃâĺŃâĺŃâĺŃâĺŃâĺŃâĺŃâĺŃâĺŃâĺŃâĺŃâĺŃâĺŃâĺŃâĺŃâĺŃâĺŃâĺŃâĺŃâĺŃâĺŃâĺŃâĺŃâĺŃâĺŃâĺŃâĺŃâĺŃâĺŃâĺŃâĺŃâĺŃâĺŃâĺŃâĺŃâĺŃâĺŃâĺŃâĺŃâĺŃâĺŃâĺŃâĺŃâĺŃâĺŃâĺŃâĺŃâĺŃâĺŃâĺŃâĺŃâĺŃâĺŃâĺŃâĺŃâĺŃâĺŃâĺŃâĺŃâĺŃâĺŃâĺŃâĺŃâĺŃâĺŃâĺŃâĺŃâĺŃâĺŃâĺŃâĺŃâĺŃâĺŃâĺŃâĺŃâĺŃâĺŃâĺŃâĺŃâĺŃâĺŃâĺŃâĺŃâĺŃâĺŃâĺŃâĺŃâĺŃâĺŃâĺŃâĺŃâĺŃâĺŃâĺŃâĺŃâĺŃâĺŃâĺŃâĺŃâĺŃâĺŃâĺŃâĺŃâĺŃâĺŃâĺŃâĺŃâĺŃâĺŃâĺŃâĺŃâĺŃâĺŃâĺŃâĺŃâĺŃâĺŃâĺŃâĺŃâĺŃâĺŃâĺŃâĺŃâĺŃâĺŃâĺŃâĺŃâĺŃâĺŃâĺŃâĺŃâĺŃâĺŃâĺŃâĺŃâĺŃâĺŃâĺŃâĺŃâĺŃâĺŃâĺŃâĺŃâĺŃâĺŃâĺŃâĺŃâĺŃâĺŃâĺŃâĺŃâĺŃâĺŃâĺŃâĺŃâĺŃâĺŃâĺŃâĺŃâĺŃâĺŃâĺŃâĺŃâĺŃâĺŃâĺŃâĺŃâĺŃâĺŃâĺŃâĺŃâĺŃâĺŃâĺŃâĺŃâĺŃâĺŃâĺŃâĺŃâĺŃâĺŃâĺŃâĺŃâĺŃâĺŃâĺŃâĺŃâĺŃâĺŃâĺŃâĺŃâĺŃâĺŃâĺŃâĺŃâĺŃâĺŃâĺŃâĺŃ",
      "Ġwel che",
      "Ġschla fen",
      "Í¡ Â°",
      "Ã¤ch lich",
      "pn g",
      "1 20",
      "] ||",
      "a z",
      "p asst",
      "s se",
      "t ra",
      "w ohl",
      "ã ģ",
      "Ġ bau",
      "Ġ XD",
      "au l",
      "ei m",
      "Ġn ot",
      "Ġi dee",
      "Ġh el",
      "Ġh il",
      "it h",
      "Ġa bi",
      "ier te",
      "Ġauf m",
      "Ġwir st",
      "lo s",
      "gg gg",
      "Ġle ben",
      "gesch aut",
      "hau se",
      "Ġinter ess",
      "Ġben ut",
      "!!!*** [",
      "E H",
      "T himo",
      "k ein",
      "n st",
      "Ñ Ĥ",
      "Ġ ra",
      "Ġd anke",
      "ich er",
      "Ġk a",
      "or en",
      "sch n",
      "Ġein s",
      "ge st",
      "ÃŁ e",
      "Ġr icht",
      "pp pp",
      "Ġre ady",
      "ĠG e",
      "ĠH olz",
      "wei se",
      "Ġje der",
      "Ġverst ehe",
      "hhhhhhhhhhhhhhhh hhhhhhhhhhhhhhhh",
      "|| [",
      "unn y",
      "J etzt",
      "X k",
      "^ -",
      "h al",
      "h ier",
      "n ach",
      "v v",
      "Ġ endlich",
      "ĺŃ ðŁ",
      "er ne",
      "Ġd au",
      "st atus",
      "Ġs u",
      "Ġg ra",
      "Ġk n",
      "ll er",
      "Ġsch ul",
      "Ġf in",
      "sch la",
      "sch ul",
      "Ġz B",
      "ur t",
      "ig es",
      "Ġ.. -.",
      "hr en",
      "]. --",
      "Ġgesch afft",
      "Ġ-- ..",
      "ze ich",
      "Ġerst mal",
      "................................ ................................",
      "ÃĦ ÃĦ",
      "4 1",
      "4 33",
      "7 2",
      "T ja",
      "k s",
      "p ff",
      "y st",
      "³ [",
      "â Ĥ¬",
      "ei gen",
      "Ġh Ã¶",
      "in ge",
      "Ã¼ h",
      "Ġf ahr",
      "de l",
      "so ll",
      "Ġj tzt",
      "Ġan d",
      "Ġer zÃ¤h",
      "Ġr andom",
      "Ġ1 2",
      "lo st",
      "Ġdar auf",
      "Ġde utsch",
      "Ġlei der",
      "==== ====",
      "-------- --------",
      "Ġkenn e",
      "Ġmen schen",
      "glau be",
      "Ġkack e",
      "Ġkomple tt",
      "H Ã¤",
      "N G",
      "f s",
      "g oogle",
      "g aben",
      "u wu",
      "ch st",
      "Ġs ehe",
      "Ġsch wester",
      "Ġf ahren",
      "Ġv c",
      "Ġan t",
      "]ðŁ ĺŃ[",
      "Ġ1 00",
      "ste ll",
      "Ġre g",
      "Ġmus ste",
      "Ġlie gt",
      "âĸĴâĸĴâĸĴâĸĴ âĸĴâĸĴâĸĴâĸĴ",
      "Ġschnell er",
      "ĠmÃ¶ glich",
      "Ġwenig er",
      "???????????????????????????????????????????????????????????????? ????????????????????????????????????????????????????????????????",
      "Ġged acht",
      "A https",
      "D A",
      "L K",
      "W ar",
      "W ann",
      "a pp",
      "c o",
      "e y",
      "f r",
      "k atze",
      "m and",
      "o a",
      "o i",
      "v i",
      "Ġ com",
      "rn t",
      "Ġs im",
      "âĸĳâĸĳâĸĳâĸĳâĸĳâĸĳâĸĳâĸĳ âĸĳâĸĳâĸĳ",
      "or e",
      "Ġv o",
      "Ġl eute",
      "Ġb ot",
      "Ġb ald",
      "em a",
      "Ġden en",
      "Ġver gessen",
      "all en",
      "Ġvor her",
      "Ġar bei",
      "40 7",
      "ĠâĢ ŀ",
      "mo in",
      "ats Ã¤chlich",
      "âĸĦ âĸĦ",
      "5 8",
      "6 4",
      "h alten",
      "m acht",
      "p rnt",
      "r ig",
      "s w",
      "w oher",
      "au m",
      "Ġd i",
      "Ġs inn",
      "un ge",
      "ll ig",
      "Ġv ideos",
      "Ġz eug",
      "Ġan f",
      "ĠðŁ ¥",
      "Ġ- .[",
      "Ġst re",
      "Ġwas ser",
      "ĠB e",
      "37 4",
      "ĠR e",
      "Ġbes ch",
      "Ã¤Ã¤Ã¤Ã¤ Ã¤Ã¤Ã¤Ã¤",
      "ÃŁer dem",
      "3 1",
      "9 2",
      "a bi",
      "f il",
      "h alt",
      "v a",
      "y a",
      "µ ðŁ¥",
      "ð Ŀ",
      "Ġ ter",
      "Ġ âĸĳâĸĳâĸĳâĸĳâĸĳâĸĳâĸĳâĸĳâĸĳâĸĳâĸĳâĸĳâĸĳâĸĳâĸĳâĸĳ",
      "Ħ [",
      "ei le",
      "Ġs eine",
      "Ġm ei",
      "oo k",
      "Ġl assen",
      "Ġp hysik",
      "Ġes se",
      "Ġver su",
      "Ġnach her",
      "Ġdein em",
      "Ġgel ernt",
      "Ġen de",
      "AAAAAAAA AAAAAAAA",
      "Ġhoff e",
      "Ġtre ffen",
      "8 22",
      "N N",
      "N ur",
      "] .[",
      "] Â°",
      "a f",
      "h mmmm",
      "l f",
      "n f",
      "s m",
      "v Ã¶",
      "er en",
      "st r",
      "Ġm ega",
      "Ġn u",
      "an der",
      "es se",
      "ab le",
      "sch e",
      "Â° [",
      "Ġsp iele",
      "mal s",
      "ĠT raining",
      "sp ank",
      "rin gen",
      "Ġprogramm ieren",
      "Ġlang sam",
      "Ġ.-- .",
      "dddd dddd",
      "ä¸Ģ áķķ",
      "yst em",
      "( )",
      "6 3",
      "H a",
      "N icht",
      "] ???[",
      "] âĺŃâĺŃâĺŃâĺŃâĺŃâĺŃâĺŃâĺŃâĺŃâĺŃâĺŃâĺŃâĺŃâĺŃâĺŃâĺŃâĺŃâĺŃâĺŃâĺŃâĺŃâĺŃâĺŃâĺŃâĺŃâĺŃâĺŃâĺŃâĺŃâĺŃâĺŃâĺŃâĺŃâĺŃâĺŃâĺŃâĺŃâĺŃâĺŃâĺŃâĺŃâĺŃâĺŃâĺŃâĺŃâĺŃâĺŃâĺŃâĺŃâĺŃâĺŃâĺŃâĺŃâĺŃâĺŃâĺŃâĺŃâĺŃâĺŃâĺŃâĺŃâĺŃâĺŃâĺŃâĺŃâĺŃâĺŃâĺŃâĺŃâĺŃâĺŃâĺŃâĺŃâĺŃâĺŃâĺŃâĺŃâĺŃâĺŃâĺŃâĺŃâĺŃâĺŃâĺŃâĺŃâĺŃâĺŃâĺŃâĺŃâĺŃâĺŃâĺŃâĺŃâĺŃâĺŃâĺŃâĺŃâĺŃâĺŃâĺŃâĺŃâĺŃâĺŃâĺŃâĺŃâĺŃâĺŃâĺŃâĺŃâĺŃâĺŃâĺŃâĺŃâĺŃâĺŃâĺŃâĺŃâĺŃâĺŃâĺŃâĺŃâĺŃâĺŃâĺŃâĺŃâĺŃâĺŃâĺŃâĺŃâĺŃâĺŃâĺŃâĺŃâĺŃâĺŃâĺŃâĺŃâĺŃâĺŃâĺŃâĺŃâĺŃâĺŃâĺŃâĺŃâĺŃâĺŃâĺŃâĺŃâĺŃâĺŃâĺŃâĺŃâĺŃâĺŃâĺŃâĺŃâĺŃâĺŃâĺŃâĺŃâĺŃâĺŃâĺŃâĺŃâĺŃâĺŃâĺŃâĺŃâĺŃâĺŃâĺŃâĺŃâĺŃâĺŃâĺŃâĺŃâĺŃâĺŃâĺŃâĺŃâĺŃâĺŃâĺŃâĺŃâĺŃâĺŃâĺŃâĺŃâĺŃâĺŃâĺŃâĺŃâĺŃâĺŃâĺŃâĺŃâĺŃâĺŃâĺŃâĺŃâĺŃâĺŃâĺŃâĺŃâĺŃâĺŃâĺŃâĺŃâĺŃâĺŃâĺŃâĺŃâĺŃâĺŃâĺŃâĺŃâĺŃâĺŃâĺŃâĺŃâĺŃâĺŃâĺŃâĺŃâĺŃâĺŃâĺŃâĺŃâĺŃâĺŃâĺŃâĺŃâĺŃâĺŃâĺŃâĺŃâĺŃâĺŃâĺŃâĺŃâĺŃâĺŃâĺŃâĺŃâĺŃâĺŃâĺŃâĺŃâĺŃâĺŃâĺŃâĺŃâĺŃâĺŃâĺŃâĺŃâĺŃâĺŃâĺŃâĺŃâĺŃâĺŃâĺŃâĺŃâĺŃâĺŃâĺŃâĺŃâĺŃâĺŃâĺŃâĺŃâĺŃâĺŃâĺŃâĺŃâĺŃâĺŃâĺŃâĺŃâĺŃâĺŃâĺŃâĺŃâĺŃâĺŃâĺŃâĺŃâĺŃâĺŃâĺŃâĺŃâĺŃâĺŃâĺŃâĺŃâĺŃâĺŃâĺŃâĺŃâĺŃâĺŃâĺŃâĺŃâĺŃâĺŃâĺŃâĺŃâĺŃâĺŃâĺŃâĺŃâĺŃâĺŃâĺŃâĺŃâĺŃâĺŃâĺŃâĺŃâĺŃâĺŃâĺŃâĺŃâĺŃâĺŃâĺŃâĺŃâĺŃâĺŃâĺŃâĺŃâĺŃâĺŃâĺŃâĺŃâĺŃâĺŃâĺŃâĺŃâĺŃâĺŃâĺŃâĺŃâĺŃâĺŃâĺŃâĺŃâĺŃâĺŃâĺŃâĺŃâĺŃâĺŃâĺŃâĺŃâĺŃâĺŃâĺŃâĺŃâĺŃâĺŃâĺŃâĺŃâĺŃâĺŃâĺŃâĺŃâĺŃâĺŃâĺŃâĺŃâĺŃâĺŃâĺŃâĺŃâĺŃâĺŃâĺŃâĺŃâĺŃâĺŃâĺŃâĺŃâĺŃâĺŃâĺŃâĺŃâĺŃâĺŃâĺŃâĺŃâĺŃâĺŃâĺŃâĺŃâĺŃâĺŃâĺŃâĺŃâĺŃâĺŃâĺŃâĺŃâĺŃâĺŃâĺŃâĺŃâĺŃâĺŃâĺŃâĺŃâĺŃâĺŃâĺŃâĺŃâĺŃâĺŃâĺŃâĺŃâĺŃâĺŃâĺŃâĺŃâĺŃâĺŃâĺŃâĺŃâĺŃâĺŃâĺŃâĺŃâĺŃâĺŃâĺŃâĺŃâĺŃâĺŃâĺŃâĺŃâĺŃâĺŃâĺŃâĺŃâĺŃâĺŃâĺŃâĺŃâĺŃâĺŃâĺŃâĺŃâĺŃâĺŃâĺŃâĺŃâĺŃâĺŃâĺŃâĺŃâĺŃâĺŃâĺŃâĺŃâĺŃâĺŃâĺŃâĺŃâĺŃâĺŃâĺŃâĺŃâĺŃâĺŃâĺŃâĺŃâĺŃâĺŃâĺŃâĺŃâĺŃâĺŃâĺŃâĺŃâĺŃâĺŃâĺŃâĺŃâĺŃâĺŃâĺŃâĺŃâĺŃâĺŃâĺŃâĺŃâĺŃâĺŃâĺŃâĺŃâĺŃâĺŃâĺŃâĺŃâĺŃâĺŃâĺŃâĺŃâĺŃâĺŃâĺŃâĺŃâĺŃâĺŃâĺŃâĺŃâĺŃâĺŃâĺŃâĺŃâĺŃâĺŃâĺŃâĺŃâĺŃâĺŃâĺŃâĺŃâĺŃâĺŃâĺŃâĺŃâĺŃâĺŃâĺŃâĺŃâĺŃâĺŃâĺŃâĺŃâĺŃâĺŃâĺŃâĺŃâĺŃâĺŃâĺŃâĺŃâĺŃâĺŃâĺŃâĺŃâĺŃâĺŃâĺŃâĺŃâĺŃâĺŃâĺŃâĺŃâĺŃâĺŃâĺŃâĺŃâĺŃâĺŃâĺŃâĺŃâĺŃâĺŃâĺŃâĺŃâĺŃâĺŃâĺŃâĺŃâĺŃâĺŃâĺŃâĺŃâĺŃâĺŃâĺŃâĺŃâĺŃâĺŃâĺŃâĺŃâĺŃâĺŃâĺŃâĺŃâĺŃâĺŃâĺŃâĺŃâĺŃâĺŃâĺŃâĺŃâĺŃâĺŃâĺŃâĺŃâĺŃâĺŃâĺŃâĺŃâĺŃâĺŃâĺŃâĺŃâĺŃâĺŃâĺŃâĺŃâĺŃâĺŃâĺŃâĺŃâĺŃâĺŃâĺŃâĺŃâĺŃâĺŃâĺŃâĺŃâĺŃâĺŃâĺŃâĺŃâĺŃâĺŃâĺŃâĺŃâĺŃâĺŃâĺŃâĺŃâĺŃâĺŃâĺŃâĺŃâĺŃâĺŃâĺŃâĺŃâĺŃâĺŃâĺŃâĺŃâĺŃâĺŃâĺŃâĺŃâĺŃâĺŃâĺŃâĺŃâĺŃâĺŃâĺŃâĺŃâĺŃâĺŃâĺŃâĺŃâĺŃâĺŃâĺŃâĺŃâĺŃâĺŃâĺŃâĺŃâĺŃâĺŃâĺŃâĺŃâĺŃâĺŃâĺŃâĺŃâĺŃâĺŃâĺŃâĺŃâĺŃâĺŃâĺŃâĺŃâĺŃâĺŃâĺŃâĺŃâĺŃâĺŃâĺŃâĺŃâĺŃâĺŃâĺŃâĺŃâĺŃâĺŃâĺŃâĺŃâĺŃâĺŃâĺŃâĺŃâĺŃâĺŃâĺŃâĺŃâĺŃâĺŃâĺŃâĺŃâĺŃâĺŃâĺŃâĺŃâĺŃâĺŃâĺŃâĺŃâĺŃâĺŃâĺŃâĺŃâĺŃâĺŃâĺŃâĺŃâĺŃâĺŃâĺŃâĺŃâĺŃâĺŃâĺŃâĺŃâĺŃâĺŃâĺŃâĺŃâĺŃâĺŃâĺŃâĺŃâĺŃâĺŃâĺŃâĺŃâĺŃâĺŃâĺŃâĺŃâĺŃâĺŃâĺŃâĺŃâĺŃâĺŃâĺŃâĺŃâĺŃâĺŃâĺŃâĺŃâĺŃâĺŃâĺŃâĺŃâĺŃâĺŃâĺŃâĺŃâĺŃâĺŃâĺŃâĺŃâĺŃâĺŃâĺŃâĺŃâĺŃâĺŃâĺŃâĺŃâĺŃâĺŃâĺŃâĺŃâĺŃâĺŃâĺŃâĺŃâĺŃâĺŃâĺŃâĺŃâĺŃâĺŃâĺŃâĺŃâĺŃâĺŃâĺŃâĺŃâĺŃâĺŃâĺŃâĺŃâĺŃâĺŃâĺŃâĺŃâĺŃâĺŃâĺŃâĺŃâĺŃâĺŃâĺŃâĺŃâĺŃâĺŃâĺŃâĺŃâĺŃâĺŃâĺŃâĺŃâĺŃâĺŃâĺŃâĺŃâĺŃâĺŃâĺŃâĺŃâĺŃâĺŃâĺŃâĺŃâĺŃâĺŃâĺŃâĺŃâĺŃâĺŃâĺŃâĺŃâĺŃâĺŃâĺŃâĺŃâĺŃâĺŃâĺŃâĺŃâĺŃâĺŃâĺŃâĺŃâĺŃâĺŃâĺŃâĺŃâĺŃâĺŃâĺŃâĺŃâĺŃâĺŃâĺŃâĺŃâĺŃâĺŃâĺŃâĺŃâĺŃâĺŃâĺŃâĺŃâĺŃâĺŃâĺŃâĺŃâĺŃâĺŃâĺŃâĺŃâĺŃâĺŃâĺŃâĺŃâĺŃâĺŃâĺŃâĺŃâĺŃâĺŃâĺŃâĺŃâĺŃâĺŃâĺŃâĺŃâĺŃâĺŃâĺŃâĺŃâĺŃâĺŃâĺŃâĺŃâĺŃâĺŃâĺŃâĺŃâĺŃâĺŃâĺŃâĺŃâĺŃâĺŃâĺŃâĺŃâĺŃâĺŃâĺŃâĺŃâĺŃâĺŃâĺŃâĺŃâĺŃâĺŃâĺŃâĺŃâĺŃâĺŃâĺŃâĺŃâĺŃâĺŃâĺŃâĺŃâĺŃâĺŃâĺŃâĺŃâĺŃâĺŃâĺŃâĺŃâĺŃâĺŃâĺŃâĺŃâĺŃâĺŃâĺŃâĺŃâĺŃâĺŃâĺŃâĺŃâĺŃâĺŃâĺŃâĺŃâĺŃâĺŃâĺŃâĺŃâĺŃâĺŃâĺŃâĺŃâĺŃâĺŃâĺŃâĺŃâĺŃâĺŃâĺŃâĺŃâĺŃâĺŃâĺŃâĺŃâĺŃâĺŃâĺŃâĺŃâĺŃâĺŃâĺŃâĺŃâĺŃâĺŃâĺŃâĺŃâĺŃâĺŃâĺŃâĺŃâĺŃâĺŃâĺŃâĺŃâĺŃâĺŃâĺŃâĺŃâĺŃâĺŃâĺŃ",
      "o gen",
      "t et",
      "w en",
      "y es",
      "Ð ¸",
      "Ġ ;)[",
      "ch mal",
      "Ġw ichtig",
      "âĸĳâĸĳâĸĳâĸĳâĸĳâĸĳâĸĳâĸĳ âĸĳâĸĪ",
      "at ur",
      "ru ch",
      "âĺŃâĺŃâĺŃâĺŃâĺŃâĺŃâĺŃâĺŃâĺŃâĺŃâĺŃâĺŃâĺŃâĺŃâĺŃâĺŃâĺŃâĺŃâĺŃâĺŃâĺŃâĺŃâĺŃâĺŃâĺŃâĺŃâĺŃâĺŃâĺŃâĺŃâĺŃâĺŃâĺŃâĺŃâĺŃâĺŃâĺŃâĺŃâĺŃâĺŃâĺŃâĺŃâĺŃâĺŃâĺŃâĺŃâĺŃâĺŃâĺŃâĺŃâĺŃâĺŃâĺŃâĺŃâĺŃâĺŃâĺŃâĺŃâĺŃâĺŃâĺŃâĺŃâĺŃâĺŃ âĺŃâĺŃâĺŃâĺŃâĺŃâĺŃâĺŃâĺŃâĺŃâĺŃâĺŃâĺŃ",
      "Ġp unkte",
      "ah len",
      "lich e",
      "Ġ- [",
      "Ġab ge",
      "EEEE EEEE",
      "ĠĠĠĠĠĠĠĠĠĠĠĠĠĠĠĠĠĠĠĠĠĠĠĠĠĠĠĠĠĠĠĠ ĠĠĠĠĠĠĠĠĠĠĠĠĠĠĠĠĠĠĠĠĠĠĠĠĠĠĠĠĠĠĠĠ",
      "âĺŃâĺŃâĺŃâĺŃâĺŃâĺŃâĺŃâĺŃâĺŃâĺŃâĺŃâĺŃâĺŃâĺŃâĺŃâĺŃâĺŃâĺŃâĺŃâĺŃâĺŃâĺŃâĺŃâĺŃâĺŃâĺŃâĺŃâĺŃâĺŃâĺŃâĺŃâĺŃâĺŃâĺŃâĺŃâĺŃâĺŃâĺŃâĺŃâĺŃâĺŃâĺŃâĺŃâĺŃâĺŃâĺŃâĺŃâĺŃâĺŃâĺŃâĺŃâĺŃâĺŃâĺŃâĺŃâĺŃâĺŃâĺŃâĺŃâĺŃâĺŃâĺŃâĺŃâĺŃâĺŃâĺŃâĺŃâĺŃâĺŃâĺŃâĺŃâĺŃâĺŃâĺŃâĺŃâĺŃâĺŃâĺŃâĺŃâĺŃâĺŃâĺŃâĺŃâĺŃâĺŃâĺŃâĺŃâĺŃâĺŃâĺŃâĺŃâĺŃâĺŃâĺŃâĺŃâĺŃâĺŃâĺŃâĺŃâĺŃâĺŃâĺŃâĺŃâĺŃâĺŃâĺŃâĺŃâĺŃâĺŃâĺŃâĺŃâĺŃâĺŃâĺŃâĺŃâĺŃâĺŃâĺŃâĺŃâĺŃâĺŃâĺŃâĺŃâĺŃâĺŃâĺŃâĺŃâĺŃâĺŃâĺŃâĺŃâĺŃâĺŃâĺŃâĺŃâĺŃâĺŃâĺŃâĺŃâĺŃâĺŃâĺŃâĺŃâĺŃâĺŃâĺŃâĺŃâĺŃâĺŃâĺŃâĺŃâĺŃâĺŃâĺŃâĺŃâĺŃâĺŃâĺŃâĺŃâĺŃâĺŃâĺŃâĺŃâĺŃâĺŃâĺŃâĺŃâĺŃâĺŃâĺŃâĺŃâĺŃâĺŃâĺŃâĺŃâĺŃâĺŃâĺŃâĺŃâĺŃâĺŃâĺŃâĺŃâĺŃâĺŃâĺŃâĺŃâĺŃâĺŃâĺŃâĺŃâĺŃâĺŃâĺŃâĺŃâĺŃâĺŃâĺŃâĺŃâĺŃâĺŃâĺŃâĺŃâĺŃâĺŃâĺŃâĺŃâĺŃâĺŃâĺŃâĺŃâĺŃâĺŃâĺŃâĺŃâĺŃâĺŃâĺŃâĺŃâĺŃâĺŃâĺŃâĺŃâĺŃâĺŃâĺŃâĺŃâĺŃâĺŃâĺŃâĺŃâĺŃâĺŃâĺŃâĺŃâĺŃâĺŃâĺŃâĺŃâĺŃâĺŃâĺŃâĺŃâĺŃâĺŃâĺŃâĺŃâĺŃâĺŃâĺŃâĺŃâĺŃâĺŃâĺŃâĺŃâĺŃâĺŃâĺŃâĺŃâĺŃâĺŃâĺŃâĺŃâĺŃâĺŃâĺŃâĺŃâĺŃâĺŃâĺŃâĺŃâĺŃâĺŃâĺŃâĺŃâĺŃâĺŃâĺŃâĺŃâĺŃâĺŃâĺŃâĺŃâĺŃâĺŃâĺŃâĺŃâĺŃâĺŃâĺŃâĺŃâĺŃâĺŃâĺŃâĺŃâĺŃâĺŃâĺŃâĺŃâĺŃâĺŃâĺŃâĺŃâĺŃâĺŃâĺŃâĺŃâĺŃâĺŃâĺŃâĺŃâĺŃâĺŃâĺŃâĺŃâĺŃâĺŃâĺŃâĺŃâĺŃâĺŃâĺŃâĺŃâĺŃâĺŃâĺŃâĺŃâĺŃâĺŃâĺŃâĺŃâĺŃâĺŃâĺŃâĺŃâĺŃâĺŃâĺŃâĺŃâĺŃâĺŃâĺŃâĺŃâĺŃâĺŃâĺŃâĺŃâĺŃâĺŃâĺŃâĺŃâĺŃâĺŃâĺŃâĺŃâĺŃâĺŃâĺŃâĺŃâĺŃâĺŃâĺŃâĺŃâĺŃâĺŃâĺŃâĺŃâĺŃâĺŃâĺŃâĺŃâĺŃâĺŃâĺŃâĺŃâĺŃâĺŃâĺŃâĺŃâĺŃâĺŃâĺŃâĺŃâĺŃâĺŃâĺŃâĺŃâĺŃâĺŃâĺŃâĺŃâĺŃâĺŃâĺŃâĺŃâĺŃâĺŃâĺŃâĺŃâĺŃâĺŃâĺŃâĺŃâĺŃâĺŃâĺŃâĺŃâĺŃâĺŃâĺŃâĺŃâĺŃâĺŃâĺŃâĺŃâĺŃâĺŃâĺŃâĺŃâĺŃâĺŃâĺŃâĺŃâĺŃâĺŃâĺŃâĺŃâĺŃâĺŃâĺŃâĺŃâĺŃâĺŃâĺŃâĺŃâĺŃâĺŃâĺŃâĺŃâĺŃâĺŃâĺŃâĺŃâĺŃâĺŃâĺŃâĺŃâĺŃâĺŃâĺŃâĺŃâĺŃâĺŃâĺŃâĺŃâĺŃâĺŃâĺŃâĺŃâĺŃâĺŃâĺŃâĺŃâĺŃâĺŃâĺŃâĺŃâĺŃâĺŃâĺŃâĺŃâĺŃâĺŃâĺŃâĺŃâĺŃâĺŃâĺŃâĺŃâĺŃâĺŃâĺŃâĺŃâĺŃâĺŃâĺŃâĺŃâĺŃâĺŃâĺŃâĺŃâĺŃâĺŃâĺŃâĺŃâĺŃâĺŃâĺŃâĺŃâĺŃâĺŃâĺŃâĺŃâĺŃâĺŃâĺŃâĺŃâĺŃâĺŃâĺŃâĺŃâĺŃâĺŃâĺŃâĺŃâĺŃâĺŃâĺŃâĺŃâĺŃâĺŃâĺŃâĺŃâĺŃâĺŃâĺŃâĺŃâĺŃâĺŃâĺŃâĺŃâĺŃâĺŃâĺŃâĺŃâĺŃâĺŃâĺŃâĺŃâĺŃâĺŃâĺŃâĺŃâĺŃâĺŃâĺŃâĺŃâĺŃâĺŃâĺŃâĺŃâĺŃâĺŃâĺŃâĺŃâĺŃâĺŃâĺŃâĺŃâĺŃâĺŃâĺŃâĺŃâĺŃâĺŃâĺŃâĺŃâĺŃâĺŃâĺŃâĺŃâĺŃâĺŃâĺŃâĺŃâĺŃâĺŃâĺŃâĺŃâĺŃâĺŃâĺŃâĺŃâĺŃâĺŃâĺŃâĺŃâĺŃâĺŃâĺŃâĺŃâĺŃâĺŃâĺŃâĺŃâĺŃâĺŃâĺŃâĺŃâĺŃâĺŃâĺŃâĺŃâĺŃâĺŃâĺŃâĺŃâĺŃâĺŃâĺŃâĺŃâĺŃâĺŃâĺŃâĺŃâĺŃâĺŃâĺŃâĺŃâĺŃâĺŃâĺŃâĺŃâĺŃâĺŃâĺŃâĺŃâĺŃâĺŃâĺŃâĺŃâĺŃâĺŃâĺŃâĺŃâĺŃâĺŃâĺŃâĺŃâĺŃâĺŃâĺŃâĺŃâĺŃâĺŃâĺŃâĺŃâĺŃâĺŃâĺŃâĺŃâĺŃâĺŃâĺŃâĺŃâĺŃâĺŃâĺŃâĺŃâĺŃâĺŃâĺŃâĺŃâĺŃâĺŃâĺŃâĺŃâĺŃâĺŃâĺŃâĺŃâĺŃâĺŃâĺŃâĺŃâĺŃâĺŃâĺŃâĺŃâĺŃâĺŃâĺŃâĺŃâĺŃâĺŃâĺŃâĺŃâĺŃâĺŃâĺŃâĺŃâĺŃâĺŃâĺŃâĺŃâĺŃâĺŃâĺŃâĺŃâĺŃâĺŃâĺŃâĺŃâĺŃâĺŃâĺŃâĺŃâĺŃâĺŃâĺŃâĺŃâĺŃâĺŃâĺŃâĺŃâĺŃâĺŃâĺŃâĺŃâĺŃâĺŃâĺŃâĺŃâĺŃâĺŃâĺŃâĺŃâĺŃâĺŃâĺŃâĺŃâĺŃâĺŃâĺŃâĺŃâĺŃâĺŃâĺŃâĺŃâĺŃâĺŃâĺŃâĺŃâĺŃâĺŃâĺŃâĺŃâĺŃâĺŃâĺŃâĺŃâĺŃâĺŃâĺŃâĺŃâĺŃâĺŃâĺŃâĺŃâĺŃâĺŃâĺŃâĺŃâĺŃâĺŃâĺŃâĺŃâĺŃ âĺŃâĺŃâĺŃâĺŃâĺŃâĺŃâĺŃâĺŃâĺŃâĺŃâĺŃâĺŃâĺŃâĺŃâĺŃâĺŃâĺŃâĺŃâĺŃâĺŃâĺŃâĺŃâĺŃâĺŃâĺŃâĺŃâĺŃâĺŃâĺŃâĺŃâĺŃâĺŃâĺŃâĺŃâĺŃâĺŃâĺŃâĺŃâĺŃâĺŃâĺŃâĺŃâĺŃâĺŃâĺŃâĺŃâĺŃâĺŃâĺŃâĺŃâĺŃâĺŃâĺŃâĺŃâĺŃâĺŃâĺŃâĺŃâĺŃâĺŃâĺŃâĺŃâĺŃâĺŃâĺŃâĺŃâĺŃâĺŃâĺŃâĺŃâĺŃâĺŃâĺŃâĺŃâĺŃâĺŃ",
      "ĺŃðŁ ĺŃðŁ",
      "]âĺŃâĺŃâĺŃâĺŃâĺŃâĺŃâĺŃâĺŃâĺŃâĺŃâĺŃâĺŃâĺŃâĺŃâĺŃâĺŃâĺŃâĺŃâĺŃâĺŃâĺŃâĺŃâĺŃâĺŃâĺŃâĺŃâĺŃâĺŃâĺŃâĺŃâĺŃâĺŃâĺŃâĺŃâĺŃâĺŃâĺŃâĺŃâĺŃâĺŃâĺŃâĺŃâĺŃâĺŃâĺŃâĺŃâĺŃâĺŃâĺŃâĺŃâĺŃâĺŃâĺŃâĺŃâĺŃâĺŃâĺŃâĺŃâĺŃâĺŃâĺŃâĺŃâĺŃâĺŃâĺŃâĺŃâĺŃâĺŃâĺŃâĺŃâĺŃâĺŃâĺŃâĺŃâĺŃâĺŃâĺŃâĺŃâĺŃâĺŃâĺŃâĺŃâĺŃâĺŃâĺŃâĺŃâĺŃâĺŃâĺŃâĺŃâĺŃâĺŃâĺŃâĺŃâĺŃâĺŃâĺŃâĺŃâĺŃâĺŃâĺŃâĺŃâĺŃâĺŃâĺŃâĺŃâĺŃâĺŃâĺŃâĺŃâĺŃâĺŃâĺŃâĺŃâĺŃâĺŃâĺŃâĺŃâĺŃâĺŃâĺŃâĺŃâĺŃâĺŃâĺŃâĺŃâĺŃâĺŃâĺŃâĺŃâĺŃâĺŃâĺŃâĺŃâĺŃâĺŃâĺŃâĺŃâĺŃâĺŃâĺŃâĺŃâĺŃâĺŃâĺŃâĺŃâĺŃâĺŃâĺŃâĺŃâĺŃâĺŃâĺŃâĺŃâĺŃâĺŃâĺŃâĺŃâĺŃâĺŃâĺŃâĺŃâĺŃâĺŃâĺŃâĺŃâĺŃâĺŃâĺŃâĺŃâĺŃâĺŃâĺŃâĺŃâĺŃâĺŃâĺŃâĺŃâĺŃâĺŃâĺŃâĺŃâĺŃâĺŃâĺŃâĺŃâĺŃâĺŃâĺŃâĺŃâĺŃâĺŃâĺŃâĺŃâĺŃâĺŃâĺŃâĺŃâĺŃâĺŃâĺŃâĺŃâĺŃâĺŃâĺŃâĺŃâĺŃâĺŃâĺŃâĺŃâĺŃâĺŃâĺŃâĺŃâĺŃâĺŃâĺŃâĺŃâĺŃâĺŃâĺŃâĺŃâĺŃâĺŃâĺŃâĺŃâĺŃâĺŃâĺŃâĺŃâĺŃâĺŃâĺŃâĺŃâĺŃâĺŃâĺŃâĺŃâĺŃâĺŃâĺŃâĺŃâĺŃâĺŃâĺŃâĺŃâĺŃâĺŃâĺŃâĺŃâĺŃâĺŃâĺŃâĺŃâĺŃâĺŃâĺŃâĺŃâĺŃâĺŃâĺŃâĺŃâĺŃâĺŃâĺŃâĺŃâĺŃâĺŃâĺŃâĺŃâĺŃâĺŃâĺŃâĺŃâĺŃâĺŃâĺŃâĺŃâĺŃâĺŃâĺŃâĺŃâĺŃâĺŃâĺŃâĺŃâĺŃâĺŃâĺŃâĺŃâĺŃâĺŃâĺŃâĺŃâĺŃâĺŃâĺŃâĺŃâĺŃâĺŃâĺŃâĺŃâĺŃâĺŃâĺŃâĺŃâĺŃâĺŃâĺŃâĺŃâĺŃâĺŃâĺŃâĺŃâĺŃâĺŃâĺŃâĺŃâĺŃâĺŃâĺŃâĺŃâĺŃâĺŃâĺŃâĺŃâĺŃâĺŃâĺŃâĺŃâĺŃâĺŃâĺŃâĺŃâĺŃâĺŃâĺŃâĺŃâĺŃâĺŃâĺŃâĺŃâĺŃâĺŃâĺŃâĺŃâĺŃâĺŃâĺŃâĺŃâĺŃâĺŃâĺŃâĺŃâĺŃâĺŃâĺŃâĺŃâĺŃâĺŃâĺŃâĺŃâĺŃâĺŃâĺŃâĺŃâĺŃâĺŃâĺŃâĺŃâĺŃâĺŃâĺŃâĺŃâĺŃâĺŃâĺŃâĺŃâĺŃâĺŃâĺŃâĺŃâĺŃâĺŃâĺŃâĺŃâĺŃâĺŃâĺŃâĺŃâĺŃâĺŃâĺŃâĺŃâĺŃâĺŃâĺŃâĺŃâĺŃâĺŃâĺŃâĺŃâĺŃâĺŃâĺŃâĺŃâĺŃâĺŃâĺŃâĺŃâĺŃâĺŃâĺŃâĺŃâĺŃâĺŃâĺŃâĺŃâĺŃâĺŃâĺŃâĺŃâĺŃâĺŃâĺŃâĺŃâĺŃâĺŃâĺŃâĺŃâĺŃâĺŃâĺŃâĺŃâĺŃâĺŃâĺŃâĺŃâĺŃâĺŃâĺŃâĺŃâĺŃâĺŃâĺŃâĺŃâĺŃâĺŃâĺŃâĺŃâĺŃâĺŃâĺŃâĺŃâĺŃâĺŃâĺŃâĺŃâĺŃâĺŃâĺŃâĺŃâĺŃâĺŃâĺŃâĺŃâĺŃâĺŃâĺŃâĺŃâĺŃâĺŃâĺŃâĺŃâĺŃâĺŃâĺŃâĺŃâĺŃâĺŃâĺŃâĺŃâĺŃâĺŃâĺŃâĺŃâĺŃâĺŃâĺŃâĺŃâĺŃâĺŃâĺŃâĺŃâĺŃâĺŃâĺŃâĺŃâĺŃâĺŃâĺŃâĺŃâĺŃâĺŃâĺŃâĺŃâĺŃâĺŃâĺŃâĺŃâĺŃâĺŃâĺŃâĺŃâĺŃâĺŃâĺŃâĺŃâĺŃâĺŃâĺŃâĺŃâĺŃâĺŃâĺŃâĺŃâĺŃâĺŃâĺŃâĺŃâĺŃâĺŃâĺŃâĺŃâĺŃâĺŃâĺŃâĺŃâĺŃâĺŃâĺŃâĺŃâĺŃâĺŃâĺŃâĺŃâĺŃâĺŃâĺŃâĺŃâĺŃâĺŃâĺŃâĺŃâĺŃâĺŃâĺŃâĺŃâĺŃâĺŃâĺŃâĺŃâĺŃâĺŃâĺŃâĺŃâĺŃâĺŃâĺŃâĺŃâĺŃâĺŃâĺŃâĺŃâĺŃâĺŃâĺŃâĺŃâĺŃâĺŃâĺŃâĺŃâĺŃâĺŃâĺŃâĺŃâĺŃâĺŃâĺŃâĺŃâĺŃâĺŃâĺŃâĺŃâĺŃâĺŃâĺŃâĺŃâĺŃâĺŃâĺŃâĺŃâĺŃâĺŃâĺŃâĺŃâĺŃâĺŃâĺŃâĺŃâĺŃâĺŃâĺŃâĺŃâĺŃâĺŃâĺŃâĺŃâĺŃâĺŃâĺŃâĺŃâĺŃâĺŃâĺŃâĺŃâĺŃâĺŃâĺŃâĺŃâĺŃâĺŃâĺŃâĺŃâĺŃâĺŃâĺŃâĺŃâĺŃâĺŃâĺŃâĺŃâĺŃâĺŃâĺŃâĺŃâĺŃâĺŃâĺŃâĺŃâĺŃâĺŃâĺŃâĺŃâĺŃâĺŃâĺŃâĺŃâĺŃâĺŃâĺŃâĺŃâĺŃâĺŃâĺŃâĺŃâĺŃâĺŃâĺŃâĺŃâĺŃâĺŃâĺŃâĺŃâĺŃâĺŃâĺŃâĺŃâĺŃâĺŃâĺŃâĺŃâĺŃâĺŃâĺŃâĺŃâĺŃâĺŃâĺŃâĺŃâĺŃâĺŃâĺŃâĺŃâĺŃâĺŃâĺŃâĺŃâĺŃâĺŃâĺŃâĺŃâĺŃâĺŃâĺŃâĺŃâĺŃâĺŃâĺŃâĺŃâĺŃâĺŃâĺŃâĺŃâĺŃâĺŃâĺŃâĺŃâĺŃâĺŃâĺŃâĺŃâĺŃâĺŃâĺŃâĺŃâĺŃâĺŃâĺŃâĺŃâĺŃâĺŃâĺŃâĺŃâĺŃâĺŃâĺŃâĺŃâĺŃâĺŃâĺŃâĺŃâĺŃâĺŃâĺŃâĺŃâĺŃâĺŃâĺŃâĺŃâĺŃâĺŃâĺŃâĺŃâĺŃâĺŃâĺŃâĺŃâĺŃâĺŃâĺŃâĺŃâĺŃâĺŃâĺŃâĺŃâĺŃâĺŃâĺŃâĺŃâĺŃâĺŃâĺŃâĺŃâĺŃâĺŃâĺŃâĺŃâĺŃâĺŃâĺŃâĺŃâĺŃâĺŃâĺŃâĺŃâĺŃâĺŃâĺŃâĺŃâĺŃâĺŃâĺŃâĺŃâĺŃâĺŃâĺŃâĺŃâĺŃâĺŃâĺŃâĺŃâĺŃâĺŃâĺŃâĺŃâĺŃâĺŃâĺŃâĺŃâĺŃâĺŃâĺŃâĺŃâĺŃâĺŃâĺŃâĺŃâĺŃâĺŃâĺŃâĺŃâĺŃâĺŃâĺŃâĺŃâĺŃâĺŃâĺŃâĺŃâĺŃâĺŃâĺŃâĺŃâĺŃâĺŃâĺŃâĺŃâĺŃâĺŃâĺŃâĺŃâĺŃâĺŃâĺŃâĺŃâĺŃâĺŃâĺŃâĺŃâĺŃâĺŃâĺŃâĺŃâĺŃâĺŃâĺŃâĺŃâĺŃâĺŃâĺŃâĺŃâĺŃâĺŃâĺŃâĺŃâĺŃâĺŃâĺŃâĺŃâĺŃâĺŃâĺŃâĺŃâĺŃâĺŃâĺŃâĺŃâĺŃâĺŃâĺŃâĺŃâĺŃâĺŃâĺŃâĺŃâĺŃâĺŃâĺŃâĺŃâĺŃâĺŃâĺŃâĺŃâĺŃâĺŃâĺŃâĺŃâĺŃâĺŃâĺŃâĺŃâĺŃâĺŃâĺŃâĺŃâĺŃâĺŃâĺŃâĺŃâĺŃâĺŃâĺŃâĺŃâĺŃâĺŃâĺŃâĺŃâĺŃâĺŃâĺŃâĺŃâĺŃâĺŃâĺŃâĺŃâĺŃâĺŃâĺŃâĺŃâĺŃâĺŃâĺŃâĺŃâĺŃâĺŃâĺŃâĺŃâĺŃâĺŃâĺŃâĺŃâĺŃâĺŃâĺŃâĺŃâĺŃâĺŃâĺŃâĺŃâĺŃâĺŃâĺŃâĺŃâĺŃâĺŃâĺŃâĺŃâĺŃâĺŃâĺŃâĺŃâĺŃâĺŃâĺŃâĺŃâĺŃâĺŃâĺŃâĺŃâĺŃâĺŃâĺŃâĺŃâĺŃâĺŃâĺŃâĺŃâĺŃâĺŃâĺŃâĺŃâĺŃâĺŃâĺŃâĺŃâĺŃâĺŃâĺŃâĺŃâĺŃâĺŃâĺŃâĺŃâĺŃâĺŃâĺŃâĺŃâĺŃâĺŃâĺŃâĺŃâĺŃâĺŃâĺŃâĺŃâĺŃâĺŃâĺŃâĺŃâĺŃâĺŃâĺŃâĺŃâĺŃâĺŃâĺŃâĺŃâĺŃâĺŃâĺŃâĺŃâĺŃâĺŃ âĺŃâĺŃâĺŃâĺŃâĺŃâĺŃâĺŃâĺŃâĺŃâĺŃâĺŃâĺŃâĺŃâĺŃâĺŃâĺŃâĺŃâĺŃâĺŃâĺŃâĺŃâĺŃâĺŃâĺŃâĺŃâĺŃâĺŃâĺŃâĺŃâĺŃâĺŃâĺŃâĺŃâĺŃâĺŃâĺŃâĺŃâĺŃâĺŃâĺŃâĺŃâĺŃâĺŃâĺŃâĺŃâĺŃâĺŃâĺŃâĺŃâĺŃâĺŃâĺŃâĺŃâĺŃâĺŃâĺŃâĺŃâĺŃâĺŃâĺŃâĺŃâĺŃâĺŃâĺŃâĺŃâĺŃâĺŃâĺŃâĺŃâĺŃâĺŃâĺŃâĺŃâĺŃâĺŃâĺŃâĺŃâĺŃâĺŃâĺŃâĺŃâĺŃâĺŃâĺŃâĺŃâĺŃâĺŃâĺŃâĺŃâĺŃâĺŃâĺŃâĺŃâĺŃâĺŃâĺŃâĺŃâĺŃâĺŃâĺŃâĺŃâĺŃâĺŃâĺŃâĺŃâĺŃâĺŃâĺŃâĺŃâĺŃâĺŃâĺŃâĺŃâĺŃâĺŃâĺŃâĺŃâĺŃâĺŃâĺŃâĺŃâĺŃâĺŃâĺŃâĺŃâĺŃâĺŃâĺŃâĺŃâĺŃâĺŃâĺŃâĺŃâĺŃâĺŃâĺŃâĺŃâĺŃâĺŃâĺŃâĺŃâĺŃâĺŃâĺŃâĺŃâĺŃâĺŃâĺŃâĺŃâĺŃâĺŃâĺŃâĺŃâĺŃâĺŃâĺŃâĺŃâĺŃâĺŃâĺŃâĺŃâĺŃâĺŃâĺŃâĺŃâĺŃâĺŃâĺŃâĺŃâĺŃâĺŃâĺŃâĺŃâĺŃâĺŃâĺŃâĺŃâĺŃâĺŃâĺŃâĺŃâĺŃâĺŃâĺŃâĺŃâĺŃâĺŃâĺŃâĺŃâĺŃâĺŃâĺŃâĺŃâĺŃâĺŃâĺŃâĺŃâĺŃâĺŃâĺŃâĺŃâĺŃâĺŃâĺŃâĺŃâĺŃâĺŃâĺŃâĺŃâĺŃâĺŃâĺŃâĺŃâĺŃâĺŃâĺŃâĺŃâĺŃâĺŃâĺŃâĺŃâĺŃâĺŃâĺŃâĺŃâĺŃâĺŃâĺŃâĺŃâĺŃâĺŃâĺŃâĺŃâĺŃâĺŃâĺŃâĺŃâĺŃâĺŃâĺŃâĺŃâĺŃâĺŃâĺŃâĺŃâĺŃâĺŃâĺŃâĺŃâĺŃâĺŃâĺŃâĺŃâĺŃâĺŃâĺŃâĺŃâĺŃâĺŃâĺŃâĺŃâĺŃâĺŃâĺŃâĺŃâĺŃâĺŃâĺŃâĺŃâĺŃâĺŃâĺŃâĺŃâĺŃâĺŃâĺŃâĺŃâĺŃâĺŃâĺŃâĺŃâĺŃâĺŃâĺŃâĺŃâĺŃâĺŃâĺŃâĺŃâĺŃâĺŃâĺŃâĺŃâĺŃâĺŃâĺŃâĺŃâĺŃâĺŃâĺŃâĺŃâĺŃâĺŃâĺŃâĺŃâĺŃâĺŃâĺŃâĺŃâĺŃâĺŃâĺŃâĺŃâĺŃâĺŃâĺŃâĺŃâĺŃâĺŃâĺŃâĺŃâĺŃâĺŃâĺŃâĺŃâĺŃâĺŃâĺŃâĺŃâĺŃâĺŃâĺŃâĺŃâĺŃâĺŃâĺŃâĺŃâĺŃâĺŃâĺŃâĺŃâĺŃâĺŃâĺŃâĺŃâĺŃâĺŃâĺŃâĺŃâĺŃâĺŃâĺŃâĺŃâĺŃâĺŃâĺŃâĺŃâĺŃâĺŃâĺŃâĺŃâĺŃâĺŃâĺŃâĺŃâĺŃâĺŃâĺŃâĺŃâĺŃâĺŃâĺŃâĺŃâĺŃâĺŃâĺŃâĺŃâĺŃâĺŃâĺŃâĺŃâĺŃâĺŃâĺŃâĺŃâĺŃâĺŃâĺŃâĺŃâĺŃâĺŃâĺŃâĺŃâĺŃâĺŃâĺŃâĺŃâĺŃâĺŃâĺŃâĺŃâĺŃâĺŃâĺŃâĺŃâĺŃâĺŃâĺŃâĺŃâĺŃâĺŃâĺŃâĺŃâĺŃâĺŃâĺŃâĺŃâĺŃâĺŃâĺŃâĺŃâĺŃâĺŃâĺŃâĺŃâĺŃâĺŃâĺŃâĺŃâĺŃâĺŃâĺŃâĺŃâĺŃâĺŃâĺŃâĺŃâĺŃâĺŃâĺŃâĺŃâĺŃâĺŃâĺŃâĺŃâĺŃâĺŃâĺŃâĺŃâĺŃâĺŃâĺŃâĺŃâĺŃâĺŃâĺŃâĺŃâĺŃâĺŃâĺŃâĺŃâĺŃâĺŃâĺŃâĺŃâĺŃâĺŃâĺŃâĺŃâĺŃâĺŃâĺŃâĺŃâĺŃâĺŃâĺŃâĺŃâĺŃâĺŃâĺŃâĺŃâĺŃâĺŃâĺŃâĺŃâĺŃâĺŃâĺŃâĺŃâĺŃâĺŃâĺŃâĺŃâĺŃâĺŃâĺŃâĺŃâĺŃâĺŃâĺŃâĺŃâĺŃâĺŃâĺŃâĺŃâĺŃâĺŃâĺŃâĺŃâĺŃâĺŃâĺŃâĺŃâĺŃâĺŃâĺŃâĺŃâĺŃâĺŃâĺŃâĺŃâĺŃâĺŃâĺŃâĺŃâĺŃâĺŃâĺŃâĺŃâĺŃâĺŃâĺŃâĺŃâĺŃâĺŃâĺŃâĺŃâĺŃâĺŃâĺŃâĺŃâĺŃâĺŃâĺŃâĺŃâĺŃâĺŃâĺŃâĺŃâĺŃâĺŃâĺŃâĺŃâĺŃâĺŃâĺŃâĺŃâĺŃâĺŃâĺŃâĺŃâĺŃâĺŃâĺŃâĺŃâĺŃâĺŃâĺŃâĺŃâĺŃâĺŃâĺŃâĺŃâĺŃâĺŃâĺŃâĺŃâĺŃâĺŃâĺŃâĺŃâĺŃâĺŃâĺŃâĺŃâĺŃâĺŃâĺŃâĺŃâĺŃâĺŃâĺŃâĺŃâĺŃâĺŃâĺŃâĺŃâĺŃâĺŃâĺŃâĺŃâĺŃâĺŃâĺŃâĺŃâĺŃâĺŃâĺŃâĺŃâĺŃâĺŃâĺŃâĺŃâĺŃâĺŃâĺŃâĺŃâĺŃâĺŃâĺŃâĺŃâĺŃâĺŃâĺŃâĺŃâĺŃâĺŃâĺŃâĺŃâĺŃâĺŃâĺŃâĺŃâĺŃâĺŃâĺŃâĺŃâĺŃâĺŃâĺŃâĺŃâĺŃâĺŃâĺŃâĺŃâĺŃâĺŃâĺŃâĺŃâĺŃâĺŃâĺŃâĺŃâĺŃâĺŃâĺŃâĺŃâĺŃâĺŃâĺŃâĺŃâĺŃâĺŃâĺŃâĺŃâĺŃâĺŃâĺŃâĺŃâĺŃâĺŃâĺŃâĺŃâĺŃâĺŃâĺŃâĺŃâĺŃâĺŃâĺŃâĺŃâĺŃâĺŃâĺŃâĺŃâĺŃâĺŃâĺŃâĺŃâĺŃâĺŃâĺŃâĺŃâĺŃâĺŃâĺŃâĺŃâĺŃâĺŃâĺŃâĺŃâĺŃâĺŃâĺŃâĺŃâĺŃâĺŃâĺŃâĺŃâĺŃâĺŃâĺŃâĺŃâĺŃâĺŃâĺŃâĺŃâĺŃâĺŃâĺŃâĺŃâĺŃâĺŃâĺŃâĺŃâĺŃâĺŃâĺŃâĺŃâĺŃâĺŃâĺŃâĺŃâĺŃâĺŃâĺŃâĺŃâĺŃâĺŃâĺŃâĺŃâĺŃâĺŃâĺŃâĺŃâĺŃâĺŃâĺŃâĺŃâĺŃâĺŃâĺŃâĺŃâĺŃâĺŃâĺŃâĺŃâĺŃâĺŃâĺŃâĺŃâĺŃâĺŃâĺŃâĺŃâĺŃâĺŃâĺŃâĺŃâĺŃâĺŃâĺŃâĺŃâĺŃâĺŃâĺŃâĺŃâĺŃâĺŃâĺŃâĺŃâĺŃâĺŃâĺŃâĺŃâĺŃâĺŃâĺŃâĺŃâĺŃâĺŃâĺŃâĺŃâĺŃâĺŃâĺŃâĺŃâĺŃâĺŃâĺŃâĺŃâĺŃâĺŃâĺŃâĺŃâĺŃâĺŃâĺŃâĺŃâĺŃâĺŃâĺŃâĺŃâĺŃâĺŃâĺŃâĺŃâĺŃâĺŃâĺŃâĺŃâĺŃâĺŃâĺŃâĺŃâĺŃâĺŃâĺŃâĺŃâĺŃâĺŃâĺŃâĺŃâĺŃâĺŃâĺŃâĺŃâĺŃâĺŃâĺŃâĺŃâĺŃâĺŃâĺŃ",
      "A CH",
      "E TZ",
      "M an",
      "N Ã¶",
      "g j",
      "g et",
      "g anz",
      "j aaaaaaaa",
      "k om",
      "n p",
      "s icht",
      "u ii",
      "ã Ĥ",
      "Ġ /",
      "Ġ Ã¤",
      "Ġd atei",
      "Ġn amen",
      "an s",
      "an tw",
      "oo h",
      "Ġh ol",
      "at zen",
      "on der",
      "eh st",
      "em p",
      "]ðŁ Ĳ",
      "la gen",
      "Ġaus ge",
      "Ġkl ingt",
      "ha ft",
      "Ġar e",
      "?! ?[",
      "Ġgen er",
      "Ġwoll en",
      "âĸĪâĸĪâĸĪâĸĪâĸĪâĸĪâĸĪâĸĪâĸĪâĸĪâĸĪâĸĪâĸĪâĸĪâĸĪâĸĪ âĸĪâĸĪâĸĪâĸĪâĸĪâĸĪâĸĪâĸĪ",
      "!!!!!!!! !!!!!!!!",
      "ui ui",
      "âĶĢâĶĢâĶĢâĶĢ âĶĢâĶĢâĶĢâĶĢ",
      "++ ++",
      "Ġletz te",
      "(( ((",
      "yyyyyyyyyyyyyyyy yyyyyyyyyyyyyyyy",
      "Ġdr an",
      "ðŁ«ĥðŁ«ĥðŁ«ĥðŁ«ĥðŁ«ĥðŁ«ĥðŁ«ĥðŁ«ĥðŁ«ĥðŁ«ĥðŁ«ĥðŁ«ĥðŁ«ĥðŁ«ĥðŁ«ĥðŁ«ĥ ðŁ«ĥðŁ«ĥðŁ«ĥðŁ«ĥðŁ«ĥðŁ«ĥðŁ«ĥðŁ«ĥðŁ«ĥðŁ«ĥðŁ«ĥðŁ«ĥðŁ«ĥðŁ«ĥðŁ«ĥðŁ«ĥ",
      "kenn st",
      "Ġâ İ",
      "ĠnÃ¤ch ste",
      "Ġfur by",
      "]âĺŃâĺŃâĺŃâĺŃâĺŃâĺŃâĺŃâĺŃâĺŃâĺŃâĺŃâĺŃâĺŃâĺŃâĺŃâĺŃâĺŃâĺŃâĺŃâĺŃâĺŃâĺŃâĺŃâĺŃâĺŃâĺŃâĺŃâĺŃâĺŃâĺŃâĺŃâĺŃâĺŃâĺŃâĺŃâĺŃâĺŃâĺŃâĺŃâĺŃâĺŃâĺŃâĺŃâĺŃâĺŃâĺŃâĺŃâĺŃâĺŃâĺŃâĺŃâĺŃâĺŃâĺŃâĺŃâĺŃâĺŃâĺŃâĺŃâĺŃâĺŃâĺŃâĺŃâĺŃâĺŃâĺŃâĺŃâĺŃâĺŃâĺŃâĺŃâĺŃâĺŃâĺŃâĺŃâĺŃâĺŃâĺŃâĺŃâĺŃâĺŃâĺŃâĺŃâĺŃâĺŃâĺŃâĺŃâĺŃâĺŃâĺŃâĺŃâĺŃâĺŃâĺŃâĺŃâĺŃâĺŃâĺŃâĺŃâĺŃâĺŃâĺŃâĺŃâĺŃâĺŃâĺŃâĺŃâĺŃâĺŃâĺŃâĺŃâĺŃâĺŃâĺŃâĺŃâĺŃâĺŃâĺŃâĺŃâĺŃâĺŃâĺŃâĺŃâĺŃâĺŃâĺŃâĺŃâĺŃâĺŃâĺŃâĺŃâĺŃâĺŃâĺŃâĺŃâĺŃâĺŃâĺŃâĺŃâĺŃâĺŃâĺŃâĺŃâĺŃâĺŃâĺŃâĺŃâĺŃâĺŃâĺŃâĺŃâĺŃâĺŃâĺŃâĺŃâĺŃâĺŃâĺŃâĺŃâĺŃâĺŃâĺŃâĺŃâĺŃâĺŃâĺŃâĺŃâĺŃâĺŃâĺŃâĺŃâĺŃâĺŃâĺŃâĺŃâĺŃâĺŃâĺŃâĺŃâĺŃâĺŃâĺŃâĺŃâĺŃâĺŃâĺŃâĺŃâĺŃâĺŃâĺŃâĺŃâĺŃâĺŃâĺŃâĺŃâĺŃâĺŃâĺŃâĺŃâĺŃâĺŃâĺŃâĺŃâĺŃâĺŃâĺŃâĺŃâĺŃâĺŃâĺŃâĺŃâĺŃâĺŃâĺŃâĺŃâĺŃâĺŃâĺŃâĺŃâĺŃâĺŃâĺŃâĺŃâĺŃâĺŃâĺŃâĺŃâĺŃâĺŃâĺŃâĺŃâĺŃâĺŃâĺŃâĺŃâĺŃâĺŃâĺŃâĺŃâĺŃâĺŃâĺŃâĺŃâĺŃâĺŃâĺŃâĺŃâĺŃâĺŃâĺŃâĺŃâĺŃâĺŃâĺŃâĺŃâĺŃâĺŃâĺŃâĺŃâĺŃâĺŃâĺŃâĺŃâĺŃâĺŃâĺŃâĺŃâĺŃâĺŃâĺŃâĺŃâĺŃâĺŃâĺŃâĺŃâĺŃâĺŃâĺŃâĺŃâĺŃâĺŃâĺŃâĺŃâĺŃâĺŃâĺŃâĺŃâĺŃâĺŃâĺŃâĺŃâĺŃâĺŃâĺŃâĺŃâĺŃâĺŃâĺŃâĺŃâĺŃâĺŃâĺŃâĺŃâĺŃâĺŃâĺŃâĺŃâĺŃâĺŃâĺŃâĺŃâĺŃâĺŃâĺŃâĺŃâĺŃâĺŃâĺŃâĺŃâĺŃâĺŃâĺŃâĺŃâĺŃâĺŃâĺŃâĺŃâĺŃâĺŃâĺŃâĺŃâĺŃâĺŃâĺŃâĺŃâĺŃâĺŃâĺŃâĺŃâĺŃâĺŃâĺŃâĺŃâĺŃâĺŃâĺŃâĺŃâĺŃâĺŃâĺŃâĺŃâĺŃâĺŃâĺŃâĺŃâĺŃâĺŃâĺŃâĺŃâĺŃâĺŃâĺŃâĺŃâĺŃâĺŃâĺŃâĺŃâĺŃâĺŃâĺŃâĺŃâĺŃâĺŃâĺŃâĺŃâĺŃâĺŃâĺŃâĺŃâĺŃâĺŃâĺŃâĺŃâĺŃâĺŃâĺŃâĺŃâĺŃâĺŃâĺŃâĺŃâĺŃâĺŃâĺŃâĺŃâĺŃâĺŃâĺŃâĺŃâĺŃâĺŃâĺŃâĺŃâĺŃâĺŃâĺŃâĺŃâĺŃâĺŃâĺŃâĺŃâĺŃâĺŃâĺŃâĺŃâĺŃâĺŃâĺŃâĺŃâĺŃâĺŃâĺŃâĺŃâĺŃâĺŃâĺŃâĺŃâĺŃâĺŃâĺŃâĺŃâĺŃâĺŃâĺŃâĺŃâĺŃâĺŃâĺŃâĺŃâĺŃâĺŃâĺŃâĺŃâĺŃâĺŃâĺŃâĺŃâĺŃâĺŃâĺŃâĺŃâĺŃâĺŃâĺŃâĺŃâĺŃâĺŃâĺŃâĺŃâĺŃâĺŃâĺŃâĺŃâĺŃâĺŃâĺŃâĺŃâĺŃâĺŃâĺŃâĺŃâĺŃâĺŃâĺŃâĺŃâĺŃâĺŃâĺŃâĺŃâĺŃâĺŃâĺŃâĺŃâĺŃâĺŃâĺŃâĺŃâĺŃâĺŃâĺŃâĺŃâĺŃâĺŃâĺŃâĺŃâĺŃâĺŃâĺŃâĺŃâĺŃâĺŃâĺŃâĺŃâĺŃâĺŃâĺŃâĺŃâĺŃâĺŃâĺŃâĺŃâĺŃâĺŃâĺŃâĺŃâĺŃâĺŃâĺŃâĺŃâĺŃâĺŃâĺŃâĺŃâĺŃâĺŃâĺŃâĺŃâĺŃâĺŃâĺŃâĺŃâĺŃâĺŃâĺŃâĺŃâĺŃâĺŃâĺŃâĺŃâĺŃâĺŃâĺŃâĺŃâĺŃâĺŃâĺŃâĺŃâĺŃâĺŃâĺŃâĺŃâĺŃâĺŃâĺŃâĺŃâĺŃâĺŃâĺŃâĺŃâĺŃâĺŃâĺŃâĺŃâĺŃâĺŃâĺŃâĺŃâĺŃâĺŃâĺŃâĺŃâĺŃâĺŃâĺŃâĺŃâĺŃâĺŃâĺŃâĺŃâĺŃâĺŃâĺŃâĺŃâĺŃâĺŃâĺŃâĺŃâĺŃâĺŃâĺŃâĺŃâĺŃâĺŃâĺŃâĺŃâĺŃâĺŃâĺŃâĺŃâĺŃâĺŃâĺŃâĺŃâĺŃâĺŃâĺŃâĺŃâĺŃâĺŃâĺŃâĺŃâĺŃâĺŃâĺŃâĺŃâĺŃâĺŃâĺŃâĺŃâĺŃâĺŃâĺŃâĺŃâĺŃâĺŃâĺŃâĺŃâĺŃâĺŃâĺŃâĺŃâĺŃâĺŃâĺŃâĺŃâĺŃâĺŃâĺŃâĺŃâĺŃâĺŃâĺŃâĺŃâĺŃâĺŃâĺŃâĺŃâĺŃâĺŃâĺŃâĺŃâĺŃâĺŃâĺŃâĺŃâĺŃâĺŃâĺŃâĺŃâĺŃâĺŃâĺŃâĺŃâĺŃâĺŃâĺŃâĺŃâĺŃâĺŃâĺŃâĺŃâĺŃâĺŃâĺŃâĺŃâĺŃâĺŃâĺŃâĺŃâĺŃâĺŃâĺŃâĺŃâĺŃâĺŃâĺŃâĺŃâĺŃâĺŃâĺŃâĺŃâĺŃâĺŃâĺŃâĺŃâĺŃâĺŃâĺŃâĺŃâĺŃâĺŃâĺŃâĺŃâĺŃâĺŃâĺŃâĺŃâĺŃâĺŃâĺŃâĺŃâĺŃâĺŃâĺŃâĺŃâĺŃâĺŃâĺŃâĺŃâĺŃâĺŃâĺŃâĺŃâĺŃâĺŃâĺŃâĺŃâĺŃâĺŃâĺŃâĺŃâĺŃâĺŃâĺŃâĺŃâĺŃâĺŃâĺŃâĺŃâĺŃâĺŃâĺŃâĺŃâĺŃâĺŃâĺŃâĺŃâĺŃâĺŃâĺŃâĺŃâĺŃâĺŃâĺŃâĺŃâĺŃâĺŃâĺŃâĺŃâĺŃâĺŃâĺŃâĺŃâĺŃâĺŃâĺŃâĺŃâĺŃâĺŃâĺŃâĺŃâĺŃâĺŃâĺŃâĺŃâĺŃâĺŃâĺŃâĺŃâĺŃâĺŃâĺŃâĺŃâĺŃâĺŃâĺŃâĺŃâĺŃâĺŃâĺŃâĺŃâĺŃâĺŃâĺŃâĺŃâĺŃâĺŃâĺŃâĺŃâĺŃâĺŃâĺŃâĺŃâĺŃâĺŃâĺŃâĺŃâĺŃâĺŃâĺŃâĺŃâĺŃâĺŃâĺŃâĺŃâĺŃâĺŃâĺŃâĺŃâĺŃâĺŃâĺŃâĺŃâĺŃâĺŃâĺŃâĺŃâĺŃâĺŃâĺŃâĺŃâĺŃâĺŃâĺŃâĺŃâĺŃâĺŃâĺŃâĺŃâĺŃâĺŃâĺŃâĺŃâĺŃâĺŃâĺŃâĺŃâĺŃâĺŃâĺŃâĺŃâĺŃâĺŃâĺŃâĺŃâĺŃâĺŃâĺŃâĺŃâĺŃâĺŃâĺŃâĺŃâĺŃâĺŃâĺŃâĺŃâĺŃâĺŃâĺŃâĺŃâĺŃâĺŃâĺŃâĺŃâĺŃâĺŃâĺŃâĺŃâĺŃâĺŃâĺŃâĺŃâĺŃâĺŃâĺŃâĺŃâĺŃâĺŃâĺŃâĺŃâĺŃâĺŃâĺŃâĺŃâĺŃâĺŃâĺŃâĺŃâĺŃâĺŃâĺŃâĺŃâĺŃâĺŃâĺŃâĺŃâĺŃâĺŃâĺŃâĺŃâĺŃâĺŃâĺŃâĺŃâĺŃâĺŃâĺŃâĺŃâĺŃâĺŃâĺŃâĺŃâĺŃâĺŃâĺŃâĺŃâĺŃâĺŃâĺŃâĺŃâĺŃâĺŃâĺŃâĺŃâĺŃâĺŃâĺŃâĺŃâĺŃâĺŃâĺŃâĺŃâĺŃâĺŃâĺŃâĺŃâĺŃâĺŃâĺŃâĺŃâĺŃâĺŃâĺŃâĺŃâĺŃâĺŃâĺŃâĺŃâĺŃâĺŃâĺŃâĺŃâĺŃâĺŃâĺŃâĺŃâĺŃâĺŃâĺŃâĺŃâĺŃâĺŃâĺŃâĺŃâĺŃâĺŃâĺŃâĺŃâĺŃâĺŃâĺŃâĺŃâĺŃâĺŃâĺŃâĺŃâĺŃâĺŃâĺŃâĺŃâĺŃâĺŃâĺŃâĺŃâĺŃâĺŃâĺŃâĺŃâĺŃâĺŃâĺŃâĺŃâĺŃâĺŃâĺŃâĺŃâĺŃâĺŃâĺŃâĺŃâĺŃâĺŃâĺŃâĺŃâĺŃâĺŃâĺŃâĺŃâĺŃâĺŃâĺŃâĺŃâĺŃâĺŃâĺŃâĺŃâĺŃâĺŃâĺŃâĺŃâĺŃâĺŃâĺŃâĺŃâĺŃâĺŃâĺŃâĺŃâĺŃâĺŃâĺŃâĺŃâĺŃâĺŃâĺŃâĺŃâĺŃâĺŃâĺŃâĺŃâĺŃâĺŃâĺŃâĺŃâĺŃâĺŃâĺŃâĺŃâĺŃâĺŃâĺŃâĺŃâĺŃâĺŃâĺŃâĺŃâĺŃâĺŃâĺŃâĺŃâĺŃâĺŃâĺŃâĺŃâĺŃâĺŃâĺŃâĺŃâĺŃâĺŃâĺŃâĺŃâĺŃâĺŃâĺŃâĺŃâĺŃâĺŃâĺŃâĺŃâĺŃâĺŃâĺŃâĺŃâĺŃâĺŃâĺŃâĺŃâĺŃâĺŃâĺŃâĺŃâĺŃâĺŃâĺŃâĺŃâĺŃâĺŃâĺŃâĺŃâĺŃâĺŃâĺŃâĺŃâĺŃâĺŃâĺŃâĺŃâĺŃâĺŃâĺŃâĺŃâĺŃâĺŃâĺŃâĺŃâĺŃâĺŃâĺŃâĺŃâĺŃâĺŃâĺŃâĺŃâĺŃâĺŃâĺŃâĺŃâĺŃâĺŃâĺŃâĺŃâĺŃâĺŃâĺŃâĺŃâĺŃâĺŃâĺŃâĺŃâĺŃâĺŃâĺŃâĺŃâĺŃâĺŃâĺŃâĺŃâĺŃâĺŃâĺŃâĺŃâĺŃâĺŃâĺŃâĺŃâĺŃâĺŃâĺŃâĺŃâĺŃâĺŃâĺŃâĺŃâĺŃâĺŃâĺŃâĺŃâĺŃâĺŃâĺŃâĺŃâĺŃâĺŃâĺŃâĺŃâĺŃâĺŃâĺŃâĺŃâĺŃâĺŃâĺŃâĺŃâĺŃâĺŃâĺŃâĺŃâĺŃâĺŃâĺŃâĺŃâĺŃâĺŃâĺŃâĺŃâĺŃâĺŃâĺŃâĺŃâĺŃâĺŃâĺŃâĺŃâĺŃâĺŃâĺŃâĺŃâĺŃâĺŃâĺŃâĺŃâĺŃâĺŃâĺŃâĺŃâĺŃâĺŃâĺŃâĺŃâĺŃâĺŃâĺŃâĺŃâĺŃâĺŃâĺŃâĺŃâĺŃâĺŃâĺŃâĺŃâĺŃâĺŃâĺŃâĺŃâĺŃâĺŃâĺŃâĺŃâĺŃâĺŃâĺŃâĺŃâĺŃâĺŃâĺŃâĺŃâĺŃâĺŃâĺŃâĺŃâĺŃâĺŃâĺŃâĺŃâĺŃâĺŃâĺŃâĺŃâĺŃâĺŃâĺŃâĺŃâĺŃâĺŃâĺŃâĺŃâĺŃâĺŃâĺŃâĺŃâĺŃâĺŃâĺŃâĺŃâĺŃâĺŃâĺŃâĺŃâĺŃâĺŃâĺŃâĺŃâĺŃâĺŃâĺŃâĺŃâĺŃâĺŃâĺŃâĺŃâĺŃâĺŃâĺŃâĺŃâĺŃâĺŃâĺŃâĺŃâĺŃâĺŃâĺŃâĺŃâĺŃâĺŃâĺŃâĺŃâĺŃâĺŃâĺŃâĺŃâĺŃâĺŃâĺŃâĺŃâĺŃâĺŃâĺŃâĺŃâĺŃâĺŃâĺŃâĺŃâĺŃâĺŃâĺŃâĺŃâĺŃâĺŃâĺŃâĺŃâĺŃâĺŃâĺŃâĺŃâĺŃâĺŃâĺŃâĺŃâĺŃâĺŃâĺŃâĺŃâĺŃâĺŃâĺŃâĺŃâĺŃâĺŃâĺŃâĺŃâĺŃâĺŃâĺŃâĺŃâĺŃâĺŃâĺŃâĺŃâĺŃâĺŃâĺŃâĺŃâĺŃâĺŃâĺŃâĺŃâĺŃâĺŃâĺŃâĺŃâĺŃâĺŃâĺŃâĺŃâĺŃâĺŃâĺŃâĺŃâĺŃâĺŃâĺŃâĺŃâĺŃâĺŃâĺŃâĺŃâĺŃâĺŃâĺŃâĺŃâĺŃâĺŃâĺŃâĺŃâĺŃâĺŃâĺŃâĺŃâĺŃâĺŃâĺŃâĺŃâĺŃâĺŃâĺŃâĺŃâĺŃâĺŃâĺŃâĺŃâĺŃâĺŃâĺŃâĺŃâĺŃâĺŃâĺŃâĺŃâĺŃâĺŃâĺŃâĺŃâĺŃâĺŃâĺŃâĺŃâĺŃâĺŃâĺŃâĺŃâĺŃâĺŃâĺŃâĺŃâĺŃâĺŃâĺŃâĺŃâĺŃâĺŃâĺŃâĺŃâĺŃâĺŃâĺŃâĺŃâĺŃâĺŃâĺŃâĺŃâĺŃâĺŃâĺŃâĺŃâĺŃâĺŃâĺŃâĺŃâĺŃâĺŃâĺŃâĺŃâĺŃâĺŃâĺŃâĺŃâĺŃâĺŃâĺŃâĺŃâĺŃâĺŃâĺŃâĺŃâĺŃâĺŃâĺŃâĺŃâĺŃâĺŃâĺŃâĺŃâĺŃâĺŃâĺŃâĺŃâĺŃâĺŃâĺŃâĺŃâĺŃâĺŃâĺŃâĺŃâĺŃâĺŃâĺŃâĺŃâĺŃâĺŃâĺŃâĺŃâĺŃâĺŃâĺŃâĺŃâĺŃâĺŃâĺŃâĺŃâĺŃâĺŃâĺŃâĺŃâĺŃâĺŃâĺŃâĺŃâĺŃâĺŃâĺŃâĺŃâĺŃâĺŃâĺŃâĺŃâĺŃâĺŃâĺŃâĺŃâĺŃâĺŃâĺŃâĺŃâĺŃâĺŃâĺŃâĺŃâĺŃâĺŃâĺŃâĺŃâĺŃâĺŃâĺŃâĺŃâĺŃâĺŃâĺŃâĺŃâĺŃâĺŃâĺŃâĺŃâĺŃâĺŃâĺŃâĺŃâĺŃâĺŃâĺŃâĺŃâĺŃâĺŃâĺŃâĺŃâĺŃâĺŃâĺŃâĺŃâĺŃâĺŃâĺŃâĺŃâĺŃâĺŃâĺŃâĺŃâĺŃâĺŃâĺŃâĺŃâĺŃâĺŃâĺŃâĺŃâĺŃâĺŃâĺŃâĺŃâĺŃâĺŃâĺŃâĺŃâĺŃâĺŃâĺŃâĺŃâĺŃâĺŃâĺŃâĺŃâĺŃâĺŃâĺŃâĺŃâĺŃâĺŃâĺŃâĺŃâĺŃâĺŃâĺŃâĺŃâĺŃâĺŃâĺŃâĺŃâĺŃâĺŃâĺŃâĺŃâĺŃâĺŃâĺŃâĺŃâĺŃâĺŃâĺŃâĺŃâĺŃâĺŃâĺŃâĺŃâĺŃâĺŃâĺŃâĺŃâĺŃâĺŃâĺŃâĺŃâĺŃâĺŃâĺŃâĺŃâĺŃâĺŃâĺŃâĺŃâĺŃâĺŃâĺŃâĺŃâĺŃâĺŃâĺŃâĺŃâĺŃâĺŃâĺŃâĺŃâĺŃâĺŃâĺŃâĺŃâĺŃâĺŃâĺŃâĺŃâĺŃâĺŃâĺŃâĺŃâĺŃâĺŃâĺŃâĺŃâĺŃâĺŃâĺŃâĺŃâĺŃâĺŃâĺŃâĺŃâĺŃâĺŃâĺŃâĺŃâĺŃâĺŃâĺŃâĺŃâĺŃâĺŃâĺŃâĺŃâĺŃâĺŃâĺŃâĺŃâĺŃâĺŃâĺŃâĺŃâĺŃâĺŃâĺŃâĺŃâĺŃâĺŃâĺŃâĺŃâĺŃâĺŃâĺŃâĺŃâĺŃâĺŃâĺŃâĺŃâĺŃâĺŃâĺŃâĺŃâĺŃâĺŃâĺŃâĺŃâĺŃâĺŃâĺŃâĺŃâĺŃâĺŃâĺŃâĺŃâĺŃâĺŃâĺŃâĺŃâĺŃâĺŃâĺŃâĺŃâĺŃâĺŃâĺŃâĺŃâĺŃâĺŃâĺŃâĺŃâĺŃâĺŃâĺŃâĺŃâĺŃâĺŃâĺŃâĺŃâĺŃâĺŃâĺŃâĺŃâĺŃâĺŃâĺŃâĺŃâĺŃâĺŃâĺŃâĺŃâĺŃâĺŃâĺŃâĺŃâĺŃâĺŃâĺŃâĺŃâĺŃâĺŃâĺŃâĺŃâĺŃâĺŃâĺŃâĺŃâĺŃâĺŃâĺŃâĺŃâĺŃâĺŃâĺŃâĺŃâĺŃâĺŃâĺŃâĺŃâĺŃâĺŃâĺŃâĺŃâĺŃâĺŃâĺŃâĺŃâĺŃâĺŃâĺŃâĺŃâĺŃâĺŃâĺŃâĺŃâĺŃâĺŃâĺŃâĺŃâĺŃâĺŃâĺŃâĺŃâĺŃâĺŃâĺŃâĺŃâĺŃâĺŃâĺŃâĺŃâĺŃâĺŃâĺŃâĺŃâĺŃâĺŃâĺŃâĺŃâĺŃâĺŃâĺŃâĺŃâĺŃâĺŃâĺŃâĺŃâĺŃâĺŃâĺŃâĺŃâĺŃ âĺŃ[",
      "2 14",
      "4 3",
      "F E",
      "W er",
      "^ )[",
      "e dia",
      "f h",
      "m ehr",
      "s ind",
      "Ġ as",
      "Ġg o",
      "âĸĪâĸĪ âĸĳâĸĳâĸĳâĸĳ",
      "âĸĪâĸĪ âķ",
      "Ġau ss",
      "Ġt atsÃ¤chlich",
      "re m",
      "iiii ii",
      "Ġj em",
      "Ġr unde",
      "Ġbe g",
      "am s",
      "Ġwar st",
      "gif s",
      "Ġschrei be",
      "id th",
      "discor d",
      "gel n",
      "ĠJ osef",
      "Ġneu es",
      "Ġsag st",
      "ÃľÃľ ÃľÃľ",
      "Ã¶Ã¶Ã¶Ã¶Ã¶Ã¶Ã¶Ã¶ Ã¶Ã¶Ã¶Ã¶Ã¶Ã¶Ã¶Ã¶",
      "schrei b",
      "Cr S",
      "1 00",
      "A ha",
      "B ei",
      "E S",
      "J Yhttps",
      "J CrS",
      "d ar",
      "g p",
      "g u",
      "m imim",
      "o j",
      "p unkt",
      "r ee",
      "Â ´",
      "er s",
      "en e",
      "Ġm on",
      "ðŁ §",
      "ar d",
      "Ġdie ser",
      "Ġp unkt",
      "eeee e",
      "du ck",
      "du kt",
      "âĢ ¢[",
      "ion en",
      "ĠT im",
      "ort et",
      "¦âĢįâĻĤ ï¸ı[",
      "Ġmus ik",
      "Ġkr ank",
      "Ġher aus",
      "ĠSp aÃŁ",
      "Ġfre und",
      "âķĲ âķĲ",
      "Ġfl ie",
      "eig ht",
      "XDXDXDXDXDXDXDXDXDXDXDXDXDXDXDXDXDXDXDXDXDXDXDXDXDXDXDXDXDXDXDXD XDXDXDXDXDXDXDXDXDXDXDXDXDXDXDXDXDXDXDXDXDXDXDXDXDXDXDXDXDXDXDXD",
      "Ġus w",
      "Ġfeh ler",
      "Ġengl isch",
      "Xk JYhttps",
      "ETZ T",
      "JCrS XkJYhttps",
      "5 6",
      "D E",
      "M ein",
      "U n",
      "c on",
      "g ie",
      "h Ã¶r",
      "i le",
      "m ittag",
      "w ay",
      "bi ld",
      "en z",
      "Ġm utter",
      "Ġk rie",
      "ar s",
      "sch ule",
      "ig t",
      "Ġ1 4",
      "Ġbe sten",
      "Ġre l",
      "Ġdir ekt",
      "lau sur",
      "ot o",
      "]. -",
      "komm t",
      "Ã¤n dert",
      "Ġar beit",
      "Ġinter net",
      "Ġsc reenshot",
      "ICH T",
      "wik i",
      "Ġup date",
      "Ġantw or",
      "µðŁ¥ µðŁ¥",
      "] ;)[",
      "f rage",
      "m s",
      "m inecraft",
      "r on",
      "s uch",
      "w idth",
      "Ì ·",
      "Ì ¿",
      "Ķ [",
      "Ġs Ã¼",
      "as d",
      "Ġn ow",
      "Ġw itz",
      "âĸĪ âĸĳâĸĳâĸĳâĸĳâĸĳ",
      "sch ade",
      "Ġl Ã¼",
      "Ġb ock",
      "Ġt ext",
      "Ġin st",
      "Ġge z",
      "Ġver b",
      "Ġsp r",
      "Ġaus re",
      "Ġc oo",
      "ip edia",
      "13 0",
      "Ġschau e",
      "up er",
      "ĠmÃ¼ de",
      "Ġbekomm e",
      "eeeeeeeeeeeeeeee eeeeeeeeeeeeeeee",
      "Ġth is",
      "Ġlang weilig",
      "SS SS",
      "]â ĺ",
      "âĶ» Ì¿",
      "Ach so",
      "wÃ¼r dig",
      ". _.",
      "8 7",
      "8 9",
      "H I",
      "X R",
      "a c",
      "f re",
      "i tte",
      "j upp",
      "q ue",
      "Ġ áµĶ",
      "au ft",
      "ie s",
      "ie ze",
      "Ġm o",
      "Ġm igrÃ¤ne",
      "Ġw or",
      "in der",
      "at ure",
      "Ġsch ein",
      "Ġt rain",
      "Ġp r",
      "Ġp hilipp",
      "ol o",
      "Ġan geschaut",
      "âĸĪâĸĪâĸĪâĸĪ âĸĪâĸĪ",
      "Ġer nst",
      "]: '([",
      "Ġvor bei",
      "ort s",
      "ĠE r",
      "Ġsa ve",
      "Ġsei ten",
      "Ġgesp annt",
      "rrrr rrrr",
      "ia o",
      "ĠfÃ¼ h",
      "Ġgr Ã¶",
      "]-. -[",
      "âĸĢ âĸĢ",
      "âĸĳâĸĳâĸĳâĸĳâĸĳâĸĳâĸĳâĸĳâĸĳâĸĳâĸĳâĸĳâĸĳâĸĳâĸĳâĸĳâĸĳâĸĳâĸĳâĸĳâĸĳâĸĳâĸĳâĸĳâĸĳâĸĳâĸĳâĸĳâĸĳâĸĳâĸĳâĸĳâĸĳâĸĳâĸĳâĸĳâĸĳâĸĳâĸĳâĸĳâĸĳâĸĳâĸĳâĸĳâĸĳâĸĳâĸĳâĸĳ âĸĳâĸĳâĸĳâĸĳâĸĳâĸĳâĸĳâĸĳâĸĳâĸĳâĸĳâĸĳ",
      "8 5",
      "I m",
      "N ice",
      "U N",
      "Y o",
      "] <",
      "f eh",
      "f ol",
      "g ehen",
      "h ill",
      "h eight",
      "j d",
      "m d",
      "n eee",
      "o https",
      "r t",
      "s ste",
      "u k",
      "u ps",
      "w s",
      "z wei",
      "Ġ Ã²",
      "ch n",
      "in s",
      "Ġk ap",
      "ðŁ ¦",
      "or re",
      "Ġf aul",
      "ar ch",
      "ar te",
      "Ġt raining",
      "Ġp rin",
      "ĠðŁ İ",
      "ten t",
      "Ġver t",
      "am t",
      "ĠM en",
      "ĠB ild",
      "!!!! ![",
      "ahr scheinlich",
      "Ġglau b",
      "war te",
      "Ġwe bs",
      "Ġson dern",
      "son st",
      "zw ischen",
      "ï¸» Ì·",
      "âĶ»Ì¿ âķĲâĶģ",
      "ieze katze",
      "ï¸»Ì· âĶ»Ì¿âķĲâĶģ",
      "O R",
      "T him",
      "a ce",
      "b ung",
      "d achte",
      "h s",
      "m iezekatze",
      "n te",
      "p o",
      "u tt",
      "ĥ ı",
      "bau t",
      "âĸĳâĸĳ âĸĪâĸĪâĸĪ",
      "Ġw usste",
      "mm ern",
      "77 62",
      "Ġein ge",
      "Ġb z",
      "Ġt ra",
      "Ġo ben",
      "Ġer sten",
      "Ġauf ge",
      "Ġda vor",
      "ehr er",
      "Ġ.- .[",
      "Ġkomm st",
      "Ġwird s",
      "ĠF re",
      "Ġkl eine"
    ]
  }
}